<unk>	0
<s>	0
</s>	0
,	-3.06292
▁the	-3.27427
.	-3.37121
▁and	-3.90297
▁to	-3.90337
▁of	-3.93922
▁a	-4.13644
▁I	-4.46053
▁**	-4.46344
▁in	-4.50458
▁.	-4.5048
'	-4.52729
▁	-4.72118
▁that	-4.7468
▁"	-4.80312
s	-4.80859
▁was	-4.82418
▁he	-4.87609
▁his	-4.89557
▁it	-4.89809
▁you	-4.93206
▁her	-5.05986
▁with	-5.14582
▁had	-5.20859
▁'	-5.21312
▁as	-5.2657
▁is	-5.26828
▁for	-5.27194
;	-5.30746
▁,	-5.3505
▁on	-5.38874
▁at	-5.40719
▁not	-5.4307
-	-5.47082
▁be	-5.49063
▁him	-5.51
▁she	-5.51751
**	-5.62144
▁have	-5.66058
▁The	-5.66493
▁me	-5.71316
▁my	-5.77628
--	-5.81802
▁but	-5.83796
."	-5.84811
▁from	-5.85118
▁He	-5.85663
t	-5.86377
▁this	-5.88089
▁all	-5.89734
▁by	-5.90049
▁which	-5.95807
▁said	-5.97957
▁so	-6.05438
▁they	-6.05541
?	-6.06351
▁out	-6.10509
▁up	-6.11113
▁were	-6.11216
,"	-6.13296
▁one	-6.13412
▁-	-6.15148
▁would	-6.17006
!	-6.1828
▁are	-6.19094
▁(	-6.19984
▁an	-6.21085
▁we	-6.24795
▁been	-6.27775
▁them	-6.28327
▁no	-6.30128
▁there	-6.35059
▁or	-6.36266
I	-6.37628
▁into	-6.37909
▁what	-6.38111
▁do	-6.42032
▁your	-6.424
▁who	-6.426
▁their	-6.42826
▁if	-6.44104
▁s	-6.44933
▁It	-6.45859
▁She	-6.46659
▁will	-6.49669
▁when	-6.51132
▁could	-6.51155
▁man	-6.56052
▁And	-6.57337
▁know	-6.57627
▁like	-6.5848
▁more	-6.58787
▁can	-6.59257
:	-6.60731
?"	-6.61239
▁now	-6.61679
▁about	-6.63332
▁But	-6.63425
▁down	-6.69761
▁very	-6.70858
▁?	-6.71813
▁then	-6.72671
▁back	-6.74188
▁...	-6.7515
▁You	-6.7567
▁see	-6.75776
▁time	-6.7647
▁some	-6.76947
▁over	-6.78135
▁did	-6.7831
▁A	-6.79469
▁little	-6.8046
▁has	-6.83827
▁Mr	-6.86387
▁than	-6.86689
▁any	-6.89234
)	-6.90992
▁other	-6.91044
▁should	-6.93835
▁go	-6.94872
▁upon	-6.98392
▁only	-6.99101
▁_	-6.993
▁before	-7.01826
▁come	-7.04137
▁think	-7.04807
▁don	-7.05591
!"	-7.0596
▁--	-7.05995
▁good	-7.06399
▁two	-7.07269
▁way	-7.07952
▁made	-7.08253
▁us	-7.09065
▁never	-7.09681
▁much	-7.09946
▁here	-7.10086
▁just	-7.10929
▁again	-7.11031
▁himself	-7.11848
▁say	-7.11858
▁****	-7.1269
▁must	-7.143
▁They	-7.14585
▁such	-7.14673
▁own	-7.14681
▁our	-7.15522
▁t	-7.15935
▁through	-7.18679
▁away	-7.18768
▁eyes	-7.20135
▁off	-7.20683
▁old	-7.22339
▁too	-7.22427
▁get	-7.22968
▁hand	-7.23454
▁might	-7.24102
▁after	-7.25762
▁)	-7.2626
▁first	-7.2652
d	-7.26749
▁well	-7.27138
▁great	-7.28461
▁am	-7.28713
▁came	-7.29323
▁What	-7.29501
▁make	-7.29632
▁!	-7.29943
▁We	-7.30062
▁face	-7.30643
▁long	-7.31158
▁thought	-7.32518
▁door	-7.33601
▁still	-7.34737
▁where	-7.35214
▁how	-7.35358
▁right	-7.35989
ll	-7.36668
m	-7.36782
▁head	-7.37903
▁day	-7.38886
▁its	-7.38891
▁life	-7.40507
▁even	-7.42461
▁There	-7.43566
▁take	-7.43763
▁these	-7.43834
S	-7.44051
▁look	-7.44495
▁went	-7.44794
▁may	-7.45472
▁men	-7.45824
▁going	-7.46401
▁got	-7.47002
’	-7.47022
▁last	-7.47047
▁room	-7.47525
▁In	-7.49957
▁shall	-7.5034
▁Mrs	-7.50489
▁without	-7.51494
▁being	-7.52647
▁nothing	-7.53545
re	-7.54148
▁tell	-7.54265
▁:	-7.5628
_	-7.57104
▁something	-7.58173
▁THE	-7.58912
▁house	-7.59235
▁those	-7.60295
▁ever	-7.60967
▁want	-7.61598
▁moment	-7.61994
▁That	-7.62648
▁looks	-7.62809
...	-7.63207
▁INT	-7.63908
▁another	-7.64119
▁This	-7.64306
▁young	-7.64593
a	-7.65018
▁people	-7.65036
▁thing	-7.65208
▁Then	-7.65771
▁“	-7.66222
▁yet	-7.66382
▁love	-7.66886
▁though	-7.67034
▁place	-7.67354
▁while	-7.6909
▁left	-7.69322
▁mind	-7.69356
▁[	-7.70463
▁As	-7.70509
▁saw	-7.70824
▁most	-7.70983
▁No	-7.71055
▁once	-7.71436
e	-7.71788
and	-7.72029
▁every	-7.72783
▁things	-7.73694
▁night	-7.73981
▁S	-7.74115
▁found	-7.74241
▁woman	-7.74383
▁knew	-7.75191
▁put	-7.75512
▁same	-7.75754
▁looked	-7.76331
▁father	-7.76396
▁hands	-7.77172
▁under	-7.77426
▁around	-7.79753
▁give	-7.79802
▁against	-7.8004
▁always	-7.80819
▁world	-7.8082
▁let	-7.8095
You	-7.81092
▁many	-7.81823
▁seemed	-7.8259
▁side	-7.82841
▁herself	-7.82938
▁If	-7.83409
▁told	-7.83591
▁******	-7.84255
ing	-7.84553
▁took	-7.84881
▁heart	-7.85862
▁better	-7.86009
▁heard	-7.86382
▁done	-7.86933
▁His	-7.8717
ve	-7.87204
▁DAY	-7.88415
▁asked	-7.8863
▁mother	-7.90107
▁re	-7.90199
▁three	-7.90715
▁enough	-7.90742
▁find	-7.91838
▁course	-7.92529
▁work	-7.9485
▁When	-7.94859
▁because	-7.94874
▁home	-7.95088
▁seen	-7.96292
▁quite	-7.97175
▁looking	-7.97256
▁few	-7.97617
▁far	-7.97756
▁behind	-7.9894
▁light	-7.99076
▁between	-7.9914
▁half	-8.01046
▁girl	-8.01238
▁each	-8.01263
▁So	-8.01885
▁myself	-8.01919
▁new	-8.02846
▁anything	-8.0303
▁m	-8.03586
▁felt	-8.03669
▁open	-8.03704
▁voice	-8.0374
▁almost	-8.03797
▁years	-8.03831
)**	-8.04984
▁friend	-8.06514
▁end	-8.0809
▁name	-8.08243
▁both	-8.08849
▁TO	-8.09021
,--	-8.10122
▁sure	-8.10262
n	-8.10342
▁word	-8.10568
▁words	-8.10645
▁NIGHT	-8.10911
▁turned	-8.11014
▁next	-8.11234
▁having	-8.11948
▁Miss	-8.12314
▁At	-8.12393
▁EXT	-8.12557
▁mean	-8.13758
▁part	-8.13769
▁whole	-8.14022
It	-8.14081
▁)**	-8.14338
▁hear	-8.14896
▁For	-8.1513
▁money	-8.17306
▁soon	-8.17645
▁whom	-8.17988
▁wife	-8.18256
▁gone	-8.18361
▁morning	-8.18372
▁matter	-8.18581
▁really	-8.18636
▁dear	-8.19931
▁water	-8.20419
▁also	-8.21256
▁God	-8.21935
▁Oh	-8.23151
y	-8.23424
▁believe	-8.23613
"	-8.23839
▁together	-8.23918
The	-8.24244
▁began	-8.24609
▁set	-8.2471
A	-8.24835
▁gave	-8.2496
▁O	-8.24984
▁stood	-8.25027
▁round	-8.25528
▁does	-8.2559
▁small	-8.25643
the	-8.25742
▁Now	-8.26229
▁To	-8.26267
/	-8.26401
▁days	-8.2771
▁How	-8.28012
▁kind	-8.28025
▁feet	-8.28851
▁leave	-8.28919
▁called	-8.29035
▁why	-8.29079
▁didn	-8.29097
▁poor	-8.29135
▁keep	-8.29394
▁sir	-8.29462
▁air	-8.29742
▁turns	-8.30071
▁since	-8.30408
What	-8.30973
▁white	-8.31266
▁table	-8.31791
▁alone	-8.31846
▁best	-8.3264
▁Lady	-8.32726
▁coming	-8.329
▁help	-8.33222
▁brought	-8.33691
But	-8.34558
And	-8.34573
▁full	-8.34717
▁rather	-8.3498
in	-8.35022
▁across	-8.35111
▁My	-8.35214
▁Sir	-8.35583
▁window	-8.35893
▁call	-8.36167
▁taken	-8.36661
▁**(	-8.3701
▁along	-8.37107
▁toward	-8.37545
▁boy	-8.37659
▁need	-8.3819
▁bed	-8.38206
▁speak	-8.38526
▁till	-8.39149
▁D	-8.39244
▁All	-8.39758
▁.**	-8.39842
▁talk	-8.39896
▁feel	-8.39919
](/	-8.40218
▁until	-8.40315
▁hope	-8.40731
ed	-8.40884
Oh	-8.40932
▁front	-8.4129
▁cried	-8.41706
▁towards	-8.42059
▁comes	-8.42402
▁lady	-8.42728
Yes	-8.42802
▁black	-8.42802
▁dead	-8.43019
▁child	-8.43273
▁Well	-8.43281
▁sat	-8.43291
▁nor	-8.44423
▁already	-8.4444
▁car	-8.44472
▁Why	-8.44504
▁Her	-8.44622
▁hard	-8.45108
▁de	-8.45119
▁among	-8.46004
▁perhaps	-8.46181
▁won	-8.46276
that	-8.4647
▁indeed	-8.46558
▁high	-8.46708
▁answered	-8.46761
▁replied	-8.46826
No	-8.47645
▁fire	-8.48356
▁present	-8.48533
▁understand	-8.48651
▁Lord	-8.48916
▁less	-8.49682
▁body	-8.50078
▁least	-8.50883
▁others	-8.50957
▁dark	-8.51041
▁passed	-8.51046
r	-8.51433
▁above	-8.51716
▁takes	-8.51772
▁turn	-8.51937
▁near	-8.51998
▁cannot	-8.52066
▁else	-8.52209
▁On	-8.5225
▁letter	-8.52263
▁son	-8.52444
▁ask	-8.52836
▁doing	-8.53231
▁everything	-8.53758
▁wish	-8.54481
▁care	-8.54511
▁close	-8.54737
but	-8.55222
▁answer	-8.55446
▁ground	-8.55478
▁arm	-8.55786
▁suddenly	-8.55958
▁whose	-8.56018
▁death	-8.56066
▁hour	-8.56948
▁true	-8.56968
▁One	-8.57178
▁given	-8.57325
Well	-8.57578
▁question	-8.57816
▁thou	-8.57859
▁large	-8.5813
▁case	-8.58576
▁country	-8.58727
▁however	-8.58939
▁goes	-8.5898
▁family	-8.59041
▁rest	-8.5919
▁point	-8.59224
▁arms	-8.5928
▁big	-8.59762
▁floor	-8.59859
▁friends	-8.60008
▁With	-8.60267
o	-8.60324
▁children	-8.6064
▁brother	-8.6077
?'	-8.60864
▁lost	-8.60911
▁ll	-8.60968
▁second	-8.61022
▁John	-8.61697
▁live	-8.61826
▁business	-8.61932
▁read	-8.62214
▁d	-8.62315
▁themselves	-8.62344
▁sound	-8.62767
▁past	-8.62836
▁making	-8.63086
▁certain	-8.63186
▁lay	-8.63218
▁ON	-8.63261
He	-8.6366
▁short	-8.64077
er	-8.64141
▁Yes	-8.64394
▁known	-8.64747
▁used	-8.64954
▁women	-8.65114
▁*	-8.65159
▁hair	-8.65292
to	-8.65482
▁husband	-8.65556
▁OF	-8.65596
D	-8.65904
▁fact	-8.66087
▁evening	-8.66119
▁use	-8.666
▁wall	-8.66934
▁sort	-8.66967
.”	-8.67004
▁says	-8.67116
--"	-8.67232
▁power	-8.67397
▁doubt	-8.67554
▁o	-8.68546
▁idea	-8.68902
▁wanted	-8.69089
▁four	-8.69166
▁ready	-8.69257
▁fear	-8.69855
▁truth	-8.70047
▁eye	-8.70461
▁hundred	-8.70555
▁within	-8.70663
._	-8.70672
▁manner	-8.713
O	-8.71439
▁whether	-8.71633
INT	-8.71758
▁Don	-8.71981
▁means	-8.73037
▁held	-8.73457
▁person	-8.73787
▁hold	-8.73928
▁doesn	-8.74182
▁either	-8.74306
▁yourself	-8.74324
▁reason	-8.74532
ly	-8.74619
▁forward	-8.74766
▁show	-8.74858
▁smile	-8.7491
▁become	-8.74939
▁taking	-8.74964
▁sight	-8.75015
▁happy	-8.7503
▁itself	-8.7528
▁often	-8.75599
▁times	-8.76036
▁returned	-8.76044
▁run	-8.76122
▁spoke	-8.76816
▁slowly	-8.77075
▁order	-8.77194
▁kept	-8.77232
▁town	-8.77435
▁year	-8.77481
▁standing	-8.77876
▁bad	-8.77951
▁possible	-8.78047
▁five	-8.78049
▁silence	-8.78141
i	-8.78501
▁suppose	-8.78647
▁steps	-8.79067
▁feeling	-8.79175
▁walk	-8.79282
▁walks	-8.79507
▁stand	-8.79653
▁Not	-8.79657
▁sent	-8.79726
▁Do	-8.79733
▁strange	-8.79988
▁pretty	-8.80245
▁able	-8.80507
▁saying	-8.80619
▁blood	-8.80995
▁return	-8.81167
▁Let	-8.81388
▁red	-8.81455
▁Of	-8.81653
▁fell	-8.81996
▁sense	-8.82221
▁longer	-8.82377
▁remember	-8.82439
it	-8.82444
▁fellow	-8.82775
▁trying	-8.82821
▁fine	-8.82861
That	-8.82862
▁CONTINUED	-8.8291
▁happened	-8.83099
▁street	-8.83173
▁sitting	-8.83976
▁sea	-8.84126
▁sister	-8.8413
▁daughter	-8.84263
▁thinking	-8.84683
,”	-8.84699
▁bring	-8.8476
▁ten	-8.85073
▁After	-8.85417
▁beautiful	-8.85713
▁chair	-8.85814
▁thee	-8.85865
▁mine	-8.86311
▁getting	-8.86483
▁thy	-8.86663
▁followed	-8.86735
▁mouth	-8.87076
▁became	-8.87467
▁M	-8.88067
▁wrong	-8.88109
▁thus	-8.8876
▁deep	-8.88863
▁AND	-8.88912
▁thousand	-8.89226
▁gentleman	-8.89285
▁CONT	-8.89713
▁nature	-8.8973
you	-8.89736
▁low	-8.89881
▁talking	-8.89933
▁stands	-8.90588
▁story	-8.90666
▁soul	-8.90693
▁cold	-8.90729
▁strong	-8.90934
▁seems	-8.90993
▁meet	-8.9159
▁ve	-8.9211
▁late	-8.92219
▁Tom	-8.92342
▁earth	-8.92366
▁road	-8.92491
▁pulls	-8.92714
▁clear	-8.92743
▁living	-8.92998
▁real	-8.93043
▁sits	-8.9323
▁appeared	-8.93671
▁makes	-8.94076
h	-8.94488
▁ought	-8.94573
▁gets	-8.94841
▁different	-8.94865
▁try	-8.94932
▁hours	-8.95013
▁afraid	-8.95131
▁V	-8.95336
▁line	-8.95426
▁human	-8.95538
▁several	-8.96039
▁inside	-8.9613
▁watch	-8.96189
▁ROOM	-8.96235
▁continued	-8.96581
▁/	-8.96669
▁waiting	-8.96738
▁met	-8.9697
We	-8.97037
▁tried	-8.97365
Why	-8.97494
▁sorry	-8.97699
▁position	-8.98034
▁free	-8.98064
▁play	-8.98085
▁move	-8.98155
▁rose	-8.98262
▁sun	-8.98529
▁starts	-8.98556
▁stop	-8.98701
▁chance	-8.98876
▁sit	-8.98926
▁subject	-8.9913
▁master	-8.99289
▁beat	-8.99704
▁lips	-8.99792
▁Who	-8.9993
▁Here	-9.00231
!'	-9.00332
▁opened	-9.00408
▁cut	-9.00437
▁quickly	-9.00489
▁stay	-9.00492
▁minutes	-9.00683
▁sees	-9.00802
▁twenty	-9.0101
▁beyond	-9.01146
▁change	-9.01385
he	-9.01466
▁therefore	-9.01521
▁Yeah	-9.01813
▁corner	-9.01931
▁trouble	-9.01938
▁Where	-9.02509
▁CUT	-9.02672
▁outside	-9.02753
▁seem	-9.02925
▁glass	-9.0294
▁Just	-9.03038
▁tears	-9.03142
▁horse	-9.03165
▁state	-9.03356
l	-9.03555
▁doctor	-9.03614
▁walked	-9.03804
▁form	-9.03814
▁phone	-9.04066
▁foot	-9.04196
▁glad	-9.04315
▁please	-9.04857
▁isn	-9.04911
▁Captain	-9.05055
▁top	-9.05237
▁added	-9.0529
▁view	-9.05302
as	-9.05468
▁book	-9.05656
▁sleep	-9.06329
▁IN	-9.06771
▁further	-9.06828
▁knows	-9.06835
▁paper	-9.07049
▁Jack	-9.07081
▁during	-9.07315
If	-9.0772
▁seeing	-9.08138
▁bit	-9.08208
▁Mary	-9.08209
▁wind	-9.08632
▁ran	-9.08661
▁lot	-9.08718
▁interest	-9.08986
▁London	-9.09122
▁office	-9.09295
▁land	-9.09388
▁self	-9.09533
▁CHAPTER	-9.09605
▁dinner	-9.09644
▁deal	-9.09646
▁distance	-9.10012
▁none	-9.10057
▁ago	-9.10112
]	-9.10324
▁certainly	-9.10499
▁hardly	-9.10766
▁beside	-9.11067
▁pass	-9.11209
▁King	-9.11391
▁wait	-9.11458
▁ship	-9.1181
▁reached	-9.11874
▁six	-9.12375
▁quiet	-9.12623
▁company	-9.1271
;--	-9.12924
▁figure	-9.1306
▁pay	-9.1317
▁gun	-9.13188
▁fall	-9.13263
▁received	-9.1332
▁From	-9.1345
▁Come	-9.13505
▁sometimes	-9.1358
▁silent	-9.13591
▁wouldn	-9.13739
▁party	-9.13773
▁ill	-9.13783
▁married	-9.14085
▁entered	-9.14287
for	-9.14765
▁gonna	-9.14793
▁shoulder	-9.1521
▁shot	-9.15242
▁moves	-9.1536
E	-9.15522
▁attention	-9.15581
▁later	-9.15682
▁stopped	-9.15829
▁neither	-9.1609
▁die	-9.1625
▁pleasure	-9.16379
▁forth	-9.16685
▁loved	-9.16844
There	-9.16869
▁running	-9.16899
▁opens	-9.17482
▁immediately	-9.17585
▁easy	-9.17678
▁seat	-9.17726
▁caught	-9.17754
▁step	-9.1806
▁holding	-9.18228
▁heavy	-9.18355
EXT	-9.1859
▁carried	-9.18629
▁led	-9.19068
▁start	-9.19143
▁week	-9.19171
▁watching	-9.19595
▁blue	-9.19899
My	-9.20011
▁fair	-9.20361
▁broken	-9.20878
▁English	-9.2093
▁bear	-9.20956
▁By	-9.20965
room	-9.21003
▁school	-9.21014
▁Dr	-9.21119
▁city	-9.21149
▁account	-9.2118
▁thoughts	-9.2166
▁tone	-9.21723
▁below	-9.2216
▁breath	-9.22397
▁except	-9.22449
▁smiles	-9.22451
▁follow	-9.22596
▁An	-9.2262
She	-9.22691
▁number	-9.22697
▁conversation	-9.23008
▁cause	-9.2317
▁C	-9.23262
▁early	-9.23708
▁straight	-9.23848
▁necessary	-9.23903
▁girls	-9.23913
▁wonder	-9.24004
▁lived	-9.24008
▁Your	-9.24251
▁couldn	-9.24371
▁age	-9.24472
▁wild	-9.24584
▁remained	-9.24651
▁character	-9.25304
▁spirit	-9.25361
▁moved	-9.254
▁secret	-9.25575
▁save	-9.25577
▁laugh	-9.26197
▁crowd	-9.26256
▁ye	-9.26629
▁leaving	-9.2704
▁yes	-9.27105
▁minute	-9.27244
▁turning	-9.27856
▁trees	-9.28042
▁marriage	-9.28088
▁general	-9.28212
▁stops	-9.28332
▁T	-9.28447
How	-9.28579
▁probably	-9.28791
▁purpose	-9.28911
▁laid	-9.28992
▁boat	-9.29074
▁fast	-9.29131
▁presence	-9.29216
▁walking	-9.29221
▁following	-9.29278
▁length	-9.29383
▁sweet	-9.29608
▁B	-9.2967
▁George	-9.29717
▁neck	-9.29845
▁started	-9.30962
_,	-9.31138
▁war	-9.31417
▁heads	-9.31427
▁sign	-9.31474
▁sudden	-9.31613
▁drew	-9.31621
▁months	-9.31828
▁future	-9.31937
▁meant	-9.31962
or	-9.32447
▁nearly	-9.32559
▁duty	-9.32616
▁fight	-9.32756
▁speaking	-9.328
▁force	-9.32995
▁send	-9.33036
▁drink	-9.33049
▁piece	-9.33111
▁write	-9.33418
▁struck	-9.33475
▁green	-9.33667
▁dog	-9.33702
▁gold	-9.33752
▁expression	-9.33805
▁opinion	-9.34046
▁scene	-9.3406
▁filled	-9.3429
▁closed	-9.3482
▁darkness	-9.34821
▁public	-9.35057
▁desire	-9.35064
▁hall	-9.35099
▁whatever	-9.35106
▁pocket	-9.3515
em	-9.35273
▁king	-9.35526
▁kill	-9.35561
▁impossible	-9.35605
▁moving	-9.35876
▁HOUSE	-9.35964
if	-9.3614
▁These	-9.36148
Y	-9.36183
▁natural	-9.36704
▁strength	-9.36707
▁hat	-9.36815
▁effect	-9.36883
▁empty	-9.37034
▁laughed	-9.37171
day	-9.37423
▁England	-9.37622
▁exclaimed	-9.37631
▁Will	-9.37647
▁SHOT	-9.38096
▁giving	-9.38175
▁beginning	-9.38474
▁dress	-9.38479
▁knowledge	-9.38512
▁occasion	-9.38608
▁church	-9.38703
▁direction	-9.38769
▁Good	-9.38815
▁clothes	-9.39158
CONT	-9.39223
▁break	-9.39403
es	-9.39589
▁middle	-9.39734
▁art	-9.39797
▁act	-9.39844
▁begin	-9.3985
▁wasn	-9.39915
▁garden	-9.40008
▁service	-9.40035
T	-9.4014
▁cry	-9.40496
▁common	-9.40571
▁St	-9.40696
▁pain	-9.40764
▁puts	-9.40775
▁music	-9.40789
▁usual	-9.40828
▁sky	-9.40912
▁law	-9.41012
▁eat	-9.41031
▁onto	-9.41187
▁box	-9.4119
▁wide	-9.41331
▁marry	-9.4143
is	-9.41561
▁Some	-9.41617
▁gives	-9.41729
▁bright	-9.4177
▁beauty	-9.41866
▁runs	-9.41903
▁beneath	-9.41986
▁nice	-9.42085
▁begins	-9.42227
Do	-9.42258
▁Are	-9.42342
▁terrible	-9.42576
▁note	-9.42686
▁fingers	-9.4307
▁single	-9.43361
▁P	-9.43381
▁hot	-9.43516
▁stares	-9.43643
▁Hey	-9.43651
▁shut	-9.43808
▁afternoon	-9.43988
▁lord	-9.44081
▁died	-9.44351
▁instant	-9.44996
▁2	-9.4505
▁news	-9.45096
▁wished	-9.45172
▁visit	-9.4533
▁tree	-9.45367
▁river	-9.45385
alphabetical	-9.45435
▁object	-9.4551
▁circumstances	-9.45709
▁Harry	-9.45771
▁stone	-9.45857
▁desk	-9.45875
▁joy	-9.45957
▁captain	-9.45997
▁uncle	-9.46062
▁grabs	-9.46245
▁Can	-9.46458
▁creature	-9.46508
▁honour	-9.4653
▁holds	-9.46643
▁expected	-9.46718
▁worse	-9.46842
▁escape	-9.46887
▁carry	-9.46915
▁touch	-9.46919
▁kitchen	-9.4693
▁reach	-9.4695
▁ladies	-9.47016
▁grew	-9.47226
ING	-9.47549
▁picture	-9.47555
c	-9.47573
▁learned	-9.47583
▁Joe	-9.47607
▁raised	-9.47701
▁stairs	-9.47737
▁written	-9.47898
▁watches	-9.48116
u	-9.48155
▁lying	-9.48221
▁fortune	-9.48448
▁boys	-9.49134
▁showed	-9.49209
Then	-9.49231
▁soft	-9.49258
▁space	-9.49365
▁Look	-9.49394
▁perfect	-9.49492
▁covered	-9.49499
▁angry	-9.49515
▁forget	-9.4957
▁guy	-9.49579
▁legs	-9.49613
▁quick	-9.49622
▁food	-9.49659
▁youth	-9.49665
▁exactly	-9.49667
▁lie	-9.49789
▁broke	-9.49936
▁instead	-9.5007
▁worth	-9.5007
▁guess	-9.50111
▁surprise	-9.50302
▁leaves	-9.50523
▁edge	-9.50609
▁walls	-9.50784
▁sake	-9.50807
▁miles	-9.50822
▁working	-9.50859
▁David	-9.51083
▁building	-9.51139
▁couple	-9.5134
▁Yet	-9.51426
▁spoken	-9.51629
▁appearance	-9.51662
▁books	-9.51773
▁New	-9.51863
▁safe	-9.52036
▁promise	-9.5208
▁changed	-9.52353
?”	-9.52424
▁trust	-9.52444
▁nods	-9.52467
▁ain	-9.52889
▁simply	-9.53013
▁rich	-9.5307
▁understood	-9.53135
▁reaches	-9.53238
▁ears	-9.5333
▁danger	-9.53602
▁placed	-9.5374
▁1	-9.5384
C	-9.54059
▁Did	-9.54065
Ah	-9.54095
_.	-9.54164
▁dressed	-9.54414
▁Two	-9.54466
▁shoulders	-9.54668
They	-9.54717
▁aunt	-9.54881
▁serious	-9.54962
▁Madame	-9.5498
▁notice	-9.55046
▁hath	-9.55157
▁finally	-9.55298
▁happiness	-9.55498
▁baby	-9.55605
▁game	-9.55689
morrow	-9.55904
not	-9.56143
!--	-9.56205
▁surprised	-9.56225
▁train	-9.56289
▁reading	-9.5669
▁supposed	-9.56779
▁shook	-9.56877
▁allowed	-9.57092
▁plain	-9.57157
▁pale	-9.57203
▁spot	-9.57484
▁rock	-9.57572
▁ear	-9.57799
▁enters	-9.57955
▁peace	-9.58012
▁French	-9.58017
▁pleased	-9.58031
▁places	-9.58189
▁glance	-9.58263
▁easily	-9.58316
▁lights	-9.58508
▁un	-9.58519
▁hurt	-9.5868
V	-9.58682
▁doors	-9.58899
▁knowing	-9.58952
▁huge	-9.58982
▁haven	-9.59112
▁Even	-9.59283
▁killed	-9.59407
▁L	-9.59422
clock	-9.59442
▁remain	-9.59556
▁quietly	-9.59686
▁reply	-9.59732
▁observed	-9.59879
▁drawing	-9.59893
▁telling	-9.60207
▁particular	-9.60359
▁third	-9.60398
▁wants	-9.60574
▁Man	-9.60599
g	-9.60681
▁journey	-9.60797
▁evil	-9.61114
▁liked	-9.61176
▁nose	-9.61224
▁MAN	-9.61242
▁arrived	-9.61258
▁tea	-9.61355
▁bound	-9.61386
.]	-9.61413
▁simple	-9.616
▁paid	-9.61713
▁situation	-9.61854
),	-9.61887
▁gate	-9.61964
▁lives	-9.61977
▁enter	-9.61991
▁expect	-9.61993
▁Martin	-9.62019
▁ahead	-9.62021
▁dream	-9.62118
▁Suddenly	-9.62122
▁private	-9.62315
▁talked	-9.6232
▁hell	-9.62357
▁listen	-9.62426
▁altogether	-9.62449
▁fresh	-9.62508
▁tries	-9.62667
▁bag	-9.62829
▁smiled	-9.6303
▁flowers	-9.63144
▁Peter	-9.63312
▁servant	-9.63487
Not	-9.635
▁smiling	-9.63532
▁respect	-9.63793
▁Frank	-9.63895
▁repeated	-9.63903
an	-9.64126
▁pleasant	-9.64149
▁Dorothy	-9.64197
▁Or	-9.64304
▁rate	-9.6431
▁speech	-9.64365
▁staring	-9.64374
th	-9.64378
▁wood	-9.64475
▁aware	-9.64478
▁sword	-9.64505
▁laughing	-9.64575
▁appear	-9.64586
▁cast	-9.65084
▁lead	-9.65086
▁coat	-9.65102
▁Sam	-9.65151
▁offer	-9.65316
▁cousin	-9.65341
R	-9.65363
▁bottom	-9.65428
▁Paris	-9.65465
▁meeting	-9.65473
▁fixed	-9.655
▁believed	-9.65696
▁somewhat	-9.65795
▁although	-9.65834
▁letters	-9.659
on	-9.65976
▁Go	-9.6599
▁horses	-9.66054
▁Nothing	-9.66286
▁threw	-9.66413
en	-9.66495
▁important	-9.6661
▁faces	-9.66617
▁blow	-9.66788
she	-9.66943
▁perfectly	-9.67063
of	-9.67184
▁ANGLE	-9.67201
▁happen	-9.67418
▁smoke	-9.67483
▁points	-9.6762
▁declared	-9.67669
▁VOICE	-9.67682
▁passion	-9.67776
▁alive	-9.67845
▁board	-9.67855
▁lose	-9.67856
▁condition	-9.68196
▁action	-9.68209
▁entirely	-9.68359
▁unless	-9.68503
ueen	-9.68589
▁knees	-9.68626
▁experience	-9.6865
▁passing	-9.68665
▁playing	-9.68774
▁village	-9.68787
▁learn	-9.68982
▁wine	-9.68984
like	-9.69047
▁cross	-9.6909
▁CLOSE	-9.69269
▁dropped	-9.69318
▁watched	-9.69406
▁pause	-9.69421
▁proper	-9.69742
▁spite	-9.69743
N	-9.69835
▁path	-9.69905
ED	-9.70015
▁Okay	-9.70038
▁stranger	-9.70084
▁heaven	-9.70133
▁aside	-9.70337
▁opportunity	-9.70427
▁society	-9.70475
▁fit	-9.70503
▁determined	-9.70515
▁windows	-9.70524
▁anxious	-9.70686
▁seven	-9.7075
▁lies	-9.70903
▁fool	-9.70909
▁afterwards	-9.71005
▁drive	-9.71058
▁fallen	-9.71079
▁putting	-9.71121
man	-9.71124
.)**	-9.71133
▁Get	-9.71142
▁drawn	-9.71154
▁l	-9.7124
▁memory	-9.71351
at	-9.71402
Now	-9.71517
▁appears	-9.71548
▁opening	-9.71661
▁teeth	-9.71743
▁grave	-9.71793
▁hit	-9.71813
genre	-9.71914
▁someone	-9.72016
▁group	-9.72065
▁greater	-9.72075
▁warm	-9.72145
▁thick	-9.72328
▁waited	-9.7235
▁carefully	-9.72592
▁gentlemen	-9.72655
▁born	-9.72681
▁charge	-9.72873
▁court	-9.7294
▁merely	-9.72996
▁writing	-9.73013
▁dare	-9.73021
▁noise	-9.73028
▁history	-9.73181
what	-9.73243
▁opposite	-9.73267
▁difficulty	-9.73269
▁sharp	-9.73305
▁bar	-9.73585
▁breakfast	-9.7367
This	-9.74049
▁kiss	-9.74084
▁field	-9.74184
▁wonderful	-9.74345
▁likely	-9.74357
▁questions	-9.74435
▁nobody	-9.74437
▁regard	-9.74539
▁Prince	-9.75125
▁tired	-9.75195
▁carrying	-9.7521
▁latter	-9.75232
▁former	-9.75249
▁tall	-9.75437
▁sad	-9.75513
▁companion	-9.75514
▁screen	-9.75522
▁guys	-9.75594
▁hate	-9.75611
▁finished	-9.75626
▁personal	-9.75772
▁wrote	-9.7584
▁Their	-9.75898
▁difficult	-9.75928
▁comfort	-9.75974
▁LATER	-9.75987
▁thank	-9.76202
▁stage	-9.76421
▁suit	-9.76728
▁rising	-9.76813
▁Duke	-9.76882
▁fifty	-9.76948
▁discovered	-9.76991
▁mere	-9.77002
▁falls	-9.77068
▁sick	-9.77092
▁Only	-9.77115
no	-9.77133
▁House	-9.77434
CUT	-9.7744
▁actually	-9.77445
▁thrown	-9.77563
▁pair	-9.77593
▁picks	-9.77831
▁pride	-9.77872
▁obliged	-9.77899
▁job	-9.78011
▁eight	-9.78087
▁spent	-9.78113
▁allow	-9.7815
▁proud	-9.78203
▁effort	-9.78329
▁feelings	-9.78341
▁settled	-9.78549
▁summer	-9.7857
▁attempt	-9.78787
▁roof	-9.78816
▁carriage	-9.78846
Don	-9.79071
▁promised	-9.79101
▁noble	-9.79106
▁thirty	-9.79235
▁considered	-9.79277
▁various	-9.79284
▁scarcely	-9.79312
▁matters	-9.79375
▁finger	-9.79383
▁battle	-9.7952
▁courage	-9.79549
▁honest	-9.79589
▁plan	-9.79635
▁catch	-9.79699
▁Jesus	-9.79708
▁weeks	-9.79857
so	-9.79908
▁hung	-9.79949
▁Doctor	-9.79968
To	-9.79987
▁shadow	-9.80029
▁loud	-9.80079
▁American	-9.80116
▁J	-9.80128
B	-9.80224
▁seated	-9.80245
▁narrow	-9.80325
!”	-9.80347
▁offered	-9.80415
▁remembered	-9.80433
▁especially	-9.80441
CONTINUED	-9.80531
▁Charles	-9.80574
▁BACK	-9.80604
▁police	-9.80647
▁Street	-9.80688
▁calm	-9.80693
▁okay	-9.80761
▁mad	-9.80801
▁guard	-9.81126
▁shit	-9.81205
▁month	-9.81206
▁asleep	-9.8122
▁tongue	-9.81465
In	-9.81483
▁surface	-9.81491
night	-9.81703
▁E	-9.81737
▁throat	-9.81783
▁touched	-9.81916
▁pounds	-9.82006
▁control	-9.82036
▁burst	-9.82041
▁pity	-9.82221
▁hill	-9.82229
▁gently	-9.8225
▁Ah	-9.82382
▁CAMERA	-9.82388
▁faith	-9.82402
▁apartment	-9.82478
▁wearing	-9.82599
▁Ralph	-9.82621
▁forgotten	-9.82733
▁ring	-9.82826
▁drop	-9.82832
▁throw	-9.82872
▁anybody	-9.82899
ness	-9.82922
▁race	-9.82934
▁la	-9.82981
we	-9.82984
▁rain	-9.83031
▁pull	-9.83334
▁Our	-9.8338
▁forest	-9.83516
▁CONTINUOUS	-9.83527
▁terror	-9.83768
▁calling	-9.83818
▁Master	-9.83938
▁whispered	-9.83955
▁ball	-9.84046
▁follows	-9.84079
▁mistress	-9.84171
▁explain	-9.84189
So	-9.84206
▁bank	-9.84336
▁prepared	-9.84346
▁presently	-9.84459
▁judge	-9.84535
▁everybody	-9.84542
▁G	-9.84676
▁station	-9.84747
▁shop	-9.84751
▁lines	-9.84823
▁drops	-9.84914
▁Perhaps	-9.85088
▁Anne	-9.8518
▁slow	-9.85271
▁snow	-9.85382
▁yours	-9.85685
▁thin	-9.85689
▁moon	-9.85695
▁coffee	-9.85754
▁continues	-9.85779
▁Have	-9.85862
▁iron	-9.85895
▁rise	-9.85953
▁fancy	-9.86003
▁closer	-9.86166
▁passage	-9.86187
▁While	-9.86257
▁breast	-9.86268
▁ways	-9.86293
▁difference	-9.86344
▁stuff	-9.86436
▁Was	-9.8653
▁brain	-9.86598
▁decided	-9.86598
▁spring	-9.86692
▁enemy	-9.8677
▁resolved	-9.8684
▁property	-9.86877
▁success	-9.86906
▁entrance	-9.87388
▁completely	-9.87452
▁Maybe	-9.87464
▁chest	-9.87511
▁silver	-9.87547
▁Before	-9.87568
▁bottle	-9.87647
▁Like	-9.87829
▁keeping	-9.87918
▁knife	-9.87972
▁chamber	-9.88054
▁confidence	-9.88273
▁yellow	-9.88315
▁fly	-9.88348
▁anyone	-9.88436
▁shore	-9.88472
▁unto	-9.8852
▁listening	-9.88694
▁Ben	-9.88743
▁conduct	-9.88757
▁result	-9.8899
▁pulled	-9.89057
▁language	-9.89304
▁class	-9.89362
▁Father	-9.89394
▁anger	-9.89474
▁command	-9.89537
▁share	-9.89659
▁lower	-9.89981
▁affair	-9.90119
▁ancient	-9.90138
▁special	-9.90569
▁meaning	-9.90586
▁distant	-9.90604
▁Emily	-9.90629
▁forced	-9.90653
▁ourselves	-9.90778
▁hearing	-9.9082
▁engaged	-9.90826
▁intended	-9.91068
")	-9.91242
▁Lucy	-9.91372
▁gentle	-9.91508
?--	-9.91554
▁directly	-9.9159
▁spread	-9.91761
▁key	-9.91867
▁listened	-9.91941
which	-9.91989
▁grass	-9.92123
▁orders	-9.92202
▁complete	-9.92293
▁maybe	-9.92348
▁clean	-9.92409
▁dance	-9.92447
▁chief	-9.92525
▁sounds	-9.92552
▁fault	-9.92579
▁CAR	-9.9267
▁vain	-9.92739
▁papers	-9.92798
M	-9.92988
▁glances	-9.93007
▁asking	-9.93068
by	-9.93127
▁broad	-9.93276
▁shakes	-9.9345
▁TV	-9.93494
p	-9.93698
▁thinks	-9.9375
▁Henry	-9.93774
▁horror	-9.93825
▁busy	-9.93829
▁study	-9.93837
▁surely	-9.93919
▁twice	-9.94052
▁moments	-9.94055
▁growing	-9.94248
▁finding	-9.94264
▁falling	-9.9431
▁bedroom	-9.94326
▁camera	-9.94557
Come	-9.94577
▁Had	-9.94617
▁dry	-9.94688
Of	-9.94767
▁fucking	-9.94833
▁Tell	-9.94928
▁bent	-9.95072
▁receive	-9.95172
▁Bill	-9.95207
▁Such	-9.95291
▁clearly	-9.95346
▁lover	-9.9541
▁See	-9.95537
▁taste	-9.9554
▁3	-9.95573
▁Dick	-9.95581
▁worked	-9.95622
▁K	-9.95742
▁deck	-9.95773
▁explained	-9.95785
L	-9.95851
▁wise	-9.96001
▁handsome	-9.96065
▁slight	-9.96166
▁influence	-9.96266
▁Paul	-9.96297
▁consider	-9.96365
▁weak	-9.96554
▁curious	-9.96906
▁advice	-9.96917
▁Jones	-9.96933
▁weight	-9.96975
K	-9.96988
▁**********	-9.97024
▁fate	-9.97053
f	-9.9706
▁hole	-9.97111
▁ride	-9.97194
▁buy	-9.97219
▁frightened	-9.97461
▁softly	-9.97503
▁familiar	-9.977
▁pieces	-9.97743
▁Laura	-9.9782
Let	-9.97894
▁faint	-9.98015
▁greatest	-9.98043
▁false	-9.98098
▁post	-9.98098
▁officer	-9.98106
▁devil	-9.98108
▁island	-9.98124
▁imagine	-9.98247
▁servants	-9.98275
est	-9.98304
▁noticed	-9.98347
▁movement	-9.98472
▁due	-9.98499
P	-9.98843
▁satisfied	-9.98895
▁affairs	-9.99075
▁hanging	-9.99083
▁dust	-9.99098
▁brown	-9.99102
▁somewhere	-9.99334
▁cover	-9.99525
▁persons	-9.996
▁failed	-9.99718
▁Thus	-9.99724
▁Colonel	-9.99816
w	-9.99833
▁quarter	-9.99923
▁shirt	-9.99984
▁Old	-10.0006
▁slightly	-10.0009
▁twelve	-10.001
▁streets	-10.0013
▁attack	-10.0033
▁skin	-10.004
with	-10.0044
▁delight	-10.0051
▁mountain	-10.0057
▁F	-10.0063
all	-10.0072
▁paused	-10.0073
▁R	-10.0086
▁affection	-10.0089
▁loss	-10.0094
▁However	-10.0117
▁UP	-10.0123
▁spirits	-10.0125
▁Every	-10.0143
▁according	-10.0148
▁ideas	-10.0156
▁mirror	-10.016
▁speed	-10.0169
▁soldiers	-10.0176
▁draw	-10.018
▁search	-10.0203
▁formed	-10.0207
▁social	-10.0219
am	-10.0222
▁fashion	-10.0228
▁somebody	-10.0237
▁advantage	-10.024
▁lovely	-10.0252
▁justice	-10.0259
▁Alice	-10.026
▁absolutely	-10.0265
▁mistake	-10.0279
▁dozen	-10.028
▁concerned	-10.0283
▁wore	-10.0307
▁countenance	-10.031
▁satisfaction	-10.0317
▁pointed	-10.0325
▁OFFICE	-10.033
▁Monsieur	-10.0331
▁health	-10.0339
▁grown	-10.034
house	-10.0343
▁main	-10.0348
▁interested	-10.0355
▁message	-10.0355
▁existence	-10.036
▁Thank	-10.0368
▁POV	-10.0375
▁degree	-10.0377
▁Still	-10.039
▁occurred	-10.0393
▁grow	-10.0406
▁vast	-10.0406
▁Polly	-10.0408
▁sooner	-10.0411
▁equal	-10.0415
▁crying	-10.0425
▁instantly	-10.0431
▁stick	-10.0432
▁STREET	-10.0433
▁stream	-10.0437
▁yesterday	-10.0441
▁worst	-10.0441
▁entire	-10.0451
▁leading	-10.0453
▁doorway	-10.0457
▁cool	-10.0461
▁flesh	-10.0469
▁Anna	-10.0481
▁everyone	-10.0482
▁APARTMENT	-10.0526
▁suggested	-10.053
▁waves	-10.0534
▁prove	-10.0536
▁otherwise	-10.0539
▁throws	-10.0546
▁generally	-10.0552
▁song	-10.0553
▁machine	-10.0556
▁truly	-10.0561
▁Mark	-10.0575
▁played	-10.0587
▁nearer	-10.0595
▁dangerous	-10.0598
▁bread	-10.06
▁Another	-10.0616
▁shame	-10.0623
▁remarked	-10.0626
▁besides	-10.0631
▁bare	-10.0634
▁forehead	-10.0636
▁evidence	-10.0651
▁possession	-10.0653
▁ordinary	-10.0664
▁expressed	-10.0665
there	-10.0673
▁saved	-10.0676
▁pick	-10.0681
▁shown	-10.0684
▁double	-10.0693
▁houses	-10.0696
▁mentioned	-10.0717
▁tiny	-10.0738
▁weather	-10.0743
▁Because	-10.0759
▁passes	-10.0764
▁animal	-10.0777
▁Christian	-10.0778
▁higher	-10.0779
▁hidden	-10.0782
▁wear	-10.0785
....	-10.0785
▁Would	-10.0786
▁hotel	-10.0816
▁lifted	-10.0821
▁Uncle	-10.0824
▁tender	-10.0824
▁welcome	-10.0828
▁pray	-10.083
▁shaking	-10.0832
▁mention	-10.0832
Good	-10.0837
▁cruel	-10.085
▁conscious	-10.0852
▁frame	-10.0854
up	-10.086
▁Great	-10.0866
▁desired	-10.0873
▁Maggie	-10.0883
▁works	-10.0895
▁period	-10.0898
▁information	-10.0902
▁Billy	-10.0908
▁OUT	-10.091
▁William	-10.0918
▁pressed	-10.0923
▁events	-10.0927
Who	-10.0934
▁problem	-10.0938
▁approach	-10.0943
▁army	-10.0946
▁hoped	-10.0955
▁le	-10.0958
▁begun	-10.0973
▁acquaintance	-10.0976
▁worthy	-10.0977
▁greatly	-10.0977
▁sorrow	-10.098
▁possibly	-10.0989
▁needed	-10.0996
▁White	-10.0998
▁nervous	-10.0999
▁fond	-10.1
▁relief	-10.1001
▁shape	-10.101
▁cup	-10.101
▁crossed	-10.1011
H	-10.1015
▁SCENE	-10.1038
▁accept	-10.1045
▁produced	-10.1048
▁Script	-10.1065
▁fuck	-10.1066
▁York	-10.107
▁kid	-10.107
▁Sunday	-10.107
▁France	-10.1074
▁rooms	-10.1076
▁blind	-10.1078
▁winter	-10.1083
://	-10.1087
THE	-10.1088
▁ordered	-10.1094
▁forty	-10.1094
▁bridge	-10.1111
▁perceived	-10.1131
▁beg	-10.1134
▁Church	-10.1137
▁nine	-10.1141
▁cries	-10.1148
Mr	-10.1149
▁sides	-10.1149
▁leg	-10.1151
▁despair	-10.1152
▁ease	-10.1156
▁grand	-10.1163
▁storm	-10.1179
G	-10.118
▁terms	-10.1181
▁Chapter	-10.1186
▁kids	-10.1188
▁support	-10.1199
▁pure	-10.1199
▁dying	-10.1204
▁Please	-10.1215
▁Adam	-10.1215
▁unhappy	-10.1218
▁laughter	-10.122
▁Take	-10.1221
▁truck	-10.1227
▁unable	-10.1233
▁caused	-10.1235
▁bore	-10.1242
▁grief	-10.1242
▁parts	-10.1247
looking	-10.1252
▁store	-10.1252
▁bird	-10.1252
▁shouldn	-10.1264
▁Thomas	-10.1271
▁gaze	-10.1296
Is	-10.1301
▁apart	-10.1302
▁impression	-10.1304
▁motion	-10.1304
▁MRS	-10.1316
▁leans	-10.1319
▁4	-10.1333
▁possessed	-10.134
▁harm	-10.134
▁burning	-10.135
▁gotta	-10.1354
▁names	-10.1359
▁rough	-10.136
▁castle	-10.1362
▁golden	-10.1365
▁Once	-10.1373
▁join	-10.1381
▁kissed	-10.1394
▁friendship	-10.1403
k	-10.1406
▁loose	-10.1409
▁suffered	-10.1413
▁hits	-10.1421
b	-10.1444
▁excellent	-10.1445
▁visible	-10.1446
▁taught	-10.1446
▁today	-10.145
▁dreadful	-10.1455
▁Christ	-10.1459
▁showing	-10.1463
All	-10.1468
▁excitement	-10.1468
▁gathered	-10.1472
▁flat	-10.1477
▁willing	-10.1483
▁square	-10.1495
▁sand	-10.1506
▁speaks	-10.1513
▁hide	-10.1517
▁calls	-10.1522
▁seized	-10.1524
▁page	-10.1529
▁final	-10.1542
▁flying	-10.1546
▁corridor	-10.155
my	-10.1551
▁continue	-10.1558
▁evidently	-10.156
▁value	-10.1569
▁shadows	-10.1579
▁keeps	-10.1583
▁driven	-10.1586
▁unknown	-10.1586
▁rage	-10.159
▁birds	-10.1592
▁n	-10.1595
▁HIS	-10.1599
they	-10.1602
▁regarded	-10.1611
▁Jim	-10.1614
▁circle	-10.1616
▁wound	-10.1616
▁ceased	-10.1616
▁maid	-10.162
▁comfortable	-10.1646
▁Be	-10.1647
▁camp	-10.1651
▁pardon	-10.1655
▁forgive	-10.1659
▁wondered	-10.1662
▁Thou	-10.1665
▁awful	-10.1666
▁level	-10.1672
▁May	-10.1674
▁metal	-10.1675
▁favour	-10.1679
▁hurry	-10.1681
▁seek	-10.1693
▁choice	-10.1695
▁rocks	-10.1704
▁bow	-10.172
▁ha	-10.1724
▁built	-10.1731
▁fighting	-10.1739
▁farther	-10.1749
▁finds	-10.1754
▁parents	-10.1754
us	-10.1758
▁JACK	-10.1762
▁ashamed	-10.1762
▁fully	-10.1764
ers	-10.1766
▁N	-10.1768
▁lawyer	-10.1776
▁interesting	-10.1777
▁[_	-10.1789
▁mighty	-10.1791
▁Never	-10.1795
▁fish	-10.1797
▁cheek	-10.1814
▁proved	-10.182
▁agreed	-10.1823
▁anxiety	-10.1832
▁dull	-10.1834
▁supper	-10.1837
▁Heaven	-10.1841
▁Jane	-10.1849
tis	-10.186
▁hadn	-10.1862
▁shock	-10.1865
▁temper	-10.187
▁stare	-10.1878
▁count	-10.1886
▁shake	-10.1889
▁miserable	-10.1891
▁system	-10.1892
▁younger	-10.1896
▁apparently	-10.1896
▁innocent	-10.1896
▁serve	-10.1898
▁flight	-10.1903
▁Little	-10.1912
▁sufficient	-10.1927
▁deeply	-10.1933
▁disappeared	-10.1935
▁check	-10.1935
▁et	-10.1937
▁James	-10.194
▁Nor	-10.1951
▁5	-10.1956
▁extraordinary	-10.1956
▁ended	-10.1958
▁sought	-10.1961
▁approaches	-10.1968
▁friendly	-10.1974
▁grey	-10.1985
▁education	-10.1994
▁shoes	-10.2002
▁10	-10.2005
▁ma	-10.2007
Your	-10.2007
▁excited	-10.2009
▁cheeks	-10.2013
▁excuse	-10.2027
▁curiosity	-10.2033
▁marked	-10.2041
▁address	-10.2052
▁approaching	-10.2061
▁trembling	-10.2069
▁brave	-10.2085
▁image	-10.2096
▁lad	-10.2097
▁Movie	-10.2107
▁gray	-10.2109
▁forgot	-10.2112
▁interrupted	-10.2119
----"	-10.2126
▁Bob	-10.2135
▁report	-10.2137
▁task	-10.2144
▁heat	-10.2145
▁locked	-10.2145
▁prison	-10.2149
▁dollars	-10.2153
▁Michael	-10.2153
▁imagination	-10.2167
▁ice	-10.217
▁remains	-10.2173
▁mountains	-10.2174
▁refused	-10.2176
▁older	-10.2177
▁Princess	-10.2178
▁absence	-10.2182
▁match	-10.2193
▁rush	-10.2195
▁luck	-10.2198
▁Three	-10.2211
law	-10.2218
▁accident	-10.2219
▁rapidly	-10.222
▁hopes	-10.2221
▁stupid	-10.2221
▁BEDROOM	-10.2227
▁First	-10.2232
▁Aunt	-10.2241
▁intention	-10.2242
▁oh	-10.2248
▁H	-10.225
▁strike	-10.2256
▁careful	-10.2257
▁picked	-10.226
▁America	-10.2269
▁bitter	-10.2272
one	-10.2273
▁honor	-10.2275
Illustration	-10.2282
Where	-10.2291
▁enjoy	-10.2302
▁understanding	-10.2305
F	-10.2315
▁struggle	-10.2317
▁firm	-10.2318
▁yards	-10.2325
▁odd	-10.2328
▁cat	-10.2334
▁woods	-10.2338
▁occupied	-10.2349
▁required	-10.2351
▁somehow	-10.2355
▁assured	-10.2358
.)	-10.2362
▁Right	-10.2383
▁inquired	-10.2388
▁habit	-10.2391
▁fat	-10.2395
▁served	-10.2402
▁features	-10.242
▁bell	-10.2421
----	-10.2424
▁JOHN	-10.2432
▁kindly	-10.2444
▁worry	-10.2451
▁Something	-10.2451
▁approached	-10.2454
▁wet	-10.247
▁crazy	-10.2471
▁arrival	-10.2478
▁advanced	-10.248
▁steel	-10.2484
▁particularly	-10.2488
▁necessity	-10.249
de	-10.2492
▁stars	-10.2497
▁tonight	-10.2511
▁safety	-10.2521
▁Mike	-10.2522
al	-10.2526
▁prevent	-10.2526
▁driving	-10.2526
▁mysterious	-10.2537
▁freedom	-10.254
▁eating	-10.2542
▁Though	-10.2548
▁creatures	-10.2553
▁surrounded	-10.2556
▁i	-10.2556
▁closes	-10.2571
▁card	-10.2588
▁vision	-10.2596
do	-10.2604
▁naturally	-10.2607
▁demanded	-10.2612
▁north	-10.2612
▁admit	-10.2614
▁confused	-10.2619
▁peculiar	-10.262
▁pushes	-10.2627
▁rises	-10.2628
▁voices	-10.2633
▁(_	-10.2638
▁drove	-10.2638
▁miss	-10.2644
imsdb	-10.2645
▁powerful	-10.2648
▁grace	-10.265
▁sleeping	-10.2655
▁succeeded	-10.2658
▁club	-10.266
▁hang	-10.2668
▁9	-10.2676
▁cost	-10.2679
▁convinced	-10.2684
▁Arthur	-10.2686
▁wheel	-10.2692
▁Red	-10.2692
▁Robert	-10.2695
▁clever	-10.2697
▁needs	-10.2698
When	-10.2702
▁everywhere	-10.2707
▁presented	-10.2722
▁soldier	-10.2727
▁WITH	-10.2746
▁becoming	-10.275
▁stared	-10.2757
▁choose	-10.2761
▁Mother	-10.2764
▁accepted	-10.2767
▁feared	-10.2767
▁express	-10.2775
▁forms	-10.2776
▁sympathy	-10.278
▁pulling	-10.2784
▁named	-10.279
▁HE	-10.28
▁delicate	-10.2811
▁Nick	-10.2822
▁laughs	-10.2823
▁leaning	-10.2823
▁wishes	-10.2823
Upon	-10.2824
▁instance	-10.2826
▁cabin	-10.2837
▁row	-10.2841
▁mark	-10.2842
▁HER	-10.2847
▁lock	-10.2851
▁bought	-10.2859
▁energy	-10.286
▁base	-10.286
▁Charlie	-10.2868
▁Which	-10.2872
▁murder	-10.2883
▁singing	-10.2883
who	-10.2896
▁fun	-10.2904
▁yard	-10.2913
▁bosom	-10.2918
▁pipe	-10.2921
▁joined	-10.2947
▁officers	-10.2948
▁wooden	-10.2949
▁crime	-10.2952
▁AT	-10.2952
▁whisper	-10.2954
▁beast	-10.2957
▁usually	-10.2973
▁signs	-10.2976
▁lamp	-10.2978
▁authority	-10.2985
▁cloud	-10.2985
As	-10.2996
:--	-10.2996
Very	-10.2997
For	-10.3
▁Earl	-10.3003
▁Court	-10.3005
▁escaped	-10.3008
▁kindness	-10.3013
▁midst	-10.3019
▁sigh	-10.3028
▁guns	-10.3028
com	-10.3032
▁win	-10.3035
▁conscience	-10.3037
▁emotion	-10.3043
▁slept	-10.3046
▁charming	-10.3048
▁Phineas	-10.305
▁suffer	-10.3051
▁Edward	-10.3057
▁attitude	-10.3067
▁Smith	-10.3071
▁religion	-10.3084
▁bringing	-10.3084
▁Grace	-10.3088
▁avoid	-10.3097
▁eager	-10.3102
▁8	-10.3104
▁Those	-10.3104
▁press	-10.3126
▁German	-10.3128
▁bodies	-10.3128
▁shows	-10.3132
▁interview	-10.3139
▁helped	-10.3144
▁style	-10.3145
▁suffering	-10.3147
▁thanks	-10.315
▁Count	-10.3158
▁ones	-10.3164
▁violent	-10.318
▁consequence	-10.3183
▁pushed	-10.3183
▁tight	-10.3185
▁cap	-10.3187
▁hangs	-10.3194
▁SAM	-10.321
▁General	-10.3215
▁liberty	-10.3219
▁jumps	-10.323
▁priest	-10.3234
▁President	-10.3235
▁p	-10.3235
▁counter	-10.3259
▁Indeed	-10.3262
▁drunk	-10.3275
▁Hello	-10.3275
▁Again	-10.3276
▁wealth	-10.3279
▁dogs	-10.328
▁rear	-10.3284
▁Philip	-10.3296
▁band	-10.3296
▁treated	-10.3304
▁clouds	-10.3304
▁size	-10.3312
ON	-10.3314
▁worn	-10.3321
▁hurried	-10.3326
▁hearts	-10.3337
▁Margaret	-10.3343
▁mass	-10.335
▁horrible	-10.3353
▁shoot	-10.3366
▁stepped	-10.3367
▁proceeded	-10.337
▁suspicion	-10.3379
▁rode	-10.3382
▁weary	-10.3383
▁considerable	-10.3386
▁reasons	-10.339
▁madam	-10.3396
▁measure	-10.3398
▁CHARLIE	-10.3408
▁contrary	-10.3412
▁returning	-10.3414
▁confusion	-10.3415
▁dignity	-10.342
▁YOU	-10.3421
▁leads	-10.3421
▁admitted	-10.3428
▁content	-10.3434
▁wounded	-10.344
▁becomes	-10.3445
▁birth	-10.3449
▁kisses	-10.3452
▁pen	-10.3454
▁wings	-10.3455
▁capable	-10.3459
Are	-10.346
▁equally	-10.3461
▁reader	-10.3481
▁MORNING	-10.3484
▁cont	-10.3486
▁nurse	-10.349
▁extremely	-10.3498
▁sell	-10.351
▁fill	-10.3511
▁plainly	-10.3517
▁mercy	-10.3527
▁utter	-10.354
▁Hall	-10.3541
▁example	-10.3543
▁proof	-10.3546
▁claim	-10.3547
▁lit	-10.3558
▁clock	-10.3569
▁crew	-10.3569
▁uttered	-10.3572
▁plenty	-10.3575
▁cottage	-10.3579
▁rule	-10.3584
▁importance	-10.3588
▁breaking	-10.359
▁dancing	-10.3592
▁upper	-10.3596
▁delighted	-10.3598
▁drinking	-10.3604
▁colour	-10.3605
▁aid	-10.3611
▁Max	-10.3612
▁blame	-10.3616
▁Besides	-10.3622
▁fellows	-10.3627
▁upstairs	-10.3634
▁government	-10.3635
▁judgment	-10.364
▁misery	-10.3643
▁WE	-10.3651
▁consideration	-10.3653
▁closely	-10.3657
▁modern	-10.3661
▁political	-10.3668
▁direct	-10.367
▁reads	-10.3677
▁shouted	-10.3679
▁spare	-10.369
▁fifteen	-10.3692
▁North	-10.3695
▁TWO	-10.3696
me	-10.3702
was	-10.3703
▁glanced	-10.3714
▁Give	-10.372
this	-10.3729
▁Finally	-10.3731
▁flower	-10.3732
▁prisoner	-10.3743
▁arranged	-10.3747
Here	-10.376
▁alarm	-10.3761
▁guests	-10.3763
▁rank	-10.3767
▁flame	-10.3779
▁brief	-10.3794
▁WOMAN	-10.3798
▁price	-10.3806
▁spend	-10.3807
▁virtue	-10.3807
when	-10.3808
▁Ann	-10.3817
▁native	-10.3821
▁sum	-10.3835
▁departure	-10.3835
▁MIKE	-10.3836
▁dim	-10.3837
▁pictures	-10.384
▁stretched	-10.3847
▁height	-10.3853
Have	-10.3862
▁foolish	-10.3864
▁rushed	-10.3865
▁MR	-10.3869
▁feels	-10.3873
▁melancholy	-10.3875
▁tear	-10.388
▁south	-10.3889
▁animals	-10.3895
▁shining	-10.3908
▁wicked	-10.3913
www	-10.3915
▁Roger	-10.3917
▁facts	-10.3921
how	-10.3926
▁addressed	-10.3928
▁moral	-10.393
▁assure	-10.3933
▁startled	-10.394
▁dining	-10.3947
▁fail	-10.3949
▁radio	-10.3951
▁assistance	-10.3955
▁Hi	-10.3957
▁risk	-10.3959
▁naked	-10.3963
▁starting	-10.3968
▁W	-10.3969
▁utterly	-10.398
▁concern	-10.3983
▁female	-10.3991
▁refuse	-10.3993
▁triumph	-10.3999
▁rolled	-10.3999
▁Rachel	-10.4006
▁progress	-10.401
▁cigarette	-10.4013
▁pointing	-10.4013
▁NICK	-10.4013
▁glory	-10.4014
▁cell	-10.4019
▁happens	-10.4029
▁guilty	-10.4033
▁6	-10.4038
▁buried	-10.4047
▁original	-10.4077
▁tomorrow	-10.4077
▁cars	-10.4087
▁trial	-10.409
▁accustomed	-10.41
▁remarkable	-10.4104
▁flash	-10.4109
▁Fred	-10.4116
▁thrust	-10.4124
▁audience	-10.4126
▁glasses	-10.4128
▁anywhere	-10.4128
▁setting	-10.4132
▁boots	-10.4148
▁bearing	-10.4153
▁rope	-10.4159
men	-10.4161
▁People	-10.4165
▁estate	-10.4165
▁slave	-10.4167
▁thoroughly	-10.4169
▁minds	-10.418
▁removed	-10.4181
▁fairly	-10.4187
▁vessel	-10.4188
▁proposed	-10.419
▁breathing	-10.4192
▁amount	-10.4194
▁figures	-10.4198
▁credit	-10.4198
▁jacket	-10.4205
▁companions	-10.4207
▁hears	-10.422
▁request	-10.4222
▁reflection	-10.4224
▁flung	-10.4225
▁ceiling	-10.4225
▁tale	-10.423
out	-10.423
▁beer	-10.4231
way	-10.4232
▁valley	-10.4234
▁ya	-10.4244
▁mystery	-10.425
▁brow	-10.4253
▁daily	-10.4259
▁informed	-10.4262
▁sin	-10.4266
▁roll	-10.4271
▁nodded	-10.4274
▁affected	-10.4278
▁sprang	-10.4278
▁chain	-10.4278
▁confess	-10.4283
st	-10.4284
▁More	-10.4287
▁driver	-10.4288
▁center	-10.4292
▁awake	-10.4294
▁regret	-10.4298
▁enormous	-10.4318
▁members	-10.432
▁newspaper	-10.4335
http	-10.4337
▁handle	-10.4339
▁color	-10.4347
▁gradually	-10.4362
▁throwing	-10.4366
▁Very	-10.437
▁explanation	-10.4373
▁immediate	-10.4378
▁patient	-10.4381
▁agree	-10.439
▁precious	-10.439
▁wisdom	-10.4394
▁remark	-10.4395
le	-10.4398
▁gesture	-10.4399
▁consciousness	-10.44
▁inclined	-10.4405
▁weapon	-10.4409
▁dreams	-10.4412
▁raise	-10.4415
▁sing	-10.4415
▁bowed	-10.4417
▁Park	-10.4418
▁meat	-10.442
▁sex	-10.4421
▁GEORGE	-10.4437
▁managed	-10.4437
▁plate	-10.4439
▁fierce	-10.4441
▁IT	-10.4447
▁dared	-10.4447
▁Both	-10.4453
▁pool	-10.4457
▁Everyone	-10.4457
▁20	-10.4457
▁crosses	-10.4458
▁wedding	-10.4463
▁intelligence	-10.4465
▁resolution	-10.4467
▁wave	-10.4483
▁enemies	-10.4484
▁coast	-10.449
▁season	-10.4491
▁unfortunate	-10.4491
▁furniture	-10.4493
▁notes	-10.4496
▁tower	-10.4506
▁warning	-10.4511
▁hated	-10.4514
▁area	-10.4537
▁resumed	-10.4542
▁add	-10.4556
▁whilst	-10.4574
▁funny	-10.4579
▁lighted	-10.459
▁practice	-10.4595
▁ne	-10.4603
▁couch	-10.4605
▁desert	-10.4607
▁La	-10.461
▁track	-10.4611
▁consent	-10.4612
▁clerk	-10.4612
▁security	-10.4621
▁discover	-10.4631
▁ruin	-10.4631
▁stones	-10.4642
▁swear	-10.4644
▁gazed	-10.4645
▁rolls	-10.4647
▁BLACK	-10.4653
▁tail	-10.4654
▁belief	-10.467
▁blows	-10.4672
▁lest	-10.4677
▁trade	-10.4689
▁begged	-10.4689
By	-10.4692
▁flew	-10.4693
▁murmured	-10.4694
▁witness	-10.4698
▁member	-10.47
▁larger	-10.4702
▁pistol	-10.4703
▁lonely	-10.4703
▁brilliant	-10.4711
▁hills	-10.4712
▁wondering	-10.472
▁wretched	-10.4721
▁earnest	-10.4725
▁nevertheless	-10.4743
▁event	-10.4745
▁scarce	-10.4759
▁drives	-10.4761
▁seconds	-10.4764
▁manners	-10.4766
"--	-10.4773
▁barely	-10.4779
▁silently	-10.4781
ER	-10.4783
▁desperate	-10.4784
▁conditions	-10.4786
▁generous	-10.4798
▁forever	-10.48
▁Having	-10.4814
▁palace	-10.4815
▁Could	-10.4821
_)	-10.4825
▁bold	-10.4827
▁anyway	-10.483
▁hero	-10.4845
Did	-10.4845
▁mood	-10.4852
▁regular	-10.4863
▁7	-10.4868
▁Database	-10.4872
▁fields	-10.4873
▁Everything	-10.4876
▁rifle	-10.4877
▁acquainted	-10.4877
▁material	-10.4891
▁ends	-10.4891
▁tied	-10.4893
▁troubled	-10.4894
▁Wait	-10.4901
▁plans	-10.4913
▁million	-10.4916
▁torn	-10.4917
▁smoking	-10.4923
▁guest	-10.4929
▁amongst	-10.4933
▁en	-10.4939
▁vague	-10.494
▁rid	-10.494
▁highest	-10.4955
▁bill	-10.4956
▁quarrel	-10.4957
▁knock	-10.4962
▁science	-10.4965
▁arose	-10.497
▁heavily	-10.4981
▁Thanks	-10.4991
▁scared	-10.4994
▁hesitated	-10.4999
▁lands	-10.4999
▁Sometimes	-10.4999
▁Men	-10.5005
▁breaks	-10.5017
▁accompanied	-10.5021
▁partly	-10.503
v	-10.503
▁attached	-10.5036
▁teach	-10.5036
▁dirty	-10.5038
▁shade	-10.5043
▁dressing	-10.5044
▁painful	-10.5046
▁brings	-10.5054
▁concerning	-10.5055
▁folks	-10.506
▁aren	-10.5065
▁hungry	-10.5067
▁aloud	-10.5072
▁wake	-10.5073
▁sacrifice	-10.5074
▁sold	-10.5082
▁beach	-10.5091
▁highly	-10.5098
▁lately	-10.5103
▁giant	-10.511
▁gay	-10.5113
▁advance	-10.5118
▁famous	-10.5136
▁previous	-10.5139
▁admiration	-10.5141
Tis	-10.5148
▁agreeable	-10.5151
▁DR	-10.5152
▁Pierre	-10.5154
▁cave	-10.5164
▁finish	-10.5165
his	-10.5165
▁mile	-10.5169
▁12	-10.517
▁darling	-10.517
▁Clara	-10.5175
▁Bishop	-10.5185
U	-10.5187
▁savage	-10.5189
▁smooth	-10.519
▁powers	-10.5196
▁guide	-10.5214
▁patience	-10.5232
▁brothers	-10.5238
▁list	-10.5241
▁Sure	-10.5241
bye	-10.5245
▁decision	-10.5257
▁imagined	-10.5259
▁recovered	-10.5259
▁gift	-10.5263
▁INTO	-10.5266
▁Without	-10.5266
▁During	-10.5271
▁leaned	-10.5274
▁violence	-10.5278
▁catches	-10.528
▁Ray	-10.5287
▁prince	-10.5292
▁stuck	-10.5294
▁Rose	-10.5298
▁stern	-10.53
▁solemn	-10.5307
▁splendid	-10.5307
▁Christmas	-10.5309
▁cases	-10.5315
▁glow	-10.5318
▁candle	-10.5322
▁laws	-10.5324
▁hasn	-10.5324
▁raises	-10.5327
▁chin	-10.5333
▁manage	-10.5336
▁smell	-10.5343
▁Through	-10.5347
▁conviction	-10.535
▁stories	-10.5371
▁hastily	-10.5371
▁plays	-10.5382
▁pack	-10.5384
▁joke	-10.5385
▁abruptly	-10.5386
▁astonishment	-10.5395
▁abroad	-10.5399
▁etc	-10.5403
▁Louis	-10.5403
▁loving	-10.5422
▁b	-10.5423
▁riding	-10.5429
▁ugly	-10.5432
▁waste	-10.5433
▁rolling	-10.5434
▁Sarah	-10.5434
▁atmosphere	-10.5437
▁hast	-10.5441
▁seriously	-10.5442
▁rare	-10.5449
▁connection	-10.5449
▁reality	-10.5469
▁travel	-10.5488
▁bathroom	-10.5489
▁weapons	-10.5491
▁knocked	-10.5492
▁reveal	-10.5495
▁chosen	-10.5504
▁fires	-10.5504
five	-10.5505
▁steady	-10.5507
▁using	-10.5509
▁superior	-10.5518
▁type	-10.5523
▁loves	-10.5525
▁Emmeline	-10.5526
▁Listen	-10.5527
▁francs	-10.5533
▁extreme	-10.5543
▁date	-10.5553
▁notices	-10.5554
▁stock	-10.5555
▁cab	-10.5555
▁slipped	-10.5558
▁cared	-10.556
▁earlier	-10.5583
▁dread	-10.5589
her	-10.559
▁changes	-10.5593
though	-10.5594
▁holy	-10.5601
▁eagerly	-10.5603
▁waters	-10.5603
▁State	-10.5611
▁jump	-10.5614
▁SAME	-10.5617
▁handed	-10.5625
▁slightest	-10.5626
▁title	-10.5629
▁west	-10.5636
▁utmost	-10.5641
▁individual	-10.5646
▁Fanny	-10.5649
▁increased	-10.5656
▁senses	-10.5657
▁star	-10.566
▁sink	-10.566
▁City	-10.5664
▁Kate	-10.5669
▁armed	-10.5671
▁seldom	-10.5673
▁sending	-10.5677
▁elevator	-10.5682
▁stayed	-10.5685
▁meal	-10.5692
▁background	-10.5708
▁solid	-10.5726
▁quality	-10.5727
▁sacred	-10.573
▁wit	-10.5733
▁swept	-10.5736
▁parted	-10.5737
▁farm	-10.5737
▁rings	-10.5752
▁plants	-10.5765
▁button	-10.5777
▁mistaken	-10.5781
▁hospital	-10.5784
▁ere	-10.5785
▁efforts	-10.5788
el	-10.5789
▁cloth	-10.5797
▁gained	-10.5798
▁De	-10.58
▁nation	-10.5801
▁sheet	-10.5803
▁Richard	-10.5803
▁deserted	-10.5805
▁flies	-10.5805
▁discovery	-10.581
▁painted	-10.5813
▁park	-10.5822
▁realize	-10.5826
▁retired	-10.5831
▁distress	-10.584
▁exits	-10.5843
▁Nobody	-10.5844
▁Indian	-10.5848
▁tenderness	-10.585
▁lift	-10.5851
▁mamma	-10.5858
▁faithful	-10.5861
▁Poor	-10.5862
▁Oscar	-10.5869
▁lake	-10.5869
▁useless	-10.5876
▁X	-10.5889
▁physical	-10.5893
▁que	-10.5894
▁JOE	-10.5896
▁foreign	-10.5897
▁MARY	-10.5898
▁lifts	-10.5904
▁Ursula	-10.5906
▁portion	-10.591
▁library	-10.5911
▁branches	-10.5911
▁dragged	-10.5915
▁Since	-10.5921
▁IS	-10.5924
▁dawn	-10.5926
▁learning	-10.5926
▁charm	-10.5927
▁disturbed	-10.5933
▁enjoyed	-10.594
▁afford	-10.5942
▁fruit	-10.5947
▁landing	-10.5954
▁record	-10.5955
▁Luke	-10.5955
▁30	-10.597
▁fought	-10.5971
▁knee	-10.5985
▁described	-10.5986
▁interests	-10.5993
▁keen	-10.5995
▁chairs	-10.5996
▁widow	-10.5997
▁continuing	-10.6008
▁centre	-10.601
▁poet	-10.6012
▁per	-10.6018
▁folk	-10.602
▁crowded	-10.6022
▁hiding	-10.6023
▁household	-10.6024
▁FROM	-10.6029
▁frequently	-10.6031
▁reflected	-10.6031
▁immense	-10.6039
▁stronger	-10.6045
▁whenever	-10.6046
▁pages	-10.6054
▁milk	-10.6065
▁sentence	-10.607
Go	-10.6082
▁Finn	-10.6084
▁Europe	-10.6086
▁similar	-10.6089
▁Jacob	-10.6098
▁gratitude	-10.6107
▁genius	-10.6112
▁hollow	-10.6113
▁pockets	-10.6114
▁keys	-10.6116
▁ignorant	-10.6117
▁coach	-10.6119
▁computer	-10.6131
▁pile	-10.6136
▁Emma	-10.6138
▁realized	-10.6142
▁?!	-10.615
▁Love	-10.6153
▁lap	-10.616
▁attend	-10.6161
▁useful	-10.6164
▁provided	-10.617
▁queer	-10.6173
▁Hal	-10.6179
▁motionless	-10.6182
▁sank	-10.6185
▁British	-10.6186
W	-10.6191
▁fury	-10.6192
▁queen	-10.6193
▁sail	-10.6199
less	-10.6202
▁firmly	-10.6211
▁slip	-10.6212
▁lightly	-10.6214
▁damn	-10.6216
▁author	-10.6219
▁sisters	-10.622
▁entering	-10.6222
▁contact	-10.6225
▁contempt	-10.6236
un	-10.6238
▁Out	-10.624
Perhaps	-10.6242
▁gain	-10.6252
▁rushes	-10.6255
▁niece	-10.6255
▁tent	-10.6258
ie	-10.6266
▁badly	-10.6268
▁recognized	-10.6269
▁weakness	-10.6269
EY	-10.6274
▁waist	-10.6274
▁grateful	-10.6274
▁prospect	-10.6277
▁horizon	-10.6283
▁push	-10.6286
▁duties	-10.6287
▁evident	-10.6287
▁belonged	-10.6288
▁Black	-10.6289
▁Eve	-10.6291
▁Uh	-10.6295
▁market	-10.6297
▁religious	-10.6297
▁worried	-10.6297
▁belong	-10.6303
▁mental	-10.6303
styled	-10.631
▁sufficiently	-10.6312
▁east	-10.6314
▁Behind	-10.6316
J	-10.6316
▁absolute	-10.6319
▁th	-10.6322
▁Each	-10.6323
▁Steve	-10.6329
▁Sidney	-10.6332
▁astonished	-10.6332
▁Thy	-10.6334
▁platform	-10.6335
▁silk	-10.6345
▁climb	-10.6345
▁hunting	-10.6352
▁Over	-10.6359
▁pink	-10.6366
▁Life	-10.6367
▁inner	-10.637
▁remaining	-10.6371
▁Scripts	-10.638
▁Italian	-10.6405
▁AS	-10.6408
▁U	-10.6412
▁sets	-10.6415
▁strangers	-10.6416
▁pace	-10.6416
▁magic	-10.6417
▁fatal	-10.6417
▁papa	-10.6424
▁gas	-10.6429
▁Baron	-10.6447
▁fired	-10.6456
▁swings	-10.6457
▁Gerard	-10.6463
▁settle	-10.6465
▁sharply	-10.6468
▁WHITE	-10.6474
▁silly	-10.6475
▁sighed	-10.6477
▁About	-10.6481
▁wrapped	-10.6482
▁exchange	-10.6484
▁puzzled	-10.6486
▁screaming	-10.6487
▁Ted	-10.6489
▁details	-10.6489
▁DOOR	-10.649
▁throughout	-10.6507
▁squire	-10.6508
▁sounded	-10.6508
had	-10.6509
▁losing	-10.6512
▁objects	-10.6513
▁relations	-10.6513
▁helpless	-10.6515
▁exhausted	-10.6516
▁constantly	-10.6516
te	-10.6519
▁Me	-10.6526
▁observe	-10.6529
▁15	-10.6529
▁sofa	-10.6533
▁hitherto	-10.6533
▁connected	-10.6534
▁crown	-10.6543
▁calmly	-10.6543
▁ocean	-10.6544
▁wholly	-10.6545
▁venture	-10.6547
▁delay	-10.6553
▁bloody	-10.6555
▁exercise	-10.656
▁tape	-10.6561
▁insisted	-10.6562
▁HENRY	-10.6572
▁Lee	-10.6572
▁Jerry	-10.6573
▁HALLWAY	-10.6575
▁nearest	-10.6576
▁extent	-10.6578
▁god	-10.658
▁Charlotte	-10.658
▁tie	-10.6581
▁lets	-10.6581
▁f	-10.6583
▁constant	-10.6583
▁Allan	-10.6585
▁thine	-10.6589
▁conclusion	-10.659
SAM	-10.6593
▁West	-10.6599
▁Amy	-10.6601
▁vanished	-10.6603
▁adventure	-10.6603
▁muttered	-10.6607
▁whence	-10.6608
▁Amelia	-10.6609
▁Elizabeth	-10.661
▁pursued	-10.6611
▁reference	-10.662
▁Lucien	-10.6621
▁scattered	-10.6626
▁host	-10.6631
▁trip	-10.6636
▁appeal	-10.6643
▁haste	-10.6647
▁lack	-10.6651
▁cook	-10.6655
▁descended	-10.6656
▁DOWN	-10.6658
▁Long	-10.6661
▁engine	-10.6662
▁announced	-10.6667
▁fled	-10.667
▁Therefore	-10.6671
▁tells	-10.6672
▁Dad	-10.6686
▁gazing	-10.6691
▁stomach	-10.6692
▁divine	-10.6697
▁perceive	-10.67
▁KITCHEN	-10.6703
▁chose	-10.6704
▁Saint	-10.6718
▁du	-10.6721
▁Earth	-10.6725
▁bench	-10.6736
▁touching	-10.6739
▁secure	-10.6743
▁bid	-10.6744
▁screams	-10.6747
▁Sorry	-10.675
▁Ed	-10.6752
▁deeper	-10.6765
▁copy	-10.6774
▁relation	-10.6781
▁destroy	-10.6783
▁LIVING	-10.6786
▁mounted	-10.6789
▁unconscious	-10.6795
▁humble	-10.6798
▁missed	-10.6799
▁11	-10.6803
▁team	-10.6804
▁cards	-10.6808
▁rested	-10.6809
▁engagement	-10.6816
▁DISSOLVE	-10.6817
Nay	-10.6826
▁minister	-10.6826
▁Chris	-10.6829
▁missing	-10.6844
▁Larry	-10.6845
▁argument	-10.6847
▁directed	-10.6848
▁shone	-10.6853
▁employed	-10.6856
▁Rome	-10.6864
Look	-10.6865
▁climbs	-10.6869
▁hallway	-10.6876
▁intimate	-10.6879
▁em	-10.6881
▁lion	-10.6886
▁delightful	-10.6886
▁obtained	-10.6887
▁writer	-10.6893
▁distinguished	-10.6893
▁shooting	-10.6901
▁committed	-10.6904
▁concluded	-10.6905
▁cloak	-10.6906
▁cheerful	-10.6908
▁beard	-10.6908
▁career	-10.6914
▁signal	-10.6925
▁military	-10.6928
▁destroyed	-10.693
▁est	-10.6934
▁DAVID	-10.6938
▁visitor	-10.6939
▁separate	-10.694
▁treat	-10.694
▁OVER	-10.6954
▁invited	-10.6961
MAN	-10.6965
▁fence	-10.6969
▁Levin	-10.6971
▁score	-10.6973
▁custom	-10.6974
▁practical	-10.6975
▁uneasy	-10.6976
▁aspect	-10.699
▁process	-10.6992
Will	-10.6994
▁spots	-10.7005
▁century	-10.7007
At	-10.7011
▁sensible	-10.7018
▁Claude	-10.7022
▁lucky	-10.7024
▁Next	-10.703
▁heels	-10.7036
▁deny	-10.7047
▁disposed	-10.7048
▁block	-10.7051
▁leather	-10.7053
▁striking	-10.7054
▁slides	-10.7062
▁gods	-10.7064
▁inches	-10.7066
▁smaller	-10.7069
▁slams	-10.7073
▁owe	-10.7076
▁intense	-10.7083
▁yeah	-10.7088
▁occasions	-10.7091
▁disposition	-10.7095
▁knight	-10.7099
▁victim	-10.7102
▁produce	-10.7111
▁returns	-10.7116
able	-10.7123
▁Major	-10.7124
▁waits	-10.7126
▁current	-10.7126
hearted	-10.7128
why	-10.7131
▁amused	-10.7133
▁nonsense	-10.7135
▁Anthony	-10.7136
▁checks	-10.7139
▁mud	-10.7139
▁difficulties	-10.714
▁doubtless	-10.7142
▁strongly	-10.715
▁contained	-10.7151
▁letting	-10.7158
▁Mademoiselle	-10.7163
▁ships	-10.7167
▁eleven	-10.7171
▁studies	-10.7172
▁burned	-10.7175
▁Russian	-10.7178
▁outer	-10.7181
time	-10.7185
Can	-10.7187
▁belt	-10.7194
▁relieved	-10.7194
▁Joseph	-10.7195
▁daughters	-10.7196
▁Mme	-10.7201
▁Majesty	-10.7202
well	-10.7209
▁closing	-10.721
▁Annie	-10.7217
WILL	-10.7219
▁agony	-10.7221
▁decide	-10.7225
▁beating	-10.7225
▁forces	-10.7232
▁protection	-10.7234
▁Professor	-10.7235
▁pressure	-10.7235
▁bless	-10.7243
▁delivered	-10.7247
▁HOTEL	-10.7248
▁cutting	-10.7251
▁HIM	-10.7253
▁curtain	-10.7256
▁ANOTHER	-10.7261
▁demand	-10.7264
▁gloom	-10.7272
▁introduced	-10.7274
eth	-10.7279
▁cart	-10.7286
▁goodness	-10.7287
▁monster	-10.7291
▁lunch	-10.7294
▁tunnel	-10.7295
let	-10.7298
▁royal	-10.7306
▁disappointment	-10.7307
il	-10.7317
▁staircase	-10.7326
▁mankind	-10.7327
▁Whatever	-10.7329
▁shelter	-10.7338
▁Many	-10.7338
▁circumstance	-10.7338
▁SEE	-10.734
▁Dan	-10.7349
▁purse	-10.735
▁sheep	-10.7351
▁porch	-10.7351
▁treasure	-10.7362
▁observation	-10.7364
;"	-10.7369
▁Green	-10.7375
▁ignorance	-10.7377
▁BEN	-10.7379
▁burn	-10.7385
▁Scott	-10.7385
▁scheme	-10.7389
▁series	-10.7396
▁Tarzan	-10.7397
▁swiftly	-10.7397
▁parties	-10.7406
▁disappointed	-10.7409
▁trunk	-10.7412
▁Young	-10.7418
▁mist	-10.7421
▁frozen	-10.7423
▁reaching	-10.7424
▁sons	-10.7425
▁huh	-10.7429
▁facing	-10.7429
▁terrified	-10.7435
▁glimpse	-10.744
▁active	-10.7441
▁species	-10.7442
▁Linda	-10.7449
▁Day	-10.7456
JACK	-10.7458
▁suggestion	-10.746
▁occasionally	-10.746
▁handkerchief	-10.7462
▁successful	-10.7477
then	-10.7477
▁smart	-10.7478
▁Ruth	-10.7486
▁plant	-10.7488
▁article	-10.7493
▁JACKIE	-10.7494
▁exit	-10.7498
▁bones	-10.7498
▁mid	-10.7502
▁Back	-10.7503
▁unusual	-10.7508
▁Stephen	-10.7511
▁source	-10.7512
▁South	-10.7513
▁van	-10.7514
▁BILLY	-10.7515
▁plane	-10.7515
▁drank	-10.7516
▁Say	-10.7516
▁capital	-10.7516
▁misfortune	-10.7517
▁numbers	-10.752
▁arrive	-10.7525
▁magnificent	-10.7528
▁FRANK	-10.753
▁"_	-10.7532
▁impulse	-10.7537
▁SARAH	-10.7538
▁compelled	-10.7541
▁scream	-10.757
▁bade	-10.7572
▁Toby	-10.7573
▁prayer	-10.7578
▁Nell	-10.758
▁abandoned	-10.7581
▁Walter	-10.7582
▁elder	-10.7589
▁supply	-10.759
▁stiff	-10.7595
▁ACE	-10.7603
▁instinct	-10.7615
▁flames	-10.7616
na	-10.7619
▁souls	-10.7622
._]	-10.7623
▁uniform	-10.7624
▁burden	-10.7625
▁profession	-10.7627
One	-10.7638
▁Countess	-10.764
▁Internet	-10.7642
▁gates	-10.7647
▁skill	-10.765
▁ridiculous	-10.7656
▁fever	-10.7658
LY	-10.7658
▁rapid	-10.7659
▁attended	-10.7661
▁dirt	-10.7662
▁remote	-10.7663
▁stir	-10.768
▁14	-10.7682
▁Nature	-10.7687
▁suspect	-10.7688
▁wanting	-10.7688
▁endure	-10.7691
▁RACHEL	-10.7692
▁domestic	-10.7694
▁angel	-10.7696
▁civil	-10.7702
▁vous	-10.7703
▁inn	-10.7705
▁directions	-10.7709
ne	-10.7709
▁swift	-10.7711
▁glorious	-10.7716
▁repeat	-10.7731
▁Tommy	-10.7733
are	-10.774
▁downstairs	-10.7742
▁quarters	-10.7743
▁blessed	-10.7743
▁Phil	-10.7744
▁declare	-10.7745
▁slips	-10.7746
▁June	-10.7747
▁answers	-10.7748
▁assumed	-10.7748
▁sadly	-10.7754
▁humanity	-10.7756
▁struggling	-10.7757
▁oil	-10.7759
▁established	-10.7764
▁totally	-10.7764
▁doth	-10.7774
▁violently	-10.7778
▁favor	-10.7782
▁shocked	-10.7782
▁Under	-10.7783
▁possibility	-10.7788
▁trace	-10.7793
▁GIRL	-10.7796
▁suspected	-10.7796
▁indifferent	-10.7797
▁response	-10.7811
▁protect	-10.7811
▁praise	-10.7812
▁devoted	-10.7815
▁STATION	-10.7815
▁acted	-10.7817
▁wanna	-10.7819
▁fist	-10.7827
▁permitted	-10.7827
▁wheels	-10.7829
▁mask	-10.7834
▁thousands	-10.7835
▁planet	-10.7837
▁strangely	-10.7839
▁amid	-10.784
▁hint	-10.7845
▁mortal	-10.7847
▁obviously	-10.7849
PAUL	-10.7854
▁Z	-10.7855
▁awkward	-10.7858
▁rendered	-10.7869
▁college	-10.7871
▁rejoined	-10.7873
▁stopping	-10.7877
▁severe	-10.7883
(	-10.7885
▁Alex	-10.7887
”	-10.7887
▁Nevertheless	-10.7889
▁stole	-10.789
▁throne	-10.7892
▁sailor	-10.7893
▁rang	-10.7896
▁Clare	-10.7897
▁lordship	-10.79
▁shouting	-10.7904
▁hid	-10.7906
▁touches	-10.7911
▁trail	-10.7911
▁Mom	-10.7917
▁reward	-10.7919
▁degrees	-10.792
▁Roman	-10.7924
▁grandfather	-10.7924
▁fears	-10.7924
▁march	-10.7927
▁Kirk	-10.7928
▁overcome	-10.7933
▁paying	-10.7936
▁conceal	-10.7938
▁revealing	-10.7945
▁Mason	-10.7948
▁test	-10.7962
▁Patrick	-10.7966
▁exact	-10.797
▁statement	-10.7974
html	-10.7984
▁attempted	-10.7986
▁breeze	-10.7987
▁departed	-10.7988
▁Meanwhile	-10.7989
▁upward	-10.7992
ey	-10.8008
▁guards	-10.8008
▁Lizzie	-10.8012
▁volume	-10.8013
um	-10.8017
▁obtain	-10.802
will	-10.8021
▁partner	-10.8022
▁16	-10.803
▁stunned	-10.8031
▁Van	-10.8033
▁limbs	-10.8036
ting	-10.8042
▁ladder	-10.8043
▁idle	-10.8045
▁sunshine	-10.8054
▁grasp	-10.8055
▁obey	-10.8061
▁folly	-10.8061
▁deed	-10.8064
▁Louise	-10.8073
▁reputation	-10.8079
▁mess	-10.8084
place	-10.8085
▁uncomfortable	-10.8088
▁Julia	-10.8091
▁Helen	-10.8092
▁c	-10.8092
▁balance	-10.8094
▁midnight	-10.8095
▁infinite	-10.8099
▁concealed	-10.81
▁ceremony	-10.8101
▁respectable	-10.8103
▁merry	-10.811
▁profound	-10.811
▁searching	-10.8117
▁Parliament	-10.8121
▁subjects	-10.8124
▁resting	-10.8132
▁Blood	-10.8135
▁dearest	-10.8149
▁Ali	-10.815
▁collar	-10.8152
▁pursuit	-10.8155
▁Hector	-10.8165
▁acting	-10.8168
▁Spanish	-10.817
▁lieutenant	-10.8173
▁17	-10.8174
▁theory	-10.8178
▁jumped	-10.8178
▁Carl	-10.818
▁States	-10.8182
▁je	-10.8188
▁basket	-10.819
▁Mac	-10.8192
▁tide	-10.8194
▁uh	-10.8194
▁sorts	-10.8199
▁wi	-10.8207
▁moreover	-10.821
▁SOUND	-10.8213
▁")	-10.8215
Thank	-10.8218
▁behold	-10.8218
▁cuts	-10.8219
Footnote	-10.8223
▁depths	-10.8224
▁g	-10.8229
▁Holy	-10.8232
▁wire	-10.8234
▁behaviour	-10.8244
▁Time	-10.8247
▁inch	-10.8248
▁jealous	-10.8248
▁happening	-10.825
▁sticks	-10.8254
▁Most	-10.8254
▁roar	-10.8255
table	-10.8255
▁slaves	-10.826
▁ghost	-10.8264
▁pauses	-10.8266
▁official	-10.8266
▁movie	-10.8273
▁humour	-10.8274
▁trick	-10.8281
▁singular	-10.8283
▁agent	-10.8284
▁hatred	-10.8286
▁income	-10.829
X	-10.8292
▁indifference	-10.8292
▁failure	-10.8301
▁apparent	-10.8301
US	-10.8305
▁Greek	-10.8305
▁Government	-10.8313
▁nearby	-10.8318
▁enthusiasm	-10.832
▁likewise	-10.833
▁paint	-10.8334
▁Oliver	-10.8335
▁beasts	-10.8337
▁owner	-10.8339
▁embrace	-10.8342
▁principle	-10.8343
▁views	-10.8346
ry	-10.8349
▁San	-10.8356
▁activity	-10.8362
▁trembled	-10.8366
Because	-10.837
▁proceed	-10.838
▁Think	-10.8382
▁killing	-10.8388
▁parish	-10.8388
▁13	-10.8391
▁nephew	-10.8393
▁movements	-10.8393
▁staying	-10.8394
▁properly	-10.8395
▁port	-10.8397
▁Any	-10.8397
Never	-10.8398
▁Robin	-10.8401
▁High	-10.8401
▁PAT	-10.8403
▁honey	-10.8408
▁lesson	-10.8413
▁boxes	-10.8418
▁grim	-10.8418
▁retreat	-10.8427
▁laying	-10.843
▁lip	-10.8435
▁palm	-10.8439
▁non	-10.8439
▁design	-10.8446
▁Four	-10.8447
▁freely	-10.8448
▁display	-10.8449
▁Gregory	-10.8454
▁discussion	-10.8455
▁Martha	-10.8455
▁prisoners	-10.8466
▁blade	-10.8467
▁Ramona	-10.8468
▁THAT	-10.8471
▁telephone	-10.8475
▁build	-10.8476
▁borne	-10.8477
▁quit	-10.8479
▁Really	-10.848
▁bullet	-10.8481
▁notion	-10.8481
▁e	-10.8483
▁exist	-10.8483
▁Does	-10.8486
▁cigar	-10.849
▁urged	-10.8491
▁Carol	-10.8502
▁wrath	-10.8503
▁blank	-10.8506
▁marble	-10.8511
▁revealed	-10.8512
▁unexpected	-10.8513
▁pushing	-10.8515
▁poured	-10.8517
▁raising	-10.852
▁amazement	-10.8523
▁gloomy	-10.8525
▁faster	-10.8531
▁leader	-10.8534
▁furious	-10.8537
▁examined	-10.8539
▁Alan	-10.8539
▁branch	-10.8539
▁punishment	-10.8539
▁probable	-10.8544
▁steadily	-10.8544
▁impressed	-10.8554
▁folded	-10.8554
▁RED	-10.8555
▁issue	-10.8556
▁NEW	-10.8557
▁HALL	-10.8557
▁separated	-10.8559
▁afterward	-10.8563
▁III	-10.8564
▁revenge	-10.8565
▁Pecksniff	-10.8568
▁Kipps	-10.8572
▁cliff	-10.8587
▁threatened	-10.8594
▁fourth	-10.86
▁sixty	-10.861
▁Saturday	-10.8613
▁straw	-10.8613
▁Malcolm	-10.8623
▁habits	-10.8624
▁ruined	-10.8627
▁backward	-10.863
▁nations	-10.863
▁struggles	-10.8632
▁obvious	-10.8641
▁pretend	-10.8645
▁seeking	-10.8645
▁gown	-10.8648
▁description	-10.8654
▁Chief	-10.8656
▁angrily	-10.8656
▁considering	-10.8657
▁Betty	-10.8659
▁Norman	-10.866
▁Presently	-10.8674
▁pour	-10.8675
▁scorn	-10.8683
▁anymore	-10.8685
▁Big	-10.869
▁fix	-10.8695
▁ate	-10.8712
▁method	-10.8712
▁Put	-10.8715
▁victory	-10.8722
God	-10.8723
▁Madam	-10.8725
▁massive	-10.8727
▁heavens	-10.8733
▁benefit	-10.8739
▁betrayed	-10.8746
▁MAX	-10.8747
▁upset	-10.8749
ANGLE	-10.8756
▁Shall	-10.8759
▁IMSDb	-10.8763
▁alarmed	-10.8764
▁grip	-10.8764
▁labour	-10.8764
▁popular	-10.8764
▁indignation	-10.8765
▁rules	-10.8765
▁LOUIS	-10.8767
▁leaps	-10.8771
oh	-10.8779
▁drag	-10.8781
▁Virginia	-10.8784
▁footsteps	-10.8793
▁succeed	-10.8793
▁Everybody	-10.8796
▁wildly	-10.8796
▁range	-10.8797
▁bride	-10.88
AL	-10.8801
▁hesitation	-10.8802
▁cage	-10.8804
▁Cobb	-10.8804
▁behalf	-10.8807
▁families	-10.8809
▁Stop	-10.8809
▁composed	-10.8811
▁kingdom	-10.8822
▁nervously	-10.8829
▁Neither	-10.8829
▁absent	-10.883
▁fetch	-10.8832
▁ambition	-10.8844
TV	-10.8847
Nothing	-10.8851
▁purple	-10.8854
▁faded	-10.8855
▁impatient	-10.8859
▁trusted	-10.8862
▁gather	-10.8862
▁arrangement	-10.8867
▁Danny	-10.8868
▁ventured	-10.8869
▁eh	-10.8873
▁Blue	-10.8873
▁leaped	-10.8877
▁Fawn	-10.888
▁(-	-10.8886
▁favourite	-10.8887
▁LARRY	-10.8894
▁crept	-10.8904
▁dumb	-10.8906
▁appointed	-10.8907
▁Peregrine	-10.8912
▁veil	-10.8916
▁easier	-10.8918
▁Y	-10.892
▁BUILDING	-10.8921
▁beheld	-10.8921
▁Castle	-10.8923
▁qui	-10.8923
▁CORRIDOR	-10.8936
▁represented	-10.8942
▁strain	-10.8943
▁normal	-10.8949
▁HOME	-10.895
▁prefer	-10.895
▁local	-10.8953
▁stirred	-10.8959
▁August	-10.896
▁loudly	-10.8962
just	-10.8965
▁Up	-10.8966
▁envelope	-10.897
▁elbow	-10.8971
▁rights	-10.8976
▁neighbourhood	-10.8977
▁waving	-10.898
▁vanity	-10.8985
▁Ha	-10.8986
▁sweat	-10.8998
▁divided	-10.9002
▁invitation	-10.9007
▁disagreeable	-10.9007
▁actual	-10.9013
▁cash	-10.9014
▁swung	-10.9014
▁temple	-10.9015
▁beloved	-10.9016
don	-10.9016
▁results	-10.9016
▁kick	-10.9017
▁permit	-10.9023
▁piano	-10.9024
▁OLD	-10.9028
▁solitary	-10.9029
▁lawn	-10.903
▁invisible	-10.9032
▁file	-10.9033
be	-10.9033
▁Land	-10.9039
▁decent	-10.9043
▁EVENING	-10.9045
▁Molly	-10.9045
▁warmth	-10.9047
JOHN	-10.9052
▁wears	-10.9061
▁intend	-10.9065
▁seats	-10.9066
▁marks	-10.9069
▁bushes	-10.9075
▁artist	-10.9081
▁alike	-10.9084
▁map	-10.9092
▁crack	-10.9095
▁changing	-10.9101
▁PAUL	-10.9103
▁hideous	-10.9103
▁rushing	-10.9107
▁meantime	-10.9115
▁bars	-10.9122
▁wandering	-10.9123
▁worship	-10.9124
▁aim	-10.9125
▁cleared	-10.9127
▁daylight	-10.913
▁distinct	-10.9133
▁correct	-10.9138
▁gravely	-10.9141
▁inquiry	-10.9141
▁wandered	-10.9143
▁Englishman	-10.9144
▁expense	-10.915
▁cops	-10.9151
▁assurance	-10.9152
▁dropping	-10.916
▁wrist	-10.9164
▁pressing	-10.9165
▁Kim	-10.9171
▁spiritual	-10.9176
▁Five	-10.9179
▁communication	-10.9188
▁sighs	-10.9189
▁tones	-10.9194
▁eternal	-10.9194
▁moonlight	-10.9194
▁troubles	-10.9202
▁extended	-10.9203
▁farewell	-10.9204
▁shed	-10.921
▁shaken	-10.9217
▁clergyman	-10.9217
▁gathering	-10.9218
▁amusement	-10.9218
▁embarrassed	-10.9219
▁resist	-10.9221
▁created	-10.9222
▁OFF	-10.9231
▁involved	-10.9234
▁hoping	-10.9234
▁parting	-10.9235
1	-10.9235
▁knocking	-10.9238
▁visited	-10.9241
▁tables	-10.9242
beat	-10.9244
▁Herbert	-10.9249
▁nowhere	-10.925
▁thunder	-10.9254
▁male	-10.9254
▁TIME	-10.9254
▁jungle	-10.9256
▁recognize	-10.9257
▁Grant	-10.9259
▁glowing	-10.927
▁staff	-10.9273
ce	-10.9279
▁rent	-10.9279
▁Alessandro	-10.928
▁bus	-10.9284
▁PHONE	-10.9285
▁expecting	-10.9285
Just	-10.9287
▁nights	-10.9294
▁carries	-10.9294
▁soil	-10.9296
▁maiden	-10.9297
▁leap	-10.93
▁Harriet	-10.9304
▁panic	-10.9304
▁pot	-10.9306
eyed	-10.931
▁mingled	-10.931
▁weren	-10.9312
▁quoth	-10.9312
ar	-10.932
ic	-10.9323
▁permission	-10.9323
▁absorbed	-10.9324
▁buildings	-10.9326
▁experienced	-10.9326
▁Wilson	-10.9332
▁deserve	-10.9333
▁Joan	-10.9338
▁Booth	-10.9339
▁upright	-10.934
▁Minister	-10.9342
▁motive	-10.9342
▁poverty	-10.9347
▁talks	-10.9356
▁Stanbury	-10.9362
▁exposed	-10.9365
▁shower	-10.9371
▁opinions	-10.938
Indeed	-10.938
▁dine	-10.9389
▁destruction	-10.9394
▁prey	-10.9401
▁Rob	-10.9407
▁Val	-10.9409
▁principal	-10.9409
▁Andy	-10.9409
▁pillow	-10.9416
▁poetry	-10.9416
images	-10.942
off	-10.9421
▁absurd	-10.9422
▁Delamere	-10.9431
▁races	-10.9432
▁nerves	-10.9433
▁readily	-10.9439
▁contents	-10.944
▁draws	-10.9443
▁defend	-10.9447
▁faced	-10.9448
box	-10.9455
▁weeping	-10.946
▁bills	-10.9461
▁Square	-10.947
▁harder	-10.9476
▁goin	-10.9476
only	-10.9481
▁spins	-10.9482
▁legal	-10.9486
uite	-10.9491
▁fastened	-10.9493
▁!!	-10.9496
▁nay	-10.9506
▁gestures	-10.9506
▁passionate	-10.9515
▁sunlight	-10.9518
▁retorted	-10.9524
▁film	-10.953
▁rude	-10.9531
▁counsel	-10.9536
▁interior	-10.9548
▁traffic	-10.9548
▁crossing	-10.9549
▁detail	-10.9554
▁thither	-10.9555
▁acknowledged	-10.9562
▁mischief	-10.9563
▁flood	-10.9564
▁flushed	-10.9565
▁risen	-10.9566
▁stolen	-10.9567
▁Sylvia	-10.9573
▁fearful	-10.9576
▁lightning	-10.9579
from	-10.959
▁swing	-10.9591
▁possess	-10.9594
▁salt	-10.9594
▁applied	-10.9596
▁earnestly	-10.9598
▁picking	-10.9601
et	-10.9608
▁commanded	-10.9609
▁characters	-10.9611
▁ME	-10.9621
▁curtains	-10.9622
▁offence	-10.9623
▁anxiously	-10.9625
▁mixed	-10.9628
▁accordingly	-10.963
▁related	-10.963
▁describe	-10.9632
▁NO	-10.9636
▁flow	-10.9637
▁deadly	-10.9639
▁scenes	-10.9641
▁heap	-10.9641
▁answering	-10.9646
▁ages	-10.9647
Sir	-10.9649
▁guessed	-10.9651
▁bunch	-10.9662
yes	-10.9665
▁CAPTAIN	-10.967
▁phrase	-10.9673
▁50	-10.9681
▁heading	-10.9686
▁gracious	-10.9689
▁floating	-10.9692
▁Daddy	-10.9693
▁incident	-10.9695
▁require	-10.9696
2	-10.9701
▁backs	-10.9709
▁Although	-10.971
▁medical	-10.9712
▁lean	-10.9713
▁ONE	-10.9713
Ay	-10.9714
▁theatre	-10.972
▁Susan	-10.9723
▁FOR	-10.9724
▁Eric	-10.9724
▁beaten	-10.9727
▁fuckin	-10.9727
▁paces	-10.9731
▁accomplished	-10.9731
MRS	-10.9733
▁feed	-10.9734
▁safely	-10.9736
▁Several	-10.9739
▁heartily	-10.974
▁covering	-10.974
▁troops	-10.9743
▁load	-10.9743
Tell	-10.9744
▁World	-10.9745
▁responsibility	-10.9745
▁happily	-10.9746
▁teacher	-10.9753
▁louder	-10.9753
ling	-10.9754
▁closet	-10.9757
▁oath	-10.9759
▁hither	-10.976
HARRY	-10.976
Certainly	-10.9776
▁endeavoured	-10.9778
▁altered	-10.9779
▁roused	-10.978
▁neighborhood	-10.9785
▁steal	-10.9791
▁objection	-10.9792
▁emotions	-10.9801
▁numerous	-10.9802
▁anguish	-10.9807
▁major	-10.9811
▁formerly	-10.9816
▁mate	-10.9824
▁Fuck	-10.9829
now	-10.983
▁stroke	-10.9831
▁solitude	-10.9831
▁Isabel	-10.9835
▁twisted	-10.9843
▁stout	-10.9846
▁including	-10.9847
▁Ch	-10.9848
▁Death	-10.985
▁remarks	-10.9853
▁recover	-10.9856
▁qualities	-10.9858
▁section	-10.9858
▁eggs	-10.9861
▁completed	-10.9862
▁grows	-10.9867
▁steep	-10.9873
▁KING	-10.9874
▁nod	-10.9878
▁prevented	-10.9878
▁yield	-10.9882
▁politics	-10.9889
▁preparing	-10.989
▁addressing	-10.9891
▁Brown	-10.9892
▁MORE	-10.9895
▁cop	-10.9897
▁blowing	-10.9898
▁Harding	-10.9899
ch	-10.9902
▁hastened	-10.9907
▁reminded	-10.991
your	-10.9912
▁funeral	-10.9921
▁United	-10.9922
▁suggest	-10.9923
▁glancing	-10.9926
*	-10.9927
Dear	-10.9933
▁Sue	-10.9934
▁saddle	-10.9935
▁wagon	-10.9935
▁noon	-10.9936
▁Miller	-10.9939
▁covers	-10.995
▁disgust	-10.995
▁corpse	-10.9954
▁Carter	-10.9956
?!	-10.9963
▁IV	-10.9965
▁Kitty	-10.9965
▁parlour	-10.9967
▁eaten	-10.9968
▁affectionate	-10.9969
▁propose	-10.9974
▁angle	-10.9981
▁impatience	-10.9987
▁shout	-10.999
▁Leonard	-10.9994
▁v	-10.9996
▁Lisa	-10.9996
▁Alwynne	-10.9998
▁term	-10.9998
▁shrugs	-11
▁consequences	-11.0001
▁hundreds	-11.0004
▁Pete	-11.0005
▁intervals	-11.0009
▁lodgings	-11.0013
▁amazed	-11.0014
▁bowl	-11.0019
▁LISA	-11.002
▁fancied	-11.002
▁Nay	-11.002
▁25	-11.0028
▁dreamed	-11.0029
▁pas	-11.003
▁photo	-11.0037
▁East	-11.0038
▁elsewhere	-11.0038
▁trap	-11.0044
▁wash	-11.005
▁prepare	-11.0055
▁Ma	-11.0058
▁disappears	-11.0059
▁railway	-11.0062
▁mon	-11.0074
BILLY	-11.0079
▁remind	-11.0086
▁fortnight	-11.0094
▁disgrace	-11.0096
▁yielded	-11.0104
▁presses	-11.0114
▁checked	-11.0118
▁Bond	-11.0122
▁chase	-11.0124
▁distinctly	-11.0129
▁instructions	-11.0132
▁positive	-11.0135
▁jealousy	-11.0138
▁assist	-11.0147
▁THROUGH	-11.0148
▁Latin	-11.0151
▁flashed	-11.0156
▁tremendous	-11.016
▁wives	-11.0163
▁reasonable	-11.0163
▁24	-11.0172
▁Looks	-11.0175
▁21	-11.0175
▁pitch	-11.0176
▁total	-11.0179
▁corn	-11.0185
▁protest	-11.0187
▁inhabitants	-11.0188
▁contented	-11.0189
▁Also	-11.019
▁Judge	-11.0193
▁community	-11.0194
▁Sandy	-11.0195
▁drinks	-11.0196
▁actions	-11.0196
▁articles	-11.02
▁prize	-11.0206
▁AN	-11.0209
▁y	-11.0209
▁OK	-11.0218
la	-11.0219
▁landlord	-11.022
▁coal	-11.0224
▁]	-11.0229
▁parked	-11.023
▁sunk	-11.0231
▁awe	-11.0232
▁Jordan	-11.0237
▁Johnny	-11.0238
▁MUSIC	-11.0239
▁furnished	-11.0241
▁submit	-11.0243
▁blew	-11.0244
▁STEPHEN	-11.0245
▁19	-11.0248
▁compared	-11.0248
▁faintly	-11.0249
▁bay	-11.0257
▁Rick	-11.0262
▁performed	-11.0262
▁reduced	-11.0271
▁citizen	-11.0272
▁principles	-11.0275
▁bishop	-11.0284
▁kicks	-11.0285
▁BY	-11.0287
▁BOY	-11.0288
▁Jennie	-11.0288
▁warriors	-11.0292
▁gallery	-11.0296
▁bull	-11.0297
▁whereas	-11.0312
▁services	-11.0314
▁granted	-11.0314
▁TOM	-11.0315
▁feeble	-11.0318
▁banks	-11.0319
▁policy	-11.0319
▁gloves	-11.0326
▁18	-11.0333
▁Night	-11.0334
▁Were	-11.034
▁Duchess	-11.0341
▁whispers	-11.0342
cont	-11.0346
▁40	-11.0349
▁weird	-11.0349
▁string	-11.035
Miss	-11.036
▁pit	-11.036
▁tosses	-11.0365
▁slender	-11.0379
▁Emperor	-11.0381
▁secretary	-11.0381
MR	-11.0383
▁YOUNG	-11.0394
▁wing	-11.0396
▁romantic	-11.0405
▁crushed	-11.0407
▁sentiment	-11.0407
▁craft	-11.0414
▁AFTERNOON	-11.0414
▁practically	-11.0418
▁grin	-11.042
▁climbed	-11.0425
▁brains	-11.0425
▁merit	-11.0429
▁shoots	-11.0433
▁chapter	-11.0434
▁breathe	-11.0439
very	-11.044
▁Arabella	-11.044
▁catching	-11.044
▁Soon	-11.044
▁Should	-11.0442
▁powder	-11.0447
▁offering	-11.0448
▁FLOOR	-11.0449
▁Dorothea	-11.045
▁professional	-11.0451
▁blown	-11.0456
▁Sophia	-11.0456
▁swinging	-11.046
▁Other	-11.0464
▁curse	-11.0464
▁sole	-11.0465
▁Betsy	-11.0466
▁meanwhile	-11.0466
▁positively	-11.0468
▁hence	-11.0474
▁ladyship	-11.0474
▁Logan	-11.0475
▁pavement	-11.0477
▁recall	-11.048
▁cheap	-11.0481
▁Island	-11.0482
▁Tin	-11.0483
▁recalled	-11.0485
▁acknowledge	-11.0486
▁Rebecca	-11.049
▁lofty	-11.0491
▁painting	-11.0503
▁shield	-11.0508
▁training	-11.0511
ment	-11.0517
▁Kennedy	-11.0518
▁images	-11.052
▁performance	-11.052
▁bite	-11.0523
▁Nigel	-11.0525
▁Keep	-11.0531
▁illness	-11.0536
▁heir	-11.054
▁Ross	-11.0541
▁innocence	-11.0542
book	-11.0543
▁monstrous	-11.0549
▁princess	-11.0556
▁cares	-11.056
▁receiving	-11.056
▁boats	-11.0563
▁proposal	-11.0564
▁winds	-11.0567
▁engineer	-11.0569
▁cautiously	-11.0569
▁Ashe	-11.0572
▁bags	-11.0572
▁conceived	-11.0576
▁preferred	-11.0576
▁Too	-11.0587
▁Italy	-11.0588
▁passenger	-11.0591
▁Remember	-11.0592
▁MATT	-11.0594
▁tobacco	-11.0594
▁enjoying	-11.0596
▁intent	-11.0598
▁offended	-11.0599
▁spell	-11.0603
▁Benny	-11.0604
▁beam	-11.0604
▁Excuse	-11.0605
▁listens	-11.0609
four	-11.0609
▁fortunate	-11.0609
▁residence	-11.0616
▁h	-11.0619
▁Violet	-11.0621
▁backwards	-11.0625
▁POLICE	-11.0627
With	-11.0628
▁studied	-11.0629
▁lovers	-11.063
▁Jackie	-11.063
▁Hugh	-11.0631
▁portrait	-11.0644
▁GUARD	-11.0645
▁fro	-11.0651
▁intelligent	-11.0654
▁hunt	-11.0654
▁modest	-11.0662
▁wilt	-11.0664
▁Fairy	-11.0666
▁fog	-11.0672
▁instrument	-11.0673
▁longing	-11.0676
▁reception	-11.0677
▁loaded	-11.0677
▁continually	-11.0681
▁vulgar	-11.0682
----------------	-11.0689
▁firing	-11.0692
▁Oz	-11.0696
▁mission	-11.0699
▁bigger	-11.0699
▁kinds	-11.07
▁interfere	-11.0706
▁tin	-11.071
▁persuaded	-11.0715
▁polite	-11.0715
▁pants	-11.0718
▁emerges	-11.0718
▁voyage	-11.0721
rs	-11.0724
▁tray	-11.0725
▁offers	-11.0726
▁Monday	-11.0727
even	-11.0738
▁prayers	-11.0741
▁Magdalen	-11.0749
▁twilight	-11.0752
▁attracted	-11.0754
▁rays	-11.0756
▁murmur	-11.0756
▁longed	-11.0759
▁philosophy	-11.0761
▁pours	-11.0762
▁trifle	-11.0763
▁ex	-11.077
▁intellectual	-11.0772
▁Hill	-11.0775
▁travelling	-11.0778
▁alley	-11.0779
▁filling	-11.0779
▁overhead	-11.0779
▁Jimmy	-11.078
▁Shit	-11.0782
▁mild	-11.0785
▁shouts	-11.0791
▁Adams	-11.0796
▁WILL	-11.0798
▁leisure	-11.08
▁union	-11.0806
▁Instead	-11.0808
▁county	-11.0811
▁assume	-11.0813
▁Catherine	-11.0815
▁carpet	-11.0816
▁grounds	-11.0816
▁DANNY	-11.0818
▁impatiently	-11.0819
▁www	-11.0822
▁helping	-11.0824
▁bitterly	-11.0829
▁Am	-11.0829
▁linen	-11.0829
▁depth	-11.0829
▁electric	-11.083
▁rescue	-11.0831
▁lively	-11.0832
▁wreck	-11.0833
▁refuge	-11.0835
▁wept	-11.0842
▁DAWN	-11.0842
▁Down	-11.0843
▁millions	-11.0847
▁MEN	-11.0852
▁washed	-11.0852
▁inevitable	-11.0858
▁MED	-11.0859
two	-11.086
▁Ten	-11.0861
▁remove	-11.0862
▁Tim	-11.0864
▁madness	-11.087
▁acquired	-11.0871
▁sore	-11.0875
▁mansion	-11.0875
▁sensation	-11.0885
▁maintain	-11.0887
▁Glencora	-11.0887
ish	-11.0888
▁depend	-11.0888
▁obeyed	-11.0889
▁warrant	-11.0891
▁fed	-11.0894
▁Leo	-11.0895
▁charged	-11.0897
▁shortly	-11.0904
▁marrying	-11.0905
▁devotion	-11.0909
▁rival	-11.0911
▁BEAT	-11.0912
▁Governor	-11.0916
▁signed	-11.0917
▁wishing	-11.0917
can	-11.0931
▁colonel	-11.0931
ies	-11.0931
▁outward	-11.0935
▁knocks	-11.0943
▁MOTHER	-11.0944
▁apt	-11.0945
▁admired	-11.0945
▁drawer	-11.0945
▁favorite	-11.0946
▁sang	-11.0946
▁22	-11.0948
▁satisfy	-11.095
▁existed	-11.095
▁doubted	-11.0955
Take	-11.0963
▁supported	-11.0963
▁regarding	-11.0964
▁determination	-11.0966
▁vengeance	-11.0966
▁visitors	-11.097
▁damp	-11.0975
▁mustn	-11.0975
▁hesitates	-11.0978
▁SCREEN	-11.098
▁eighteen	-11.0984
▁chiefly	-11.0989
▁horrid	-11.0992
▁wounds	-11.0993
▁LADY	-11.0998
ah	-11.1002
▁hunger	-11.1005
gif	-11.1009
▁secrets	-11.101
▁Dale	-11.1012
▁injured	-11.1014
some	-11.1015
▁desperately	-11.1015
Be	-11.1022
▁unpleasant	-11.1024
▁lowered	-11.1027
▁clothing	-11.1027
▁Wolf	-11.1029
▁hopeless	-11.103
▁Pope	-11.1038
▁extra	-11.1039
▁Bell	-11.104
▁passions	-11.1041
▁Half	-11.1042
▁KIRK	-11.1043
▁genuine	-11.1045
▁pronounced	-11.1052
▁awhile	-11.1054
▁agitation	-11.1056
▁SHE	-11.1056
▁gravity	-11.1056
▁restless	-11.1057
natured	-11.1057
▁whip	-11.1058
▁murdered	-11.1063
▁monsieur	-11.1066
▁crash	-11.1067
▁spear	-11.1068
▁Rev	-11.1069
▁shy	-11.1077
▁Barney	-11.1084
▁cunning	-11.1091
Mrs	-11.1094
▁Un	-11.1098
▁novel	-11.1098
▁blast	-11.11
▁effects	-11.1101
▁Gerald	-11.1112
▁MARK	-11.1114
▁fame	-11.1115
▁Eddie	-11.1121
▁bitch	-11.1122
▁restored	-11.1125
▁brick	-11.1134
▁jail	-11.1134
▁com	-11.1137
▁exquisite	-11.1137
x	-11.1141
▁velvet	-11.1146
▁None	-11.1148
▁Trevelyan	-11.1148
▁bush	-11.1149
▁whither	-11.1151
▁harsh	-11.1152
▁uncertain	-11.1155
▁Palliser	-11.1157
▁cure	-11.1163
go	-11.1164
▁clearing	-11.1165
▁Veronica	-11.1167
▁increase	-11.1169
▁ringing	-11.1174
▁valuable	-11.1176
▁childhood	-11.1184
▁Chia	-11.1186
▁mode	-11.1186
▁des	-11.1187
▁chances	-11.1188
▁Caesar	-11.1194
▁FADE	-11.1197
▁brush	-11.1197
▁wherever	-11.1197
▁shalt	-11.1204
▁HEAD	-11.1205
▁kissing	-11.1205
LARRY	-11.1206
▁tough	-11.1209
ism	-11.1213
▁enjoyment	-11.1213
▁precisely	-11.1214
because	-11.1215
▁Has	-11.1216
▁Being	-11.1219
▁frequent	-11.122
▁Dorrit	-11.1221
▁terribly	-11.1222
▁altar	-11.1223
▁containing	-11.1225
▁likes	-11.1226
▁bewildered	-11.123
▁Scotland	-11.1231
▁curiously	-11.1236
▁motions	-11.1237
▁sober	-11.1239
▁balls	-11.1241
▁operation	-11.1242
▁bargain	-11.1244
▁defence	-11.1247
▁blessing	-11.1247
▁packed	-11.1248
▁Lester	-11.125
▁cheer	-11.125
▁locks	-11.1251
▁Lieutenant	-11.1252
▁wolf	-11.1257
▁Close	-11.1262
▁MALCOLM	-11.1262
▁Jude	-11.1264
▁plastic	-11.1267
▁mostly	-11.1272
▁torture	-11.1275
▁DUSK	-11.1279
▁Lily	-11.1281
▁disappear	-11.1282
▁leaf	-11.1284
▁vaguely	-11.1291
▁sugar	-11.1292
▁Lapham	-11.1295
▁injury	-11.1297
▁annoyed	-11.1299
▁frightful	-11.1304
▁Eustace	-11.1304
](	-11.1306
▁thief	-11.1306
▁render	-11.1312
▁warrior	-11.1318
▁Coningsby	-11.1323
▁Pencroft	-11.1324
▁interval	-11.1326
▁acts	-11.1327
▁Squire	-11.1331
▁seeming	-11.1331
▁Blanche	-11.1335
MARK	-11.1339
▁model	-11.1341
▁duke	-11.1346
▁release	-11.1351
▁recognised	-11.1355
▁belongs	-11.1355
▁waved	-11.1356
▁dad	-11.1357
▁responsible	-11.136
▁capacity	-11.1361
▁Bobby	-11.1363
▁treatment	-11.1364
▁debt	-11.1364
▁tip	-11.1365
▁bone	-11.137
▁arrested	-11.1372
▁Looking	-11.1378
▁Mowbray	-11.138
▁BAR	-11.1383
▁Miles	-11.1385
▁rector	-11.1386
▁Sea	-11.1391
▁split	-11.1392
▁100	-11.1401
▁lifting	-11.1407
▁lane	-11.1413
▁autumn	-11.1414
▁bottles	-11.1418
▁FRONT	-11.1421
▁examine	-11.1424
▁farmer	-11.1427
▁Geoffrey	-11.1429
▁Hold	-11.143
▁deceived	-11.1432
▁grandmother	-11.1433
▁jewels	-11.1433
▁wont	-11.1434
▁landed	-11.1434
▁den	-11.1437
▁Harold	-11.1437
▁memories	-11.1437
▁unlike	-11.1438
▁sinking	-11.1446
▁discuss	-11.1449
▁pains	-11.1454
▁Doc	-11.1458
▁aboard	-11.1459
▁aged	-11.1461
▁suspicious	-11.1465
hand	-11.1476
▁Moon	-11.1476
▁landscape	-11.1477
▁contrast	-11.1478
▁doubtful	-11.1479
▁RICK	-11.1479
▁fitted	-11.1482
▁tracks	-11.1485
▁barrel	-11.149
.'"	-11.1491
▁Royal	-11.1492
▁corners	-11.1493
▁pre	-11.15
▁MARGARET	-11.1502
▁Him	-11.1504
▁conceive	-11.1505
▁fur	-11.1507
▁robe	-11.1507
▁Make	-11.1511
▁assembled	-11.1514
▁chap	-11.1519
An	-11.1519
headed	-11.1523
▁Charley	-11.1524
▁pretended	-11.1524
▁Mount	-11.1532
▁clasped	-11.1532
Z	-11.1536
▁wretch	-11.1537
▁attacked	-11.1538
▁sunset	-11.1541
▁Boy	-11.1543
where	-11.1547
▁graceful	-11.1549
▁CHARLES	-11.1551
▁yonder	-11.1551
▁foul	-11.1551
▁ROB	-11.1551
▁confession	-11.1554
▁surrounding	-11.1556
▁reserve	-11.1556
▁romance	-11.1557
▁whispering	-11.1557
▁cattle	-11.1568
▁insult	-11.1569
▁MOMENTS	-11.1572
▁pouring	-11.1575
▁perform	-11.1575
▁diamonds	-11.1587
▁Lufton	-11.1588
▁variety	-11.1588
▁attractive	-11.1589
▁scale	-11.1589
▁warned	-11.159
▁hurries	-11.1598
▁gang	-11.1606
▁video	-11.1607
▁Kelly	-11.1608
▁advise	-11.1612
▁strikes	-11.1614
▁discourse	-11.1615
▁Among	-11.1616
▁noted	-11.1617
▁Roland	-11.1621
▁War	-11.1624
▁charity	-11.1628
▁ape	-11.1629
▁mill	-11.1635
▁hut	-11.1635
▁stretch	-11.1637
▁Silence	-11.1639
▁ERIC	-11.1642
▁grab	-11.1642
▁shaft	-11.1645
▁slope	-11.1647
▁Le	-11.1649
side	-11.1652
▁admire	-11.1654
▁Washington	-11.1656
▁reckon	-11.1659
▁encounter	-11.1664
▁inquiries	-11.1665
▁Gresham	-11.167
▁recollection	-11.1671
▁swore	-11.1675
▁Whether	-11.1676
▁fairy	-11.1679
▁sleeve	-11.1681
▁thanked	-11.1685
▁independent	-11.1686
▁plunged	-11.1688
▁belonging	-11.1689
▁aught	-11.169
▁mail	-11.1691
▁resentment	-11.1694
▁reproach	-11.17
▁sport	-11.1702
▁bleeding	-11.1706
▁Strether	-11.1706
▁inform	-11.1708
▁threshold	-11.1714
▁incredible	-11.1715
▁tightly	-11.1717
▁grant	-11.1717
▁wrought	-11.1718
▁counted	-11.1729
▁mutual	-11.1731
▁28	-11.1735
▁examination	-11.1737
EE	-11.1745
▁JULIE	-11.1751
▁ours	-11.1753
▁behaved	-11.1754
▁dwelling	-11.1755
▁shoe	-11.1763
▁chill	-11.1764
▁sheets	-11.1768
▁induced	-11.1768
▁vehicle	-11.1768
▁daring	-11.1771
▁Call	-11.1772
▁amiable	-11.1773
▁nigh	-11.1773
▁murderer	-11.1774
▁qu	-11.1776
▁criminal	-11.1778
▁appointment	-11.1778
▁WILLIAM	-11.1781
▁deliver	-11.1781
▁anyhow	-11.1788
▁trousers	-11.179
▁observing	-11.1792
▁helmet	-11.1798
▁steam	-11.1806
▁Grand	-11.181
▁appreciate	-11.181
▁certainty	-11.1812
▁revolver	-11.1818
▁brass	-11.1827
▁tune	-11.1828
▁balcony	-11.1831
▁hook	-11.1832
▁Barbara	-11.1832
▁Thee	-11.1834
▁charges	-11.1836
▁Clennam	-11.1841
▁privilege	-11.1842
▁FACE	-11.1843
▁cursed	-11.1851
▁Homer	-11.1855
▁inspired	-11.1856
▁error	-11.1858
▁bath	-11.186
▁cease	-11.1861
▁holes	-11.1867
▁elegant	-11.1869
▁Scarecrow	-11.187
▁agitated	-11.187
▁Rosamond	-11.1872
▁charms	-11.189
▁Lydgate	-11.19
See	-11.19
▁Jason	-11.1902
▁Angel	-11.1904
▁JIM	-11.1906
▁literature	-11.1911
▁notwithstanding	-11.1912
▁shots	-11.1915
▁occasional	-11.192
▁trained	-11.1921
▁dashed	-11.1923
▁halt	-11.1925
▁tossed	-11.1928
▁messenger	-11.1928
▁dislike	-11.193
▁gleam	-11.1932
▁END	-11.1934
▁dried	-11.1934
▁inward	-11.1935
▁INTERIOR	-11.1941
▁purposes	-11.1942
▁peers	-11.1946
▁blanket	-11.1947
ation	-11.1947
▁policeman	-11.1953
May	-11.1954
▁beings	-11.1956
▁esteem	-11.1956
▁flashing	-11.1959
▁HAND	-11.1959
▁opposition	-11.1959
▁secured	-11.1961
▁bitterness	-11.1962
▁profit	-11.1964
▁VAN	-11.1964
▁sentiments	-11.1975
▁persuade	-11.1983
▁labor	-11.1984
▁OFFICER	-11.1985
▁DOCTOR	-11.1986
▁Ford	-11.1989
▁HARRY	-11.1991
▁breathed	-11.1994
▁gear	-11.1995
▁Son	-11.1997
▁subtle	-11.1998
▁lodging	-11.1998
▁realizes	-11.2001
▁scent	-11.2006
▁Gordon	-11.201
▁FIRST	-11.2011
▁Friday	-11.2011
▁Daniel	-11.2014
▁ALL	-11.2016
▁personally	-11.2018
▁candles	-11.2018
▁MY	-11.202
▁Moreover	-11.2022
▁Marian	-11.2025
▁jaw	-11.2027
▁column	-11.2028
▁universe	-11.2029
▁pound	-11.2034
▁neat	-11.2036
▁landlady	-11.2039
▁substance	-11.2048
▁chimney	-11.2049
▁arrangements	-11.2051
▁adventures	-11.2052
▁arrest	-11.2058
▁********	-11.2059
▁26	-11.2061
▁Andrew	-11.2061
▁multitude	-11.2069
▁displayed	-11.2073
▁se	-11.2078
▁sidewalk	-11.2079
▁uses	-11.208
▁thence	-11.2081
▁flips	-11.2089
▁deserved	-11.2089
▁weep	-11.2099
▁eldest	-11.21
▁Jackson	-11.2103
▁TOMMY	-11.2103
▁developed	-11.2105
▁dish	-11.2106
▁enabled	-11.2107
▁yo	-11.2109
▁cake	-11.211
▁alien	-11.2111
▁collected	-11.2113
▁attorney	-11.212
land	-11.2121
▁rows	-11.2121
▁intimacy	-11.213
past	-11.2132
▁desires	-11.2136
▁accompany	-11.2136
▁Chiltern	-11.2141
▁Nancy	-11.2144
▁shan	-11.2148
▁Clavering	-11.215
▁establishment	-11.2152
▁Grey	-11.2159
▁denied	-11.216
▁withdrew	-11.2163
faced	-11.2164
▁passengers	-11.2168
▁medicine	-11.2181
▁expedition	-11.2191
▁awoke	-11.2191
▁scientific	-11.2192
▁pencil	-11.2192
▁alongside	-11.2193
▁Bernard	-11.2194
▁Mars	-11.2195
▁fishing	-11.2195
▁Pao	-11.2196
▁.)	-11.2199
▁Dear	-11.2201
▁exceedingly	-11.2202
On	-11.2203
▁booth	-11.2207
▁definite	-11.221
▁purchase	-11.2214
▁Isn	-11.2215
▁boss	-11.2217
▁skull	-11.2219
▁peaceful	-11.222
have	-11.2224
▁amidst	-11.2229
▁saving	-11.2229
▁delicious	-11.223
▁confined	-11.2234
▁thumb	-11.2235
▁bows	-11.2241
▁caution	-11.2242
▁apprehension	-11.2243
▁Rue	-11.2246
▁MAC	-11.2246
▁causes	-11.2247
▁rail	-11.2248
▁arrives	-11.225
▁intently	-11.2254
▁reported	-11.2258
▁VI	-11.226
IN	-11.2262
ist	-11.2267
Star	-11.2267
▁bend	-11.2268
▁complain	-11.2269
▁ROAD	-11.227
▁Africa	-11.2272
▁Vanstone	-11.2273
▁guilt	-11.2275
▁Victor	-11.2277
ion	-11.2277
▁newspapers	-11.2279
▁simplicity	-11.2283
▁remembrance	-11.2283
would	-11.2285
▁BRIDGE	-11.2287
▁bother	-11.229
▁gifts	-11.2293
▁confirmed	-11.2296
▁enable	-11.2299
▁gardens	-11.2301
▁regards	-11.2303
▁45	-11.2305
▁literary	-11.2305
▁equipment	-11.2314
▁reaction	-11.2315
▁fragments	-11.2318
▁bending	-11.232
▁descend	-11.2322
▁Armadale	-11.2326
▁COP	-11.2328
▁cow	-11.233
▁project	-11.233
▁selfish	-11.2333
▁LA	-11.2335
▁entertained	-11.2336
down	-11.2338
▁Graham	-11.2351
▁centuries	-11.2356
▁penny	-11.2356
...."	-11.2359
▁coarse	-11.2361
▁doubts	-11.2364
AN	-11.2365
▁Harris	-11.2367
▁Maria	-11.2369
▁thoughtful	-11.2377
▁careless	-11.2377
▁greeted	-11.2378
▁flashes	-11.2379
▁provide	-11.2381
▁Sid	-11.2384
▁Room	-11.239
▁Nora	-11.2396
▁renewed	-11.2399
▁birthday	-11.24
▁masters	-11.2403
▁struggled	-11.2406
here	-11.2407
▁shelf	-11.2407
▁consented	-11.2412
▁studying	-11.2413
▁pollen	-11.2418
▁RAY	-11.2419
ia	-11.242
▁compassion	-11.242
▁MAIN	-11.2425
▁DE	-11.2425
▁lighter	-11.2425
▁Arnold	-11.243
▁average	-11.2439
▁Thorne	-11.2441
▁Dave	-11.2444
▁addition	-11.2444
▁destiny	-11.2449
▁endless	-11.245
▁console	-11.245
▁temptation	-11.2451
▁protested	-11.2452
▁climbing	-11.2458
▁Cross	-11.246
▁greet	-11.2464
▁growth	-11.2466
▁poison	-11.2468
▁needle	-11.2468
▁Jeff	-11.2472
▁Prime	-11.2474
▁drowned	-11.2474
▁FIRE	-11.2475
▁deeds	-11.2476
▁stable	-11.2479
▁clung	-11.248
▁sweep	-11.248
▁STARK	-11.2488
▁23	-11.249
▁lots	-11.2492
▁fills	-11.2492
▁awakened	-11.2494
▁bursts	-11.2495
▁GUY	-11.2502
▁Company	-11.2503
▁Israel	-11.2504
▁threatening	-11.2504
▁finest	-11.2507
▁tools	-11.2508
▁shell	-11.2513
▁damned	-11.2518
▁oak	-11.2519
▁ideal	-11.2523
▁Indians	-11.2524
▁relative	-11.2525
▁discussed	-11.2525
▁generation	-11.2527
TED	-11.2528
▁steward	-11.2531
▁inquire	-11.2532
▁fan	-11.2541
▁willingly	-11.2541
▁visits	-11.2541
▁SECOND	-11.2542
▁Hale	-11.2543
▁sobbing	-11.2547
▁co	-11.255
▁Someone	-11.2551
▁snaps	-11.2552
▁BARBARA	-11.2554
▁underneath	-11.2554
▁collection	-11.2557
▁resolve	-11.2561
▁Doug	-11.2563
▁luxury	-11.2565
▁tribe	-11.2568
▁repose	-11.2569
▁attempts	-11.257
▁abandon	-11.2571
▁recent	-11.2575
▁Woman	-11.2582
▁Meg	-11.2586
▁bonnet	-11.2587
▁published	-11.2588
▁teaching	-11.2588
▁manager	-11.2588
▁switch	-11.2589
▁remembering	-11.2591
▁costume	-11.2593
▁feast	-11.2597
▁feminine	-11.2597
▁Midwinter	-11.2598
▁jest	-11.2606
▁whistle	-11.2606
▁flag	-11.261
▁butter	-11.261
▁declined	-11.2612
▁0	-11.2615
▁BATHROOM	-11.2619
▁dreaming	-11.2619
▁toilet	-11.262
▁rarely	-11.2621
▁pattern	-11.2621
▁presume	-11.2622
▁brute	-11.2622
▁owing	-11.2624
▁introduce	-11.2626
▁preserved	-11.2626
▁intercourse	-11.2628
▁scarlet	-11.2628
▁robbed	-11.2629
▁increasing	-11.2635
▁openly	-11.2636
▁CHRIS	-11.2641
▁confessed	-11.2643
▁chambers	-11.2645
▁LONG	-11.2647
▁neighbours	-11.2648
▁seventy	-11.2653
▁compliment	-11.2658
▁amazing	-11.266
▁slain	-11.2662
▁sensitive	-11.2662
▁tragedy	-11.2671
▁circles	-11.2672
▁Florence	-11.2672
▁[![	-11.2673
▁joint	-11.2684
▁printed	-11.2687
▁danced	-11.2687
▁avoided	-11.2687
▁motives	-11.2689
▁VIEW	-11.2689
▁parking	-11.2689
▁obedience	-11.2694
▁commenced	-11.2695
▁Nice	-11.2696
▁believing	-11.2696
▁entitled	-11.2704
▁conducted	-11.2705
▁briefly	-11.2708
▁Western	-11.2709
▁bundle	-11.2711
▁Matthew	-11.2711
▁writes	-11.2712
▁waiter	-11.2718
▁tenderly	-11.2721
▁questioned	-11.2727
▁statue	-11.273
▁students	-11.2732
▁ALEX	-11.2732
▁eagerness	-11.2737
▁talent	-11.2739
▁BILL	-11.2746
▁orange	-11.2754
▁depart	-11.2758
▁summoned	-11.2758
▁hurriedly	-11.2763
▁student	-11.2764
▁spy	-11.2765
▁insist	-11.2767
▁removes	-11.2769
▁Hester	-11.277
▁Ozma	-11.2771
▁national	-11.2771
TO	-11.2771
▁doctrine	-11.2772
▁restaurant	-11.2773
▁terrace	-11.2776
▁fiercely	-11.2784
▁MOM	-11.2784
▁Place	-11.2784
▁OUTSIDE	-11.2786
▁sale	-11.279
▁Holly	-11.279
▁betray	-11.2791
▁frankly	-11.2792
▁FRED	-11.2792
▁Stay	-11.2795
▁tank	-11.2796
▁sixteen	-11.2799
▁roses	-11.2803
▁Justice	-11.2804
▁district	-11.2806
▁spectacle	-11.2809
▁lessons	-11.281
▁Drew	-11.2812
His	-11.2815
▁indicated	-11.2815
gate	-11.2816
▁pleasures	-11.2816
▁sheer	-11.2823
▁proportion	-11.2825
▁Mackenzie	-11.2826
▁distinction	-11.2827
▁TED	-11.2831
▁expectation	-11.2839
ha	-11.2839
Poor	-11.2842
▁unseen	-11.2844
▁towel	-11.2852
▁tremble	-11.2854
▁sincere	-11.2855
▁Surely	-11.2857
▁bullets	-11.2861
▁HIGH	-11.2862
▁Fox	-11.2863
▁Haven	-11.2867
▁Dean	-11.2872
▁India	-11.2874
▁mouths	-11.2874
▁disturb	-11.2875
▁warn	-11.2877
▁execution	-11.2879
▁ashes	-11.288
▁confident	-11.2883
▁lined	-11.2886
▁March	-11.2887
▁Ned	-11.2888
▁resistance	-11.2889
▁boldly	-11.2891
▁fireplace	-11.2892
▁coldly	-11.2896
▁winding	-11.2897
▁glare	-11.2899
▁TONY	-11.29
▁Jenny	-11.29
▁RADIO	-11.2907
▁Montoni	-11.2909
▁dragging	-11.291
▁Julie	-11.2912
▁development	-11.2916
▁stove	-11.2919
▁advancing	-11.2923
▁Agnes	-11.2923
▁pole	-11.2923
▁Glass	-11.2923
▁ASH	-11.2924
▁Bible	-11.2925
▁Got	-11.2932
▁CITY	-11.2933
▁ability	-11.2935
▁OMITTED	-11.2936
▁supreme	-11.2941
▁mob	-11.2942
▁wasted	-11.2943
▁intellect	-11.2945
▁narrative	-11.2948
▁accent	-11.2957
▁inclination	-11.296
▁miracle	-11.296
▁Guard	-11.2963
▁formal	-11.2963
▁Oxford	-11.2965
▁Beat	-11.2965
work	-11.2965
▁examining	-11.2967
▁fright	-11.297
▁Wall	-11.2972
▁countries	-11.2975
▁seeds	-11.2978
perhaps	-11.2985
▁intensity	-11.2986
▁element	-11.2989
▁April	-11.299
▁appetite	-11.2993
▁Matt	-11.2996
▁Ripley	-11.2998
▁endeavour	-11.2998
▁Lawrence	-11.2999
head	-11.3001
▁ARE	-11.3002
old	-11.3003
▁text	-11.3004
▁dollar	-11.3005
▁election	-11.3007
▁Percival	-11.3009
▁secretly	-11.301
▁neglected	-11.3011
after	-11.3019
▁liquid	-11.3027
▁lace	-11.3027
▁owned	-11.3028
▁needn	-11.303
▁emergency	-11.303
▁comments	-11.303
▁Miguel	-11.3031
▁cities	-11.3033
▁procession	-11.3039
▁surgeon	-11.304
▁Far	-11.3041
▁cruelty	-11.3041
▁mom	-11.305
▁origin	-11.3051
▁bored	-11.3053
DR	-11.3055
▁universal	-11.3063
nothing	-11.3064
▁27	-11.3068
▁veins	-11.3069
▁woke	-11.3071
▁stated	-11.3076
▁Felix	-11.3076
▁owed	-11.3076
▁housekeeper	-11.308
▁swim	-11.3082
▁beams	-11.3085
▁promptly	-11.3086
▁PA	-11.3086
▁fatigue	-11.3088
▁solemnly	-11.309
▁DOLL	-11.3092
▁!!!	-11.3094
▁childish	-11.3097
ES	-11.3098
▁recognition	-11.3099
▁LUCY	-11.3099
▁monitor	-11.3099
▁canvas	-11.31
▁counting	-11.3101
▁hood	-11.3103
▁cream	-11.3103
▁united	-11.3103
▁proposition	-11.3104
▁dies	-11.3104
▁LATE	-11.3109
ity	-11.3116
▁exception	-11.3116
▁shift	-11.3121
▁Marilla	-11.3121
▁dwell	-11.3122
▁honourable	-11.3122
▁natives	-11.3125
▁eyebrows	-11.3126
CLOSE	-11.3128
▁courtyard	-11.3131
▁arrange	-11.3132
ter	-11.3132
▁KATE	-11.314
▁snake	-11.3146
▁Shut	-11.3147
▁Council	-11.315
▁quantity	-11.3153
▁swallowed	-11.3154
▁darkened	-11.3156
▁panel	-11.3158
▁hammer	-11.3164
SON	-11.3166
▁blush	-11.3166
▁MISS	-11.3168
▁SUSAN	-11.3175
▁Knight	-11.3177
▁peasant	-11.3183
▁burnt	-11.3184
ful	-11.3185
▁Hell	-11.3186
▁Sun	-11.3191
▁PETER	-11.3191
▁dusk	-11.3196
▁Chinese	-11.3199
▁dishes	-11.3201
▁thoughtfully	-11.3204
▁uneasiness	-11.3209
▁parent	-11.3211
▁occupation	-11.3219
▁convenient	-11.3219
▁complexion	-11.322
▁skirt	-11.3227
▁heed	-11.3231
▁persisted	-11.3232
▁...?	-11.3232
▁Lopez	-11.3233
▁perfection	-11.3241
ud	-11.3245
▁thread	-11.3248
▁Last	-11.3251
▁vivid	-11.3253
▁brook	-11.3256
▁brandy	-11.3258
▁apple	-11.3262
▁gallant	-11.3262
▁lawyers	-11.3262
▁comparison	-11.3263
▁newly	-11.3263
▁pine	-11.3265
▁channel	-11.3266
▁JAKE	-11.3267
▁slide	-11.3268
3	-11.327
▁Leave	-11.327
▁Chicago	-11.3272
▁writers	-11.3274
▁Road	-11.3276
▁physician	-11.3276
▁bends	-11.3288
▁STEVE	-11.3292
▁Inside	-11.3297
▁lantern	-11.3298
▁Lupin	-11.3301
▁hurrying	-11.3302
▁Temple	-11.3312
▁pig	-11.3318
tree	-11.332
▁nails	-11.3321
stairs	-11.3321
▁sub	-11.3321
▁60	-11.3321
▁hired	-11.3326
▁yer	-11.3331
▁roads	-11.3333
▁cellar	-11.3333
▁Francis	-11.3337
▁vote	-11.3338
▁JORDAN	-11.3345
▁wits	-11.3349
▁helps	-11.3351
more	-11.3352
▁MICHAEL	-11.3355
▁suspended	-11.3357
▁Alaric	-11.3358
▁forgetting	-11.336
▁nodding	-11.336
▁comment	-11.3361
▁apply	-11.3364
▁plates	-11.3366
▁garage	-11.3368
▁delicacy	-11.3369
▁condemned	-11.3369
▁Girl	-11.337
▁highway	-11.3371
▁accused	-11.3373
▁Cole	-11.3375
▁net	-11.3376
▁applause	-11.338
▁Marguerite	-11.3383
▁Re	-11.3389
▁healthy	-11.3389
▁Denry	-11.3391
▁horn	-11.3392
▁soup	-11.3394
▁structure	-11.3403
▁majesty	-11.3403
▁ink	-11.3403
▁jolly	-11.3405
▁dis	-11.341
▁Slowly	-11.3416
▁Gertrude	-11.3439
▁shuts	-11.3443
▁crimson	-11.3447
▁polished	-11.3452
▁FBI	-11.3454
▁Mistress	-11.3458
▁fountain	-11.346
▁Trevor	-11.346
▁***	-11.346
▁distinguish	-11.3463
▁anchor	-11.3468
▁dismay	-11.347
▁advised	-11.3471
▁29	-11.3473
▁Johnson	-11.3475
▁colored	-11.3477
▁lend	-11.3483
▁garments	-11.3484
▁dismissed	-11.3485
▁disguise	-11.3488
▁priests	-11.3491
▁deliberately	-11.3497
▁lowers	-11.3499
▁literally	-11.35
▁roaring	-11.3502
minded	-11.3508
▁pupil	-11.3508
▁travellers	-11.3517
▁respects	-11.3517
▁Vavasor	-11.3518
▁television	-11.3518
▁belly	-11.3519
▁adopted	-11.3519
▁Jean	-11.3522
▁classes	-11.3523
▁downward	-11.3526
▁occur	-11.353
▁errand	-11.353
im	-11.3531
such	-11.3533
▁accounts	-11.3537
▁problems	-11.3538
water	-11.3539
▁rides	-11.354
▁naught	-11.354
▁cabinet	-11.3542
▁disease	-11.3548
▁Troy	-11.3548
▁Clay	-11.3549
▁tense	-11.3551
▁nest	-11.3551
▁MOVING	-11.3551
▁lo	-11.3553
▁Vronsky	-11.3554
▁amusing	-11.3557
▁suited	-11.356
▁gotten	-11.3573
▁blocks	-11.3574
our	-11.3574
▁application	-11.3577
▁infant	-11.3577
▁ruins	-11.3577
▁sends	-11.3579
▁pin	-11.3581
PETER	-11.3581
▁encouraged	-11.3583
▁doctors	-11.3588
▁conception	-11.3589
▁preserve	-11.3599
▁si	-11.3601
▁tidings	-11.3601
▁tempted	-11.3602
▁despite	-11.3603
▁humor	-11.3603
▁Brother	-11.3605
▁envy	-11.3608
▁Jeffrey	-11.3612
▁chicken	-11.3614
▁muscles	-11.3617
▁Raffles	-11.3621
▁released	-11.3621
▁proceedings	-11.3622
▁rigid	-11.3623
▁employment	-11.3624
▁coward	-11.3624
▁client	-11.3625
NA	-11.3634
▁travelled	-11.3636
▁Myles	-11.3637
▁liking	-11.3638
ton	-11.3646
▁Things	-11.3648
▁diamond	-11.3648
▁infinitely	-11.3651
▁earn	-11.3652
▁yourselves	-11.3659
▁Cat	-11.3671
▁LITTLE	-11.3672
▁Six	-11.3672
▁tearing	-11.3673
▁necessarily	-11.3673
▁maintained	-11.3674
▁obscure	-11.3674
▁lasted	-11.3674
▁earthly	-11.3677
▁idiot	-11.3678
▁alert	-11.3679
▁neighbour	-11.368
▁swords	-11.3681
▁learnt	-11.3681
▁frank	-11.3681
▁document	-11.3682
▁cord	-11.3682
▁speaker	-11.3683
▁ETHAN	-11.3683
▁consisted	-11.3683
rd	-11.3688
****************	-11.369
▁Murray	-11.3694
▁swimming	-11.3695
▁Micawber	-11.3695
▁parson	-11.3695
▁alas	-11.3696
Only	-11.3702
▁Ken	-11.3705
▁arrow	-11.3706
▁Gray	-11.3707
▁responded	-11.3708
▁witnesses	-11.3711
▁convince	-11.3712
z	-11.3715
▁erect	-11.3717
▁generosity	-11.3718
ian	-11.3721
▁expensive	-11.3729
▁recently	-11.3732
fashioned	-11.3736
▁Guy	-11.3739
▁dat	-11.3746
ee	-11.3747
▁Almost	-11.375
▁reserved	-11.3751
▁Chichikov	-11.3755
▁Undine	-11.3756
▁parlor	-11.3756
glass	-11.3757
▁bits	-11.3758
▁behave	-11.376
▁holiday	-11.376
▁greeting	-11.3761
▁Alas	-11.3761
▁pilot	-11.3765
▁sins	-11.3766
▁sails	-11.3766
▁fifth	-11.3768
▁breathless	-11.3768
▁suits	-11.3774
▁proceeding	-11.3774
▁reflect	-11.3775
▁snap	-11.3778
▁LAURA	-11.3778
▁Tony	-11.3781
▁July	-11.3782
▁gossip	-11.3786
▁referred	-11.379
▁gladly	-11.3794
Enter	-11.3796
▁dispute	-11.3796
▁fain	-11.3798
▁sadness	-11.3805
▁chains	-11.3808
▁avail	-11.3809
▁affect	-11.3814
▁elderly	-11.3816
ra	-11.3817
born	-11.3824
▁Twenty	-11.3828
▁region	-11.3832
▁preparations	-11.3832
▁contain	-11.3833
▁reflections	-11.3835
▁forming	-11.3835
▁barn	-11.3835
door	-11.3838
▁prevailed	-11.3839
▁instruments	-11.3841
▁marched	-11.3842
▁kings	-11.3845
▁Wizard	-11.3849
▁JAC	-11.385
▁bike	-11.3852
▁entertainment	-11.3852
▁sphere	-11.3857
▁retire	-11.3859
▁panting	-11.3863
▁stillness	-11.3864
▁rubbing	-11.3864
▁Neil	-11.3864
▁standard	-11.3867
Thou	-11.3869
MILES	-11.387
▁Cyrus	-11.3874
▁peril	-11.3877
▁tube	-11.3882
▁lobby	-11.3882
chair	-11.3882
▁HOSPITAL	-11.3887
▁placing	-11.3888
▁consolation	-11.3888
▁October	-11.389
▁cheese	-11.3891
▁Easy	-11.3891
▁sack	-11.3893
▁intentions	-11.3894
▁reporter	-11.3895
▁warmly	-11.3895
▁undertake	-11.3897
▁Help	-11.39
▁kicked	-11.3901
▁checking	-11.3903
▁combat	-11.3904
▁arch	-11.3905
CAROL	-11.3905
▁Dora	-11.3906
▁argue	-11.3907
▁BOBBY	-11.391
▁discretion	-11.391
▁jury	-11.3911
▁Brooke	-11.3911
▁finishes	-11.3912
▁http	-11.3912
▁commands	-11.3924
▁Lucilla	-11.3924
▁cavern	-11.3925
▁SCHOOL	-11.3926
▁aroused	-11.3927
▁dash	-11.3927
▁JERRY	-11.3928
▁washing	-11.3933
▁folds	-11.3933
▁CU	-11.3935
▁approval	-11.3936
▁headed	-11.3937
▁Magee	-11.3946
▁Hodder	-11.3948
▁carved	-11.3948
▁lays	-11.395
▁clutching	-11.3951
▁stepping	-11.3957
▁perpetual	-11.3958
▁gigantic	-11.3959
▁supplied	-11.3959
▁depends	-11.396
▁ending	-11.396
▁celebrated	-11.3961
▁DEBBIE	-11.3962
▁contrived	-11.3962
▁Catholic	-11.3964
▁prayed	-11.3967
▁bomb	-11.3968
▁commission	-11.3971
▁Thibault	-11.3971
▁consult	-11.3971
Thriller	-11.3972
▁commit	-11.3973
▁Pauline	-11.3974
▁liquor	-11.3975
▁comrades	-11.3976
▁wherein	-11.3979
▁justified	-11.3984
▁hearth	-11.3987
▁vile	-11.3989
▁elements	-11.3992
▁Simon	-11.3994
▁Furnival	-11.3995
▁ragged	-11.3996
▁Maya	-11.3998
▁waking	-11.3999
▁Chad	-11.4
▁roughly	-11.4
▁joins	-11.4002
▁encountered	-11.401
▁shine	-11.4012
▁pursue	-11.4013
▁VAL	-11.4014
▁log	-11.4018
▁HEAR	-11.4018
▁succession	-11.402
▁fools	-11.4022
▁embarrassment	-11.4023
▁cliffs	-11.4023
▁assistant	-11.4024
▁EDWARD	-11.4025
▁rubbed	-11.4032
▁entertain	-11.4037
▁expressions	-11.4038
did	-11.4039
▁largest	-11.404
▁groups	-11.4042
▁bark	-11.4043
▁incapable	-11.4047
▁te	-11.4047
▁definitely	-11.4048
▁bolt	-11.405
▁dusty	-11.4055
▁vice	-11.4056
▁suitable	-11.4057
ai	-11.4059
▁furiously	-11.406
▁35	-11.4061
▁magazine	-11.4064
▁Dead	-11.4065
▁surprising	-11.4067
▁spinning	-11.4068
▁THEY	-11.4068
▁youthful	-11.4069
▁fourteen	-11.4069
▁exchanged	-11.4071
▁subdued	-11.4072
▁apron	-11.4073
▁prudence	-11.4081
▁Nina	-11.4083
▁stool	-11.4084
▁clinging	-11.4084
▁Cousin	-11.4088
▁kicking	-11.4089
▁beautifully	-11.4089
▁spared	-11.4089
▁SECURITY	-11.4092
▁consequently	-11.4094
▁presents	-11.4095
▁Kazan	-11.4096
▁AREA	-11.4097
▁painfully	-11.4097
▁unwilling	-11.4104
▁motor	-11.4104
▁agents	-11.4105
▁BELLA	-11.4106
▁happier	-11.4107
▁rat	-11.4108
▁planned	-11.4108
▁irritated	-11.411
▁Hence	-11.411
▁foe	-11.4112
▁hedge	-11.4118
▁timid	-11.4118
▁courtesy	-11.4118
▁Holmes	-11.4119
▁limited	-11.4122
▁fortunes	-11.4122
▁raw	-11.4124
Would	-11.4124
▁Ernest	-11.413
▁Didn	-11.4131
▁merchant	-11.4133
▁Wharton	-11.4134
▁agreement	-11.4134
▁regiment	-11.4136
After	-11.414
▁brows	-11.4147
▁studio	-11.4155
▁seed	-11.4159
▁strict	-11.4163
▁Newton	-11.417
▁cheerfully	-11.4172
▁virtues	-11.4174
▁grins	-11.4174
▁Evan	-11.4174
▁claims	-11.418
▁Sara	-11.4181
▁previously	-11.4184
▁handful	-11.4185
▁sworn	-11.4186
▁echo	-11.4189
▁aisle	-11.419
▁champagne	-11.4192
▁KAFF	-11.4192
▁alright	-11.4192
▁challenge	-11.4197
▁fantastic	-11.4199
▁Forrest	-11.4203
▁dresses	-11.4205
RSS	-11.4207
▁measures	-11.4208
▁Feeds	-11.4212
▁department	-11.4213
▁ribbon	-11.4214
▁DOROTHY	-11.4217
▁Marquis	-11.4219
TJ	-11.422
▁roots	-11.422
▁bedside	-11.422
▁citizens	-11.4221
▁Ryan	-11.4229
▁Marmaduke	-11.4229
▁September	-11.4233
▁replaced	-11.4233
▁player	-11.4237
▁governor	-11.4237
▁NICKY	-11.4244
▁NOT	-11.4245
▁casting	-11.4248
▁shilling	-11.4251
▁porter	-11.4252
nd	-11.4252
▁FULL	-11.4253
▁affections	-11.4253
▁mixture	-11.4255
▁Felipe	-11.4257
▁smallest	-11.4265
▁Fine	-11.4267
▁probability	-11.4267
▁relieve	-11.4267
▁pathetic	-11.4268
▁jaws	-11.4269
▁Leopold	-11.4269
▁Providence	-11.4269
▁Parker	-11.4273
▁colors	-11.4274
▁clad	-11.4275
▁swell	-11.4275
▁wander	-11.428
▁dimly	-11.4284
▁ter	-11.4284
▁sealed	-11.4285
▁abode	-11.4285
▁desolate	-11.4285
line	-11.4285
▁haunted	-11.4286
▁Americans	-11.4293
▁beds	-11.4294
▁professor	-11.4299
▁code	-11.4299
▁och	-11.43
light	-11.4303
▁bells	-11.4303
▁Aylmer	-11.4305
▁TRUCK	-11.4306
▁les	-11.4306
▁Monica	-11.4307
▁halted	-11.4307
ye	-11.4308
▁PETE	-11.431
▁ANNA	-11.431
hour	-11.431
▁buttons	-11.4313
▁Gudrun	-11.4318
▁pleaded	-11.4319
▁LIGHT	-11.4319
▁dreaded	-11.4324
▁w	-11.4325
▁egg	-11.4327
▁Bruce	-11.4331
▁wipes	-11.4332
▁hasty	-11.4335
▁betwixt	-11.4336
▁shapes	-11.4336
▁grain	-11.4339
▁sweetness	-11.434
▁Crosbie	-11.4342
▁plot	-11.4347
▁guided	-11.4349
▁suspicions	-11.4353
▁sobs	-11.4356
▁Po	-11.436
▁honestly	-11.4365
▁comrade	-11.4365
▁Alright	-11.4368
▁ROSE	-11.4374
▁boot	-11.4374
▁lamps	-11.4375
▁dig	-11.4375
▁restore	-11.4375
▁hug	-11.4379
▁admirable	-11.4381
▁respond	-11.4381
▁flowing	-11.4382
▁ducks	-11.4382
▁Armand	-11.4383
▁induce	-11.4388
▁arguments	-11.4389
▁cent	-11.4392
▁Jennifer	-11.4393
▁passages	-11.4395
▁Lenny	-11.4395
▁access	-11.4398
▁characteristic	-11.44
▁poem	-11.4402
▁hearty	-11.4402
▁crisis	-11.4406
▁asks	-11.4408
▁wiped	-11.4409
▁print	-11.4411
▁patch	-11.4414
▁shattered	-11.4419
▁hesitate	-11.4419
▁quivering	-11.4421
▁hatch	-11.4423
▁council	-11.4427
▁ANN	-11.4427
▁manifest	-11.4428
▁Crawford	-11.4431
▁encouragement	-11.4432
▁rubber	-11.4432
▁hitting	-11.4433
▁planted	-11.4438
▁VII	-11.4439
▁conference	-11.4439
vo	-11.444
▁momentary	-11.4447
▁reverence	-11.4457
▁dwelt	-11.4457
▁snapped	-11.4457
▁unworthy	-11.4457
▁temporary	-11.446
▁tomb	-11.4462
▁Beth	-11.4463
▁relatives	-11.4466
▁Walt	-11.4466
▁dined	-11.447
▁ray	-11.4471
▁offices	-11.4471
▁appearing	-11.4471
▁cable	-11.4472
▁31	-11.4472
▁seize	-11.4473
▁serving	-11.4473
▁particulars	-11.4473
▁opposed	-11.4474
▁Pollyanna	-11.4475
▁protected	-11.4476
▁manuscript	-11.4478
▁seal	-11.4481
▁65	-11.4482
▁contract	-11.4486
▁framed	-11.4489
▁route	-11.4496
▁damage	-11.4496
...?	-11.4499
▁afforded	-11.45
▁Mine	-11.4503
▁ticket	-11.4505
▁constitution	-11.4507
▁zeal	-11.4509
▁photograph	-11.4515
▁semi	-11.4515
▁shoves	-11.4516
▁monk	-11.4517
▁spoil	-11.4518
▁Peggotty	-11.4523
▁selected	-11.4523
▁experiment	-11.4524
▁advantages	-11.4527
bed	-11.4528
▁JIMMY	-11.4529
▁essential	-11.4532
▁Shann	-11.4535
▁r	-11.4538
Shall	-11.4539
▁summit	-11.4542
▁repeating	-11.4543
ta	-11.4545
▁witch	-11.4545
▁civilization	-11.4547
▁Chuck	-11.4548
▁springs	-11.4549
▁conflict	-11.455
▁copper	-11.4554
▁awfully	-11.4555
▁OPEN	-11.4556
▁Egyptian	-11.4557
▁Jonas	-11.4562
▁towns	-11.4562
▁fists	-11.4565
▁commercial	-11.4567
▁flashlight	-11.4568
▁torch	-11.4571
Drama	-11.4574
▁attendant	-11.4582
▁morrow	-11.4585
▁dreary	-11.4586
▁device	-11.4595
▁Into	-11.4596
▁critical	-11.4597
▁hostile	-11.4599
▁unconsciously	-11.4604
▁concrete	-11.4611
ted	-11.4612
▁ledge	-11.4613
▁conquered	-11.4614
▁tailor	-11.4619
▁stretching	-11.462
▁recollect	-11.4621
▁interposed	-11.4625
▁eyed	-11.4626
▁thankful	-11.4631
▁arts	-11.4631
▁](	-11.4636
▁bears	-11.4639
▁conveyed	-11.464
▁represent	-11.4641
▁stirring	-11.4643
▁DON	-11.4644
▁shared	-11.4645
ship	-11.4649
▁resemblance	-11.465
▁Allison	-11.4651
yard	-11.4652
▁despise	-11.4653
▁explosion	-11.466
▁punch	-11.4661
▁nerve	-11.4663
▁snatched	-11.4664
▁selling	-11.4665
Give	-11.4667
▁sailors	-11.4667
▁Beyond	-11.4668
▁sullen	-11.4674
▁judged	-11.4676
▁satisfactory	-11.4676
▁lodge	-11.468
▁amuse	-11.4686
▁Kit	-11.4689
▁stake	-11.4689
▁kneels	-11.469
▁root	-11.4691
▁pops	-11.4694
▁convey	-11.4694
▁THREE	-11.4695
▁sailed	-11.4697
▁vacant	-11.4701
▁honesty	-11.4704
▁il	-11.4706
▁central	-11.4716
▁separation	-11.4716
▁majority	-11.4716
▁Lecount	-11.4717
ning	-11.4719
▁toast	-11.4719
▁Hetty	-11.4719
▁echoed	-11.4725
▁inferior	-11.4726
▁shrugged	-11.4729
▁fiery	-11.4729
▁forbid	-11.4729
▁Japanese	-11.473
▁fitting	-11.473
▁strictly	-11.4731
▁shillings	-11.4736
▁unnecessary	-11.4742
▁floated	-11.4744
▁thereby	-11.4746
▁RE	-11.4747
▁Jo	-11.4748
▁coffin	-11.4752
▁Verloc	-11.4755
▁Lincoln	-11.4757
▁apartments	-11.4759
▁Dolly	-11.476
▁figured	-11.4764
▁strip	-11.4769
▁dock	-11.4769
▁Ethan	-11.477
▁kneeling	-11.4773
▁prospects	-11.4774
▁villain	-11.4775
▁drift	-11.4779
▁chapel	-11.4781
▁compass	-11.4782
▁frantically	-11.4783
▁cotton	-11.4784
5	-11.4791
▁reports	-11.4793
▁adding	-11.4794
▁thirst	-11.4801
▁sweeping	-11.4801
▁tricks	-11.4805
▁HANNA	-11.4806
▁machinery	-11.4809
never	-11.481
▁racing	-11.4814
▁Gloria	-11.4814
ant	-11.4816
▁conquer	-11.4817
except	-11.4823
▁Dutch	-11.4824
▁cracked	-11.4825
▁FRAME	-11.4829
▁pet	-11.4829
▁claws	-11.483
▁ample	-11.4831
▁THEM	-11.4831
▁enterprise	-11.4831
▁Cap	-11.4835
▁create	-11.484
▁neglect	-11.4842
▁ut	-11.4843
▁games	-11.4846
▁punches	-11.4851
▁Al	-11.4852
▁towers	-11.4852
▁emerged	-11.4854
▁latest	-11.4855
▁cups	-11.4862
▁dangers	-11.4862
▁colours	-11.4863
▁entry	-11.4864
▁Percy	-11.4865
ANNIE	-11.4869
▁intolerable	-11.4874
▁Irish	-11.4875
▁clay	-11.4876
▁ashore	-11.4878
▁defeat	-11.4885
▁nothin	-11.4887
▁brutal	-11.4887
▁Senora	-11.4891
▁grasped	-11.4892
▁ranks	-11.4896
▁Bridge	-11.4897
▁Tower	-11.49
ley	-11.4904
DISSOLVE	-11.4906
▁Em	-11.4907
▁nuts	-11.4909
▁mount	-11.4911
▁VIII	-11.4911
▁Gould	-11.4915
▁comfortably	-11.4915
▁stooped	-11.4916
▁Until	-11.4923
▁western	-11.4925
▁declaration	-11.4926
▁wilderness	-11.4927
▁quitted	-11.4928
▁spake	-11.4929
Was	-11.493
▁HELEN	-11.4931
▁neighbors	-11.4935
▁remorse	-11.494
▁Kane	-11.4943
▁shrill	-11.4945
▁lords	-11.4946
▁mechanical	-11.4955
▁Elinor	-11.4956
▁fashionable	-11.4957
▁players	-11.4957
▁mute	-11.496
▁balloon	-11.4978
▁Patience	-11.4989
▁dripping	-11.4997
▁distracted	-11.4998
▁methods	-11.5
▁traces	-11.5001
▁gleaming	-11.5002
▁pleasantly	-11.5006
▁radiant	-11.5008
▁composure	-11.5009
▁undoubtedly	-11.501
▁drama	-11.501
▁Boston	-11.5011
▁OTHER	-11.5012
▁deaf	-11.5015
▁proudly	-11.502
▁Maid	-11.5022
▁Gervaise	-11.5022
▁Garth	-11.5022
▁disaster	-11.5023
▁shops	-11.5023
▁Gabriel	-11.5024
].	-11.5026
haired	-11.5027
▁searched	-11.5032
▁70	-11.5034
▁yells	-11.5034
▁lads	-11.5036
▁Comte	-11.5036
▁Kenny	-11.5036
▁Spain	-11.5036
▁resources	-11.5037
▁Brian	-11.5037
▁Isaac	-11.5038
▁lighting	-11.5038
▁outline	-11.5039
▁link	-11.5045
▁complaint	-11.5045
ner	-11.5046
▁lingered	-11.505
▁gasped	-11.5051
▁sailing	-11.5051
▁overwhelmed	-11.5051
▁European	-11.5053
▁Home	-11.5055
▁THIS	-11.5056
▁feathers	-11.5062
▁expressing	-11.5063
▁shadowy	-11.5064
▁Agent	-11.5065
▁deer	-11.5071
▁ANNIE	-11.5072
▁reacts	-11.5075
▁triumphant	-11.5076
▁KAREN	-11.5076
▁attendance	-11.5076
▁Cameron	-11.5077
▁exciting	-11.5079
▁casually	-11.508
▁Snow	-11.5081
▁woe	-11.5084
▁bat	-11.5087
son	-11.5092
▁eighty	-11.5093
▁rips	-11.5095
▁allowing	-11.5101
▁Huh	-11.5101
▁specially	-11.5103
▁desirous	-11.5104
▁Li	-11.5104
▁glittering	-11.5105
▁limits	-11.5107
▁assisted	-11.5108
▁harbour	-11.5111
▁dealing	-11.5113
▁correspondence	-11.5117
▁Sergeant	-11.5121
▁BB	-11.5122
▁..."	-11.5123
▁Germany	-11.5126
▁strides	-11.5127
▁End	-11.5128
▁Tulliver	-11.5131
▁testimony	-11.5131
▁Outside	-11.5133
▁songs	-11.5135
▁JONES	-11.5135
▁plus	-11.5137
▁Virginian	-11.5139
▁compliments	-11.514
into	-11.514
▁BE	-11.5141
▁Craig	-11.5145
▁pretence	-11.5145
▁**************	-11.5146
▁distressed	-11.5151
▁Gandhi	-11.516
▁dramatic	-11.5161
▁ties	-11.5167
were	-11.5175
▁Art	-11.5175
▁LT	-11.5179
▁hostess	-11.5185
▁construction	-11.5187
▁JAR	-11.5188
▁faults	-11.5188
▁screamed	-11.519
▁liberal	-11.52
▁emphasis	-11.5205
▁peering	-11.5205
▁Try	-11.5206
▁hanged	-11.5207
▁NANCY	-11.5209
▁guarded	-11.5214
▁waistcoat	-11.5215
▁1.	-11.5218
Or	-11.522
▁Clark	-11.5224
▁axe	-11.5225
▁Richie	-11.5227
▁tales	-11.5227
▁worms	-11.5228
▁yelling	-11.5229
▁Above	-11.5231
▁crystal	-11.5231
▁forgiven	-11.5231
▁muffled	-11.5231
▁dost	-11.5236
▁doin	-11.5237
LE	-11.524
▁comprehend	-11.5242
▁depended	-11.5244
▁seas	-11.5248
twenty	-11.5249
▁flush	-11.5249
▁hereafter	-11.5251
▁insane	-11.5254
▁Nicholas	-11.5257
▁32	-11.526
▁islands	-11.526
▁angels	-11.5262
▁complicated	-11.5269
▁combination	-11.527
▁relationship	-11.527
▁Lion	-11.5272
▁River	-11.5272
▁awaiting	-11.5273
▁script	-11.5277
▁masses	-11.5279
Ha	-11.528
▁apology	-11.5282
▁elbows	-11.5283
▁deceive	-11.5283
▁dazed	-11.5285
▁vexed	-11.5285
UEEN	-11.5291
▁Seeing	-11.5292
ier	-11.5292
que	-11.5296
▁Miriam	-11.5298
▁Monk	-11.53
▁JULIA	-11.5302
▁AGENT	-11.5303
▁shotgun	-11.5304
▁dense	-11.5307
▁Show	-11.5308
▁unnatural	-11.5309
▁cannon	-11.5309
▁knelt	-11.531
▁creeping	-11.5314
▁tap	-11.5323
▁Eames	-11.5324
▁kidding	-11.5325
▁threat	-11.5326
▁Kid	-11.533
▁Bella	-11.5331
▁fleet	-11.5336
▁descent	-11.5338
ally	-11.5349
";	-11.5351
Does	-11.5351
▁urgent	-11.5353
▁nasty	-11.5354
▁38	-11.5354
▁witnessed	-11.5358
▁collect	-11.5359
▁measured	-11.5363
▁BERLIN	-11.5366
▁discipline	-11.5377
UES	-11.5379
Say	-11.538
▁heel	-11.5381
▁exclamation	-11.5382
▁Davies	-11.5385
▁spectacles	-11.5387
▁dame	-11.5387
▁communicate	-11.5389
▁Somebody	-11.539
▁spreading	-11.5393
▁whips	-11.5393
▁Office	-11.5395
▁neatly	-11.5396
▁sweetheart	-11.5396
▁Mayor	-11.54
▁wiser	-11.5404
▁trigger	-11.5408
▁jumping	-11.5408
▁AMELIA	-11.541
▁consulted	-11.5411
▁Society	-11.5411
▁Erik	-11.5421
▁DEAN	-11.5421
▁Tappitt	-11.5422
▁formidable	-11.5422
▁desirable	-11.5422
▁pleasing	-11.5423
▁glove	-11.5437
▁softened	-11.5437
▁necklace	-11.5439
▁combined	-11.5439
▁guardian	-11.5439
▁Milton	-11.5446
▁luggage	-11.545
▁Watch	-11.5451
▁thieves	-11.5456
▁communicated	-11.5457
▁MARTIN	-11.5459
▁attempting	-11.5461
▁Austin	-11.5465
▁sparkling	-11.5465
making	-11.5469
▁cooking	-11.5474
▁Ball	-11.5477
▁streams	-11.5478
▁causing	-11.5479
ALI	-11.548
▁destined	-11.548
▁Priscilla	-11.5481
▁mock	-11.5481
▁rob	-11.5482
red	-11.5483
▁barrier	-11.5483
▁GREE	-11.5485
has	-11.5489
▁madame	-11.5494
▁democratic	-11.5495
▁lid	-11.5496
▁Rupert	-11.5496
▁Leslie	-11.5497
▁Todd	-11.55
▁Storm	-11.5506
▁Birkin	-11.5507
▁industry	-11.5507
▁Du	-11.5508
▁Abbot	-11.5508
▁invite	-11.5508
▁swallow	-11.5509
▁Tuesday	-11.5511
▁freezes	-11.5513
4	-11.5516
▁frown	-11.5516
▁indignant	-11.5521
▁Annette	-11.5523
▁Diana	-11.5526
▁package	-11.5528
▁bolts	-11.5531
▁tu	-11.5536
age	-11.5536
▁Weston	-11.5538
coloured	-11.5544
▁justify	-11.5547
▁records	-11.5549
▁Police	-11.5549
▁aims	-11.5549
▁manages	-11.5549
▁blackness	-11.555
▁coin	-11.5551
three	-11.5561
▁employ	-11.5561
▁prudent	-11.5564
▁perplexed	-11.5564
▁instinctively	-11.5565
▁Secretary	-11.5574
▁VITT	-11.5578
▁considerably	-11.5578
▁Mills	-11.5579
▁deemed	-11.5579
▁GUN	-11.5586
▁Pray	-11.5588
▁wonderfully	-11.559
without	-11.5591
▁brightly	-11.5592
▁pulse	-11.5593
▁Lorna	-11.5596
▁Baby	-11.5596
▁nightmare	-11.5597
▁Cut	-11.5597
▁verse	-11.5598
j	-11.5598
▁unfortunately	-11.5599
▁rack	-11.5604
▁breach	-11.5605
Our	-11.5606
▁Christians	-11.5608
▁dragon	-11.5609
▁frantic	-11.5609
▁alter	-11.5612
▁solution	-11.5613
▁pretending	-11.5617
▁throng	-11.5619
▁approve	-11.562
▁shuddered	-11.5623
▁deprived	-11.5625
▁readers	-11.563
▁shallow	-11.563
▁Between	-11.563
▁wealthy	-11.563
▁peer	-11.5631
▁provisions	-11.5631
▁surrender	-11.5635
▁buying	-11.5643
▁feather	-11.5648
▁Kale	-11.5651
unless	-11.5653
▁attachment	-11.5654
▁magistrate	-11.5656
▁painter	-11.5662
▁casual	-11.5662
▁chorus	-11.5662
▁severely	-11.5668
boy	-11.5669
▁FIRES	-11.5676
▁blaze	-11.5676
▁expenses	-11.5677
▁Genji	-11.5679
▁respected	-11.568
▁blazing	-11.568
▁NEIL	-11.568
▁noticing	-11.5683
▁Elsa	-11.5683
▁withdraw	-11.5683
▁descending	-11.5684
▁SPACE	-11.5686
▁eloquence	-11.5693
▁personality	-11.5695
▁WALL	-11.5695
▁vault	-11.5696
▁shades	-11.5698
▁prejudice	-11.5707
▁Taylor	-11.5708
▁hats	-11.5708
▁Archie	-11.5709
▁Lake	-11.5711
▁winning	-11.5711
▁dug	-11.5713
▁scandal	-11.5714
year	-11.5716
▁explaining	-11.5717
▁knot	-11.572
▁embraced	-11.5722
▁Katie	-11.5722
▁sticking	-11.5726
▁True	-11.5726
▁reluctantly	-11.5727
▁injustice	-11.5727
▁additional	-11.5727
▁Dude	-11.5728
twas	-11.5728
▁Trot	-11.5731
▁par	-11.5732
▁Julian	-11.5733
▁stealing	-11.5734
▁gorgeous	-11.5735
▁educated	-11.5735
▁cracks	-11.5735
▁addresses	-11.574
nor	-11.5741
▁requested	-11.5744
▁Anything	-11.5748
ade	-11.575
▁Later	-11.575
▁Club	-11.5751
▁medium	-11.5752
▁weighed	-11.5754
▁upwards	-11.5758
known	-11.576
▁cock	-11.5763
▁CHEV	-11.5765
▁IX	-11.5772
▁Senator	-11.5773
▁goddamn	-11.5777
▁negro	-11.5779
EN	-11.5781
▁identity	-11.5781
▁Except	-11.5782
▁invented	-11.5784
▁Suppose	-11.5785
▁KIRSTY	-11.5787
▁curb	-11.5794
▁welfare	-11.5795
▁Barry	-11.5795
▁harmony	-11.5796
▁sliding	-11.5799
▁visiting	-11.58
▁rifles	-11.5804
▁ce	-11.5812
▁speeches	-11.5816
▁grinning	-11.5817
▁Ay	-11.5817
▁PARK	-11.5822
▁pony	-11.5822
▁Better	-11.5822
▁endured	-11.5826
▁bestowed	-11.5826
▁hay	-11.5826
ANNA	-11.5836
php	-11.5839
▁Army	-11.5839
▁RITA	-11.5844
▁preparation	-11.5846
▁36	-11.5849
▁suspense	-11.5853
▁monkey	-11.5855
▁earl	-11.5857
▁leaping	-11.5864
▁packing	-11.5865
▁fox	-11.5869
▁favourable	-11.5869
▁clenched	-11.587
▁Claire	-11.5871
▁stockings	-11.5873
▁passionately	-11.5874
▁allusion	-11.5875
made	-11.5876
▁founded	-11.5877
▁SHEPHERD	-11.5883
▁Allworthy	-11.5883
▁assault	-11.5883
▁speedily	-11.5883
▁flock	-11.5884
▁sprung	-11.5884
▁Co	-11.5886
▁seemingly	-11.5886
CARL	-11.5887
▁sternly	-11.589
▁80	-11.5893
ring	-11.5895
▁escort	-11.5898
▁patiently	-11.5905
▁heroes	-11.5909
▁LOT	-11.5911
▁RYAN	-11.5912
▁reverse	-11.5913
▁trifling	-11.5913
▁stumbles	-11.5914
▁darted	-11.5914
▁mourning	-11.5915
▁peasants	-11.5916
▁cousins	-11.5917
▁captured	-11.5918
▁suitcase	-11.592
▁bastard	-11.592
▁stores	-11.5926
▁Bear	-11.5926
From	-11.5927
▁JENNIFER	-11.5927
▁depressed	-11.5928
▁neighbor	-11.593
▁license	-11.5931
▁Marianne	-11.5932
▁sovereign	-11.5941
▁vessels	-11.5943
▁dearly	-11.5945
▁PAN	-11.5952
top	-11.5953
Some	-11.5954
▁issued	-11.5957
▁Hammond	-11.5957
▁Cyril	-11.5958
▁columns	-11.5959
▁SCREAMS	-11.596
▁rocky	-11.5962
▁toil	-11.5965
Wait	-11.5966
▁WINDOW	-11.5967
▁CLYDE	-11.5972
▁MS	-11.5973
▁roared	-11.5977
▁philosopher	-11.598
▁tribes	-11.5982
▁gravel	-11.5983
▁beef	-11.5983
▁JACOB	-11.5984
▁disposal	-11.5987
Comedy	-11.5987
▁void	-11.5987
▁creep	-11.5988
▁Light	-11.5988
▁Norah	-11.5992
▁dagger	-11.5996
▁Gordy	-11.6002
▁management	-11.6002
▁lamb	-11.6004
▁Ever	-11.6005
▁STORE	-11.6005
▁Nico	-11.6008
▁Spirit	-11.6008
▁railing	-11.6015
▁defiance	-11.6017
▁calculated	-11.6021
▁EVE	-11.6027
▁impressions	-11.6028
hole	-11.6031
▁Roper	-11.6032
▁melted	-11.6033
▁assented	-11.6033
▁Within	-11.604
▁doll	-11.6041
▁gap	-11.6042
▁focus	-11.6046
▁thyself	-11.6047
▁traveller	-11.6047
▁slaps	-11.6052
▁crush	-11.6053
▁accord	-11.6054
▁sermon	-11.6055
▁42	-11.6055
▁shelves	-11.6055
▁rabbit	-11.606
▁significance	-11.6062
led	-11.6065
▁Probably	-11.6065
▁dealt	-11.6066
▁followers	-11.6066
▁stately	-11.6067
▁creation	-11.6072
▁carelessly	-11.6079
▁Hotel	-11.6079
▁engage	-11.6079
▁stays	-11.608
▁version	-11.6085
▁complex	-11.6091
▁2.	-11.6093
FRANK	-11.6093
▁BARRY	-11.6093
▁borrowed	-11.6093
▁driveway	-11.6094
▁heroic	-11.6095
▁stuffed	-11.6095
▁drunken	-11.6095
▁customers	-11.6096
ily	-11.6096
▁surroundings	-11.6099
▁avenue	-11.61
▁con	-11.6104
about	-11.6105
▁hospitality	-11.6107
▁loyal	-11.6107
▁sympathetic	-11.6108
▁audible	-11.6108
▁perceiving	-11.6108
▁valet	-11.6109
▁crawl	-11.6112
▁begging	-11.6114
▁shawl	-11.6115
▁introduction	-11.6115
▁limb	-11.6116
▁Raymond	-11.6119
▁harmless	-11.612
▁remainder	-11.6122
over	-11.6122
▁55	-11.6123
▁Peak	-11.6123
▁Certainly	-11.6124
▁BISHOP	-11.6124
▁blushed	-11.6125
▁victims	-11.6126
▁Law	-11.6127
▁bursting	-11.6133
IE	-11.6133
▁worldly	-11.6134
▁shrank	-11.6137
▁sincerity	-11.6137
GRAHAM	-11.6138
▁bidding	-11.6139
BEN	-11.6146
▁fork	-11.6152
▁goods	-11.6152
▁Somerset	-11.6153
▁TIN	-11.6153
▁Orme	-11.6156
▁musical	-11.6157
▁umbrella	-11.6161
▁sufferings	-11.6164
▁dignified	-11.6167
▁foliage	-11.6172
▁included	-11.6172
▁Jew	-11.6173
▁customs	-11.6174
▁sergeant	-11.6178
▁arise	-11.6181
▁crouched	-11.6183
▁pipes	-11.6186
▁requires	-11.6187
▁Wow	-11.6187
▁bald	-11.6196
still	-11.6197
▁Anthea	-11.6198
▁Terry	-11.6198
▁sinister	-11.6199
▁tension	-11.62
▁Fire	-11.6206
▁globe	-11.6207
▁90	-11.6207
ALVY	-11.6213
▁Wood	-11.6215
▁pop	-11.6216
▁rag	-11.6216
▁strained	-11.622
▁Bernie	-11.6223
▁editor	-11.6226
▁vent	-11.6228
▁piled	-11.6228
▁LUKE	-11.6229
▁ego	-11.623
▁forgiveness	-11.6231
▁individuals	-11.6234
▁Lesta	-11.6236
▁shaped	-11.6237
▁forcing	-11.6239
▁steamer	-11.6242
▁Merrick	-11.6243
▁flattered	-11.6245
▁resembled	-11.6247
▁Thursday	-11.6247
▁flowed	-11.6247
▁strokes	-11.625
▁opera	-11.6251
UE	-11.6251
▁finishing	-11.6257
▁75	-11.6257
▁workers	-11.6259
▁Till	-11.6259
▁slipping	-11.626
▁curled	-11.6262
▁Frenchman	-11.6263
▁despised	-11.6267
▁tradition	-11.6268
▁Anyway	-11.6269
▁stained	-11.627
▁butler	-11.6272
▁vigorous	-11.6272
▁readiness	-11.6275
▁asserted	-11.6276
▁footing	-11.628
▁LORD	-11.6282
logo	-11.6289
▁remedy	-11.6289
▁rejected	-11.629
▁Indy	-11.6291
going	-11.6291
▁basement	-11.6291
▁sinks	-11.6295
▁Ye	-11.6298
▁divorce	-11.6299
▁attraction	-11.63
▁occupy	-11.63
▁ridge	-11.6301
▁ROSS	-11.6302
▁cautious	-11.6304
▁Burton	-11.6305
▁receiver	-11.6305
▁Robarts	-11.6305
▁staggered	-11.6306
▁rosy	-11.6307
▁November	-11.6308
Lord	-11.6309
▁restrain	-11.6309
▁tastes	-11.631
se	-11.6323
▁frighten	-11.6326
▁parallel	-11.6327
▁elaborate	-11.6328
▁revolution	-11.6332
▁biggest	-11.6335
▁Stepan	-11.6335
▁TIFFANY	-11.6336
▁Casaubon	-11.6336
▁horrified	-11.6338
▁CLUB	-11.634
▁Hans	-11.6342
▁emerge	-11.6342
▁worm	-11.6344
▁outta	-11.635
▁BOWER	-11.6351
▁Maud	-11.6351
▁ZOE	-11.6351
▁Watson	-11.6351
▁forbidden	-11.6352
▁Christianity	-11.6352
▁punished	-11.6353
SCOTT	-11.6353
▁perish	-11.6354
▁contest	-11.6357
▁interrupting	-11.6358
▁sorrows	-11.6359
▁telegram	-11.6362
▁wax	-11.6362
La	-11.6364
▁Precious	-11.6369
▁designed	-11.6371
▁Bay	-11.6373
▁TERRY	-11.6373
▁choked	-11.6373
▁rascal	-11.6377
▁detective	-11.6377
▁BOX	-11.6377
▁lent	-11.638
▁Alexander	-11.6384
▁ascended	-11.6384
▁hinted	-11.6387
▁wallet	-11.6388
▁Kurt	-11.6391
▁Damn	-11.6394
▁Women	-11.6395
▁eventually	-11.6398
Get	-11.6403
▁deepest	-11.6404
▁generations	-11.6409
--_	-11.6412
▁seventeen	-11.6413
▁(2)	-11.6415
▁encourage	-11.6416
These	-11.6421
▁privately	-11.6425
▁judges	-11.6425
▁SMITH	-11.6426
▁primitive	-11.6428
▁Debbie	-11.6428
▁preceding	-11.6428
▁slumber	-11.6431
▁equality	-11.6431
▁disorder	-11.6436
▁rug	-11.6437
▁FIELD	-11.6439
▁population	-11.6439
▁von	-11.6439
trees	-11.6441
▁Tudor	-11.6444
▁northern	-11.6444
▁settlement	-11.6444
▁groaned	-11.6446
▁recommended	-11.6446
▁33	-11.6448
▁border	-11.6451
▁goose	-11.6454
▁token	-11.6457
▁engines	-11.6461
▁adjoining	-11.6463
▁questioning	-11.6463
▁pledge	-11.6464
BOB	-11.6464
▁promises	-11.6472
▁Russia	-11.6472
▁Harman	-11.6475
▁Wade	-11.6476
▁Devil	-11.6476
▁pupils	-11.6478
Internet	-11.648
▁California	-11.6487
▁dismal	-11.6489
▁bodily	-11.6491
▁College	-11.6491
▁Ongar	-11.6491
▁supplies	-11.6491
IMSDb	-11.6496
▁recommend	-11.6496
▁Shakespeare	-11.6496
▁oblige	-11.65
▁bond	-11.6501
▁earned	-11.6503
▁disdain	-11.6503
▁pious	-11.6505
▁admiring	-11.6507
▁Barton	-11.6507
▁Biddy	-11.651
▁wages	-11.6512
▁curls	-11.6513
▁WIDE	-11.6513
▁alternative	-11.6519
▁scripts	-11.6519
▁refer	-11.652
▁arriving	-11.6522
▁MAGGIE	-11.6522
▁doom	-11.6524
▁SIDE	-11.6527
▁awaited	-11.6531
▁34	-11.6534
)](	-11.6539
▁PARKING	-11.654
▁JEAN	-11.6542
▁limit	-11.6542
▁Sharp	-11.6547
▁vital	-11.6549
▁bounds	-11.6552
▁obligation	-11.6552
▁strove	-11.6553
▁governess	-11.6553
▁Corey	-11.6554
▁Palace	-11.6555
▁storms	-11.6555
ty	-11.6555
▁Peggy	-11.6555
▁47	-11.6556
▁foundation	-11.6557
▁trash	-11.6565
dvd	-11.6569
10/10	-11.6571
▁Jeanne	-11.6572
▁nail	-11.6579
▁privacy	-11.6584
▁tour	-11.6586
▁demands	-11.6587
▁resigned	-11.6588
▁dances	-11.6592
▁cane	-11.6593
come	-11.6595
▁heavenly	-11.6596
▁drags	-11.6596
▁stack	-11.66
▁committee	-11.66
▁resolute	-11.66
▁PULL	-11.6601
▁Helium	-11.6601
▁southern	-11.6601
▁loses	-11.6609
▁CAN	-11.661
▁harness	-11.661
▁3.	-11.661
▁DOUG	-11.6611
▁annoyance	-11.6614
▁Spooner	-11.6617
▁limp	-11.6621
▁tongues	-11.6622
▁NURSE	-11.6622
▁thrill	-11.6624
▁purely	-11.6624
▁supposing	-11.6625
▁abuse	-11.6625
▁mare	-11.6626
▁Peters	-11.6626
▁nostrils	-11.663
▁Karen	-11.663
▁irresistible	-11.6633
▁propriety	-11.6633
▁LEONARD	-11.6633
▁saint	-11.6633
▁Lewis	-11.6634
▁president	-11.6635
▁tread	-11.664
▁meadow	-11.6642
▁39	-11.6646
▁machines	-11.6646
▁Je	-11.6653
▁lowest	-11.6656
▁lions	-11.6658
▁Georgiana	-11.6665
▁switches	-11.6666
▁Second	-11.6666
▁African	-11.6666
▁cargo	-11.6667
▁tumult	-11.6677
▁division	-11.6679
▁WALTER	-11.6681
▁Valancourt	-11.6681
▁Sit	-11.6683
▁crawling	-11.6684
▁resource	-11.6685
▁improved	-11.6686
▁horns	-11.6687
▁lab	-11.6688
▁shepherd	-11.6695
▁situated	-11.6697
▁shudder	-11.6701
▁manly	-11.6704
▁moderate	-11.6704
▁terrific	-11.6712
▁Rita	-11.6712
▁forests	-11.6714
▁payment	-11.6714
▁44	-11.6715
▁concerns	-11.6715
▁politely	-11.6717
▁hugs	-11.6719
something	-11.6719
▁regions	-11.6725
▁bliss	-11.6728
▁customary	-11.6728
▁hurled	-11.673
▁stair	-11.6731
▁Alexey	-11.6733
MAX	-11.6736
▁breeches	-11.6736
▁disciples	-11.6741
▁92	-11.6742
▁wondrous	-11.6743
▁Gideon	-11.6744
▁Sykes	-11.6744
▁assembly	-11.6744
▁weariness	-11.6745
▁Fang	-11.6745
▁Ash	-11.6746
▁wolves	-11.6749
good	-11.675
▁occasioned	-11.675
▁armour	-11.6753
▁reasoning	-11.6754
▁documents	-11.6759
▁Priest	-11.6759
▁refusal	-11.676
▁types	-11.6763
▁Comments	-11.6766
▁DO	-11.6768
▁quest	-11.6771
▁repair	-11.6772
▁guitar	-11.6774
▁reckless	-11.6774
▁respectful	-11.6775
▁Vincent	-11.6777
▁Raoul	-11.6778
▁CONTROL	-11.6778
▁paths	-11.6778
▁bucket	-11.6778
▁anticipated	-11.678
▁37	-11.6781
▁modesty	-11.6781
▁ropes	-11.6782
▁64	-11.6784
▁obstinate	-11.6792
▁REBECCA	-11.6793
▁babies	-11.6793
▁noisy	-11.6793
▁attacks	-11.6793
Has	-11.68
▁strongest	-11.68
▁arrows	-11.6801
▁INSIDE	-11.6805
▁yacht	-11.6807
▁HEDDA	-11.681
▁BOOK	-11.6813
▁Joey	-11.6819
▁debts	-11.682
▁Book	-11.6821
▁43	-11.6824
▁whistling	-11.6825
▁Highness	-11.6825
▁Gilbert	-11.6829
▁Wednesday	-11.683
case	-11.6833
▁tendency	-11.6841
▁temples	-11.6841
War	-11.6848
▁youngest	-11.6851
▁investigation	-11.6857
▁48	-11.6857
▁authorities	-11.6858
▁Curtis	-11.6858
▁blonde	-11.6863
▁noises	-11.6865
▁Sally	-11.6867
▁torment	-11.6868
▁groan	-11.6868
▁organ	-11.6869
▁pan	-11.6871
▁Rocky	-11.6871
▁Much	-11.6873
▁Senate	-11.6874
▁lazy	-11.6874
▁resignation	-11.6874
▁GREEN	-11.6874
▁Already	-11.6879
talk	-11.688
▁rejoiced	-11.688
▁):	-11.6881
▁duck	-11.6884
▁COLUMB	-11.689
▁stamped	-11.689
MORE	-11.6891
▁nobility	-11.6891
▁tragic	-11.6892
▁drifted	-11.6893
▁99	-11.6896
six	-11.69
▁verge	-11.6902
▁senior	-11.6906
▁malice	-11.6906
mon	-11.6907
▁briefcase	-11.6907
▁Country	-11.6907
▁Lisbeth	-11.6908
▁Beast	-11.6913
▁hunted	-11.6913
▁PK	-11.6921
▁Goesler	-11.6923
▁Godolphin	-11.6924
▁animated	-11.6924
▁National	-11.6925
▁coachman	-11.6926
▁bravely	-11.693
MARTIN	-11.6931
▁foam	-11.6933
▁transport	-11.6938
▁Tyler	-11.6939
▁canoe	-11.6941
▁wiping	-11.6941
▁derived	-11.6942
long	-11.6949
▁misfortunes	-11.6952
▁lungs	-11.6953
▁breasts	-11.6957
▁traitor	-11.6961
▁tossing	-11.6961
▁PANS	-11.6962
▁marvellous	-11.6971
▁Hannah	-11.6975
▁bien	-11.6976
▁Egypt	-11.6976
▁web	-11.6977
▁grimly	-11.6978
▁claimed	-11.6982
▁ANAKIN	-11.6984
VIOLET	-11.6988
▁Celia	-11.699
▁relaxed	-11.699
▁RINGS	-11.6991
▁streaming	-11.6992
▁forthwith	-11.6994
▁determine	-11.6996
▁approved	-11.6996
▁vainly	-11.6998
▁sob	-11.7003
▁beforehand	-11.7004
▁Fran	-11.7004
▁j	-11.7005
▁indicates	-11.7007
▁comparatively	-11.7007
▁criticism	-11.7008
▁41	-11.7011
▁punish	-11.7013
▁Inn	-11.7015
!**	-11.7015
▁notions	-11.7018
▁feature	-11.7018
▁vicious	-11.7019
▁Racksole	-11.7021
▁Evil	-11.7025
▁unexpectedly	-11.7026
▁Jews	-11.7027
▁signals	-11.7031
▁argued	-11.7031
▁feeding	-11.7032
▁fucked	-11.7032
▁BIG	-11.7034
▁float	-11.7035
▁Always	-11.7037
▁Others	-11.7038
▁Sheriff	-11.7038
▁Stafford	-11.7038
▁captive	-11.7039
▁mechanically	-11.704
▁retained	-11.704
▁sunny	-11.704
▁transformed	-11.704
wood	-11.704
▁Dame	-11.7041
▁sings	-11.7041
▁boast	-11.7045
▁bonds	-11.7045
▁Lovel	-11.7047
▁sickness	-11.7047
Action	-11.7048
▁Mister	-11.705
▁invariably	-11.7054
▁chaos	-11.7054
▁react	-11.7056
▁bred	-11.706
▁chanced	-11.7061
HELEN	-11.7065
▁drug	-11.7067
▁clothed	-11.7068
▁based	-11.707
▁spending	-11.7071
▁eternity	-11.7071
▁petty	-11.7071
▁lain	-11.7071
▁Neefit	-11.7072
ur	-11.7072
▁failing	-11.7076
▁EMILY	-11.7077
▁rags	-11.7077
▁Marie	-11.708
▁shriek	-11.7085
_;	-11.7085
▁confidential	-11.7087
▁ardent	-11.7087
▁Harvey	-11.7088
▁haughty	-11.7088
▁Diego	-11.7088
▁bucks	-11.7088
▁XI	-11.7089
▁LOBBY	-11.7089
▁Wendy	-11.709
▁sleepy	-11.7092
▁YURI	-11.7093
▁jerks	-11.7093
▁indulge	-11.7097
▁marching	-11.7097
▁attentive	-11.7098
▁assent	-11.7098
▁taps	-11.7103
▁crest	-11.7104
most	-11.7104
▁Must	-11.7104
▁Penelope	-11.7105
tel	-11.7107
▁GRACE	-11.7107
▁blankets	-11.7108
▁SMALL	-11.7109
▁tub	-11.711
nt	-11.7119
▁commonwealth	-11.7122
▁perception	-11.7122
▁growled	-11.7123
▁ANDY	-11.7124
▁digging	-11.7125
▁pacing	-11.7127
▁GO	-11.7129
ST	-11.713
▁58	-11.7133
▁prime	-11.7136
▁PRESIDENT	-11.7137
▁startling	-11.7138
▁momentarily	-11.7138
▁Corso	-11.714
▁Bathsheba	-11.714
▁geese	-11.7141
▁ALI	-11.7148
▁killer	-11.715
▁whoever	-11.7154
▁ghastly	-11.7154
▁varied	-11.7154
▁gratified	-11.7154
▁Rowan	-11.7154
▁battered	-11.7155
▁Buddy	-11.7155
▁province	-11.7156
▁coloured	-11.7167
▁joyous	-11.717
▁46	-11.717
▁barren	-11.7171
▁gaiety	-11.7171
▁Conan	-11.7174
▁tips	-11.7177
DANTE	-11.7183
▁displeasure	-11.7188
▁Neville	-11.7188
▁exhibited	-11.7189
▁pluck	-11.719
▁utterance	-11.719
▁invention	-11.719
▁volumes	-11.719
▁stumbled	-11.7191
▁doomed	-11.7192
▁Stone	-11.7194
▁Button	-11.7198
▁Open	-11.7205
▁Pinch	-11.7206
▁interruption	-11.7207
▁cupboard	-11.7207
▁spoiled	-11.7207
▁wakes	-11.7211
▁edges	-11.7211
▁YORK	-11.7212
▁grabbing	-11.7212
▁DRIVER	-11.7215
▁nobleman	-11.7226
▁FATHER	-11.7226
▁smoked	-11.7227
▁NOW	-11.7227
▁materials	-11.7232
▁curve	-11.7236
▁spectators	-11.7237
▁hoarse	-11.7237
▁yell	-11.7238
▁virtuous	-11.7238
▁extremity	-11.7238
▁prosperity	-11.7239
▁outstretched	-11.724
0	-11.7242
▁drifting	-11.7243
▁staggers	-11.7244
▁Toward	-11.7246
▁rocking	-11.7255
▁superiority	-11.7256
▁briskly	-11.7256
▁Dinah	-11.7258
▁packet	-11.726
▁fits	-11.7262
▁rightly	-11.7265
board	-11.7265
▁Top	-11.7267
▁backed	-11.7271
▁shabby	-11.7272
▁attained	-11.7274
▁clue	-11.7275
):	-11.7279
▁BOB	-11.7281
▁REPORTER	-11.7285
▁opportunities	-11.7289
▁confounded	-11.729
▁disgusted	-11.7292
▁Bull	-11.7292
▁realizing	-11.7298
da	-11.73
▁traveling	-11.7302
▁mirth	-11.7303
▁Avenue	-11.7306
▁suicide	-11.7306
▁severity	-11.7306
▁negroes	-11.7307
les	-11.731
▁Said	-11.7313
▁k	-11.7314
ICE	-11.7314
▁suppressed	-11.7314
▁prevail	-11.7316
▁contains	-11.732
▁declaring	-11.7324
▁commander	-11.7326
▁restrained	-11.7328
▁Bath	-11.7332
Her	-11.7332
▁crooked	-11.7334
▁bulk	-11.7337
▁WHAT	-11.7339
▁meets	-11.7339
▁impressive	-11.7339
VIKTOR	-11.734
▁echoes	-11.7341
▁draught	-11.7344
▁awkwardly	-11.7346
▁ward	-11.7352
DEAN	-11.7352
CHARLIE	-11.7353
▁Eli	-11.7354
▁Kennicott	-11.7358
▁circular	-11.736
▁empire	-11.736
▁brushed	-11.7366
MELA	-11.737
▁Ask	-11.7372
▁prolonged	-11.7376
▁Part	-11.7377
os	-11.7379
▁66	-11.738
▁unjust	-11.7385
▁jet	-11.7387
▁decline	-11.7388
▁dives	-11.7389
▁partially	-11.7392
▁Erin	-11.7393
▁traced	-11.7393
▁moss	-11.7393
ard	-11.7394
▁obstacle	-11.7395
▁School	-11.7398
▁muttering	-11.74
▁accomplish	-11.7401
▁greatness	-11.7401
▁purchased	-11.7403
▁Holland	-11.7404
▁routine	-11.7407
▁phrases	-11.7414
▁shores	-11.7416
▁flaming	-11.7425
▁baseball	-11.7426
▁borrow	-11.7426
▁Grimm	-11.7429
▁plains	-11.7436
▁Patsy	-11.7443
▁CABIN	-11.7443
▁copies	-11.7445
▁executed	-11.7449
KELLY	-11.7457
▁interrupt	-11.7458
▁capture	-11.7459
▁Jessica	-11.746
▁permanent	-11.746
▁available	-11.7461
▁bury	-11.7462
▁promising	-11.7463
▁stamp	-11.7464
▁advances	-11.7464
▁Elle	-11.7465
▁Water	-11.7466
▁urge	-11.7467
▁fights	-11.7477
▁possibilities	-11.7477
▁gaily	-11.7477
▁beggar	-11.7478
▁SHIP	-11.748
▁sweetly	-11.7482
▁hounds	-11.7482
▁ho	-11.7487
▁Head	-11.7489
Exit	-11.7492
▁roars	-11.7493
▁wonders	-11.7493
chabod	-11.7495
▁windshield	-11.7495
▁Belton	-11.7495
▁bloom	-11.7495
▁villages	-11.7495
▁ZED	-11.7496
▁summons	-11.7497
▁independence	-11.7497
▁China	-11.7497
▁Jules	-11.7497
▁EYES	-11.7499
▁fathers	-11.7505
Adventure	-11.7509
▁dangling	-11.7512
▁Morris	-11.7513
▁STUDIO	-11.7513
▁Jesse	-11.7513
▁69	-11.7514
▁provision	-11.7516
▁slay	-11.7518
▁Zoe	-11.7518
▁spark	-11.752
▁campaign	-11.752
▁cleaning	-11.7525
▁saints	-11.7528
▁Grief	-11.753
▁experiences	-11.7531
▁hum	-11.7532
▁minor	-11.7534
▁intensely	-11.7534
▁achieved	-11.7534
▁allowance	-11.7535
▁recovery	-11.7535
▁discussing	-11.7537
▁ancestors	-11.7538
ere	-11.7544
▁attending	-11.7544
▁pistols	-11.7546
▁dazzling	-11.7547
▁Kathy	-11.7547
▁negative	-11.7551
▁mould	-11.7552
▁mothers	-11.7554
▁CO	-11.7556
▁Number	-11.7557
ma	-11.7558
▁knives	-11.756
!!	-11.7562
▁bullshit	-11.7564
▁faculties	-11.7564
▁irony	-11.7564
▁Baroness	-11.7565
▁sideways	-11.7566
▁Chance	-11.7568
▁BEAN	-11.7568
▁immortal	-11.7569
▁pierced	-11.7569
▁shifts	-11.7569
▁brightness	-11.7573
▁recognise	-11.7575
▁shines	-11.7578
▁Hope	-11.7578
▁Wragge	-11.7582
▁Archer	-11.7583
▁fearing	-11.7583
▁choking	-11.7584
▁fruits	-11.7585
▁reins	-11.7586
▁scoundrel	-11.7586
..."	-11.7588
▁fuel	-11.7592
▁eyelids	-11.7593
▁Ladies	-11.7593
▁distrust	-11.7594
COBB	-11.7597
ERIN	-11.7598
▁indicating	-11.7598
▁Alexandrovitch	-11.7599
▁mysteries	-11.76
▁Virgin	-11.7601
▁external	-11.7602
▁MOVES	-11.7604
▁gulf	-11.7606
▁Honor	-11.7613
▁stretches	-11.7619
▁revived	-11.762
▁Whose	-11.7621
▁announcement	-11.7622
▁Enter	-11.7622
ous	-11.7623
▁CH	-11.7623
▁aristocratic	-11.7625
▁instruction	-11.7625
▁Jove	-11.7625
▁sketch	-11.7626
!’	-11.7634
▁visibly	-11.7634
▁remarkably	-11.7634
▁clumsy	-11.7635
▁Steven	-11.7635
▁Bulstrode	-11.7635
▁politeness	-11.7636
▁rotten	-11.7636
▁WATER	-11.7638
▁January	-11.7639
▁originally	-11.7642
▁edition	-11.7642
▁repent	-11.7645
▁Welcome	-11.765
▁sublime	-11.7651
▁Algren	-11.7652
▁establish	-11.7652
▁Jasper	-11.7654
▁objected	-11.7657
▁taxi	-11.7658
▁didst	-11.7658
▁Page	-11.7663
▁foes	-11.7663
▁reign	-11.7667
mo	-11.7669
▁potatoes	-11.767
▁Ivan	-11.767
▁stripped	-11.7671
▁SLAMS	-11.7671
▁Irene	-11.7672
▁site	-11.7673
▁wench	-11.7676
▁Milt	-11.7682
▁relate	-11.7682
Listen	-11.7682
▁53	-11.7683
▁discharge	-11.7684
▁assertion	-11.7685
▁comforted	-11.7686
▁countess	-11.7686
!...	-11.7687
▁chateau	-11.7687
▁ascertain	-11.7687
▁dainty	-11.7688
▁95	-11.769
▁Snake	-11.7693
▁SE	-11.7694
voice	-11.7695
▁Run	-11.7699
ad	-11.7699
must	-11.7699
▁goat	-11.7699
▁rests	-11.7699
▁wraps	-11.7703
▁Han	-11.7704
▁venerable	-11.7705
sken	-11.7708
▁52	-11.7709
▁crawled	-11.771
Please	-11.7715
▁darker	-11.7715
▁AIR	-11.7718
▁poets	-11.772
▁purity	-11.7724
▁debris	-11.7724
▁illuminated	-11.7726
▁inspiration	-11.7728
▁jokes	-11.7728
▁disappearing	-11.773
▁eagle	-11.7731
▁Clement	-11.7731
▁fertilised	-11.7734
▁appropriate	-11.7734
▁strings	-11.7736
eh	-11.7737
FADE	-11.774
▁Hilliard	-11.774
▁submission	-11.774
▁rubs	-11.7742
▁Low	-11.7745
▁pounding	-11.7747
▁oppressed	-11.7758
▁Valley	-11.7759
▁buddy	-11.7759
▁Chauvelin	-11.7759
▁positions	-11.7759
▁actor	-11.7761
▁grieved	-11.7763
▁railroad	-11.7765
▁farmers	-11.777
▁Ace	-11.7774
▁compare	-11.7776
▁Racine	-11.7776
▁GINGER	-11.7778
▁thereof	-11.7778
▁Hicks	-11.7779
▁reflecting	-11.7782
▁El	-11.7782
▁gasping	-11.7786
▁sung	-11.7787
▁TRAIN	-11.7789
▁Stephanie	-11.7793
▁accordance	-11.7794
continuing	-11.7794
▁vicar	-11.7794
▁piercing	-11.7794
▁bands	-11.7797
▁drawers	-11.7797
▁files	-11.7797
▁Bring	-11.78
▁Speed	-11.7802
colored	-11.7805
▁fare	-11.7807
▁stall	-11.7807
▁pleading	-11.7808
▁irregular	-11.781
▁abide	-11.781
▁Fate	-11.781
▁ecstasy	-11.7812
▁innumerable	-11.7812
▁detected	-11.7813
▁MEDIUM	-11.7816
▁BEHIND	-11.7816
▁pie	-11.7817
▁hull	-11.782
INDY	-11.7823
ue	-11.7828
▁spin	-11.7829
▁loyalty	-11.7829
white	-11.783
▁significant	-11.783
▁Jerome	-11.783
▁resume	-11.783
▁lingering	-11.783
▁LINDA	-11.7831
Surely	-11.7831
tre	-11.7831
▁fascinated	-11.7832
▁knights	-11.7835
▁horseback	-11.7836
--“	-11.7839
▁palms	-11.7841
boat	-11.7842
▁blushing	-11.7842
▁frenzy	-11.7847
▁culture	-11.7848
▁virgin	-11.7849
▁Ellen	-11.7854
▁raging	-11.7857
▁THEIR	-11.7857
▁Jay	-11.786
▁plunge	-11.7861
▁fades	-11.7862
▁Helmut	-11.7864
▁AWAY	-11.7865
▁treasures	-11.7865
▁thirteen	-11.7865
▁salary	-11.7865
Romance	-11.7866
Pray	-11.7866
▁slippers	-11.7866
▁beats	-11.7866
▁Godwin	-11.7868
▁await	-11.7871
taking	-11.7872
▁mule	-11.7877
▁revelation	-11.7877
▁ST	-11.7879
▁perched	-11.7886
▁nursery	-11.7886
▁SHOP	-11.7888
▁odds	-11.7892
rate	-11.7892
▁personage	-11.7894
▁recovering	-11.7895
▁lecture	-11.79
▁observations	-11.7901
▁furnish	-11.7901
▁Brumley	-11.7901
▁shrink	-11.7902
BOND	-11.7902
▁smashed	-11.7903
▁shutting	-11.7903
▁Modeste	-11.7904
▁XIV	-11.7905
▁94	-11.7905
▁tasted	-11.7909
▁onward	-11.7911
▁pays	-11.7911
▁disliked	-11.7914
▁schools	-11.7914
▁!...	-11.7916
▁wires	-11.7918
▁TABLE	-11.7919
▁stamens	-11.7919
▁clutches	-11.792
▁Ardan	-11.7921
▁COBB	-11.7921
▁deliberate	-11.7928
▁enthusiastic	-11.7929
▁pond	-11.7931
▁existing	-11.7932
▁57	-11.7936
▁loneliness	-11.7937
▁CLAY	-11.7939
▁trapped	-11.794
▁whatsoever	-11.7942
▁spray	-11.7942
▁trunks	-11.7944
▁lied	-11.7945
▁photos	-11.7945
▁converse	-11.7947
▁Stan	-11.7947
▁51	-11.7954
▁pitiful	-11.7954
▁precise	-11.7954
▁frock	-11.7954
▁abrupt	-11.7955
▁brighter	-11.7956
▁91	-11.7957
▁HONEY	-11.7957
▁clutched	-11.7957
▁maids	-11.7958
▁cigarettes	-11.7958
▁flutter	-11.7958
▁BUS	-11.796
ul	-11.7961
▁Forget	-11.7962
▁BEACH	-11.7963
▁comedy	-11.7963
▁helicopter	-11.7965
▁Eh	-11.7969
▁coats	-11.7971
▁irritation	-11.7973
▁Scotch	-11.7975
Lady	-11.7976
▁respecting	-11.7977
▁sleeves	-11.7978
▁Zed	-11.798
▁asshole	-11.7983
▁Theo	-11.7986
▁workmen	-11.7988
▁Michel	-11.7991
▁artificial	-11.7992
▁ivory	-11.7992
▁sobbed	-11.7992
▁basis	-11.7992
▁considers	-11.7994
▁uneasily	-11.7994
▁Barbican	-11.7995
▁demon	-11.7995
▁complained	-11.7996
▁jerk	-11.7997
▁Denys	-11.7998
▁headlong	-11.7999
▁controls	-11.8
▁Pip	-11.8002
▁59	-11.8003
▁turf	-11.801
▁Yuri	-11.801
▁escaping	-11.801
▁uncommon	-11.801
▁interference	-11.8011
▁lump	-11.8012
▁rats	-11.8012
▁super	-11.8015
▁neighbouring	-11.8016
▁recorded	-11.8019
▁tool	-11.802
ck	-11.8021
▁ELEVATOR	-11.8024
▁slid	-11.8024
▁Ambrose	-11.8028
▁Arkadyevitch	-11.8028
▁courteous	-11.8028
▁LEE	-11.8029
▁attentively	-11.803
6	-11.803
▁debate	-11.8031
▁indicate	-11.8031
▁Penny	-11.8032
▁tumbled	-11.8034
▁TOP	-11.8038
▁pro	-11.804
▁Seth	-11.8044
▁Hawk	-11.8045
▁grinned	-11.8047
▁Wayne	-11.8047
▁earliest	-11.8047
▁submitted	-11.8047
▁Union	-11.8047
Crime	-11.8049
▁retain	-11.8049
▁Pull	-11.8052
▁NELL	-11.8053
▁Bud	-11.8055
▁temperament	-11.8055
▁rejoice	-11.8062
▁grotesque	-11.8063
▁unit	-11.8064
▁ambitious	-11.8065
▁striving	-11.8065
▁ELAINE	-11.8067
▁soothing	-11.8069
▁savages	-11.807
▁sincerely	-11.8071
▁PULLS	-11.8072
▁86	-11.8073
▁acquaintances	-11.8075
▁dreadfully	-11.8075
▁Fair	-11.8076
him	-11.8081
▁77	-11.809
▁appealed	-11.809
▁footman	-11.8093
RE	-11.8093
▁merits	-11.8093
pause	-11.8097
▁Magic	-11.8097
▁drum	-11.8099
▁Bonteen	-11.8101
▁Josh	-11.8102
▁CECIL	-11.8103
▁underground	-11.8104
▁56	-11.8107
▁keenly	-11.8107
▁illusion	-11.8108
▁howling	-11.8109
▁catastrophe	-11.8111
▁brand	-11.8112
▁affliction	-11.8112
▁cathedral	-11.8112
▁bind	-11.8114
▁FLASH	-11.8115
▁stammered	-11.812
▁topic	-11.8121
▁snatches	-11.8121
▁IRA	-11.8121
▁Khalid	-11.8122
▁sustained	-11.8124
▁lifetime	-11.8124
▁hue	-11.8128
OLD	-11.813
▁disturbance	-11.813
▁54	-11.8131
▁pillar	-11.8133
▁CARTER	-11.8135
▁Spock	-11.8138
▁inspection	-11.8138
per	-11.8139
▁riches	-11.8139
▁accepting	-11.8143
▁Grandet	-11.8145
▁concert	-11.8145
▁DAD	-11.815
▁SIDNEY	-11.8156
▁Rosmer	-11.8157
▁Jamal	-11.8157
▁churchyard	-11.8158
▁Empire	-11.8159
▁Bar	-11.816
▁skirts	-11.8161
▁Seven	-11.8165
▁timber	-11.8167
▁travels	-11.817
class	-11.817
▁slim	-11.8171
could	-11.8172
▁dials	-11.8174
▁henceforth	-11.8177
▁Actually	-11.8178
DAVID	-11.8179
▁twist	-11.818
▁salute	-11.8182
▁glares	-11.8184
▁vow	-11.8184
▁hip	-11.8185
▁signature	-11.8186
▁speechless	-11.8188
▁gaining	-11.8188
▁ditch	-11.8189
▁stricken	-11.8189
▁nought	-11.8198
▁handing	-11.8199
▁survive	-11.8199
▁shivering	-11.8199
▁Eyes	-11.8206
▁Off	-11.8209
▁eloquent	-11.8211
▁exalted	-11.8213
▁planning	-11.8213
▁rusty	-11.8213
▁simultaneously	-11.8214
▁earnestness	-11.8215
cut	-11.8218
▁photographs	-11.8219
▁evenings	-11.822
▁Unless	-11.8222
▁anticipation	-11.8224
▁effective	-11.823
▁humming	-11.823
▁deserves	-11.823
▁Um	-11.8231
▁humility	-11.8231
▁Russell	-11.8231
▁Cal	-11.8233
▁Vicar	-11.8233
▁96	-11.8233
▁pausing	-11.8236
▁produces	-11.8237
▁afar	-11.8243
▁theater	-11.8243
▁Force	-11.8248
▁expressive	-11.8248
jpg	-11.825
▁icy	-11.825
▁settling	-11.825
▁appreciation	-11.8251
▁Round	-11.8253
▁Brad	-11.8255
▁pump	-11.8261
▁cough	-11.8262
▁Officer	-11.8264
ro	-11.8266
▁ultimate	-11.8267
▁ominous	-11.8268
▁corporal	-11.8269
▁XII	-11.8271
▁attract	-11.8275
Nor	-11.8276
▁emotional	-11.8276
▁aimed	-11.8277
▁62	-11.8278
▁robes	-11.828
▁decidedly	-11.8282
▁target	-11.8282
TH	-11.8282
▁ribs	-11.8283
▁afore	-11.8287
▁devils	-11.8287
▁Wheeler	-11.8288
▁familiarity	-11.8288
▁hovering	-11.8289
▁states	-11.829
▁December	-11.8291
▁Reed	-11.8292
▁gross	-11.8293
▁realised	-11.8294
since	-11.8296
▁tho	-11.8296
▁litter	-11.8298
TE	-11.83
▁sweeps	-11.8302
▁?...	-11.8303
▁73	-11.8303
▁Cause	-11.8303
▁abyss	-11.8305
▁destination	-11.8306
▁Gibson	-11.8306
▁BONNIE	-11.8307
▁actress	-11.8307
▁DUDE	-11.8309
▁muscle	-11.8311
▁sweetest	-11.8312
▁endeavouring	-11.8313
ECKER	-11.8313
▁keeper	-11.8313
see	-11.8315
▁courts	-11.8316
▁overcoat	-11.8316
?...	-11.8316
▁torrent	-11.8318
▁shew	-11.8321
these	-11.8322
▁archdeacon	-11.8325
▁shaggy	-11.8325
ler	-11.8327
▁Phoenix	-11.833
Mother	-11.833
▁therein	-11.8331
▁crashing	-11.8334
▁sentimental	-11.8335
▁dialogue	-11.8337
▁coolly	-11.8337
▁defense	-11.8338
▁JESSE	-11.8338
▁unreasonable	-11.8338
▁Need	-11.8338
▁tend	-11.8339
▁GENERAL	-11.834
▁threats	-11.8341
▁yanks	-11.8341
▁temperature	-11.8344
▁imaginary	-11.8344
▁tire	-11.8344
▁Copperfield	-11.8346
▁huddled	-11.8347
▁crimes	-11.8347
▁praised	-11.8347
▁Milo	-11.8348
▁rash	-11.835
▁Duncan	-11.8352
▁churches	-11.8354
▁composition	-11.8356
▁spoon	-11.8357
▁THOMAS	-11.8359
▁operations	-11.8359
▁toys	-11.8362
▁brethren	-11.8362
▁quaint	-11.8362
▁Department	-11.8363
▁refined	-11.8366
▁Admiral	-11.8368
▁Beauty	-11.837
▁tranquil	-11.8371
▁JOEY	-11.8372
▁amiss	-11.8374
▁contemplation	-11.8374
▁symptoms	-11.8375
▁Claus	-11.8375
▁85	-11.8379
▁legitimate	-11.838
▁parcel	-11.8381
▁treachery	-11.8381
▁strode	-11.8381
▁HAVEN	-11.8382
▁pursuing	-11.8382
▁involuntarily	-11.8385
▁72	-11.8385
JOE	-11.8386
▁bowing	-11.8388
▁sacrificed	-11.8389
▁expert	-11.8394
▁falsehood	-11.8394
▁extravagant	-11.8399
▁identical	-11.8399
▁Tracy	-11.84
▁88	-11.8401
▁ENID	-11.8403
▁swaying	-11.8404
▁soap	-11.8411
▁dire	-11.8412
▁bestow	-11.8412
car	-11.8419
▁leaders	-11.8419
▁Hilary	-11.842
▁luncheon	-11.842
▁63	-11.8421
uick	-11.8423
PHIL	-11.8423
BILL	-11.8425
▁crawls	-11.8427
▁indulged	-11.8427
▁mix	-11.8429
▁procure	-11.8431
▁honoured	-11.8431
set	-11.8431
▁goodbye	-11.8432
▁49	-11.8435
▁Katy	-11.8438
▁Mickey	-11.8438
▁omitted	-11.8438
▁Plis	-11.8439
▁namely	-11.8439
▁pad	-11.8439
▁historical	-11.8439
▁Phyllis	-11.844
▁horribly	-11.844
▁pinned	-11.844
▁Truman	-11.8441
▁Reverend	-11.8442
field	-11.8444
▁practised	-11.8444
io	-11.8445
▁cute	-11.8449
▁git	-11.8451
▁moustache	-11.8452
▁conspicuous	-11.8456
▁68	-11.8456
▁Republic	-11.8457
▁offend	-11.8457
▁uncertainty	-11.8458
▁Believe	-11.8458
▁Across	-11.846
▁enclosed	-11.8461
rip	-11.8462
▁charmed	-11.8467
▁rattle	-11.847
▁Woodward	-11.847
▁splendour	-11.847
▁scholar	-11.8472
▁Bride	-11.8474
▁chat	-11.8474
▁Ronnie	-11.8476
▁Brion	-11.8477
▁tooth	-11.8477
▁RESTAURANT	-11.8478
aged	-11.8483
▁helplessly	-11.8483
▁carriages	-11.8486
▁explodes	-11.8488
▁BANK	-11.8488
ng	-11.849
▁NEVILLE	-11.8496
▁twisting	-11.85
▁ACROSS	-11.85
▁forlorn	-11.8501
▁Farm	-11.8501
▁professed	-11.8502
Horror	-11.8502
▁tramp	-11.8503
▁shells	-11.8507
▁hides	-11.8509
▁frost	-11.851
▁visions	-11.8513
▁Servadac	-11.8515
▁gasp	-11.8515
▁inhabited	-11.8517
▁Benjamin	-11.8517
▁controlled	-11.8522
▁justly	-11.8524
▁MOLLY	-11.8525
▁armor	-11.8525
Aye	-11.8525
▁raft	-11.8526
▁67	-11.8527
▁sour	-11.8528
▁cordial	-11.8528
▁picturesque	-11.8532
▁gazes	-11.8532
▁Gentlemen	-11.8534
▁Willow	-11.8535
▁skies	-11.8535
till	-11.8537
▁withered	-11.8537
▁frowned	-11.8537
▁Papa	-11.8537
▁decorated	-11.8538
▁BRIAN	-11.854
▁factory	-11.854
▁bathed	-11.8541
Alas	-11.8542
▁shifting	-11.8545
▁98	-11.8547
▁Turn	-11.8547
▁ridicule	-11.8547
▁ramp	-11.8549
▁Happy	-11.855
▁function	-11.8553
▁collapses	-11.8554
▁customer	-11.8554
ri	-11.8555
▁Work	-11.8557
▁gasps	-11.8558
▁differently	-11.8563
▁ruled	-11.8569
▁Murphy	-11.8572
▁Teddy	-11.8573
▁Saul	-11.8574
▁DEAD	-11.8574
▁bruised	-11.8575
▁largely	-11.8576
Sci	-11.8576
▁duly	-11.8578
Father	-11.858
▁doings	-11.8589
▁thicket	-11.8589
being	-11.859
Am	-11.859
▁Glascock	-11.8592
▁Colin	-11.8593
▁Strickland	-11.8593
▁Jeffard	-11.8593
▁Glendinning	-11.8593
▁Baker	-11.8593
▁liar	-11.8596
▁boiling	-11.8597
▁manhood	-11.8597
▁Crystal	-11.8597
▁Laurent	-11.86
▁83	-11.8602
▁Bank	-11.8603
▁barrels	-11.8609
▁wheat	-11.8611
▁tucked	-11.8612
▁helm	-11.8612
▁sheriff	-11.8613
▁Amadis	-11.8613
▁ROCKY	-11.8615
▁tangled	-11.8616
▁pissed	-11.8616
JIM	-11.8619
▁kin	-11.8619
handed	-11.8619
writer	-11.862
▁STAN	-11.862
▁babe	-11.8625
▁Noel	-11.8625
▁74	-11.8627
ate	-11.8628
▁serene	-11.863
▁assert	-11.863
▁Francisco	-11.8631
▁smashes	-11.8631
▁muddy	-11.8631
▁Curdie	-11.8632
▁isolated	-11.8632
▁STAGE	-11.8634
▁Tai	-11.8635
▁CUP	-11.8636
▁sports	-11.8639
▁withdrawn	-11.8645
▁ale	-11.8646
eight	-11.8646
thou	-11.8646
▁LOGAN	-11.8648
▁odious	-11.8648
▁sombre	-11.8649
▁Syme	-11.865
▁shopping	-11.8651
Stop	-11.8652
▁Santa	-11.8661
quite	-11.8664
▁troop	-11.8665
▁scrap	-11.8669
▁University	-11.8669
▁CHURCH	-11.8671
▁baffled	-11.8673
▁hates	-11.8673
▁Music	-11.8674
▁Star	-11.8675
arrow	-11.8676
▁retreated	-11.8676
TOM	-11.8678
piece	-11.868
▁imposed	-11.8681
▁accounted	-11.8682
▁repeatedly	-11.8684
▁conquest	-11.8688
▁eats	-11.8688
▁finer	-11.869
▁regretted	-11.869
▁Glaucus	-11.8693
▁attendants	-11.8695
▁regularly	-11.8695
▁peculiarly	-11.8697
▁ignore	-11.8698
▁oldest	-11.8698
▁oars	-11.8704
▁wipe	-11.8704
▁stress	-11.8705
▁wrists	-11.8705
▁Dunstable	-11.8708
▁refusing	-11.8709
▁Ellinor	-11.871
▁sly	-11.8712
▁ELLIE	-11.8713
▁locker	-11.8713
▁disturbing	-11.8714
▁71	-11.8714
▁Pan	-11.8714
▁weigh	-11.8716
▁pearls	-11.8722
▁verses	-11.8722
▁Trust	-11.8723
▁attic	-11.8726
▁imposing	-11.8728
▁boards	-11.8728
▁79	-11.8729
▁Alfred	-11.873
▁hunter	-11.873
▁moor	-11.8731
▁indulgence	-11.8734
▁stiffly	-11.8734
▁SALLY	-11.8737
▁jar	-11.874
▁suite	-11.8743
▁considerations	-11.8744
▁rounds	-11.8744
▁receipt	-11.8744
▁wars	-11.8745
▁removing	-11.8749
▁robbery	-11.8749
▁wearily	-11.875
▁crow	-11.875
▁pleases	-11.875
▁welcomed	-11.875
▁hateful	-11.8754
▁sparks	-11.8761
▁CLAIRE	-11.8762
▁hopeful	-11.8763
▁overwhelming	-11.8767
▁avoiding	-11.8767
yet	-11.877
▁eastern	-11.8773
▁pal	-11.8777
▁78	-11.8782
▁array	-11.8785
▁hail	-11.8785
▁ungrateful	-11.8785
▁treating	-11.8786
▁twin	-11.8787
▁BARON	-11.8789
der	-11.879
▁associated	-11.8793
▁ED	-11.8803
▁association	-11.8804
▁Knightley	-11.8807
▁Dockwrath	-11.8807
▁Pacific	-11.8807
▁Marty	-11.8808
▁steering	-11.8809
▁sur	-11.881
▁shorter	-11.8812
back	-11.8812
▁Want	-11.8813
▁Tara	-11.8815
▁09	-11.8818
▁hush	-11.8818
Sure	-11.8819
▁convenience	-11.8823
▁insects	-11.8826
▁Rock	-11.8829
▁Link	-11.883
▁butcher	-11.8832
▁juice	-11.8832
▁Ho	-11.8836
▁4.	-11.8838
▁excitedly	-11.8838
▁JUST	-11.8839
▁Montreville	-11.8846
▁Hanaud	-11.8846
▁astonishing	-11.8847
▁Reardon	-11.8847
▁Douglas	-11.8849
▁squeeze	-11.8858
▁exists	-11.8858
▁congratulate	-11.8859
▁uttering	-11.8864
▁schemes	-11.8865
▁excess	-11.8865
▁ERICA	-11.8867
▁commonly	-11.8867
▁crowned	-11.8868
VOICE	-11.887
▁folding	-11.8874
French	-11.8876
▁examines	-11.8879
▁instincts	-11.8879
▁compact	-11.8881
▁rub	-11.8884
▁mournful	-11.8885
ge	-11.8885
▁verdict	-11.8886
▁ninety	-11.8886
▁rational	-11.8887
▁patches	-11.8887
▁confronted	-11.8887
▁rubbish	-11.8888
▁wrinkled	-11.8889
▁wider	-11.8891
▁GLASS	-11.8892
▁believes	-11.8893
▁plead	-11.8893
ci	-11.8894
ius	-11.8895
Mystery	-11.8896
shaped	-11.8897
▁WIFE	-11.8899
▁screw	-11.8903
▁posture	-11.8903
▁nineteen	-11.8905
▁Lloyd	-11.8908
▁sewing	-11.8908
▁************	-11.8918
▁gale	-11.8918
▁straining	-11.8919
▁tops	-11.892
▁sentences	-11.8921
▁BOOM	-11.8924
▁Barris	-11.8925
▁ALLMERS	-11.8926
▁baggage	-11.8926
iness	-11.8927
_]	-11.893
▁foremost	-11.893
▁praying	-11.893
▁Glen	-11.8931
▁procured	-11.8933
▁discharged	-11.8934
▁joys	-11.8936
John	-11.8936
▁93	-11.8944
▁secrecy	-11.8947
▁Instantly	-11.8947
▁ornaments	-11.8948
▁Traddles	-11.8948
▁hesitating	-11.8949
JACOB	-11.8952
▁SIR	-11.8954
▁likeness	-11.8954
ray	-11.8955
▁thorough	-11.8965
▁bachelor	-11.8965
▁Ellida	-11.8966
▁grandeur	-11.8966
▁mantle	-11.8967
▁fancies	-11.8967
▁snuff	-11.8967
▁garment	-11.8968
▁consumed	-11.8971
▁contracted	-11.8971
MINI	-11.8972
▁Dark	-11.8972
▁penetrated	-11.8972
▁Neb	-11.8973
▁starve	-11.8975
▁relax	-11.8979
▁tortured	-11.8981
▁humiliation	-11.8985
lo	-11.8985
ph	-11.8985
▁Georges	-11.8985
▁Poyser	-11.8986
▁Mackel	-11.8986
▁glaring	-11.8986
▁filthy	-11.8987
▁ignores	-11.8989
▁Signor	-11.8991
▁successfully	-11.8991
oo	-11.8992
ities	-11.8992
▁87	-11.8996
▁refrain	-11.9
▁kinda	-11.9001
▁REVEAL	-11.9002
▁Germans	-11.9002
▁Inspector	-11.9006
▁abstract	-11.9007
▁Mula	-11.901
▁shifted	-11.901
▁Commons	-11.901
▁genre	-11.9011
PO	-11.9012
ine	-11.9013
▁MILLER	-11.9013
▁matches	-11.9013
▁ROSENFELD	-11.9015
▁exile	-11.9018
▁talents	-11.9018
▁survey	-11.9018
▁satin	-11.9023
▁76	-11.9024
▁DECK	-11.9025
▁Darcy	-11.9026
▁enchanted	-11.9026
▁adorned	-11.9029
▁Nathan	-11.9029
▁Immediately	-11.903
▁Julius	-11.9031
▁accusation	-11.9032
▁der	-11.9034
▁heights	-11.9035
▁HARVEY	-11.9037
▁Lane	-11.904
▁patron	-11.9044
▁cured	-11.9046
▁Venice	-11.9048
ized	-11.9048
▁HAN	-11.9049
▁acute	-11.9049
▁messages	-11.9049
▁elected	-11.9056
▁Gods	-11.9058
▁84	-11.9059
too	-11.906
▁UN	-11.9061
▁Cardinal	-11.9066
▁perplexity	-11.9067
▁Alleyne	-11.9067
▁companionship	-11.9068
▁Partridge	-11.9068
▁Willie	-11.9076
▁61	-11.908
▁bronze	-11.9082
▁clicks	-11.9083
▁CRASH	-11.9086
▁solemnity	-11.9087
▁Gilliatt	-11.9088
▁extends	-11.9088
▁production	-11.9089
▁acceptance	-11.909
▁languages	-11.909
▁hose	-11.9091
▁drugs	-11.9092
▁meetings	-11.9093
▁Find	-11.9096
ive	-11.9097
▁meals	-11.9102
▁ghosts	-11.9104
▁liable	-11.9107
▁effectually	-11.9108
▁Godfrey	-11.9108
▁wickedness	-11.9109
▁Psmith	-11.9109
lit	-11.911
▁excuses	-11.911
▁hi	-11.9111
_--	-11.9111
maker	-11.9117
▁wisely	-11.9118
Fantasy	-11.912
▁fiction	-11.9121
▁HI	-11.9125
▁Herr	-11.9127
▁rogue	-11.9127
▁rapture	-11.9127
▁implied	-11.9128
▁Ireland	-11.9128
▁fulfilled	-11.9128
▁assuming	-11.913
▁Yellow	-11.913
▁February	-11.913
▁pitched	-11.9133
▁dive	-11.9133
Twas	-11.9133
▁81	-11.9134
▁accuse	-11.9137
▁une	-11.9139
Yet	-11.9139
▁laden	-11.9141
▁halfway	-11.9142
▁register	-11.9144
▁goddess	-11.9147
▁BARRIS	-11.9148
▁Derek	-11.9148
master	-11.9148
▁morality	-11.9148
▁football	-11.9149
ENNY	-11.915
▁HIGHWAY	-11.9152
▁madman	-11.9153
▁Hush	-11.9158
▁lodged	-11.9159
▁History	-11.9162
▁discovering	-11.9166
▁oppose	-11.9169
▁Rudolf	-11.917
▁sensations	-11.9171
▁assigned	-11.9171
▁Mercy	-11.9171
▁82	-11.9172
▁Il	-11.9174
▁basin	-11.9175
▁outfit	-11.9175
while	-11.9182
UI	-11.9182
woman	-11.9188
▁Sowerby	-11.9189
▁wardrobe	-11.9189
▁daresay	-11.9189
▁plump	-11.9191
▁vein	-11.9192
▁AROUND	-11.9192
▁producing	-11.9194
▁incidents	-11.9195
▁vehicles	-11.9196
▁borough	-11.9201
General	-11.9202
BACK	-11.9203
cause	-11.9203
▁sites	-11.9205
▁shrewd	-11.9208
▁unaware	-11.921
▁specimen	-11.921
▁converted	-11.9211
▁representative	-11.9211
▁alliance	-11.9212
▁aloft	-11.9212
▁PEOPLE	-11.9213
Two	-11.9214
▁Faith	-11.9215
▁dome	-11.9217
▁fer	-11.922
Which	-11.9223
▁Maguire	-11.923
▁Jody	-11.923
▁heathen	-11.923
▁admiral	-11.9232
▁transparent	-11.9233
▁commanding	-11.9238
▁upside	-11.9238
▁Paradise	-11.9239
▁mocking	-11.9241
▁TYLER	-11.9242
ALLISON	-11.9243
▁harvest	-11.9246
▁orderly	-11.9247
▁Wind	-11.9248
▁Brangwen	-11.925
▁Cindy	-11.9251
▁pregnant	-11.9251
▁happiest	-11.9251
▁abundance	-11.9252
▁XIII	-11.9252
▁prompted	-11.9253
▁ankle	-11.9254
ns	-11.9254
▁invalid	-11.9255
▁Angela	-11.9261
whether	-11.9265
▁husbands	-11.9268
▁Power	-11.9269
▁dans	-11.9269
▁apparatus	-11.9271
▁Vivian	-11.9271
▁Bunny	-11.9271
▁elephant	-11.9273
▁Peterkin	-11.9274
▁detached	-11.9275
▁Lorraine	-11.9276
▁fluttering	-11.9277
▁STAR	-11.9282
▁actors	-11.9284
▁designs	-11.9285
▁banker	-11.9286
▁reluctance	-11.9292
▁frail	-11.9292
▁Rowley	-11.9292
▁Twinkle	-11.9292
▁exertion	-11.9293
▁elapsed	-11.9293
▁Price	-11.9294
▁saloon	-11.9295
▁institution	-11.9296
▁pills	-11.9297
▁tickets	-11.9299
▁fold	-11.9299
▁brushes	-11.9299
▁Pause	-11.9302
▁mistakes	-11.9303
foot	-11.9306
▁conclude	-11.9307
▁extend	-11.9308
▁GROUND	-11.9311
▁civility	-11.9313
▁Englishmen	-11.9317
▁joining	-11.9319
▁din	-11.9322
▁Air	-11.9323
▁dew	-11.9323
▁roofs	-11.9323
▁Jacques	-11.9325
office	-11.9326
▁wool	-11.933
▁behavior	-11.9333
▁nowadays	-11.9333
▁humbly	-11.9334
ex	-11.9334
▁laboratory	-11.9334
▁discreet	-11.9334
▁wheeled	-11.9335
▁Eleanor	-11.9336
▁feverish	-11.9337
▁concentrated	-11.9337
▁contemplated	-11.9338
▁flickering	-11.9338
▁Hills	-11.9338
▁artistic	-11.9344
▁sweating	-11.9345
▁devote	-11.9345
ADAM	-11.9348
take	-11.9348
▁STREETS	-11.9352
tic	-11.9352
▁continual	-11.9353
▁Gerhardt	-11.9354
▁MOTEL	-11.9354
▁Katharine	-11.9355
▁Town	-11.9355
▁ENTRANCE	-11.9356
▁thrilled	-11.9357
▁HAVE	-11.9359
▁canst	-11.9361
▁wrap	-11.9362
▁scope	-11.9363
▁discern	-11.9368
▁apologize	-11.9368
20	-11.9369
con	-11.937
▁TIGHT	-11.9372
▁Dodge	-11.9373
▁nicely	-11.9374
▁swollen	-11.9375
▁vigour	-11.9375
▁CENTER	-11.9375
▁crumpled	-11.9376
▁deposited	-11.9377
▁Honey	-11.9379
▁seizing	-11.9381
▁mouse	-11.9382
▁scans	-11.9384
▁gallop	-11.9388
MELANIE	-11.9391
▁chalk	-11.9391
▁hinder	-11.9392
▁peek	-11.9393
▁cats	-11.9394
▁salvation	-11.9396
▁Monmouth	-11.9396
▁admission	-11.9397
▁champion	-11.9398
▁warmed	-11.9399
▁unkind	-11.9399
▁Oak	-11.94
▁snapping	-11.9401
▁gaping	-11.9402
▁stain	-11.9404
▁delayed	-11.9407
▁SHOTS	-11.9409
▁Mc	-11.9411
▁scratch	-11.9412
▁percent	-11.9417
▁whiskey	-11.9418
▁EARLY	-11.942
▁instructed	-11.9421
▁spit	-11.9421
▁needful	-11.9421
▁Davis	-11.9428
▁goal	-11.9429
▁ripe	-11.9431
Lost	-11.9433
▁novels	-11.9437
▁stray	-11.9437
ION	-11.9437
▁Elenor	-11.9438
▁fluid	-11.9441
▁Standing	-11.9444
▁faithfully	-11.9445
▁rod	-11.9445
▁supporting	-11.9446
!!!	-11.9446
▁MOVE	-11.9448
▁crushing	-11.9448
▁XV	-11.945
bred	-11.945
▁entreat	-11.9451
▁MOON	-11.9451
▁CAT	-11.9456
▁flee	-11.9459
▁SR	-11.946
▁Samms	-11.946
nail	-11.9461
▁trapper	-11.9461
▁improve	-11.9462
▁convent	-11.9463
▁DOC	-11.9464
▁wholesome	-11.9465
▁insulted	-11.9466
▁Sean	-11.9469
lin	-11.947
▁Wars	-11.9471
▁heaps	-11.9472
ALL	-11.9472
▁fuss	-11.9476
▁lame	-11.9477
▁FOREST	-11.948
▁acid	-11.9481
▁tumbling	-11.9481
▁monsters	-11.9482
▁vexation	-11.9482
▁dart	-11.9482
▁Perry	-11.9483
▁legend	-11.9485
▁fling	-11.9486
pot	-11.9486
Yea	-11.9486
▁homes	-11.9488
▁slows	-11.9489
▁attain	-11.9492
▁obtaining	-11.9493
▁Car	-11.9494
▁clubs	-11.9495
▁THEN	-11.9497
▁ingenious	-11.95
▁provincial	-11.9501
▁Shrek	-11.9502
▁Chandler	-11.9503
▁mademoiselle	-11.9503
▁ripped	-11.9504
▁worthless	-11.9504
▁handwriting	-11.9504
▁Judy	-11.9506
▁hushed	-11.9506
▁Mind	-11.9507
▁smoothly	-11.9508
▁hints	-11.9509
▁biting	-11.951
WAY	-11.951
au	-11.9511
TY	-11.9511
▁Against	-11.9512
▁restraint	-11.9514
▁referring	-11.9514
▁compose	-11.9515
▁cheering	-11.9516
▁piles	-11.9516
▁perfume	-11.9516
▁Hulot	-11.9523
▁disappearance	-11.9523
▁baronet	-11.9523
▁troublesome	-11.9525
▁undertaken	-11.9529
▁SNOW	-11.9529
▁somethin	-11.9534
▁patients	-11.9536
▁fade	-11.9537
▁Abe	-11.9538
Short	-11.954
▁cheat	-11.9541
▁infernal	-11.9543
▁Wessex	-11.9544
▁Rudy	-11.9544
▁garbage	-11.9544
▁Junior	-11.9545
▁Finch	-11.9546
HE	-11.9549
▁PAST	-11.9551
▁slavery	-11.9551
▁Taking	-11.9559
▁Bloom	-11.9561
▁Picard	-11.9562
▁HOLMES	-11.9565
▁oblivious	-11.9567
▁Cabinet	-11.9567
▁EXTERIOR	-11.9567
▁displeased	-11.9567
▁Silas	-11.9567
▁impact	-11.9568
▁blades	-11.9569
▁Truth	-11.9571
▁click	-11.9572
▁yielding	-11.9578
▁Heav	-11.9584
▁adopt	-11.9585
▁Feng	-11.9587
▁crude	-11.9587
▁inherited	-11.9587
▁ultimately	-11.9588
▁bounded	-11.9588
▁brooding	-11.9589
▁Beatrice	-11.9589
▁Courcy	-11.959
tell	-11.959
▁imitation	-11.959
▁Shelly	-11.959
bag	-11.9591
▁improvement	-11.9594
▁frowning	-11.9598
▁environment	-11.9599
▁Either	-11.9599
▁impress	-11.9602
▁rescued	-11.9603
ALEX	-11.9604
▁Greystock	-11.9608
▁Dashwood	-11.9611
▁overheard	-11.9611
▁shrug	-11.9612
▁sequence	-11.9613
▁Jake	-11.9614
▁girlfriend	-11.9615
away	-11.9616
▁freed	-11.9617
▁nigger	-11.9618
▁cruelly	-11.9618
▁toes	-11.9619
seven	-11.962
▁Year	-11.9624
▁suffice	-11.9624
▁resign	-11.9624
▁sip	-11.9626
▁ERIK	-11.9627
▁hasten	-11.9628
▁Carbuncle	-11.9629
▁FORREST	-11.9629
▁insolence	-11.9629
▁ash	-11.9629
▁Dudley	-11.963
▁civilized	-11.9632
▁loan	-11.9632
▁policemen	-11.9632
▁Fitz	-11.9632
▁preference	-11.9632
▁FORD	-11.9632
▁microphone	-11.9633
▁symbol	-11.9633
▁solely	-11.9633
▁glided	-11.9633
▁flattering	-11.9634
▁OMIT	-11.9639
▁rounded	-11.964
point	-11.9641
said	-11.9646
▁signify	-11.9647
▁internal	-11.9649
▁appearances	-11.9649
▁ELIZABETH	-11.965
DIGNAN	-11.9651
▁Milroy	-11.9651
▁Spilett	-11.9651
▁Committee	-11.9652
▁Gary	-11.9652
▁nursing	-11.9653
▁spies	-11.9653
▁commonplace	-11.9657
▁entertaining	-11.9663
▁minded	-11.9665
7	-11.9668
▁ferocious	-11.9671
▁MARTHA	-11.9672
▁Shaggy	-11.9672
▁faculty	-11.9672
▁thrice	-11.9674
▁automatic	-11.9674
▁Warden	-11.9675
▁profile	-11.9676
▁Christine	-11.9678
▁exasperated	-11.9679
▁MASTER	-11.9681
izing	-11.9682
▁SCOTTY	-11.9683
▁Calvin	-11.9685
▁horrors	-11.9688
▁lowering	-11.9688
▁differ	-11.9692
▁insolent	-11.9692
▁BLUE	-11.9694
▁drown	-11.9694
▁Carteret	-11.9694
▁Edith	-11.9695
▁comic	-11.9695
▁beauties	-11.9695
arms	-11.9696
▁clerks	-11.9696
▁Elsbeth	-11.9697
▁Detective	-11.9698
▁headache	-11.9701
▁According	-11.9701
ANN	-11.9706
▁mainly	-11.9707
▁swam	-11.9709
▁duel	-11.9709
▁frowns	-11.971
love	-11.9713
True	-11.9714
▁withal	-11.9716
▁torches	-11.9717
▁Lambert	-11.9717
▁joking	-11.9718
▁POOL	-11.9719
▁PATRICK	-11.972
▁HOLD	-11.9723
co	-11.9723
ELLE	-11.9724
▁En	-11.9729
▁Gus	-11.973
▁tents	-11.9732
WALT	-11.9734
Monsieur	-11.9735
▁university	-11.9737
▁INTERCUT	-11.9739
▁respectfully	-11.9739
▁Station	-11.974
▁picnic	-11.9741
▁pigs	-11.9745
▁systems	-11.9746
▁shirts	-11.9747
▁fixing	-11.9749
▁relish	-11.9749
▁pearl	-11.9749
▁overboard	-11.9752
▁renew	-11.9754
▁lunges	-11.9754
▁prominent	-11.9757
▁Avenel	-11.9759
Animation	-11.9759
▁arguing	-11.9759
▁Speak	-11.976
▁perpetually	-11.9761
▁scarf	-11.9764
may	-11.9764
▁hops	-11.9767
▁rivers	-11.9776
▁boarding	-11.9776
▁Port	-11.9777
▁scare	-11.9778
▁Times	-11.9779
▁cows	-11.9779
▁quicker	-11.978
▁cradle	-11.978
▁Yule	-11.9781
▁LORI	-11.9781
ERS	-11.9783
▁compartment	-11.9786
▁cultivated	-11.9787
▁_[	-11.9787
▁Jill	-11.9788
▁wan	-11.9788
▁stride	-11.9788
▁growl	-11.979
▁WALT	-11.9791
▁grove	-11.9791
▁posted	-11.98
▁Burke	-11.9802
▁miniature	-11.9802
▁exaggerated	-11.9804
▁Parr	-11.9806
▁creek	-11.9807
▁representing	-11.9809
▁DEAR	-11.9809
▁effected	-11.9811
▁WADE	-11.9813
▁...**	-11.9818
▁attire	-11.982
▁excessive	-11.9822
ated	-11.9824
▁jewel	-11.9824
▁Lundie	-11.9824
▁inheritance	-11.9824
▁spears	-11.9824
▁prone	-11.9825
▁Crevel	-11.9825
▁settles	-11.9828
▁fascination	-11.9828
▁schooner	-11.983
▁Third	-11.9834
BEAT	-11.9837
▁FRAN	-11.9844
▁PHIL	-11.9844
Edward	-11.9844
before	-11.9845
▁prosperous	-11.9845
▁PICARD	-11.9846
▁AIRPORT	-11.9846
▁commotion	-11.9846
▁Gwilt	-11.9846
▁Dog	-11.9848
▁hound	-11.9848
▁dwarf	-11.9849
▁Accordingly	-11.985
▁mayor	-11.9854
▁CHUCK	-11.9854
ward	-11.9855
▁barred	-11.9855
▁puzzle	-11.9856
▁leagues	-11.986
▁brisk	-11.9864
▁floors	-11.9866
almost	-11.9867
▁relating	-11.9868
▁scar	-11.9868
▁Enid	-11.9868
▁Central	-11.9869
▁rugged	-11.9869
▁Halbert	-11.987
▁CLOSER	-11.987
▁CROWD	-11.987
▁speculation	-11.9874
▁Doesn	-11.9876
▁gardener	-11.9881
▁JO	-11.9882
▁sounding	-11.9883
▁CHAMBER	-11.9888
South	-11.9889
▁Moscow	-11.989
▁Aubert	-11.989
▁proofs	-11.989
▁Docchi	-11.9891
▁fake	-11.9893
▁whirling	-11.9893
▁essence	-11.9895
▁program	-11.9895
▁monitors	-11.9897
▁insignificant	-11.9897
▁Post	-11.9899
▁Fi	-11.9902
▁Neo	-11.9903
▁FOUR	-11.9905
ARD	-11.9908
▁GROUP	-11.991
NEFF	-11.991
▁INDY	-11.9912
PAULINE	-11.9912
▁encouraging	-11.9913
▁arranging	-11.9915
▁fading	-11.9916
▁bees	-11.9917
▁101	-11.9918
ROBIN	-11.9921
▁oddly	-11.9921
▁DAN	-11.9923
▁bailiff	-11.9923
▁curses	-11.9924
▁harbor	-11.9928
▁subsequent	-11.9932
Family	-11.9933
▁Merdle	-11.9934
▁Ratcliffe	-11.9934
▁economy	-11.9934
▁Dawson	-11.9934
▁Elaine	-11.9934
▁GARAGE	-11.9935
▁120	-11.9935
▁angles	-11.9936
▁logic	-11.9936
▁scenery	-11.9937
▁surveyed	-11.9937
WAYNE	-11.9937
▁precaution	-11.9941
▁chatter	-11.9941
▁108	-11.9941
▁COMPUTER	-11.9942
▁glowed	-11.9944
▁WAS	-11.9944
▁lifeless	-11.9944
▁lui	-11.9946
▁thir	-11.9948
▁wig	-11.9948
▁Cecil	-11.9953
▁floats	-11.9955
legged	-11.9955
▁Elton	-11.9956
▁realization	-11.9957
▁crashes	-11.9958
▁Napoleon	-11.9959
▁objections	-11.9961
▁senseless	-11.9961
▁affectionately	-11.9962
▁chopper	-11.9963
▁pillars	-11.9965
▁WOODS	-11.9968
▁97	-11.9969
▁da	-11.9969
▁GUARDS	-11.9971
▁rider	-11.9971
▁fetched	-11.9972
▁ridden	-11.9973
▁Security	-11.9978
▁obstinacy	-11.9978
▁hire	-11.9979
▁Commander	-11.9984
EMMA	-11.9985
▁premises	-11.9986
▁comforts	-11.9988
▁authors	-11.9991
▁intending	-11.9998
▁Board	-12
LARGE	-12
Western	-12
▁NED	-12.0001
▁PRE	-12.0001
▁reluctant	-12.0003
▁ABOVE	-12.0003
▁constructed	-12.0004
▁hysterical	-12.0004
▁ignored	-12.0008
▁delicately	-12.0011
▁screens	-12.0015
▁swallows	-12.0017
▁blinded	-12.0019
▁pang	-12.0019
NICK	-12.002
▁supernatural	-12.0021
▁Hard	-12.0021
▁prompt	-12.0022
▁expanse	-12.0023
▁disbelief	-12.0023
▁Coraline	-12.0023
▁penetrate	-12.0023
▁conjecture	-12.0023
▁shiny	-12.0024
▁surround	-12.0024
▁endowed	-12.0025
▁resolutely	-12.0025
▁Away	-12.0026
▁Leon	-12.0026
▁defeated	-12.0026
▁Sammy	-12.0027
▁poised	-12.0028
▁lust	-12.0029
▁preach	-12.003
▁plea	-12.003
▁research	-12.0033
▁weaker	-12.0036
▁HALLE	-12.0037
Noir	-12.0039
▁handled	-12.0041
▁estates	-12.0042
▁luminous	-12.0043
▁stables	-12.0044
▁ta	-12.0045
▁speeds	-12.0045
NBECK	-12.0045
▁starving	-12.0045
▁quarrelled	-12.0045
▁Bassett	-12.0046
covered	-12.0047
_,"	-12.0047
▁Rhoda	-12.0047
▁poker	-12.0049
▁stooping	-12.0049
▁junior	-12.0052
▁hello	-12.0054
▁gentleness	-12.0054
▁howl	-12.0055
▁tiger	-12.0061
▁Ya	-12.0064
▁smells	-12.0065
▁hurts	-12.0067
▁DESERT	-12.0067
▁Pancks	-12.0067
▁TESMAN	-12.0067
MOORE	-12.0068
▁faltered	-12.0068
▁riot	-12.0068
Really	-12.0068
▁sneer	-12.0069
▁shivered	-12.0069
▁Meriem	-12.007
▁Korak	-12.007
▁Edmee	-12.0071
▁anti	-12.0072
▁peered	-12.0072
▁pr	-12.0072
▁Honour	-12.0074
▁Peace	-12.0074
▁claw	-12.0075
▁monks	-12.0075
▁cents	-12.0077
▁sped	-12.008
▁MURPHY	-12.0082
▁Might	-12.0085
▁excused	-12.0088
1**	-12.0089
▁89	-12.0089
rudatta	-12.009
▁Dunstan	-12.009
▁Scarlet	-12.009
ite	-12.009
▁realise	-12.009
▁Ki	-12.0092
▁expose	-12.0093
▁Mountains	-12.0095
▁tempest	-12.0097
▁banner	-12.0098
▁110	-12.0104
▁THERE	-12.0104
▁league	-12.0109
▁twinkling	-12.0112
▁stumbling	-12.0112
▁subjected	-12.0113
▁inevitably	-12.0113
▁sunrise	-12.0113
dozen	-12.0113
▁confirm	-12.0115
▁Bush	-12.0116
▁Mlle	-12.0117
▁Mabel	-12.0117
▁streak	-12.0118
▁acres	-12.0119
▁reconciled	-12.0119
▁lesser	-12.0127
▁aft	-12.0127
maid	-12.0131
▁towering	-12.0131
▁burns	-12.0132
▁Laurie	-12.0133
▁FERGUS	-12.0134
▁haggard	-12.0135
▁transferred	-12.0135
▁XVI	-12.0136
▁Camilla	-12.0138
▁Fortune	-12.0139
▁unusually	-12.014
▁SOLDIER	-12.0141
▁morals	-12.0142
▁rewarded	-12.0143
▁razor	-12.0143
▁undertaking	-12.0148
▁cheers	-12.0153
▁caps	-12.0155
▁merrily	-12.0157
▁colony	-12.0158
▁Below	-12.0158
▁rapidity	-12.0158
▁Brock	-12.0158
▁genial	-12.0158
▁proclaimed	-12.0159
▁detained	-12.0159
▁feebly	-12.016
▁Bentley	-12.016
▁habitual	-12.016
▁Valentine	-12.0162
▁Maurice	-12.0163
▁blossoms	-12.0164
▁grandson	-12.0168
▁barking	-12.0168
▁huts	-12.0168
Me	-12.0169
▁madly	-12.0172
▁wink	-12.0174
ka	-12.0178
▁random	-12.0179
▁unlucky	-12.018
▁maze	-12.0181
PAUSE	-12.0181
EDWARD	-12.0182
▁rim	-12.0182
▁include	-12.0183
▁cherished	-12.0185
▁Won	-12.0189
▁Jupiter	-12.019
▁pinch	-12.0198
▁bustle	-12.0199
▁flatter	-12.0199
▁offensive	-12.02
▁understands	-12.0201
▁Weldon	-12.0203
▁desperation	-12.0203
▁insensible	-12.0203
▁Juno	-12.0203
▁groans	-12.0203
▁mound	-12.0204
▁gracefully	-12.0207
▁condemn	-12.0207
▁Donnie	-12.0207
▁tribute	-12.0207
▁AMY	-12.0209
▁realm	-12.0209
girl	-12.0209
▁Arab	-12.021
▁guineas	-12.0216
▁Morning	-12.0217
roul	-12.0218
▁clearer	-12.0219
▁CLOSEUP	-12.022
▁Bad	-12.0221
▁RIPLEY	-12.0221
ver	-12.0222
▁trusting	-12.0223
▁widely	-12.0224
▁DARCY	-12.0225
▁phenomenon	-12.0225
▁BRIDE	-12.0227
TIM	-12.0229
▁exercised	-12.023
▁director	-12.0233
▁depression	-12.0234
▁saluted	-12.0234
▁MONTAGE	-12.0234
▁whereby	-12.0234
▁twists	-12.0235
▁skeleton	-12.0235
▁treason	-12.0238
ating	-12.0238
▁Therese	-12.0241
▁parade	-12.0242
▁Bird	-12.0242
▁fainted	-12.0243
▁SYDNEY	-12.0244
▁Nash	-12.0246
▁clapped	-12.0248
▁Hellboy	-12.0248
▁Greshamsbury	-12.0249
▁inter	-12.025
▁scratched	-12.0251
▁haze	-12.0251
▁EVIL	-12.0252
▁plague	-12.0254
▁Near	-12.0255
▁errors	-12.0255
▁pirate	-12.0255
▁LEADER	-12.0255
▁Sweet	-12.0257
▁pretext	-12.0257
▁organization	-12.0257
▁blindly	-12.0259
▁capsules	-12.0262
▁weakly	-12.0266
▁RIVER	-12.0267
▁weeds	-12.0267
▁exterior	-12.0271
DAY	-12.0271
▁Fairlie	-12.0271
▁Greenow	-12.0271
▁attentions	-12.0271
▁banquet	-12.0272
▁Daisy	-12.0273
Film	-12.0273
HILDY	-12.0273
Eh	-12.0275
▁AGAIN	-12.0276
▁flask	-12.0276
▁princes	-12.0277
▁rouse	-12.0277
▁searches	-12.0277
▁stoop	-12.0278
▁embroidered	-12.0278
▁Victoria	-12.0278
▁Nugent	-12.0279
▁performing	-12.028
▁possessions	-12.028
▁hunters	-12.0288
▁springing	-12.0289
▁Halcombe	-12.0294
▁dingy	-12.0295
▁glistening	-12.0295
▁STORM	-12.0297
▁gleamed	-12.0299
▁naughty	-12.0299
▁mused	-12.0299
▁tame	-12.03
▁phase	-12.0302
▁climate	-12.0303
coming	-12.0304
▁Flora	-12.0308
▁presumed	-12.0309
▁BOAT	-12.031
▁kettle	-12.031
▁slaughter	-12.031
▁clatter	-12.0311
▁data	-12.0311
▁LE	-12.0312
▁111	-12.0313
EEDY	-12.0315
▁Mozart	-12.0317
▁Sholmes	-12.0317
▁JEFFR	-12.0317
▁Chase	-12.0317
▁Jennings	-12.0318
nine	-12.0321
▁daddy	-12.0321
▁tow	-12.0321
▁frustrated	-12.0323
▁chart	-12.0325
▁survived	-12.0325
Link	-12.0331
▁toss	-12.0332
▁vanish	-12.0334
ran	-12.0335
▁Tears	-12.0337
end	-12.0337
▁stubborn	-12.0338
▁electrical	-12.0339
▁Jonson	-12.034
▁deference	-12.034
▁obscurity	-12.0342
▁bridle	-12.0343
▁Know	-12.0345
▁Lori	-12.0349
▁fans	-12.0352
▁expectations	-12.0352
▁ignoring	-12.0353
▁preacher	-12.0354
town	-12.036
▁Desnoyers	-12.0363
▁brink	-12.0363
▁undone	-12.0363
▁shocking	-12.0363
▁insurance	-12.0365
▁strolled	-12.0365
CONRAD	-12.0365
ANNE	-12.0369
▁immensely	-12.037
▁hardened	-12.037
▁RICHARD	-12.0371
▁occurrence	-12.0373
▁Fancy	-12.0381
▁Coming	-12.0381
pe	-12.0383
▁breadth	-12.0384
▁majestic	-12.0386
▁Coupeau	-12.0386
▁Lionel	-12.0386
▁undertook	-12.0387
▁banished	-12.0387
▁energetic	-12.0388
▁Aye	-12.0388
▁whipped	-12.0389
▁chasing	-12.039
▁Clear	-12.039
tes	-12.0391
▁timidly	-12.0391
▁blinking	-12.0391
▁armies	-12.0391
▁pavilion	-12.0396
▁plantation	-12.0397
▁Enough	-12.04
▁CELL	-12.0403
▁loading	-12.0405
ow	-12.0406
▁aching	-12.0407
▁watchful	-12.0407
▁blasts	-12.0408
▁extensive	-12.0408
▁calamity	-12.0409
▁handy	-12.0409
▁ANDREW	-12.0409
▁Marjory	-12.0412
▁alluded	-12.0413
▁decides	-12.0413
▁lashes	-12.0414
▁misses	-12.0414
▁moaning	-12.0415
▁strive	-12.0416
▁Pearl	-12.0416
▁Full	-12.0416
SAMMY	-12.0421
LA	-12.0422
▁serpent	-12.0423
▁dependent	-12.0423
EL	-12.0426
▁sway	-12.0427
▁lone	-12.0428
▁treacherous	-12.0431
▁activities	-12.0432
▁rebellion	-12.0432
▁Gamp	-12.0432
▁paradise	-12.0433
▁Edna	-12.0433
▁rattling	-12.0434
air	-12.0435
Exactly	-12.0436
▁102	-12.0437
▁corridors	-12.0437
▁threaten	-12.0438
About	-12.0439
▁sheltered	-12.0442
▁mechanism	-12.0443
▁Pat	-12.0447
▁Job	-12.0448
▁ANNOUNCER	-12.0449
▁Dragon	-12.045
▁terrors	-12.0453
▁glimpses	-12.0453
▁US	-12.0453
▁SLOW	-12.0454
▁softness	-12.0454
▁Joel	-12.0454
post	-12.0455
▁Ricardo	-12.0456
▁Ike	-12.0457
▁strains	-12.0458
Musical	-12.0458
▁Walker	-12.0458
▁repaired	-12.0459
▁Silent	-12.0459
▁shutters	-12.0465
▁submarine	-12.0466
▁bout	-12.0477
▁mattress	-12.0478
▁trains	-12.0478
▁trivial	-12.0479
▁Sebastian	-12.0479
Rip	-12.0479
▁breed	-12.048
ists	-12.0482
▁execute	-12.0483
▁singularly	-12.0484
▁swarm	-12.0487
▁atop	-12.0487
▁groom	-12.0488
▁swelling	-12.0488
▁reverie	-12.049
▁spur	-12.049
▁opponent	-12.0491
▁reveals	-12.0494
▁lance	-12.0494
ya	-12.0495
▁crap	-12.05
▁preliminary	-12.0502
▁Harley	-12.0502
▁Vitti	-12.0502
▁Herrick	-12.0503
ENZO	-12.0503
▁coldness	-12.0504
Submit	-12.0507
▁SG	-12.0508
▁NEXT	-12.0509
▁bang	-12.0511
▁MARGE	-12.0511
▁bunk	-12.0513
dog	-12.0513
▁tyrant	-12.0514
▁meditation	-12.0514
stone	-12.0515
▁crowds	-12.0517
▁sorrowful	-12.0518
▁107	-12.0521
▁sixth	-12.0523
▁00	-12.0524
▁moist	-12.0526
▁KANE	-12.0526
▁idly	-12.0527
▁PRISON	-12.0527
▁entreated	-12.0528
▁grieve	-12.053
▁compromise	-12.053
software	-12.053
▁COLE	-12.0532
Such	-12.0532
▁select	-12.0537
▁pat	-12.0537
▁peep	-12.0538
war	-12.0541
▁formation	-12.0545
▁Sub	-12.0547
▁goodly	-12.0548
▁Giles	-12.0549
▁elevated	-12.055
▁repentance	-12.0551
▁accidentally	-12.0551
▁Sophie	-12.0553
▁sting	-12.0553
▁JOHNNY	-12.0555
▁fails	-12.0555
▁WILSON	-12.0556
▁congregation	-12.056
▁bicycle	-12.0561
▁scores	-12.0561
▁expedient	-12.0561
▁Southern	-12.0563
▁Juliet	-12.0564
▁core	-12.0572
▁Seaton	-12.0573
▁commerce	-12.0574
▁Lost	-12.0575
▁whereof	-12.0575
▁wrecked	-12.0581
▁furnace	-12.0586
▁oxygen	-12.059
▁villa	-12.0591
▁Crown	-12.0593
▁outburst	-12.0593
▁ranch	-12.0595
▁gig	-12.0596
Seinfeld	-12.0596
▁Mexico	-12.0596
▁granite	-12.0596
▁specific	-12.0597
▁Fortunately	-12.0599
▁fluttered	-12.0599
▁guides	-12.06
PEGGY	-12.0601
▁honours	-12.0602
ten	-12.0602
▁associate	-12.0604
▁savagely	-12.0606
▁Cup	-12.0608
▁spurs	-12.0608
▁mounting	-12.0608
▁superstition	-12.061
▁beads	-12.061
▁jam	-12.0613
▁movies	-12.0616
▁hind	-12.0618
▁pins	-12.0619
▁sandwich	-12.0619
▁mystic	-12.0621
▁tutor	-12.0621
▁heavier	-12.0621
▁safer	-12.0622
▁saith	-12.0623
stricken	-12.0625
▁melt	-12.0626
▁tumble	-12.0631
▁veiled	-12.0633
!)	-12.0639
▁Trim	-12.064
ga	-12.0643
▁Ain	-12.0643
Futurama	-12.0643
▁DIRK	-12.0644
▁CASTLE	-12.0644
▁Gilmore	-12.0644
▁4400	-12.0644
▁conventional	-12.0644
▁ripper	-12.0645
▁latch	-12.0647
▁TURNS	-12.065
▁Around	-12.065
▁flicker	-12.0651
▁soaked	-12.0655
▁knob	-12.0659
Ye	-12.066
▁Friend	-12.066
▁session	-12.0662
▁JEFF	-12.0664
▁Jen	-12.0667
ez	-12.0667
▁Sydney	-12.0667
▁consternation	-12.0667
▁guidance	-12.0667
▁ROPER	-12.0667
▁cursing	-12.0668
▁LONDON	-12.067
▁Lila	-12.067
▁distorted	-12.067
▁joyful	-12.0674
▁resort	-12.0675
▁anew	-12.0676
▁mentally	-12.0677
▁Eastern	-12.0677
▁Lo	-12.0678
put	-12.0678
▁whiskers	-12.0679
▁dispose	-12.0687
▁Thwaite	-12.0691
▁Exeter	-12.0691
▁Gascoigne	-12.0693
▁crouching	-12.0693
▁emptied	-12.0693
▁zero	-12.0695
▁revolt	-12.0697
BREAN	-12.0697
▁powerless	-12.0698
▁noses	-12.0698
pin	-12.07
▁grasping	-12.0705
▁lama	-12.0705
▁Solomon	-12.0706
▁freeze	-12.0706
▁defy	-12.071
▁serves	-12.0712
▁Toto	-12.0714
▁Vanderpoel	-12.0715
▁merciful	-12.0715
▁exceeding	-12.0715
▁stature	-12.0716
▁EXPLODES	-12.0718
▁Public	-12.0719
▁boyfriend	-12.072
▁inquiring	-12.072
▁announce	-12.0721
▁Chancellor	-12.0724
▁sometime	-12.0725
▁launch	-12.0727
▁exhibition	-12.0729
▁JOSH	-12.0731
▁Kill	-12.0733
▁Lydia	-12.0736
▁SAL	-12.0737
▁Lavretsky	-12.0739
UARTERS	-12.0739
▁shares	-12.0744
▁instances	-12.0749
▁cling	-12.075
▁mast	-12.0752
▁stairway	-12.0753
▁wasting	-12.0753
▁Check	-12.0753
▁trumpet	-12.0756
▁JESSICA	-12.0756
Isn	-12.0757
▁perilous	-12.0761
▁ankles	-12.0762
▁Pedro	-12.0763
▁solicitude	-12.0763
▁muscular	-12.0763
▁canal	-12.0763
▁publicly	-12.0763
▁substantial	-12.0764
▁honorable	-12.0764
▁logical	-12.0766
▁obligations	-12.0767
BOD	-12.0768
▁meadows	-12.077
Captain	-12.077
▁proves	-12.0771
▁plaster	-12.0773
▁pans	-12.0775
▁blinks	-12.0776
▁Going	-12.0776
ESTAT	-12.0778
▁necks	-12.0779
ens	-12.0783
▁Stangerson	-12.0787
▁sturdy	-12.0787
▁territory	-12.0787
▁Abraham	-12.0787
▁architecture	-12.0787
▁Lynn	-12.0787
▁Janet	-12.0787
▁organs	-12.0788
▁incessantly	-12.0788
▁Clotilde	-12.0789
▁Jewish	-12.0789
▁inwardly	-12.0791
▁Prew	-12.0792
HECTOR	-12.0794
▁PETERS	-12.0795
ave	-12.0799
▁merchants	-12.0801
▁Hang	-12.0802
▁Service	-12.0803
▁Dis	-12.0806
▁Cape	-12.0807
▁Early	-12.0809
KATHLEEN	-12.0811
▁radiance	-12.0811
▁Mini	-12.0811
▁Rouletabille	-12.0812
WOMAN	-12.0813
▁shrieked	-12.0814
▁ascertained	-12.0815
▁contributed	-12.0816
▁resisted	-12.0818
▁posts	-12.0819
▁tended	-12.082
▁titles	-12.0822
▁YOUR	-12.0829
▁NORMAN	-12.083
▁placid	-12.0835
▁Barfoot	-12.0835
▁Wangel	-12.0835
▁plateau	-12.0836
▁contemptuous	-12.0837
▁shark	-12.0837
▁quivered	-12.0837
▁divide	-12.0839
▁murmuring	-12.084
▁Frances	-12.084
ary	-12.084
▁DINING	-12.0841
▁EVAN	-12.0842
▁extending	-12.0843
▁marvel	-12.0844
CAL	-12.0845
ance	-12.0846
▁INSERT	-12.0846
▁AM	-12.0847
▁sights	-12.0848
▁REVERSE	-12.085
HOLLY	-12.085
▁Whoa	-12.0854
▁foreigner	-12.0858
▁Valiant	-12.0859
▁inexplicable	-12.0859
▁rustling	-12.086
▁Middleton	-12.086
▁gait	-12.086
under	-12.086
▁Imperial	-12.086
▁diminished	-12.086
▁Beautrelet	-12.0861
▁whirled	-12.0862
▁countless	-12.0863
ir	-12.0864
▁wherefore	-12.0866
▁teachers	-12.0867
▁acquire	-12.0867
JEFF	-12.0867
▁homeward	-12.0879
▁officials	-12.088
▁inviting	-12.0882
▁MILK	-12.0884
▁hop	-12.0885
▁companies	-12.0885
▁Cleves	-12.0887
▁network	-12.0887
▁plucked	-12.0889
▁MANAGER	-12.0891
▁benches	-12.0892
▁han	-12.0893
▁trout	-12.0893
half	-12.0896
ni	-12.0897
▁pose	-12.0897
."--"	-12.0899
▁JOAN	-12.0901
▁Marsh	-12.0901
▁periods	-12.0903
bound	-12.0903
▁Hand	-12.0903
▁Strange	-12.0904
▁heaving	-12.0904
▁109	-12.0905
▁continent	-12.0905
▁dealer	-12.0905
▁futile	-12.0906
▁rhythm	-12.0908
▁gripped	-12.0908
▁devoured	-12.091
▁Witch	-12.0911
_."	-12.0913
▁triumphantly	-12.0913
▁Rain	-12.0913
▁Banks	-12.0913
▁Cop	-12.0914
▁GON	-12.0915
▁Gale	-12.0915
DOUG	-12.0916
▁estimate	-12.092
▁doctrines	-12.0922
▁connections	-12.0926
▁costs	-12.0926
▁peak	-12.0926
▁bricks	-12.093
▁LARGE	-12.0932
▁desolation	-12.0932
▁illustrious	-12.0932
bout	-12.0933
▁Smiley	-12.0933
▁Freddie	-12.0936
▁involuntary	-12.0936
▁perchance	-12.0936
▁Lou	-12.0936
▁KELLY	-12.0937
▁RIGHT	-12.0941
▁marches	-12.0942
▁HAMMOND	-12.0943
▁Turns	-12.0948
▁obstacles	-12.0951
▁beaming	-12.0951
▁Exactly	-12.0953
▁suggestions	-12.0953
▁continuous	-12.0955
ROKO	-12.0957
▁afflicted	-12.0957
▁DANIEL	-12.0958
▁Swift	-12.0958
▁stony	-12.0958
▁Aren	-12.0959
▁cowardly	-12.096
▁clears	-12.0961
▁projected	-12.0962
▁Phillip	-12.0964
▁rebel	-12.0965
tempered	-12.0965
called	-12.0968
▁outrage	-12.097
▁wot	-12.0973
▁prairie	-12.0973
▁fragment	-12.0973
▁Spaniard	-12.0974
▁decay	-12.0975
▁Turning	-12.0975
PK	-12.0977
▁TUNNEL	-12.0978
▁tedious	-12.0979
▁monotonous	-12.098
▁Ojo	-12.0983
▁caresses	-12.0983
▁greedy	-12.0983
▁squeezes	-12.0984
▁Morgan	-12.0985
▁consists	-12.0986
▁deuce	-12.0986
▁lounge	-12.0988
Bright	-12.0991
▁GET	-12.0992
▁reform	-12.0992
dis	-12.0997
▁TOWN	-12.0998
▁coals	-12.0999
IS	-12.1002
▁Terran	-12.1002
▁KONG	-12.1006
▁tranquillity	-12.1006
▁STUMP	-12.1006
▁LIONEL	-12.1006
▁Official	-12.1006
▁concealment	-12.1007
▁International	-12.1008
▁di	-12.1009
▁Bye	-12.1014
▁lever	-12.1019
▁ambulance	-12.1022
▁Raf	-12.1022
houses	-12.1022
▁HANDS	-12.1024
▁stroll	-12.1025
▁alarming	-12.1026
▁flings	-12.1027
▁Darwin	-12.103
▁slap	-12.103
▁Natalie	-12.1031
▁bacon	-12.1031
▁battery	-12.1032
ble	-12.1032
▁swayed	-12.1033
▁extinguished	-12.1033
▁Mesty	-12.1034
▁whereupon	-12.1035
▁monarch	-12.1037
▁heated	-12.1038
▁SYKES	-12.1039
▁fortunately	-12.1039
▁drifts	-12.104
▁scruple	-12.1041
▁SUMMER	-12.1042
▁chaise	-12.1045
▁squad	-12.1047
▁discomfort	-12.1047
▁gratification	-12.1048
▁portal	-12.1049
▁LAB	-12.1049
▁swamp	-12.105
▁Augusta	-12.1051
▁freak	-12.1051
▁circuit	-12.1053
▁descends	-12.1053
▁112	-12.1055
▁queried	-12.1055
▁Assistant	-12.1055
▁fortress	-12.1056
▁ADAM	-12.1056
▁smote	-12.1056
right	-12.1057
▁chattering	-12.106
▁Sitting	-12.1062
▁trim	-12.1063
CAPTAIN	-12.1065
JACKIE	-12.1066
▁CAESAR	-12.1069
▁103	-12.107
▁violin	-12.1071
▁strewn	-12.1074
▁canyon	-12.1074
▁trucks	-12.1076
▁Abigail	-12.108
▁penalty	-12.108
▁Mitch	-12.108
▁lurking	-12.1081
▁differences	-12.1082
▁Patty	-12.1083
▁skins	-12.1083
▁essentially	-12.1083
▁GIN	-12.1084
RI	-12.1084
▁freshness	-12.1086
▁profoundly	-12.1087
▁lacked	-12.1089
▁Albert	-12.1091
▁Thirty	-12.1091
▁slopes	-12.1092
▁pats	-12.1092
▁hazard	-12.1094
sher	-12.1097
▁Ione	-12.1097
▁episode	-12.1097
▁accidents	-12.1098
▁proprietor	-12.1099
▁Free	-12.11
▁vines	-12.1102
None	-12.1103
▁respective	-12.1104
▁Marvin	-12.1105
▁greasy	-12.1105
▁promotion	-12.1105
▁offspring	-12.1106
▁Beach	-12.1107
▁vigorously	-12.1107
▁blinding	-12.1107
▁FIGURE	-12.111
▁poisoned	-12.111
▁DOG	-12.111
▁favoured	-12.1111
DANNY	-12.1115
▁digs	-12.1116
▁comin	-12.1121
▁whistled	-12.1121
▁proceeds	-12.1123
▁Pretty	-12.1124
▁presenting	-12.1128
▁Staveley	-12.113
▁desiring	-12.113
▁mike	-12.113
▁prophet	-12.1132
▁oaths	-12.1135
▁Grantly	-12.1137
▁150	-12.1142
▁wanders	-12.1143
nay	-12.1143
Put	-12.1144
▁LOVE	-12.1145
▁Small	-12.1151
▁CLICK	-12.1153
▁cavalry	-12.1155
▁Blakeney	-12.1157
▁JILL	-12.1157
ium	-12.1158
▁attributed	-12.1159
▁Hedra	-12.116
▁melting	-12.1162
▁GILLI	-12.1162
▁solve	-12.1163
▁Gold	-12.1164
);	-12.1164
▁affecting	-12.1166
▁downright	-12.1167
▁shrinking	-12.1167
▁shiver	-12.1168
▁LIKE	-12.1168
VIST	-12.1172
▁sands	-12.1173
▁richly	-12.1176
▁swearing	-12.1177
▁delights	-12.1178
▁spacious	-12.1179
id	-12.1179
▁homage	-12.118
▁cockpit	-12.118
▁nurses	-12.1183
▁Sidwell	-12.1183
▁mentioning	-12.1185
▁absently	-12.1185
▁Brooks	-12.1186
bo	-12.1187
▁delivery	-12.1189
▁105	-12.1189
▁BASE	-12.1192
▁cluster	-12.1192
▁Romeo	-12.1192
▁115	-12.1195
▁prejudices	-12.1196
▁rocket	-12.1197
keeper	-12.1198
▁Persian	-12.12
▁darts	-12.1201
▁Slow	-12.1204
▁Farnham	-12.1205
lilbutton	-12.1205
▁Steerforth	-12.1206
▁approbation	-12.1206
▁FINAL	-12.1207
ov	-12.1209
▁recollected	-12.1209
▁sorely	-12.121
▁bites	-12.121
▁Howard	-12.1211
▁RONNIE	-12.1211
Hold	-12.1214
▁candy	-12.1216
▁scramble	-12.1218
▁ALLEY	-12.1218
those	-12.122
▁repetition	-12.1223
▁JOEL	-12.1223
▁RAIN	-12.1226
▁constable	-12.1227
▁afresh	-12.1227
▁TOWER	-12.1228
▁financial	-12.1229
▁aloof	-12.1229
▁impenetrable	-12.123
▁accursed	-12.1232
▁Petersburg	-12.1232
▁disclosed	-12.1234
▁OR	-12.1235
▁labours	-12.1236
CALVIN	-12.124
▁vows	-12.124
▁JUNO	-12.1241
▁scatter	-12.1245
▁reared	-12.1246
▁dice	-12.1247
▁feeds	-12.1248
▁enclosure	-12.1248
▁allows	-12.1248
▁grate	-12.1249
uail	-12.125
▁STONE	-12.125
▁overtake	-12.1251
▁thrusting	-12.1252
▁shrieks	-12.1253
▁malicious	-12.1253
▁drill	-12.1254
▁endurance	-12.1255
▁gliding	-12.1255
▁exhaustion	-12.1255
▁Camperdown	-12.1256
ca	-12.1259
▁swelled	-12.126
▁moi	-12.1261
▁indignantly	-12.1262
▁buck	-12.1263
▁forwards	-12.1263
▁Stand	-12.1265
▁monkeys	-12.1269
▁reef	-12.127
▁Moses	-12.1271
▁XVIII	-12.1272
▁lacking	-12.1272
▁Williams	-12.1273
▁releases	-12.1273
▁morsel	-12.1274
▁acknowledgment	-12.1274
den	-12.1274
▁SPOCK	-12.1276
▁blinds	-12.1277
▁Mountain	-12.1278
ize	-12.1278
▁especial	-12.1279
▁Ghost	-12.1279
▁apprehensions	-12.128
▁miraculous	-12.128
▁Graeme	-12.128
▁Almighty	-12.128
SSUS	-12.128
▁JASON	-12.1281
▁Th	-12.1283
KO	-12.1283
▁boyish	-12.1285
▁caring	-12.1285
▁fearfully	-12.1287
▁befallen	-12.1287
▁spotted	-12.1288
▁pained	-12.1289
▁CHIP	-12.1292
▁breathes	-12.1297
▁spider	-12.1297
▁clasp	-12.1299
▁Cheesacre	-12.1306
▁fascinating	-12.1306
▁theories	-12.1306
▁DOORS	-12.1306
▁subsided	-12.1308
▁doubled	-12.131
▁104	-12.1311
Think	-12.1314
▁DIL	-12.1316
▁horsemen	-12.1318
▁trailing	-12.1321
▁grade	-12.1321
▁hermit	-12.1322
▁mirrors	-12.1323
look	-12.1324
▁eve	-12.1326
▁telescope	-12.1326
▁Camera	-12.133
▁adjacent	-12.1331
▁indispensable	-12.1331
▁Dignan	-12.1331
▁novelty	-12.1331
▁alighted	-12.1332
▁CAMP	-12.1333
▁tapped	-12.1333
▁Yu	-12.1334
Bahr	-12.1334
▁bug	-12.1336
▁tapping	-12.1337
▁blocked	-12.134
▁SARA	-12.1341
▁bust	-12.1341
▁pirates	-12.1344
▁wail	-12.1345
OR	-12.1346
▁embraces	-12.1351
▁Fletcher	-12.1351
▁shovel	-12.1352
▁surf	-12.1352
▁Gardens	-12.1352
▁Mexican	-12.1352
▁chariot	-12.1352
▁everlasting	-12.1355
▁whirl	-12.1356
▁terrifying	-12.1356
▁Assingham	-12.1356
▁Spragg	-12.1356
▁charging	-12.1357
▁spits	-12.1358
▁regained	-12.1358
▁hailed	-12.1359
▁valued	-12.136
▁adapted	-12.1361
▁provoked	-12.1361
▁longest	-12.1363
▁heaped	-12.1364
▁fangs	-12.1364
▁Lucky	-12.1364
▁boiled	-12.1365
▁Than	-12.1368
▁Da	-12.1371
▁obscured	-12.1372
▁blamed	-12.1372
▁Talk	-12.1374
▁menace	-12.1375
▁consultation	-12.1377
▁transaction	-12.1377
WAN	-12.1377
▁Golden	-12.138
▁instinctive	-12.1381
▁Submit	-12.1381
▁benevolence	-12.1382
▁precision	-12.1382
▁Ivanovitch	-12.1382
▁Meagles	-12.1382
▁pitied	-12.1382
▁urging	-12.1382
▁DUKE	-12.1383
▁tax	-12.1383
▁Thorpe	-12.1384
▁Satan	-12.1386
▁coolness	-12.1386
▁rum	-12.1389
▁Save	-12.1392
▁Scotty	-12.1393
Nonsense	-12.1395
▁bathing	-12.1395
▁slice	-12.1399
▁silenced	-12.1404
▁deem	-12.1405
▁yon	-12.1407
pan	-12.1407
▁diameter	-12.1407
▁Mercedes	-12.1407
▁durst	-12.1408
▁drooping	-12.141
▁mutton	-12.141
▁cells	-12.1411
▁Nan	-12.1413
▁ghostly	-12.1413
▁consulting	-12.1416
▁SHERIFF	-12.1416
▁LEWIS	-12.1417
▁suck	-12.1419
▁reckoning	-12.142
▁dashing	-12.1421
▁linger	-12.1422
▁JOHAN	-12.1423
▁antique	-12.1428
▁tavern	-12.1428
▁dungeon	-12.1428
▁warehouse	-12.1428
▁COPS	-12.1431
▁fragrance	-12.1433
▁melody	-12.1433
▁Fergus	-12.1433
▁retirement	-12.1434
▁menacing	-12.1434
▁Franklin	-12.1434
ecker	-12.1436
▁reigned	-12.1436
▁perished	-12.1437
▁KID	-12.1438
▁Britain	-12.1439
▁calmness	-12.1439
▁scrambles	-12.144
▁scrambled	-12.144
▁PRESENT	-12.1441
▁pronounce	-12.1445
▁curved	-12.1446
ba	-12.1448
▁develop	-12.1448
mother	-12.1451
1.	-12.1451
▁zone	-12.1459
▁custody	-12.1459
▁energies	-12.1459
▁tyranny	-12.1459
▁BLOM	-12.1459
▁Scottish	-12.1459
▁slamming	-12.146
ARNA	-12.1463
▁nut	-12.1464
▁Se	-12.1466
▁privileges	-12.1467
rie	-12.1468
▁twins	-12.147
▁collecting	-12.1471
▁Often	-12.1471
▁reconcile	-12.1477
▁transfer	-12.148
▁BOURNE	-12.1481
▁Ham	-12.1481
▁employer	-12.1483
▁draft	-12.1483
lar	-12.1484
▁bewilderment	-12.1485
▁pondered	-12.1486
▁preceded	-12.1486
▁Kevin	-12.1486
▁aback	-12.1487
▁attacking	-12.1492
▁detect	-12.1494
▁LOOKS	-12.1495
▁sarcastic	-12.1498
▁Comrade	-12.1498
▁Whenever	-12.1501
▁glimmer	-12.1504
Man	-12.1506
▁Marvel	-12.1507
."]	-12.1507
▁puppy	-12.1509
▁institutions	-12.1509
▁mis	-12.1509
▁bridegroom	-12.151
▁EARL	-12.151
▁Turkish	-12.1511
▁valiant	-12.1511
▁quiver	-12.1511
▁tails	-12.1511
▁administration	-12.1512
▁CURTI	-12.1513
▁westward	-12.1513
▁chuckled	-12.1516
▁DARK	-12.152
DETECTIVE	-12.1525
lu	-12.1525
▁Eight	-12.1526
▁vest	-12.1527
▁flourish	-12.1529
▁drums	-12.1529
▁SPEED	-12.1531
▁prodigious	-12.1536
▁demeanour	-12.1536
▁Carnby	-12.1536
▁Wilkins	-12.1537
▁handling	-12.1537
▁JUD	-12.1538
▁elegance	-12.1538
▁resented	-12.1538
▁strife	-12.1538
▁peeped	-12.1539
▁qualified	-12.1539
▁jerked	-12.154
▁circling	-12.154
ham	-12.1541
▁gathers	-12.1541
▁Barnes	-12.1541
▁grinding	-12.1542
▁fishes	-12.1543
▁rice	-12.1546
▁boughs	-12.1548
▁XVII	-12.1549
▁ribbons	-12.1551
▁cooked	-12.1552
▁Ok	-12.1555
▁SCREAM	-12.1556
▁reporters	-12.1558
▁translation	-12.1558
▁advertisement	-12.1559
▁jug	-12.156
▁Babe	-12.1563
▁stem	-12.1564
▁loaf	-12.1565
▁traversed	-12.1566
▁tubes	-12.1567
▁Caroline	-12.1567
▁items	-12.1567
▁NEWS	-12.1568
▁incredibly	-12.1569
▁flicks	-12.1572
▁pledged	-12.1576
▁Scene	-12.1576
▁Alone	-12.1577
ho	-12.1579
▁splash	-12.1581
▁barber	-12.1583
▁BUCK	-12.1586
▁Babylon	-12.1587
▁abominable	-12.1588
▁aristocracy	-12.1588
▁choosing	-12.1588
▁armchair	-12.1588
▁trials	-12.1589
▁GIRLS	-12.159
▁frankness	-12.159
▁Sapt	-12.1591
▁typical	-12.1593
▁RACIN	-12.1594
▁kindled	-12.1598
▁brushing	-12.16
▁statues	-12.1604
▁Eva	-12.1607
▁GORDON	-12.1608
▁interfered	-12.1609
▁obedient	-12.1613
▁LESTER	-12.1613
▁Word	-12.1614
▁Tyrrel	-12.1614
▁foreground	-12.1615
▁propped	-12.1615
▁bureau	-12.1615
▁grabbed	-12.1615
▁Hermione	-12.1617
TOBY	-12.1618
▁Atlantic	-12.1618
▁kindred	-12.1619
ever	-12.162
▁adventurer	-12.162
▁EDDIE	-12.1623
▁CLERK	-12.1624
▁apples	-12.1626
▁echoing	-12.1627
▁yu	-12.163
▁cigars	-12.163
Hush	-12.163
Those	-12.163
▁crowns	-12.1631
▁sa	-12.1632
▁BELL	-12.1635
▁vacation	-12.1637
▁demonstration	-12.1638
▁ALICE	-12.164
▁RATH	-12.1641
▁MAVERICK	-12.1641
▁quid	-12.1641
▁cowardice	-12.1641
▁106	-12.1641
▁wailing	-12.1642
▁pier	-12.1644
▁BOOTH	-12.1644
▁Converte	-12.1644
▁cherry	-12.1644
▁Opera	-12.1645
▁arches	-12.1646
▁anon	-12.1648
▁defended	-12.1648
▁margin	-12.1651
▁thirsty	-12.1652
▁Act	-12.1654
especially	-12.1657
▁SO	-12.1658
▁Buck	-12.1658
▁sandy	-12.1661
▁blouse	-12.1663
▁achieve	-12.1664
▁hillside	-12.1665
▁Marya	-12.1665
▁persistent	-12.1665
▁Lamb	-12.1667
▁Delamayn	-12.1667
▁Boone	-12.1667
▁Glenvarloch	-12.1668
▁BASEMENT	-12.1669
▁Robinson	-12.1671
cha	-12.1672
▁reckoned	-12.1673
gown	-12.1673
▁squeezed	-12.1676
▁GRANT	-12.1677
▁constituted	-12.1678
leg	-12.168
OUISA	-12.1681
ries	-12.1682
▁Move	-12.1683
!_"	-12.1684
▁maidens	-12.1686
▁SUITE	-12.1687
▁SOUNDS	-12.1689
▁ravine	-12.169
▁tissue	-12.1691
▁enveloped	-12.1692
▁accurate	-12.1693
▁Scatcherd	-12.1693
▁CHANCE	-12.1693
▁confinement	-12.1693
▁Pickle	-12.1694
▁Django	-12.1695
▁strengthened	-12.1695
OWELL	-12.1695
▁Ferdinand	-12.1696
▁yelled	-12.1697
▁Frederic	-12.17
▁physically	-12.1701
▁Unfortunately	-12.1704
▁ornament	-12.1705
RUSTY	-12.1705
looks	-12.1705
▁aye	-12.1706
ANTHONY	-12.1709
RACHEL	-12.171
▁meek	-12.1711
▁soda	-12.1711
▁review	-12.1712
▁Send	-12.1718
▁classic	-12.1718
▁Elijah	-12.172
▁Gadsby	-12.172
▁TAYLOR	-12.172
▁giddy	-12.172
▁Barchester	-12.172
▁limo	-12.172
▁Darkness	-12.172
▁Blake	-12.1722
▁translated	-12.1723
▁partial	-12.1724
▁vi	-12.1724
▁product	-12.1724
▁confided	-12.1725
▁esteemed	-12.1726
▁CAMERON	-12.1728
▁sleeps	-12.1731
▁paced	-12.1732
▁proportions	-12.1733
▁OBI	-12.1736
▁Emil	-12.1736
▁inconvenience	-12.1737
▁arisen	-12.1738
▁coins	-12.1739
▁clutch	-12.1739
▁benevolent	-12.1744
▁disinterested	-12.1745
▁Parisian	-12.1745
▁thumbs	-12.1745
▁Askerton	-12.1746
▁decency	-12.1746
▁burial	-12.1746
▁poles	-12.1746
▁loveliness	-12.1749
▁quoted	-12.1752
▁Mater	-12.1753
▁journal	-12.1757
▁golf	-12.1758
ay	-12.176
▁headlights	-12.1761
STEVE	-12.1762
▁scrape	-12.1763
▁Cooke	-12.1765
▁cot	-12.1765
▁Ne	-12.1766
▁disguised	-12.1766
▁rip	-12.1767
▁defined	-12.1767
▁PILOT	-12.1768
▁ROBERT	-12.1769
▁viewed	-12.177
▁girdle	-12.177
OVER	-12.177
▁excite	-12.1772
▁fidelity	-12.1773
▁ruddy	-12.1773
▁scanning	-12.1773
▁snowy	-12.1773
▁maternal	-12.1773
▁Schindler	-12.1774
▁slam	-12.1774
▁Manning	-12.1775
▁barbarous	-12.1775
▁syllable	-12.1777
▁sharing	-12.1778
▁Marshall	-12.1779
▁lawful	-12.178
▁hairy	-12.1783
▁poems	-12.1784
▁belongings	-12.1784
▁comforting	-12.1788
▁glared	-12.179
▁SCOTT	-12.1791
▁chocolate	-12.1797
ERRIS	-12.1799
▁occurs	-12.1799
▁Sonny	-12.18
▁imprisoned	-12.1801
▁FAMILY	-12.1801
▁Elsie	-12.1802
▁wearied	-12.1805
▁statements	-12.1806
▁links	-12.1809
fire	-12.1813
▁succeeding	-12.1814
▁brakes	-12.1817
▁ministers	-12.1818
▁constitute	-12.1819
▁sources	-12.182
▁breeding	-12.1821
▁som	-12.1822
NER	-12.1824
▁unmistakable	-12.1826
▁patted	-12.1826
▁throbbing	-12.1826
▁paternal	-12.1827
▁conclusions	-12.1827
▁whisky	-12.1827
▁BAY	-12.1828
▁salon	-12.1828
▁wouldst	-12.1828
▁thigh	-12.1829
▁fairies	-12.1829
say	-12.1829
▁idleness	-12.183
▁profits	-12.1831
▁escorted	-12.1831
▁Lordship	-12.1832
▁smash	-12.1832
▁DELA	-12.1834
horse	-12.1837
▁sire	-12.1839
▁hips	-12.184
▁china	-12.184
dressed	-12.184
ons	-12.1841
HUB	-12.1843
BURNS	-12.1844
▁muzzle	-12.1847
▁refreshment	-12.1851
▁sloop	-12.1851
▁colleague	-12.1851
▁weekend	-12.1852
▁Szpilman	-12.1853
▁engaging	-12.1853
▁Stanley	-12.1853
▁Dirk	-12.1853
▁VIVIAN	-12.1854
▁uproar	-12.1855
▁Madeleine	-12.1855
▁transported	-12.1856
▁tormented	-12.1856
▁Con	-12.1857
▁MOTION	-12.1857
▁enraged	-12.1858
▁replace	-12.1858
▁Twice	-12.1859
▁donkey	-12.1859
▁CINDY	-12.186
▁Nurse	-12.1863
▁trot	-12.1864
8	-12.1865
deck	-12.1866
VO	-12.1869
▁insight	-12.187
▁injure	-12.1871
▁cameras	-12.1872
▁lagoon	-12.1877
▁constrained	-12.1878
▁unfit	-12.1879
▁Fischer	-12.1879
▁Greece	-12.1879
▁consistent	-12.1879
▁enlightened	-12.1881
▁Deep	-12.1882
▁fertile	-12.1884
▁coughing	-12.1885
▁slack	-12.1886
DF	-12.1887
▁counts	-12.1892
▁widen	-12.1893
▁concealing	-12.1897
STEW	-12.1897
Keep	-12.1898
▁summon	-12.1898
▁collapse	-12.1898
▁hoofs	-12.1898
KIT	-12.1899
▁bandage	-12.1901
▁provinces	-12.1903
▁candidate	-12.1905
▁patrol	-12.1906
▁Melanie	-12.1906
▁scrutiny	-12.1906
▁kneel	-12.1906
▁plank	-12.1907
▁org	-12.1907
▁superstitious	-12.1908
▁blossom	-12.191
▁Crofts	-12.191
▁CHIEF	-12.191
▁Apparently	-12.1911
▁Left	-12.1912
▁gilt	-12.1912
▁Ms	-12.1912
▁Blade	-12.1913
▁cheered	-12.1913
▁Numa	-12.1914
▁DODGE	-12.1914
▁seasons	-12.1915
▁hawk	-12.1915
▁spreads	-12.1918
▁LOOKING	-12.1923
skin	-12.1923
▁WHO	-12.1924
Suppose	-12.1925
▁flare	-12.1925
▁moan	-12.1926
▁destroying	-12.1927
Even	-12.1928
▁chased	-12.1929
▁ascend	-12.1929
?’	-12.1931
▁apparition	-12.1932
▁unique	-12.1932
▁conspiracy	-12.1933
▁invasion	-12.1933
▁jammed	-12.1933
▁heiress	-12.1934
▁Frog	-12.1936
▁embarrassing	-12.1937
▁Frederick	-12.1938
▁halls	-12.1938
▁adored	-12.194
▁Divine	-12.194
▁MAR	-12.194
Re	-12.1943
▁owners	-12.1943
▁Guards	-12.1944
▁shameful	-12.1944
ent	-12.1945
▁explanations	-12.1947
▁stations	-12.1949
▁Sister	-12.1953
▁drain	-12.1954
▁Kent	-12.1956
▁doubting	-12.1956
▁arena	-12.1958
▁cue	-12.1958
▁veranda	-12.1959
▁evils	-12.196
▁forefinger	-12.196
▁velocity	-12.196
▁audacity	-12.196
▁beckoned	-12.1961
▁wad	-12.1962
▁passive	-12.1962
▁brightened	-12.1963
▁Hunter	-12.1966
▁gum	-12.1967
▁rectory	-12.1968
▁antagonist	-12.1974
▁Rae	-12.1974
books	-12.1974
▁stirs	-12.1976
▁mug	-12.1976
▁ICHA	-12.1977
▁magazines	-12.1978
school	-12.198
▁prostrate	-12.1981
▁Tomorrow	-12.1981
▁mature	-12.1983
▁("	-12.1983
▁HELICOPTER	-12.1983
▁orphan	-12.1986
▁deliberation	-12.1986
▁integrity	-12.1987
▁Glegg	-12.1987
▁Benedict	-12.1989
incomprehensible	-12.199
▁AL	-12.1991
▁snakes	-12.1992
▁hopelessly	-12.1993
▁pouch	-12.1993
▁giants	-12.1995
▁corrected	-12.1995
▁groaning	-12.1997
▁CAROL	-12.1998
▁silhouette	-12.2007
▁regain	-12.2009
▁appreciated	-12.2009
▁disgraced	-12.201
▁bubble	-12.2014
▁Revolution	-12.2014
▁frustration	-12.2015
▁verily	-12.2015
▁diving	-12.2015
▁LILA	-12.2016
▁Tropile	-12.2017
▁defiant	-12.2017
▁launched	-12.2017
▁Samuel	-12.2017
▁undergone	-12.2018
▁leisurely	-12.2019
▁junk	-12.202
▁114	-12.202
▁STOP	-12.2022
▁Sounds	-12.2022
▁peaks	-12.2024
▁superb	-12.2025
other	-12.2028
▁protecting	-12.2029
Fi	-12.2032
▁taller	-12.2036
▁jobs	-12.2036
LMUT	-12.2038
▁Aline	-12.204
▁Marmont	-12.2042
▁invent	-12.2042
▁ammunition	-12.2042
▁unaccountable	-12.2042
▁penetrating	-12.2042
▁Robbie	-12.2042
▁laundry	-12.2042
▁grating	-12.2042
JEANNE	-12.2042
▁Greer	-12.2042
▁foreseen	-12.2044
▁hairs	-12.2045
▁frontier	-12.2046
▁GATES	-12.2047
▁proving	-12.2048
▁NEO	-12.2056
▁starved	-12.2062
Scripts	-12.2062
▁FLASHBACK	-12.2062
▁adequate	-12.2068
▁grievous	-12.2068
▁museum	-12.2069
▁COCKPIT	-12.2069
▁felicity	-12.2069
▁reverend	-12.2069
▁pulpit	-12.207
▁Elzevir	-12.207
▁rejoicing	-12.207
▁Clarence	-12.2071
▁Thompson	-12.2071
▁Hyde	-12.2072
▁Edmund	-12.2073
▁ascending	-12.2073
▁um	-12.2074
▁Anti	-12.2075
▁eminent	-12.2075
▁crust	-12.2076
▁sucking	-12.2078
▁HAS	-12.208
▁sighing	-12.2082
▁Walk	-12.2083
“	-12.2084
▁uniforms	-12.2087
▁kills	-12.2088
9	-12.2089
▁wary	-12.209
▁detain	-12.2091
▁Forest	-12.2092
▁cushions	-12.2093
▁pensive	-12.2094
▁bangs	-12.2096
▁trips	-12.2096
▁sordid	-12.2096
▁HARDCASTLE	-12.2097
▁ingenuity	-12.2097
▁Adrian	-12.2097
▁parchment	-12.2097
▁removal	-12.2097
▁Carson	-12.2097
▁deceased	-12.2099
▁sucked	-12.2099
▁cheerfulness	-12.2099
▁insect	-12.21
▁Huns	-12.2101
▁Eugene	-12.2102
▁governed	-12.2103
ERTIE	-12.2103
▁Somehow	-12.2109
▁rein	-12.211
KUMAR	-12.2117
▁loop	-12.2117
Maybe	-12.2118
▁trance	-12.2119
▁BRAD	-12.212
▁directing	-12.2121
CROIX	-12.2124
▁concentration	-12.2124
▁vehemence	-12.2124
▁impertinent	-12.2124
ORDELL	-12.2126
▁scanty	-12.2126
▁staggering	-12.2127
▁notebook	-12.2127
▁Voice	-12.2127
▁enlarged	-12.2127
hall	-12.213
▁CON	-12.2134
▁ruler	-12.2136
▁200	-12.2138
▁possessing	-12.2139
▁funds	-12.214
▁moods	-12.2143
▁appealing	-12.2144
▁CARL	-12.2149
▁confront	-12.215
▁luxurious	-12.215
▁spaces	-12.2151
▁dick	-12.2151
▁siege	-12.2151
▁prettiest	-12.2152
▁Rigby	-12.2152
▁coincidence	-12.2152
▁badge	-12.2153
▁WOMEN	-12.2154
▁dancers	-12.2155
▁inspire	-12.2156
▁Woody	-12.2156
▁MIN	-12.2158
▁puff	-12.216
ND	-12.2162
▁abused	-12.2164
▁creeps	-12.2165
▁Same	-12.2172
▁Follow	-12.2175
▁Read	-12.2175
▁dinners	-12.2175
their	-12.2176
▁Takes	-12.2179
▁Omnium	-12.2179
▁Viktor	-12.2179
▁aversion	-12.2179
▁retiring	-12.2179
▁corruption	-12.218
▁CAB	-12.218
▁Heron	-12.2181
▁recess	-12.2181
▁influences	-12.2183
▁smashing	-12.2183
▁harshly	-12.2184
▁binoculars	-12.2185
▁Beck	-12.2186
▁cur	-12.2186
▁judging	-12.2187
▁battles	-12.2187
▁mildly	-12.2187
▁sexy	-12.2195
▁retreating	-12.2195
▁Us	-12.2196
▁LIGHTS	-12.2198
chamber	-12.2199
▁leapt	-12.2199
LONGFELLOW	-12.22
▁compound	-12.2202
[	-12.2202
▁holidays	-12.2203
▁KNOCK	-12.2203
▁pairs	-12.2204
▁airs	-12.2205
▁pictured	-12.2205
▁Pascal	-12.2207
▁ferocity	-12.2207
▁Utah	-12.2207
▁Geoff	-12.2207
▁convincing	-12.2207
▁knitting	-12.2207
▁deafening	-12.2207
▁damsel	-12.2208
▁strips	-12.2212
LING	-12.2213
▁owl	-12.2213
▁TRUE	-12.2213
▁implored	-12.2213
▁Otherwise	-12.2213
▁hooked	-12.2213
▁Martian	-12.2215
▁departing	-12.2217
▁scales	-12.2221
▁LAZARUS	-12.2224
SEAN	-12.2229
▁Money	-12.2231
▁fabric	-12.2234
rville	-12.2235
▁Fear	-12.2235
▁untouched	-12.2235
▁splendor	-12.2235
▁pots	-12.2236
▁grunted	-12.2236
▁jag	-12.2238
▁socks	-12.2239
ster	-12.2239
▁glee	-12.224
▁Apollo	-12.2241
▁metallic	-12.2241
▁fashioned	-12.2241
▁trifles	-12.2241
▁wronged	-12.2242
▁Way	-12.2243
▁ACT	-12.2244
▁trench	-12.2245
▁fondly	-12.2248
▁JUDGE	-12.2249
▁FEMALE	-12.2252
any	-12.2252
link	-12.2253
▁dates	-12.2253
▁Rubb	-12.2253
IRVING	-12.2256
▁Today	-12.2258
▁calculations	-12.2259
▁lapse	-12.2259
▁dove	-12.2262
▁Bargeton	-12.2262
▁corral	-12.2262
▁Langham	-12.2262
▁Langdon	-12.2263
▁butterfly	-12.2263
▁Own	-12.2263
▁Alvy	-12.2265
▁napkin	-12.2266
▁Senor	-12.2267
▁inflicted	-12.2268
▁!?	-12.2272
▁tact	-12.2276
▁Search	-12.2277
▁bee	-12.2277
▁accompanying	-12.2278
▁dial	-12.2278
▁crisp	-12.2282
▁snatch	-12.2283
VADA	-12.2288
▁artists	-12.229
▁Osborne	-12.229
▁sensibility	-12.229
▁emerging	-12.229
▁Westhaven	-12.229
▁Stacy	-12.2291
▁Summer	-12.2293
▁Commissioner	-12.2294
▁Hands	-12.2296
akr	-12.2297
▁SKY	-12.23
▁rattled	-12.2301
▁ordering	-12.2303
GIRL	-12.2307
ably	-12.2311
▁flown	-12.2313
▁beseech	-12.2315
▁exhibit	-12.2316
Every	-12.2317
▁Dennis	-12.2318
▁Chaffanbrass	-12.2318
▁wrung	-12.2318
▁rumour	-12.2319
▁MCU	-12.2319
▁Abbey	-12.232
▁Myrtle	-12.232
▁schoolmaster	-12.2321
▁Allen	-12.2322
▁firmness	-12.2322
▁DETECTIVE	-12.2325
▁critic	-12.2326
▁125	-12.2327
▁soothed	-12.2327
▁Hasar	-12.233
▁dresser	-12.2331
▁crop	-12.2331
▁gettin	-12.2331
▁amounted	-12.2338
▁precautions	-12.2338
▁ache	-12.234
MARGOT	-12.234
▁cleaned	-12.2344
▁industrial	-12.2345
▁sustain	-12.2346
▁Otto	-12.2346
▁facility	-12.2347
▁writhing	-12.2347
▁mockery	-12.2347
▁Paulette	-12.2347
▁dismiss	-12.2348
▁airport	-12.2349
▁lists	-12.2349
▁worrying	-12.2349
▁calf	-12.235
▁XIX	-12.2351
▁Knights	-12.2354
▁speeding	-12.2354
▁AD	-12.2356
KYLE	-12.2356
▁experiments	-12.2356
▁YARD	-12.2357
▁118	-12.2361
▁Horn	-12.2361
▁cracking	-12.2361
▁magistrates	-12.2365
▁elders	-12.2366
▁Tree	-12.2368
Like	-12.2369
▁Gate	-12.2372
▁lass	-12.2374
▁Trent	-12.2375
▁DARWIN	-12.2375
▁Glyde	-12.2375
▁accuracy	-12.2375
▁vegetation	-12.2375
▁Marsham	-12.2375
▁noiselessly	-12.2376
▁stored	-12.2376
▁doubly	-12.2377
▁assumption	-12.2377
▁habitation	-12.2378
▁refinement	-12.2379
▁sexual	-12.2379
▁blankly	-12.2381
▁blackened	-12.2382
▁sage	-12.2384
▁Science	-12.2384
▁damaged	-12.239
▁SEA	-12.2391
▁vices	-12.2393
▁knots	-12.2399
▁tremulous	-12.2401
▁Meag	-12.2402
▁Large	-12.2402
▁Hildy	-12.2403
▁TARLETON	-12.2403
▁choir	-12.2403
▁Hartill	-12.2403
▁signified	-12.2404
▁softer	-12.2404
sar	-12.2404
▁Adelina	-12.2404
▁Berlin	-12.2405
▁climax	-12.2405
▁BLOOD	-12.2405
▁despairing	-12.2406
▁sparkled	-12.2408
▁erected	-12.2408
▁chiefs	-12.2409
▁devices	-12.2411
▁Whom	-12.2417
▁attach	-12.242
▁arched	-12.2421
▁lining	-12.2423
CORALINE	-12.2426
▁ARCHIE	-12.2431
▁Bashwood	-12.2431
▁Delmar	-12.2431
▁Ready	-12.2431
▁tattered	-12.2432
▁Clem	-12.2432
bell	-12.2433
▁Ba	-12.2434
▁ensued	-12.2434
▁WHICH	-12.2434
▁defensive	-12.2435
▁vividly	-12.2435
▁mortification	-12.2435
▁consisting	-12.2436
▁yearning	-12.2437
▁commented	-12.2437
▁Laz	-12.2441
turning	-12.2442
▁UNDER	-12.2442
▁cushion	-12.2442
▁overlooking	-12.2444
▁THIRD	-12.2445
▁Margot	-12.2445
▁Des	-12.2445
▁infamous	-12.2446
!_	-12.2447
▁Citizen	-12.2451
▁hurl	-12.2455
De	-12.2455
rn	-12.2457
▁estimation	-12.246
▁disconcerted	-12.246
▁Sophy	-12.246
▁Family	-12.2461
▁BROWN	-12.2461
▁homely	-12.2462
▁preached	-12.2463
▁Christie	-12.2464
coat	-12.2467
▁Secret	-12.2467
▁Main	-12.2468
▁Yo	-12.2471
▁sixpence	-12.2472
_!"	-12.2473
▁soothe	-12.2475
▁Guess	-12.2479
ground	-12.2479
green	-12.2479
▁Sal	-12.248
▁blessings	-12.2483
ina	-12.2484
▁repay	-12.2485
▁seventh	-12.2486
party	-12.2486
▁pursuits	-12.2488
▁DORANTE	-12.2488
▁Ferris	-12.2488
▁Warren	-12.2488
▁gallantry	-12.2489
▁ejaculated	-12.2489
▁excellence	-12.2489
▁Nostromo	-12.249
▁aliens	-12.249
BY	-12.2491
▁meditated	-12.2491
▁calculation	-12.2492
▁females	-12.2494
▁graciously	-12.2494
▁scratching	-12.2494
▁vine	-12.2494
▁carpenter	-12.2495
▁enquired	-12.2495
▁SOLDIERS	-12.2496
▁traditions	-12.2498
]:	-12.2498
▁assuredly	-12.25
▁TILLE	-12.25
▁disgusting	-12.25
▁recollections	-12.2501
▁shields	-12.2502
rooms	-12.2503
▁countrymen	-12.2507
▁bearded	-12.2508
▁valleys	-12.251
op	-12.251
MOZART	-12.2512
Since	-12.2513
▁roast	-12.2515
▁imperfect	-12.2515
▁visage	-12.2516
▁Marley	-12.2517
▁worshipped	-12.2517
▁113	-12.2517
▁screwed	-12.252
▁GREAT	-12.252
▁straightway	-12.2523
▁Tess	-12.2526
▁mortals	-12.2527
▁steaming	-12.2528
▁adds	-12.2528
▁VIDEO	-12.2529
IC	-12.253
▁blocking	-12.2535
▁lanes	-12.2536
▁resemble	-12.2542
▁circus	-12.2545
▁Terminator	-12.2545
▁contemplating	-12.2545
▁engrossed	-12.2546
▁unbroken	-12.2546
▁sundry	-12.2547
Ch	-12.2547
▁Hooker	-12.2548
▁Foster	-12.2549
▁Cripps	-12.2549
should	-12.2549
▁automobile	-12.255
▁phantom	-12.255
▁creating	-12.255
▁Andor	-12.2551
tin	-12.2551
▁stung	-12.2552
▁flows	-12.2555
▁strap	-12.2556
▁awed	-12.2556
BARTON	-12.2556
▁sane	-12.2557
▁GLEN	-12.2561
every	-12.2561
▁GOOD	-12.2561
▁monument	-12.2562
▁innocently	-12.2563
▁gin	-12.2571
▁stump	-12.2572
▁specimens	-12.2573
▁Schaefer	-12.2574
▁unnoticed	-12.2574
▁Boldwood	-12.2574
▁describing	-12.2575
▁exclusive	-12.2575
▁stupidity	-12.2575
▁FAUST	-12.2575
▁Maxwell	-12.2576
▁whale	-12.2576
▁Garden	-12.2578
▁partners	-12.2579
▁HOW	-12.2579
▁HUGE	-12.2579
▁tha	-12.258
▁rely	-12.2581
▁contemptuously	-12.2581
▁clasping	-12.2582
▁Spaniards	-12.2584
▁miracles	-12.2586
▁Erica	-12.2591
▁thickly	-12.2594
▁buzz	-12.2595
▁demanding	-12.2596
▁graces	-12.2597
▁explore	-12.2598
▁SHADOW	-12.2598
...**	-12.2599
CABLE	-12.2599
▁chickens	-12.2602
▁contradict	-12.2602
▁artillery	-12.2603
▁improbable	-12.2603
▁unspeakable	-12.2603
▁chatting	-12.2603
▁tennis	-12.2604
▁invested	-12.2604
▁Marneffe	-12.2604
▁wheelchair	-12.2604
▁OCEAN	-12.2605
▁Moggs	-12.2605
▁talkin	-12.2605
▁vowed	-12.2606
▁Nadia	-12.2607
▁awakening	-12.2607
▁cocked	-12.2607
▁channels	-12.2609
▁sucks	-12.2609
▁slab	-12.2609
▁119	-12.2615
kin	-12.2615
▁130	-12.2616
▁petition	-12.2628
ELVIN	-12.2628
RANDAL	-12.2629
WILLARD	-12.2629
MITCH	-12.263
DALE	-12.2631
▁apes	-12.2631
▁identify	-12.2632
▁impudence	-12.2632
▁CATES	-12.2632
▁obliging	-12.2632
▁recourse	-12.2633
▁masculine	-12.2633
▁agency	-12.2634
▁Zenobia	-12.2634
▁Kyle	-12.2634
▁sleek	-12.2635
▁wretchedness	-12.2635
▁Carlton	-12.2636
▁bolted	-12.2637
▁accidental	-12.2637
▁persuasion	-12.2638
▁vegetable	-12.2639
▁gratefully	-12.264
INE	-12.264
▁spun	-12.2644
▁CHILD	-12.2647
▁writ	-12.265
▁jack	-12.265
▁divers	-12.2651
know	-12.2655
JENNY	-12.2659
▁richer	-12.2659
always	-12.2659
▁hurting	-12.266
ise	-12.2661
▁MOORE	-12.2661
▁Cambridge	-12.2661
▁SOMERSET	-12.2661
▁perspective	-12.2661
▁PAYTON	-12.2661
▁livid	-12.2661
▁perspiration	-12.2661
▁quickened	-12.2662
▁exposure	-12.2663
▁garb	-12.2664
▁curate	-12.2665
▁DICK	-12.2669
▁misty	-12.2673
▁LEOPOLD	-12.2673
▁hilt	-12.2675
▁WIN	-12.2683
▁investigate	-12.2683
▁congratulations	-12.2683
▁Thought	-12.2685
JULES	-12.2687
▁remembers	-12.2688
Right	-12.2688
▁Powers	-12.2689
▁BROOKS	-12.269
▁Treves	-12.269
▁hostility	-12.269
▁dunno	-12.269
▁discoveries	-12.2691
▁era	-12.2692
▁Dalgard	-12.2692
▁announcing	-12.2692
▁Eugenie	-12.2693
▁associations	-12.2694
▁XX	-12.2694
▁item	-12.2701
UARE	-12.2704
▁binding	-12.2705
life	-12.2706
▁116	-12.2707
▁stark	-12.2707
▁sneak	-12.2708
▁shuddering	-12.2708
▁layer	-12.2708
▁deceit	-12.2708
much	-12.2709
▁fraud	-12.2709
▁Allah	-12.2712
▁rebuke	-12.2712
▁Real	-12.2712
▁inhuman	-12.2713
▁convictions	-12.2716
KALE	-12.2717
▁Grandma	-12.2719
▁unhappiness	-12.2719
▁intercom	-12.2719
▁chips	-12.2721
▁Clarissa	-12.2723
seeing	-12.2725
▁sinner	-12.2728
▁needless	-12.2729
▁mayhap	-12.2729
▁Beside	-12.273
▁Sundays	-12.273
▁dont	-12.273
▁suggesting	-12.2733
▁SET	-12.2734
ial	-12.2735
ny	-12.2737
▁Rand	-12.274
▁dated	-12.2745
▁projects	-12.2745
▁elephants	-12.2747
▁appalling	-12.2747
▁Dunbar	-12.2748
▁Xander	-12.2748
▁impossibility	-12.2748
▁Wentworth	-12.2748
▁silvery	-12.2748
▁miserably	-12.2748
▁replies	-12.2748
▁garrison	-12.2751
▁BUDDY	-12.2752
▁LIFE	-12.2752
▁preaching	-12.2754
ron	-12.276
▁rendering	-12.2761
▁tenant	-12.2761
▁Venus	-12.2761
▁clip	-12.2763
▁telegraph	-12.2768
▁impulses	-12.2771
▁127	-12.2773
▁import	-12.2774
▁prints	-12.2774
▁mend	-12.2775
▁guarantee	-12.2776
HOUSE	-12.2776
control	-12.2777
▁chop	-12.2777
GANDHI	-12.2778
▁Effingham	-12.2778
▁cemetery	-12.2778
▁ROOF	-12.2778
▁Trinity	-12.2778
▁Granite	-12.2778
▁typing	-12.2778
▁Beneath	-12.2778
▁Neff	-12.2778
▁backing	-12.2778
▁hovered	-12.2779
UVIA	-12.2779
▁connect	-12.278
▁Mitchell	-12.278
▁Bourne	-12.278
▁wretches	-12.278
▁Forgive	-12.2781
▁DESK	-12.2782
▁Carthage	-12.2782
▁drowning	-12.2783
▁inscription	-12.2784
▁emperor	-12.2784
▁olive	-12.2784
▁grains	-12.2785
▁bass	-12.2786
▁Middle	-12.2787
▁scruples	-12.2787
▁orchard	-12.2788
ical	-12.279
▁Roby	-12.2791
▁5.	-12.2793
▁Mon	-12.2793
▁mattered	-12.2794
▁observer	-12.2794
▁heartless	-12.2798
▁practise	-12.28
▁enquire	-12.28
▁conceit	-12.2803
HAROLD	-12.2806
▁imitate	-12.2806
Something	-12.2806
▁fragrant	-12.2807
▁alternately	-12.2808
▁lookin	-12.2809
▁closest	-12.2809
Old	-12.2809
▁organized	-12.2811
▁fondness	-12.2812
▁Bat	-12.2813
▁threads	-12.2813
▁sooth	-12.2814
▁creed	-12.2814
▁imagining	-12.2814
▁Wild	-12.2815
▁Butch	-12.2816
▁musing	-12.282
▁balanced	-12.2822
cher	-12.2827
▁prose	-12.2829
▁Roy	-12.2829
▁tenth	-12.2831
▁shaded	-12.2832
▁cottages	-12.2835
▁indebted	-12.2836
▁Cadillac	-12.2837
Master	-12.2837
▁deliverance	-12.2837
▁strapped	-12.2837
▁Constance	-12.2838
▁daybreak	-12.2839
paper	-12.2839
▁Revision	-12.284
▁Valerie	-12.284
▁clapping	-12.2841
▁peeping	-12.2841
▁banging	-12.2841
▁partition	-12.2842
▁Arbaces	-12.2842
▁accommodation	-12.2845
▁publication	-12.2846
▁comb	-12.2848
▁trod	-12.2848
▁costly	-12.2848
ball	-12.2855
▁wa	-12.2857
▁orchestra	-12.2859
▁decisive	-12.2865
▁eccentric	-12.2866
▁resembling	-12.2866
▁serenity	-12.2866
▁unfamiliar	-12.2866
▁discarded	-12.2867
▁loosened	-12.2867
▁cheated	-12.2869
▁BLOOM	-12.2871
IT	-12.2872
▁overlooked	-12.2872
▁Hurry	-12.2874
▁rung	-12.2875
▁heroine	-12.2875
▁defending	-12.2881
▁hardest	-12.2888
▁hooks	-12.2888
▁stormy	-12.2889
▁morbid	-12.2894
▁locking	-12.2895
rt	-12.2896
▁charitable	-12.2896
▁STANDARD	-12.2896
▁steer	-12.2898
▁Strong	-12.2901
▁shoved	-12.2902
▁Spring	-12.2903
▁FINN	-12.2904
▁needles	-12.2904
▁pumps	-12.2907
▁traveled	-12.2909
_!	-12.291
▁flags	-12.2914
li	-12.2917
▁tenants	-12.292
▁STEPHANIE	-12.2922
▁tempt	-12.2923
▁languid	-12.2924
UICK	-12.2924
▁abundant	-12.2925
▁Fitzgerald	-12.2926
▁Willoughby	-12.2926
▁jagged	-12.2926
▁Ferguson	-12.2926
▁corresponding	-12.2926
▁righteous	-12.2927
▁Swiss	-12.2928
▁Behold	-12.2928
▁freezing	-12.2928
▁MACHINE	-12.2929
▁Hortense	-12.2929
▁faintest	-12.293
▁alight	-12.2933
▁scissors	-12.2933
▁Goodbye	-12.2934
▁Manon	-12.294
▁KIDS	-12.2941
▁gifted	-12.2941
▁infancy	-12.2942
▁straightens	-12.2946
▁martial	-12.2946
▁Cont	-12.2948
▁Anya	-12.295
▁boom	-12.2951
▁clap	-12.2953
▁impudent	-12.2954
▁victorious	-12.2954
iest	-12.2954
uiet	-12.2954
▁Psammead	-12.2955
▁Suzie	-12.2955
▁conversing	-12.2955
▁Tuvia	-12.2955
LLOYD	-12.2956
mm	-12.2956
▁absurdity	-12.2956
▁HAROLD	-12.2956
▁slippery	-12.2956
▁favorable	-12.2956
▁MILLS	-12.2957
▁HAWK	-12.2957
▁Thorvald	-12.2957
▁operating	-12.2959
▁Lucius	-12.296
▁confidently	-12.296
LISA	-12.2961
▁compel	-12.2962
▁JULIAN	-12.2963
▁extravagance	-12.2963
▁location	-12.2963
▁correspondent	-12.2963
▁flooded	-12.2964
▁Juan	-12.2965
▁adore	-12.2965
RY	-12.2966
▁Madge	-12.2966
▁tires	-12.2967
▁haul	-12.2968
▁6.7	-12.2969
▁narrowly	-12.2975
▁FRANCIS	-12.2975
▁rustic	-12.2975
▁robot	-12.2978
▁solar	-12.2984
▁airy	-12.2985
▁adversary	-12.2985
▁Denman	-12.2986
▁envied	-12.2986
▁Whereupon	-12.2986
▁memorable	-12.2987
▁diverted	-12.2987
▁Burnett	-12.2991
▁suspiciously	-12.2993
▁diversion	-12.2994
▁praises	-12.2998
▁Bo	-12.3
▁Bones	-12.3004
▁recording	-12.3007
▁dump	-12.301
▁wrongs	-12.3012
▁improper	-12.3014
▁patent	-12.3015
▁Gringoire	-12.3015
▁muslin	-12.3015
▁WARDEN	-12.3015
▁Sherman	-12.3015
▁dipped	-12.3016
▁coral	-12.3016
▁gilded	-12.3016
SIDNEY	-12.3017
▁lasting	-12.3018
▁yea	-12.3018
▁117	-12.302
vist	-12.3021
▁Rex	-12.3021
▁VERY	-12.3022
▁sarcasm	-12.3023
▁portraits	-12.3026
▁tackle	-12.3029
▁tug	-12.3032
▁mini	-12.3033
▁fulfil	-12.3034
KER	-12.3034
▁streaks	-12.3034
▁TESS	-12.3036
▁PART	-12.3045
▁Suzy	-12.3046
JAMAL	-12.3046
DONNIE	-12.3047
▁gaunt	-12.3047
▁Pedgift	-12.3047
STEVEN	-12.3047
Nobody	-12.3048
▁dashes	-12.3048
▁Tamara	-12.3048
▁Kroll	-12.3049
▁MO	-12.3049
▁Whilst	-12.305
▁colonists	-12.305
▁fugitive	-12.3054
▁vase	-12.3055
SUE	-12.3059
▁lens	-12.306
▁dizzy	-12.3061
▁RING	-12.3063
▁cakes	-12.3069
▁180	-12.3069
▁richest	-12.3069
▁resent	-12.307
UIN	-12.3071
▁Vaughn	-12.3076
▁isolation	-12.3076
▁mihi	-12.3076
▁annual	-12.3076
▁Talley	-12.3076
▁ELINOR	-12.3077
▁tibi	-12.3077
▁corpses	-12.3079
▁CLAR	-12.308
open	-12.308
▁stab	-12.3081
▁role	-12.3085
▁Coombe	-12.3086
▁pools	-12.3087
▁Girls	-12.3089
▁hissing	-12.309
▁pillows	-12.3095
[...]
