<unk>	0
<s>	0
</s>	0
,	-3.07113
▁the	-3.28225
.	-3.37721
▁to	-3.91114
▁and	-3.91139
▁of	-3.9476
▁a	-4.14121
▁I	-4.46677
▁**	-4.47147
▁in	-4.51038
▁.	-4.51393
'	-4.53526
s	-4.66118
▁	-4.69821
▁that	-4.75519
▁"	-4.81147
▁was	-4.83234
▁he	-4.88326
▁his	-4.9039
▁it	-4.905
▁you	-4.94038
▁her	-5.06796
▁with	-5.15401
▁had	-5.21693
▁'	-5.22184
▁is	-5.27648
▁as	-5.2771
▁for	-5.27862
;	-5.31583
▁,	-5.36074
▁on	-5.39659
▁at	-5.41569
▁not	-5.43841
-	-5.47695
▁be	-5.49531
▁him	-5.51833
▁she	-5.52525
**	-5.63004
▁have	-5.66894
▁The	-5.67236
▁me	-5.71893
▁my	-5.78419
t	-5.82421
--	-5.82546
▁but	-5.84608
."	-5.85629
▁from	-5.85957
▁He	-5.86257
▁this	-5.88911
▁all	-5.90482
▁by	-5.90861
▁which	-5.96648
▁said	-5.9878
▁so	-6.06011
▁they	-6.06512
?	-6.07109
▁out	-6.11121
▁up	-6.11709
▁were	-6.12042
▁one	-6.14119
,"	-6.14134
▁-	-6.16025
▁would	-6.17813
!	-6.18935
▁are	-6.19949
▁(	-6.20626
▁an	-6.2167
▁we	-6.25492
▁been	-6.2862
▁them	-6.29227
▁no	-6.3068
I	-6.35851
▁there	-6.35966
▁or	-6.36931
▁into	-6.38756
▁what	-6.38937
▁do	-6.42336
▁your	-6.43126
▁who	-6.4336
▁their	-6.43662
▁s	-6.44582
▁if	-6.44947
▁It	-6.46776
▁She	-6.47379
▁will	-6.50422
▁when	-6.51971
▁could	-6.51988
▁man	-6.56502
▁And	-6.57931
▁know	-6.58307
▁like	-6.59157
▁more	-6.59628
▁can	-6.59781
:	-6.61223
?"	-6.62079
▁now	-6.62521
▁about	-6.64173
▁But	-6.64187
▁down	-6.70435
▁very	-6.71699
▁?	-6.7269
▁then	-6.73641
▁back	-6.74785
▁...	-6.75917
▁see	-6.7621
▁You	-6.76482
▁time	-6.77045
▁A	-6.77468
▁some	-6.77767
▁over	-6.78075
▁did	-6.79135
▁little	-6.81217
▁has	-6.84637
▁Mr	-6.87106
▁than	-6.87499
▁any	-6.90054
)	-6.91306
▁other	-6.91742
▁should	-6.94652
▁go	-6.95279
▁upon	-6.99236
▁only	-7.00013
▁_	-7.00091
▁before	-7.02666
▁come	-7.04773
▁think	-7.05409
▁don	-7.06285
!"	-7.06761
▁--	-7.0684
▁good	-7.06898
▁two	-7.08066
▁way	-7.08589
▁made	-7.09007
▁us	-7.09667
d	-7.09837
▁never	-7.10521
▁much	-7.10776
▁here	-7.10867
▁just	-7.11702
▁again	-7.1187
▁say	-7.12508
▁himself	-7.12689
▁****	-7.13494
▁must	-7.15031
▁They	-7.15463
▁own	-7.15478
▁such	-7.15514
▁t	-7.15556
▁our	-7.16259
▁through	-7.19519
▁away	-7.19619
▁eyes	-7.20999
▁off	-7.21138
S	-7.22795
▁old	-7.23169
▁too	-7.2336
▁get	-7.23612
▁hand	-7.23966
▁might	-7.24929
▁after	-7.26512
▁)	-7.27091
▁first	-7.27295
▁well	-7.27703
▁am	-7.29161
▁great	-7.29271
▁came	-7.30076
▁What	-7.30323
▁make	-7.3034
m	-7.30344
▁We	-7.30368
▁!	-7.30834
▁face	-7.31179
▁long	-7.31828
▁thought	-7.33241
▁door	-7.34233
ll	-7.34526
▁still	-7.35558
▁where	-7.36022
▁how	-7.36185
▁right	-7.36535
▁head	-7.38141
▁day	-7.39517
▁life	-7.41161
▁its	-7.41198
▁even	-7.43255
▁take	-7.44411
▁There	-7.44437
▁these	-7.44724
▁look	-7.45028
re	-7.45552
▁went	-7.45635
▁may	-7.46253
▁men	-7.46515
ing	-7.47083
▁going	-7.47272
’	-7.4762
▁got	-7.4782
▁last	-7.4784
▁room	-7.48064
▁In	-7.48868
▁shall	-7.5118
▁Mrs	-7.51565
▁without	-7.52341
▁being	-7.53509
a	-7.53848
e	-7.5389
▁nothing	-7.54381
▁tell	-7.54911
▁:	-7.57071
_	-7.57598
▁something	-7.59014
▁THE	-7.59682
▁house	-7.59726
▁those	-7.61135
▁ever	-7.61777
▁want	-7.62058
▁moment	-7.62697
▁That	-7.63495
...	-7.63636
▁looks	-7.63801
▁INT	-7.64524
▁another	-7.6496
▁This	-7.6507
▁young	-7.65279
▁people	-7.65866
▁S	-7.65896
▁thing	-7.65916
▁Then	-7.66646
▁“	-7.67062
▁yet	-7.67226
▁love	-7.67452
▁though	-7.67863
▁place	-7.67982
▁while	-7.69931
▁mind	-7.6999
▁left	-7.70032
▁As	-7.70794
and	-7.70886
▁No	-7.70931
▁[	-7.70999
▁saw	-7.71356
▁most	-7.71811
▁once	-7.72287
▁every	-7.73557
▁night	-7.74476
▁things	-7.7467
▁found	-7.74803
▁woman	-7.75029
▁knew	-7.76031
▁put	-7.76107
▁same	-7.76437
▁father	-7.77112
▁looked	-7.77194
▁under	-7.77208
▁hands	-7.7822
▁give	-7.80506
▁around	-7.80594
▁world	-7.80689
▁against	-7.80885
▁always	-7.8166
▁let	-7.81676
You	-7.81792
▁many	-7.82692
▁side	-7.83064
ve	-7.8321
▁seemed	-7.83436
▁herself	-7.83779
▁******	-7.84239
▁If	-7.84294
▁told	-7.84442
ed	-7.84728
▁re	-7.85603
▁took	-7.85732
▁heart	-7.86172
▁better	-7.86747
▁heard	-7.87244
▁done	-7.878
▁His	-7.87813
▁DAY	-7.89117
▁asked	-7.89483
▁mother	-7.90825
▁three	-7.91434
▁enough	-7.91582
▁find	-7.92242
▁course	-7.93304
▁work	-7.95067
▁home	-7.95302
▁When	-7.95701
▁because	-7.95715
y	-7.96331
n	-7.96709
▁seen	-7.9715
▁quite	-7.98016
▁looking	-7.98128
▁far	-7.98151
▁few	-7.98447
▁light	-7.99403
▁behind	-7.99673
▁between	-7.99981
▁So	-8.01118
▁girl	-8.01835
▁half	-8.01836
▁each	-8.02106
▁myself	-8.0276
▁m	-8.02794
▁new	-8.03371
▁anything	-8.0387
▁voice	-8.04076
▁open	-8.0412
▁felt	-8.04509
▁almost	-8.04638
▁years	-8.04733
)**	-8.058
▁friend	-8.07218
▁end	-8.08514
▁TO	-8.08619
▁name	-8.08869
ly	-8.09246
▁both	-8.09687
▁word	-8.10687
,--	-8.10687
▁sure	-8.1095
▁NIGHT	-8.11562
▁words	-8.11615
▁turned	-8.11866
▁next	-8.12074
▁At	-8.12544
▁having	-8.12789
▁Miss	-8.12858
▁EXT	-8.13258
in	-8.137
▁part	-8.13732
▁mean	-8.14125
▁whole	-8.14807
▁For	-8.1489
It	-8.15015
▁hear	-8.1514
▁)**	-8.15183
A	-8.15411
▁money	-8.18146
▁soon	-8.18319
▁morning	-8.18359
▁whom	-8.18852
▁wife	-8.19097
▁gone	-8.19207
▁matter	-8.19282
▁really	-8.19485
▁water	-8.19887
▁O	-8.20447
▁dear	-8.2047
er	-8.20919
▁God	-8.22075
▁also	-8.22096
▁Oh	-8.23497
▁believe	-8.24139
the	-8.24161
"	-8.24321
The	-8.24477
▁together	-8.24758
▁To	-8.24821
▁set	-8.25228
▁began	-8.25453
▁gave	-8.25573
/	-8.25689
▁stood	-8.25867
▁round	-8.25972
▁small	-8.26348
▁does	-8.26468
r	-8.2663
▁Now	-8.27075
▁How	-8.28343
▁kind	-8.28503
▁days	-8.28851
▁leave	-8.29243
▁air	-8.29449
▁feet	-8.29691
▁didn	-8.29808
▁keep	-8.29814
▁poor	-8.29838
▁called	-8.29892
▁why	-8.29921
▁sir	-8.30238
▁white	-8.30743
▁turns	-8.30939
▁since	-8.31244
What	-8.31794
▁table	-8.32244
▁alone	-8.32687
▁best	-8.33339
▁Lady	-8.33567
▁D	-8.33667
▁help	-8.33686
▁coming	-8.33745
▁brought	-8.34532
And	-8.35351
But	-8.3538
▁My	-8.35425
▁full	-8.35534
▁call	-8.35791
▁rather	-8.3582
▁Sir	-8.35955
▁across	-8.35955
▁window	-8.36604
▁taken	-8.37514
▁**(	-8.37679
▁along	-8.3795
▁toward	-8.38297
▁boy	-8.3832
▁bed	-8.38493
▁need	-8.38565
▁speak	-8.39139
▁till	-8.39523
▁All	-8.3989
▁feel	-8.4042
▁talk	-8.40444
▁de	-8.40533
▁.**	-8.40538
](/	-8.40696
▁until	-8.41156
▁hope	-8.41434
▁front	-8.41723
Oh	-8.41753
▁black	-8.42192
▁dead	-8.42491
▁cried	-8.42546
▁towards	-8.43041
▁sat	-8.43345
▁lady	-8.4357
▁car	-8.43578
Yes	-8.43626
▁comes	-8.43697
o	-8.43733
▁Well	-8.43748
▁child	-8.43989
▁Her	-8.44079
▁nor	-8.45278
▁already	-8.45281
▁Why	-8.45356
▁hard	-8.45653
▁high	-8.4643
▁among	-8.46841
▁won	-8.47
▁perhaps	-8.47023
that	-8.47155
▁indeed	-8.47397
▁answered	-8.47616
▁replied	-8.47667
▁fire	-8.47814
No	-8.4788
▁present	-8.49019
▁understand	-8.49186
▁Lord	-8.4965
▁less	-8.50593
▁body	-8.50923
▁least	-8.5169
▁dark	-8.51848
▁passed	-8.51895
▁others	-8.52404
▁turn	-8.52437
▁above	-8.52556
▁On	-8.52722
▁near	-8.52775
▁cannot	-8.52908
▁letter	-8.5295
▁takes	-8.52981
▁son	-8.52995
▁else	-8.53051
▁ask	-8.53499
D	-8.5371
▁doing	-8.54105
but	-8.54542
▁everything	-8.54599
▁care	-8.54924
▁close	-8.55124
▁arm	-8.55256
▁wish	-8.55262
to	-8.55817
▁ground	-8.55939
▁answer	-8.5613
▁death	-8.56485
▁suddenly	-8.56805
▁whose	-8.56865
▁hour	-8.57651
▁true	-8.57801
▁One	-8.57926
▁question	-8.58087
▁given	-8.58174
▁d	-8.58291
Well	-8.58401
▁large	-8.58456
▁thou	-8.58586
▁country	-8.59177
▁rest	-8.59227
▁case	-8.59295
▁however	-8.59779
▁point	-8.59822
▁goes	-8.59859
O	-8.59861
▁family	-8.59881
▁big	-8.60021
i	-8.60129
▁arms	-8.60262
▁floor	-8.60554
▁With	-8.60721
▁friends	-8.61061
▁brother	-8.61477
▁second	-8.61478
▁children	-8.61481
?'	-8.61566
▁lost	-8.61751
▁ll	-8.61925
▁read	-8.62305
▁live	-8.62342
▁John	-8.62537
He	-8.62572
▁business	-8.62761
▁past	-8.62993
▁sound	-8.63184
▁themselves	-8.63184
▁lay	-8.63391
▁certain	-8.63845
▁making	-8.63928
▁ON	-8.63934
▁short	-8.64257
▁hair	-8.65183
▁Yes	-8.65255
▁fact	-8.65557
▁known	-8.65626
▁women	-8.65656
▁*	-8.65823
▁used	-8.65893
▁husband	-8.66055
▁OF	-8.66444
▁sort	-8.6656
▁evening	-8.66902
▁use	-8.67268
--"	-8.67488
▁o	-8.67545
▁wall	-8.67635
.”	-8.67866
▁power	-8.68014
▁doubt	-8.6817
▁says	-8.68542
▁idea	-8.69576
▁four	-8.69733
▁wanted	-8.69978
▁ready	-8.70107
▁eye	-8.70448
▁fear	-8.70539
▁truth	-8.70777
._	-8.71232
▁hundred	-8.71275
INT	-8.7167
▁within	-8.71702
▁manner	-8.72004
it	-8.7241
▁whether	-8.72474
▁Don	-8.72619
▁person	-8.73762
▁means	-8.74113
▁held	-8.74306
▁hold	-8.74327
▁forward	-8.7487
▁doesn	-8.75033
▁either	-8.75146
▁yourself	-8.75165
▁show	-8.75186
▁sight	-8.75196
▁reason	-8.75215
▁smile	-8.75608
▁become	-8.7566
▁taking	-8.75805
▁happy	-8.7587
▁run	-8.75878
▁itself	-8.76126
▁often	-8.76498
▁Do	-8.76867
▁returned	-8.76898
▁spoke	-8.7765
▁year	-8.77717
▁order	-8.77729
▁times	-8.77788
▁slowly	-8.77921
▁town	-8.77931
▁kept	-8.78074
▁silence	-8.78506
▁five	-8.78562
▁standing	-8.78739
▁bad	-8.78763
▁possible	-8.78887
▁M	-8.78985
▁stand	-8.79117
▁walk	-8.7946
▁suppose	-8.79478
▁feeling	-8.79491
▁steps	-8.8
▁Not	-8.80257
▁walks	-8.80477
▁sent	-8.80492
▁strange	-8.80803
▁pretty	-8.81085
▁blood	-8.81133
▁red	-8.81304
h	-8.81367
▁Let	-8.81409
▁able	-8.81505
▁saying	-8.81554
▁return	-8.81852
▁Of	-8.82362
▁fell	-8.82802
▁sea	-8.82847
▁sense	-8.82898
▁remember	-8.83134
▁fine	-8.8319
▁longer	-8.8326
▁fellow	-8.83492
▁trying	-8.83677
▁street	-8.83679
That	-8.83685
▁CONTINUED	-8.83757
▁happened	-8.83945
▁ten	-8.84322
▁sitting	-8.84818
▁sister	-8.84835
▁daughter	-8.84984
▁bring	-8.85226
es	-8.85534
,”	-8.85569
▁thinking	-8.85629
▁chair	-8.86176
▁After	-8.86259
▁beautiful	-8.8654
l	-8.86893
▁mine	-8.87022
▁thy	-8.87068
▁getting	-8.87334
▁followed	-8.87587
▁mouth	-8.87766
▁wrong	-8.8813
▁became	-8.88307
▁V	-8.88443
▁thee	-8.88957
▁low	-8.89331
▁AND	-8.89477
▁CONT	-8.89503
▁thus	-8.89606
▁deep	-8.89646
▁gentleman	-8.89711
▁thousand	-8.89754
you	-8.8987
▁ve	-8.89937
▁nature	-8.90289
▁talking	-8.90803
▁story	-8.90961
▁soul	-8.91035
▁cold	-8.91542
▁stands	-8.91576
▁strong	-8.91747
▁seems	-8.91948
▁meet	-8.9205
▁late	-8.92599
▁Tom	-8.92668
▁road	-8.92749
▁earth	-8.93182
▁real	-8.93394
▁clear	-8.93407
▁pulls	-8.93604
▁living	-8.93841
▁sits	-8.94187
▁appeared	-8.94519
as	-8.9499
▁ought	-8.95096
▁line	-8.95268
▁different	-8.954
▁makes	-8.95555
▁try	-8.95745
E	-8.95772
▁human	-8.95886
▁afraid	-8.95971
▁hours	-8.96035
he	-8.96123
▁gets	-8.96366
▁watch	-8.9649
We	-8.96743
▁several	-8.96865
▁free	-8.96951
▁ROOM	-8.96954
▁inside	-8.96996
▁met	-8.97124
▁continued	-8.97425
▁/	-8.97575
▁waiting	-8.97594
▁sun	-8.97641
▁move	-8.9795
▁rose	-8.98097
▁position	-8.98152
▁tried	-8.98208
Why	-8.98316
▁play	-8.98428
▁sorry	-8.98542
▁stop	-8.98977
▁cut	-8.99298
▁chance	-8.99463
▁starts	-8.995
▁beat	-8.99539
▁sit	-8.99554
▁master	-8.99658
▁subject	-8.99833
▁Who	-8.99904
▁Here	-9.00624
▁lips	-9.00639
▁stay	-9.00703
!'	-9.00895
▁minutes	-9.01229
▁opened	-9.01291
▁quickly	-9.01338
▁twenty	-9.01852
▁change	-9.01865
▁beyond	-9.01986
▁therefore	-9.02363
▁Where	-9.02439
▁trouble	-9.02492
▁corner	-9.02635
▁Yeah	-9.02654
▁sees	-9.02796
▁horse	-9.02815
▁seem	-9.03228
▁CUT	-9.03353
▁glass	-9.03454
▁doctor	-9.03567
▁outside	-9.03594
▁Just	-9.03742
▁state	-9.03762
▁tears	-9.04017
▁foot	-9.04195
▁form	-9.0425
▁phone	-9.04362
▁glad	-9.04586
▁book	-9.04637
▁walked	-9.04663
▁top	-9.05142
▁IN	-9.0553
▁please	-9.05564
▁view	-9.05702
▁Captain	-9.05896
▁isn	-9.05967
▁added	-9.06142
▁sleep	-9.06503
▁C	-9.06771
▁paper	-9.07082
▁further	-9.07315
▁Jack	-9.07785
▁during	-9.08157
▁wind	-9.08173
If	-9.0856
▁bit	-9.08581
▁Mary	-9.09048
▁knows	-9.09142
▁seeing	-9.09159
▁London	-9.09198
▁ran	-9.0924
▁land	-9.09405
▁lot	-9.09427
▁interest	-9.09674
▁self	-9.0976
▁office	-9.10013
▁ship	-9.10271
▁deal	-9.10346
▁dinner	-9.10368
▁CHAPTER	-9.10445
]	-9.10504
▁pass	-9.10527
▁distance	-9.1074
▁ago	-9.10814
▁none	-9.10906
▁certainly	-9.11362
▁hardly	-9.11635
▁beside	-9.11799
▁King	-9.11954
▁wait	-9.12126
▁gun	-9.12147
▁pay	-9.12652
▁reached	-9.12728
▁six	-9.12786
▁quiet	-9.12805
▁ill	-9.13014
▁fall	-9.13281
▁figure	-9.13477
▁company	-9.13551
for	-9.13674
;--	-9.13675
▁Come	-9.13834
▁party	-9.13982
▁received	-9.14163
▁B	-9.1426
▁From	-9.14295
▁silent	-9.14417
▁sometimes	-9.14428
▁wouldn	-9.14691
▁married	-9.14927
or	-9.14939
▁entered	-9.1514
▁gonna	-9.15633
▁shot	-9.1598
▁shoulder	-9.1602
▁die	-9.1614
▁later	-9.16209
▁attention	-9.16307
▁moves	-9.16356
▁stopped	-9.16667
▁neither	-9.1693
▁pleasure	-9.17098
▁forth	-9.17441
There	-9.17466
ness	-9.17656
▁running	-9.1774
▁loved	-9.17745
▁blue	-9.18093
▁immediately	-9.18429
▁seat	-9.18439
▁step	-9.18501
▁easy	-9.18522
▁caught	-9.18594
▁T	-9.18649
▁opens	-9.18716
▁heavy	-9.18814
EXT	-9.18828
▁holding	-9.191
room	-9.19135
▁carried	-9.1947
▁start	-9.19661
▁week	-9.19661
▁led	-9.19752
▁Dr	-9.19832
T	-9.19958
My	-9.20042
▁watching	-9.20458
Y	-9.20543
▁school	-9.20907
▁bear	-9.21064
▁fair	-9.21155
▁An	-9.21224
is	-9.21307
▁By	-9.21586
▁broken	-9.21707
▁English	-9.21766
c	-9.2184
▁account	-9.21856
▁tone	-9.21954
▁city	-9.2199
▁breath	-9.22742
▁number	-9.22896
▁below	-9.2301
▁except	-9.2326
▁follow	-9.23266
▁thoughts	-9.2331
She	-9.23314
▁smiles	-9.23492
▁conversation	-9.23692
▁wild	-9.23865
▁cause	-9.23872
▁un	-9.24088
em	-9.24267
▁straight	-9.24327
▁wonder	-9.24375
▁early	-9.24559
▁necessary	-9.24744
▁lived	-9.24874
▁age	-9.24968
▁Your	-9.25041
▁girls	-9.25182
▁ye	-9.25217
▁couldn	-9.25295
▁secret	-9.25431
▁remained	-9.25502
▁character	-9.25572
▁spirit	-9.25862
▁moved	-9.2626
▁save	-9.26313
▁laugh	-9.26425
▁crowd	-9.26942
C	-9.27103
▁general	-9.27206
▁minute	-9.27318
▁yes	-9.27543
ING	-9.27616
u	-9.27827
▁leaving	-9.2788
▁P	-9.27981
▁turning	-9.28735
▁marriage	-9.28812
▁trees	-9.29001
▁fast	-9.29004
How	-9.29108
▁stops	-9.29342
▁boat	-9.29458
▁purpose	-9.29606
▁probably	-9.29631
▁length	-9.29698
▁sweet	-9.29832
▁laid	-9.29835
▁presence	-9.30057
▁walking	-9.30091
▁following	-9.30137
▁neck	-9.30242
▁George	-9.30442
▁war	-9.30788
▁sign	-9.31655
man	-9.31798
▁started	-9.31819
_,	-9.31881
▁green	-9.31882
if	-9.32114
▁drink	-9.32369
▁sudden	-9.32434
▁drew	-9.32461
▁heads	-9.32725
▁months	-9.3274
▁future	-9.32776
▁meant	-9.32874
▁send	-9.3327
▁St	-9.33362
▁force	-9.33409
▁nearly	-9.33431
▁duty	-9.33456
▁fight	-9.3346
▁speaking	-9.33686
▁piece	-9.33839
▁dog	-9.33945
▁write	-9.3413
▁gold	-9.34261
▁struck	-9.34316
▁expression	-9.34506
▁opinion	-9.34735
▁scene	-9.34784
▁pocket	-9.34802
day	-9.34888
▁hall	-9.34923
▁filled	-9.35139
▁public	-9.35584
▁darkness	-9.35673
▁closed	-9.35695
▁desire	-9.35764
R	-9.35909
▁whatever	-9.35949
▁kill	-9.36238
▁king	-9.36274
▁natural	-9.36375
▁impossible	-9.36446
th	-9.36511
▁hat	-9.36512
▁HOUSE	-9.36581
▁moving	-9.36717
▁These	-9.3702
▁strength	-9.37531
▁effect	-9.37566
▁empty	-9.37857
▁Good	-9.38017
▁laughed	-9.38028
▁Will	-9.38066
an	-9.38185
▁England	-9.38462
▁exclaimed	-9.38471
▁SHOT	-9.38913
▁giving	-9.39017
▁dress	-9.39038
▁direction	-9.39146
▁beginning	-9.39207
▁break	-9.39281
▁occasion	-9.39306
▁act	-9.39311
▁knowledge	-9.39353
▁church	-9.39371
CONT	-9.39827
▁art	-9.3996
▁clothes	-9.40006
V	-9.40201
▁begin	-9.4021
▁middle	-9.40246
▁cry	-9.40496
▁common	-9.40599
▁garden	-9.40703
▁service	-9.40754
en	-9.40791
▁wasn	-9.41212
▁pain	-9.41224
▁eat	-9.41339
g	-9.41387
▁sky	-9.4146
▁music	-9.41624
▁usual	-9.41656
▁law	-9.41741
▁box	-9.41999
Do	-9.42076
▁onto	-9.42125
▁wide	-9.42138
▁marry	-9.42255
▁puts	-9.42258
▁Some	-9.42452
▁nice	-9.4252
▁bright	-9.42579
▁beauty	-9.42703
▁beneath	-9.42826
▁runs	-9.42946
B	-9.43054
▁Are	-9.43096
▁hot	-9.43172
▁gives	-9.4319
▁begins	-9.43199
▁terrible	-9.43417
▁single	-9.43539
▁note	-9.43873
▁fingers	-9.43997
▁Can	-9.44137
▁Hey	-9.44426
▁shut	-9.44531
▁stares	-9.44543
▁news	-9.44593
▁object	-9.44706
▁afternoon	-9.44716
▁lord	-9.44788
▁tree	-9.44964
▁died	-9.45217
▁2	-9.45258
▁joy	-9.45491
on	-9.45593
▁instant	-9.45823
▁visit	-9.45981
▁wished	-9.46055
▁river	-9.46109
▁stone	-9.46149
alphabetical	-9.46274
▁captain	-9.46491
▁circumstances	-9.46584
▁desk	-9.466
▁Harry	-9.46612
▁uncle	-9.46787
▁carry	-9.46938
▁grabs	-9.47108
▁creature	-9.47224
▁honour	-9.47234
▁touch	-9.47285
▁expected	-9.47576
▁escape	-9.47596
▁space	-9.47598
▁worse	-9.47683
▁holds	-9.47748
▁reach	-9.47761
▁kitchen	-9.4777
▁ladies	-9.4786
▁grew	-9.48067
▁L	-9.48083
▁picture	-9.48266
▁learned	-9.48436
▁Joe	-9.48443
▁raised	-9.48546
▁stairs	-9.48596
▁written	-9.4874
▁watches	-9.48967
▁lying	-9.49064
▁fortune	-9.49168
▁perfect	-9.49183
▁Look	-9.49623
Then	-9.50068
▁soft	-9.50075
▁showed	-9.50081
▁forget	-9.50146
▁lie	-9.50187
N	-9.50234
▁food	-9.50265
▁guy	-9.50291
▁covered	-9.50352
▁angry	-9.50355
▁boys	-9.50362
▁quick	-9.5043
▁exactly	-9.50512
▁worth	-9.50515
▁legs	-9.50544
▁guess	-9.50567
▁youth	-9.50572
▁broke	-9.50699
▁1	-9.5081
▁instead	-9.50922
▁edge	-9.50979
▁surprise	-9.51014
▁working	-9.51144
▁couple	-9.51475
▁sake	-9.51549
▁New	-9.51676
▁miles	-9.51709
▁leaves	-9.51794
▁building	-9.51865
▁walls	-9.51912
▁David	-9.51922
▁Man	-9.51988
?”	-9.52099
▁Yet	-9.52275
ED	-9.52341
▁appearance	-9.52384
▁spoken	-9.52482
▁safe	-9.52678
▁books	-9.52716
▁promise	-9.5279
▁trust	-9.52822
▁changed	-9.53215
not	-9.53264
ers	-9.533
▁nods	-9.53341
▁ain	-9.536
▁simply	-9.53854
▁rich	-9.53883
▁Did	-9.53897
▁understood	-9.53975
▁reaches	-9.54081
_.	-9.54134
▁ears	-9.54298
▁danger	-9.54318
Ah	-9.54474
▁placed	-9.54663
▁dressed	-9.55283
▁Two	-9.55305
They	-9.55569
▁aunt	-9.55647
▁shoulders	-9.55739
▁notice	-9.5576
▁serious	-9.55787
▁Madame	-9.55823
▁game	-9.55886
▁hath	-9.55998
▁baby	-9.56132
▁finally	-9.56146
▁happiness	-9.56338
▁train	-9.56529
▁plain	-9.56626
morrow	-9.5674
at	-9.56892
!--	-9.56904
▁pale	-9.57029
▁ear	-9.57037
▁surprised	-9.5708
▁French	-9.57437
▁reading	-9.57472
▁supposed	-9.57629
▁rock	-9.57679
▁shook	-9.57718
▁spot	-9.5787
▁allowed	-9.5794
▁hurt	-9.58705
▁peace	-9.58848
▁pleased	-9.58894
▁enters	-9.58911
▁glance	-9.58972
▁easily	-9.59162
▁Go	-9.59634
▁E	-9.5973
▁huge	-9.59811
▁G	-9.59818
▁places	-9.59862
▁lights	-9.59953
▁Even	-9.60104
▁knowing	-9.60132
▁Or	-9.60177
▁haven	-9.60185
▁drawing	-9.60193
▁remain	-9.60238
clock	-9.60263
▁killed	-9.60269
▁quietly	-9.6055
▁reply	-9.60555
▁observed	-9.60721
▁particular	-9.60738
▁tea	-9.60863
▁doors	-9.60917
▁MAN	-9.60942
▁nose	-9.61116
▁telling	-9.61185
▁third	-9.61221
no	-9.61272
P	-9.61428
▁Martin	-9.61428
▁journey	-9.61485
),	-9.6155
▁dream	-9.61569
.]	-9.61687
▁evil	-9.61811
p	-9.62021
▁bound	-9.62073
▁arrived	-9.62098
▁bag	-9.62189
▁gate	-9.62255
▁liked	-9.62267
▁wants	-9.62325
▁enter	-9.6234
▁expect	-9.62389
▁simple	-9.62426
▁paid	-9.62562
▁situation	-9.62576
▁listen	-9.62631
al	-9.62668
▁wood	-9.62774
▁fresh	-9.62907
▁Suddenly	-9.62963
▁private	-9.62975
▁ahead	-9.62978
▁hell	-9.63001
▁lives	-9.63128
▁talked	-9.63216
▁altogether	-9.63289
like	-9.63353
▁Peter	-9.63403
▁Frank	-9.6348
▁tries	-9.63518
▁rate	-9.63752
Not	-9.6377
▁smiled	-9.63898
▁flowers	-9.64052
▁Sam	-9.64142
▁servant	-9.64204
of	-9.64318
▁smiling	-9.64359
▁respect	-9.64477
▁bottom	-9.64535
▁sword	-9.64635
▁repeated	-9.64734
▁speech	-9.64792
▁appear	-9.64956
▁pleasant	-9.64962
▁lead	-9.65006
▁Dorothy	-9.65037
▁staring	-9.65223
▁aware	-9.65329
▁coat	-9.65381
▁laughing	-9.65427
▁cousin	-9.65497
▁Paris	-9.65711
▁cast	-9.65713
▁fixed	-9.65959
▁blow	-9.6596
▁offer	-9.66174
she	-9.66218
▁meeting	-9.66229
est	-9.66478
▁believed	-9.66586
▁somewhat	-9.66635
▁although	-9.66675
▁letters	-9.67128
▁Nothing	-9.67133
▁horses	-9.67146
▁threw	-9.67249
ueen	-9.67291
▁happen	-9.67372
▁important	-9.67437
▁condition	-9.67601
▁l	-9.67633
▁board	-9.67838
▁perfectly	-9.67921
▁ANGLE	-9.68041
▁cross	-9.68203
G	-9.68249
w	-9.68254
▁smoke	-9.68429
▁passion	-9.68494
▁declared	-9.68514
▁VOICE	-9.68517
▁lose	-9.68562
▁alive	-9.68698
▁faces	-9.68753
▁village	-9.68797
▁points	-9.68829
▁wine	-9.68925
▁action	-9.68974
▁entirely	-9.69209
▁unless	-9.6935
▁experience	-9.6936
▁knees	-9.69521
▁passing	-9.69542
▁learn	-9.69644
▁playing	-9.69651
▁path	-9.69682
▁CLOSE	-9.70095
▁proper	-9.70131
▁pause	-9.70139
▁dropped	-9.70154
▁watched	-9.70278
▁spite	-9.70479
▁fool	-9.70605
▁stranger	-9.70814
▁heaven	-9.70829
▁Okay	-9.70878
▁J	-9.70896
▁anxious	-9.71028
▁drive	-9.71059
▁seven	-9.71063
.)**	-9.71176
▁warm	-9.71195
▁fit	-9.71212
▁hit	-9.71229
▁opportunity	-9.71267
▁aside	-9.71299
▁society	-9.71316
▁determined	-9.71343
▁Get	-9.71406
M	-9.71508
▁bar	-9.71563
L	-9.71602
so	-9.71632
▁windows	-9.71838
▁afterwards	-9.71887
▁group	-9.71907
▁fallen	-9.71923
▁putting	-9.7197
▁lies	-9.71972
▁drawn	-9.72002
▁memory	-9.72189
Now	-9.72244
▁K	-9.72287
▁opening	-9.72482
▁appears	-9.7252
▁grave	-9.72562
▁teeth	-9.72583
▁thick	-9.7269
genre	-9.72739
▁court	-9.72768
▁someone	-9.72864
▁greater	-9.73019
▁waited	-9.7322
K	-9.734
▁carefully	-9.73443
▁gentlemen	-9.73497
▁charge	-9.73529
▁born	-9.73532
▁dare	-9.73648
▁writing	-9.73741
▁noise	-9.73805
▁merely	-9.7385
by	-9.73958
▁sharp	-9.73966
▁history	-9.7403
what	-9.74064
▁opposite	-9.74107
▁difficulty	-9.74117
▁breakfast	-9.74477
▁regard	-9.74772
▁wonderful	-9.74797
This	-9.74872
▁kiss	-9.7489
▁field	-9.74949
▁nobody	-9.75281
we	-9.7534
f	-9.75444
▁Prince	-9.75532
▁likely	-9.75536
▁companion	-9.75618
▁tired	-9.75647
▁tall	-9.7567
▁questions	-9.75681
▁hate	-9.75963
▁Duke	-9.76046
▁stage	-9.76049
▁latter	-9.76064
▁carrying	-9.76074
▁la	-9.76111
▁former	-9.76135
▁suit	-9.76174
▁House	-9.76187
▁screen	-9.76219
▁sad	-9.76301
▁personal	-9.76313
▁finished	-9.76474
▁comfort	-9.76555
▁guys	-9.76595
▁pair	-9.76601
▁wrote	-9.7668
▁thank	-9.76755
▁difficult	-9.76759
▁Their	-9.76781
▁LATER	-9.76825
To	-9.77597
CUT	-9.77601
▁rising	-9.77658
▁fifty	-9.77788
▁roof	-9.77832
▁discovered	-9.77842
▁sick	-9.77889
▁Only	-9.7801
▁mere	-9.7811
▁falls	-9.78147
▁actually	-9.7829
▁thrown	-9.78411
In	-9.78423
▁job	-9.78694
▁pride	-9.78699
▁plan	-9.78724
▁obliged	-9.78743
▁picks	-9.78771
▁summer	-9.78865
▁allow	-9.78866
▁eight	-9.78921
▁spent	-9.78951
▁honest	-9.78994
▁proud	-9.79023
▁effort	-9.79044
Don	-9.79178
▁battle	-9.79197
▁F	-9.79283
▁settled	-9.79393
▁catch	-9.79411
▁attempt	-9.79477
▁R	-9.79516
▁feelings	-9.79526
▁carriage	-9.79571
▁shadow	-9.79612
▁noble	-9.79794
▁hung	-9.79869
▁shit	-9.79941
▁promised	-9.79954
▁loud	-9.79994
▁BACK	-9.80061
▁thirty	-9.80076
▁finger	-9.8008
▁various	-9.80108
▁considered	-9.80131
▁scarcely	-9.80159
▁courage	-9.80396
▁American	-9.8052
night	-9.80528
▁Jesus	-9.80549
▁Charles	-9.80556
▁Doctor	-9.80696
▁calm	-9.80717
▁matters	-9.8083
▁Street	-9.80924
▁weeks	-9.80929
▁guard	-9.80982
▁Ah	-9.81092
▁narrow	-9.81101
▁seated	-9.81127
!”	-9.81191
▁offered	-9.81278
▁especially	-9.81285
▁mad	-9.81295
▁remembered	-9.81317
CONTINUED	-9.81352
▁police	-9.8148
▁okay	-9.81604
▁throat	-9.81645
▁month	-9.81915
▁CAMERA	-9.82023
▁asleep	-9.82069
▁hill	-9.82172
▁tongue	-9.82178
▁surface	-9.82215
us	-9.82435
am	-9.82478
▁control	-9.82604
▁drop	-9.82641
▁snow	-9.82647
▁race	-9.82708
▁throw	-9.82714
▁ball	-9.82716
▁burst	-9.82746
▁touched	-9.82782
▁pounds	-9.82878
So	-9.83031
▁pity	-9.8305
▁faith	-9.83054
▁rain	-9.83065
▁gently	-9.83093
▁apartment	-9.83197
▁Master	-9.8334
H	-9.83364
▁pull	-9.83373
▁wearing	-9.83453
▁Ralph	-9.83462
▁ring	-9.83553
▁forgotten	-9.83583
▁anybody	-9.8374
▁terror	-9.83863
▁bank	-9.84082
▁forest	-9.84222
▁Our	-9.84229
▁station	-9.84232
▁Ben	-9.84252
▁shop	-9.84334
▁CONTINUOUS	-9.84367
▁calling	-9.84739
▁moon	-9.84768
▁whispered	-9.84806
▁explain	-9.84883
▁mistress	-9.85006
▁slow	-9.8503
▁drops	-9.85105
▁follows	-9.85149
▁prepared	-9.85191
▁rise	-9.85242
▁judge	-9.85245
▁presently	-9.85353
▁everybody	-9.85383
▁breast	-9.85846
▁spring	-9.85874
▁Perhaps	-9.85937
▁lines	-9.86003
▁Was	-9.8603
▁Anne	-9.86052
▁coffee	-9.86117
▁iron	-9.86156
▁Have	-9.86357
▁thin	-9.86517
▁continues	-9.86706
b	-9.86711
▁silver	-9.86766
▁fancy	-9.86826
▁passage	-9.86897
▁brain	-9.87018
▁closer	-9.87027
▁difference	-9.87062
▁While	-9.87098
▁stuff	-9.87118
▁decided	-9.87432
▁entrance	-9.8757
▁chest	-9.87588
▁enemy	-9.87606
▁Like	-9.8762
▁resolved	-9.8768
▁property	-9.87718
▁success	-9.87734
▁yellow	-9.88102
▁completely	-9.88306
▁Maybe	-9.88307
▁bottle	-9.88363
▁Before	-9.8841
▁fly	-9.88561
▁key	-9.88764
▁chamber	-9.88777
▁knife	-9.88813
▁keeping	-9.88851
F	-9.88878
▁result	-9.88916
▁confidence	-9.88997
▁3	-9.89021
▁ways	-9.8912
▁conduct	-9.89206
▁shore	-9.8921
▁anyone	-9.89281
▁special	-9.89334
▁unto	-9.89376
▁CAR	-9.89537
▁listening	-9.89558
▁Father	-9.8966
▁affair	-9.89791
▁clean	-9.8986
▁pulled	-9.89915
▁language	-9.90023
▁class	-9.90054
▁command	-9.9009
▁yours	-9.90267
▁share	-9.90344
▁anger	-9.90383
▁meaning	-9.90423
house	-9.90646
▁lower	-9.90697
▁ancient	-9.90845
up	-9.9119
all	-9.91339
▁distant	-9.9143
▁Emily	-9.91471
▁forced	-9.91532
▁ourselves	-9.91617
▁engaged	-9.91674
▁hearing	-9.91773
▁intended	-9.91905
")	-9.9203
▁spread	-9.92136
which	-9.92196
▁Lucy	-9.92214
?--	-9.92306
▁gentle	-9.92332
▁directly	-9.92434
k	-9.92596
▁fault	-9.92753
▁listened	-9.928
▁complete	-9.92929
ER	-9.92929
▁grass	-9.92953
▁vain	-9.92955
le	-9.93017
▁dance	-9.93167
▁maybe	-9.93196
▁chief	-9.93242
▁orders	-9.93443
de	-9.93553
▁Had	-9.93693
▁sounds	-9.93855
▁papers	-9.93937
▁broad	-9.94011
▁glances	-9.94015
▁asking	-9.94016
▁dry	-9.94223
▁TV	-9.94356
▁shakes	-9.94395
▁busy	-9.94413
▁See	-9.94535
▁horror	-9.94545
▁Henry	-9.94614
▁camera	-9.94625
▁study	-9.94668
▁surely	-9.94851
▁twice	-9.94892
▁slight	-9.94995
▁receive	-9.95019
▁bedroom	-9.95047
▁growing	-9.95105
▁falling	-9.95191
Of	-9.95215
▁finding	-9.95238
▁Paul	-9.95335
▁Bill	-9.9536
Come	-9.95401
▁fucking	-9.9569
▁Tell	-9.95757
▁deck	-9.95803
men	-9.95817
▁bent	-9.95933
▁Dick	-9.95984
▁fate	-9.96034
▁moments	-9.96135
▁Such	-9.96136
▁lover	-9.96195
▁clearly	-9.96221
▁taste	-9.96263
▁weight	-9.96309
▁worked	-9.96585
▁explained	-9.9664
▁faint	-9.96684
▁thinks	-9.96763
▁wise	-9.96864
▁handsome	-9.96889
▁Jones	-9.96957
▁influence	-9.96969
▁consider	-9.97049
▁hole	-9.97073
Let	-9.97128
▁devil	-9.9734
▁weak	-9.97362
▁imagine	-9.97421
▁post	-9.97526
▁ride	-9.9758
▁curious	-9.9774
▁advice	-9.97758
▁**********	-9.97833
▁buy	-9.97921
▁due	-9.97976
▁familiar	-9.98025
▁frightened	-9.98304
▁false	-9.98348
▁softly	-9.98367
▁brown	-9.98521
▁Laura	-9.98657
▁quarter	-9.98763
▁pieces	-9.98822
▁officer	-9.98841
▁dust	-9.98849
▁greatest	-9.98909
▁island	-9.98959
▁movement	-9.99193
▁noticed	-9.99208
▁servants	-9.99292
with	-9.99519
▁cover	-9.9963
▁satisfied	-9.99736
▁hanging	-9.99819
▁Old	-9.99986
▁affairs	-10.0006
▁delight	-10.0011
▁somewhere	-10.0018
▁shirt	-10.0042
▁4	-10.0055
▁Thus	-10.0056
▁failed	-10.0057
▁Colonel	-10.0066
▁mountain	-10.0087
▁persons	-10.009
▁slightly	-10.0093
▁twelve	-10.0094
▁UP	-10.0097
▁attack	-10.0101
▁speed	-10.0115
▁skin	-10.0116
▁streets	-10.0136
▁Every	-10.0137
▁draw	-10.0141
my	-10.0145
▁paused	-10.0159
▁affection	-10.0161
▁loss	-10.0177
▁fashion	-10.0198
▁However	-10.0202
▁social	-10.0228
▁mirror	-10.023
▁according	-10.0231
▁justice	-10.0231
▁spirits	-10.0236
do	-10.0255
▁soldiers	-10.027
▁search	-10.0282
▁ideas	-10.0287
▁countenance	-10.0299
▁formed	-10.0299
▁advantage	-10.0311
▁somebody	-10.0321
▁health	-10.0334
▁Alice	-10.0345
▁interested	-10.0345
▁absolutely	-10.035
▁mistake	-10.035
▁lovely	-10.0351
▁dozen	-10.0353
▁main	-10.0364
▁stick	-10.0367
▁concerned	-10.0368
▁equal	-10.0378
▁Mark	-10.0384
▁vast	-10.0384
▁wore	-10.039
▁satisfaction	-10.0401
▁OFFICE	-10.0413
▁pointed	-10.0415
▁Monsieur	-10.0415
▁grown	-10.0425
▁message	-10.0427
▁le	-10.0429
▁grow	-10.0432
▁POV	-10.0435
▁Thank	-10.044
▁flesh	-10.0442
▁cool	-10.0443
▁existence	-10.0444
▁stream	-10.0444
▁degree	-10.0449
▁Still	-10.0465
▁occurred	-10.0477
▁Polly	-10.0492
▁sooner	-10.0501
▁crying	-10.0512
▁Anna	-10.0514
▁APARTMENT	-10.0515
▁STREET	-10.0515
▁instantly	-10.0518
▁worst	-10.0523
▁yesterday	-10.0525
▁doorway	-10.053
▁entire	-10.0534
▁leading	-10.0541
▁pick	-10.0557
▁evidence	-10.0557
▁everyone	-10.0567
st	-10.0575
▁song	-10.0575
able	-10.0585
▁prove	-10.0592
▁suggested	-10.0615
▁otherwise	-10.0623
▁waves	-10.0627
▁machine	-10.0629
▁generally	-10.0638
▁throws	-10.0646
▁truly	-10.0646
▁Be	-10.0668
▁N	-10.0671
▁played	-10.0675
▁pray	-10.068
▁dangerous	-10.0681
▁nearer	-10.0683
▁bread	-10.0684
▁Great	-10.0687
▁shame	-10.0688
▁Another	-10.07
....	-10.0703
▁forehead	-10.0708
▁remarked	-10.0711
▁bare	-10.0718
▁possession	-10.0725
there	-10.0726
▁5	-10.0746
▁besides	-10.0746
▁ordinary	-10.0748
▁expressed	-10.0751
▁OUT	-10.0753
▁saved	-10.0762
▁double	-10.0763
▁animal	-10.0764
▁Christian	-10.0766
▁shown	-10.0769
▁welcome	-10.0785
▁tender	-10.0786
▁weather	-10.079
▁mentioned	-10.0803
▁wear	-10.0822
▁tiny	-10.0822
▁Because	-10.0844
▁cruel	-10.0845
▁passes	-10.0848
THE	-10.0852
▁White	-10.0855
▁hidden	-10.0866
▁higher	-10.0867
Good	-10.0869
▁Would	-10.087
▁period	-10.0884
▁leg	-10.0887
▁hotel	-10.0888
▁Uncle	-10.0889
▁fuck	-10.089
▁mention	-10.0902
▁lifted	-10.0906
▁shaking	-10.0916
▁frame	-10.0925
▁houses	-10.0927
▁conscious	-10.0935
▁approach	-10.0947
▁desired	-10.096
▁problem	-10.0963
less	-10.0966
▁Maggie	-10.0967
▁sorrow	-10.0969
▁information	-10.0987
▁William	-10.0989
▁Billy	-10.0993
Who	-10.0994
▁cup	-10.1007
▁pressed	-10.101
▁events	-10.1019
▁kid	-10.1024
▁army	-10.1034
▁acquaintance	-10.1043
▁grand	-10.1045
▁hoped	-10.1046
▁York	-10.1052
▁begun	-10.1058
▁shape	-10.1059
▁worthy	-10.1064
▁bridge	-10.1067
▁nine	-10.1071
▁possibly	-10.1073
▁fond	-10.1075
▁nervous	-10.1081
▁works	-10.1082
▁bore	-10.1083
▁greatly	-10.1084
▁relief	-10.1085
▁needed	-10.109
▁Church	-10.109
▁beg	-10.1098
▁crossed	-10.1099
▁accept	-10.1115
▁SCENE	-10.1121
▁produced	-10.1133
▁forty	-10.1135
▁Script	-10.1137
▁blind	-10.1141
▁storm	-10.1142
▁Sunday	-10.1142
▁France	-10.1146
▁winter	-10.1155
▁ease	-10.117
://	-10.1171
▁ordered	-10.1184
▁harm	-10.1186
▁support	-10.1192
▁bird	-10.1198
▁perceived	-10.1216
Mr	-10.122
▁despair	-10.1233
▁cries	-10.1233
▁Adam	-10.125
▁truck	-10.1253
▁sides	-10.1253
▁flat	-10.1265
tis	-10.1268
▁Chapter	-10.127
▁terms	-10.127
▁pure	-10.1282
▁kids	-10.1285
▁dying	-10.1288
▁Take	-10.1295
▁Please	-10.1299
▁gaze	-10.1301
▁unhappy	-10.1302
▁laughter	-10.1304
▁ha	-10.1312
▁grief	-10.1315
▁unable	-10.1317
▁store	-10.1321
one	-10.1322
▁caused	-10.1323
▁Christ	-10.1324
▁rooms	-10.133
looking	-10.1334
el	-10.1338
▁impression	-10.1341
▁loose	-10.135
▁join	-10.1352
▁Thomas	-10.1355
▁shouldn	-10.1363
▁motion	-10.1375
All	-10.138
▁apart	-10.1392
▁rough	-10.1397
▁MRS	-10.1402
▁leans	-10.1408
▁possessed	-10.1425
▁parts	-10.1425
▁May	-10.1427
▁excitement	-10.1433
▁castle	-10.1435
▁burning	-10.1435
▁gotta	-10.1439
▁golden	-10.1448
▁sand	-10.1452
▁Once	-10.1458
▁final	-10.1461
▁friendship	-10.1475
▁visible	-10.1479
▁kissed	-10.148
▁level	-10.1483
▁dreadful	-10.1487
▁n	-10.1493
▁suffered	-10.1498
▁pardon	-10.1499
▁page	-10.1503
▁Nor	-10.1517
▁hits	-10.1526
▁excellent	-10.1527
▁taught	-10.153
▁seek	-10.1533
▁bow	-10.1536
▁circle	-10.1538
▁names	-10.1539
▁today	-10.1545
▁H	-10.155
▁showing	-10.1555
▁check	-10.1557
▁gathered	-10.1557
▁favour	-10.1561
▁square	-10.1565
▁ma	-10.1578
▁hide	-10.1591
▁Jim	-10.1607
▁seized	-10.1609
▁fish	-10.1615
▁corridor	-10.1621
▁continue	-10.1629
▁willing	-10.1631
▁flying	-10.1633
▁supper	-10.1639
▁value	-10.164
▁evidently	-10.1645
▁camp	-10.1651
▁rage	-10.1662
▁birds	-10.1667
▁et	-10.1667
▁speaks	-10.167
▁unknown	-10.167
▁driven	-10.167
Is	-10.1672
▁HIS	-10.1682
▁shadows	-10.1682
▁calls	-10.1685
▁wound	-10.1685
they	-10.1691
▁maid	-10.1692
▁regarded	-10.1697
▁ceased	-10.1701
▁Thou	-10.1714
U	-10.1723
▁comfortable	-10.173
▁metal	-10.1731
▁cheek	-10.1734
▁forgive	-10.1742
▁Jane	-10.1745
▁keeps	-10.1747
▁Never	-10.1748
▁awful	-10.1749
▁JACK	-10.175
▁wondered	-10.175
▁hurry	-10.1763
v	-10.1763
▁choice	-10.1768
▁brave	-10.1771
▁rocks	-10.1812
▁built	-10.1815
▁serve	-10.1825
▁fighting	-10.1828
▁farther	-10.1834
▁parents	-10.1842
▁ashamed	-10.1845
▁shake	-10.1847
▁lawyer	-10.1847
W	-10.1848
▁system	-10.1856
▁fully	-10.1865
ie	-10.1865
▁interesting	-10.1866
▁gray	-10.1867
▁dull	-10.1871
▁shock	-10.1872
▁[_	-10.1873
▁count	-10.188
----	-10.1888
▁mighty	-10.1891
▁stare	-10.1895
▁10	-10.1902
▁proved	-10.1906
▁agreed	-10.1908
▁Heaven	-10.1912
▁anxiety	-10.1916
▁Little	-10.1916
me	-10.1938
▁temper	-10.1941
▁finds	-10.1956
▁flight	-10.1974
▁miserable	-10.1975
▁innocent	-10.198
▁apparently	-10.1981
▁younger	-10.1995
▁cat	-10.2001
▁sufficient	-10.201
▁hadn	-10.201
▁heat	-10.2014
▁disappeared	-10.2019
▁deeply	-10.2022
▁match	-10.2022
▁James	-10.2022
▁extraordinary	-10.204
▁sought	-10.2045
▁approaches	-10.2053
law	-10.2058
▁ended	-10.206
▁grey	-10.2068
▁friendly	-10.2069
▁education	-10.2079
Your	-10.2083
▁lad	-10.2083
▁prison	-10.2092
▁excited	-10.2093
▁shoes	-10.2093
▁excuse	-10.2094
▁Princess	-10.2098
▁cheeks	-10.2111
▁absence	-10.2117
▁curiosity	-10.2117
▁marked	-10.2125
▁address	-10.2132
ON	-10.2135
▁Bob	-10.2139
▁approaching	-10.2147
▁trembling	-10.2152
▁firm	-10.2162
▁image	-10.2167
▁ice	-10.2168
▁HE	-10.2183
▁Movie	-10.2191
▁bell	-10.2195
▁forgot	-10.2196
▁interrupted	-10.2203
▁report	-10.2203
----"	-10.2209
▁W	-10.221
▁First	-10.2213
▁strike	-10.2214
▁task	-10.2215
▁accident	-10.2216
▁rush	-10.2227
▁locked	-10.2231
▁Michael	-10.2237
▁careful	-10.2238
▁imagination	-10.2239
▁dollars	-10.2241
▁i	-10.2246
▁bitter	-10.2248
▁understanding	-10.2261
▁refused	-10.2261
▁mountains	-10.2273
▁older	-10.2278
▁woods	-10.2279
Where	-10.228
▁remains	-10.228
▁luck	-10.2282
▁odd	-10.2287
▁honor	-10.2294
▁Three	-10.2295
com	-10.2302
▁stupid	-10.2304
▁rapidly	-10.2305
▁BEDROOM	-10.2312
▁intention	-10.2314
out	-10.2317
un	-10.2322
▁Aunt	-10.2325
▁habit	-10.233
▁oh	-10.2336
▁Right	-10.2346
▁picked	-10.2346
▁America	-10.2352
▁fat	-10.2362
Illustration	-10.2366
.)	-10.2367
▁enjoy	-10.2371
▁miss	-10.2379
▁hopes	-10.2381
▁struggle	-10.2387
▁yards	-10.2413
▁occupied	-10.2433
▁required	-10.2436
▁somehow	-10.2439
▁JOHN	-10.244
▁assured	-10.2442
▁wet	-10.2445
▁inquired	-10.2473
▁De	-10.2473
▁Robert	-10.2475
▁hang	-10.2476
▁served	-10.2489
▁freedom	-10.2493
▁prevent	-10.2497
▁features	-10.2507
▁Red	-10.2512
▁mysterious	-10.2533
▁worry	-10.2533
▁Something	-10.2535
▁kindly	-10.2537
▁approached	-10.254
▁arrival	-10.255
▁crazy	-10.2555
▁advanced	-10.2565
▁steel	-10.2567
▁necessity	-10.2574
▁particularly	-10.2575
▁north	-10.2577
▁stars	-10.2595
▁tonight	-10.2599
For	-10.2601
▁safety	-10.2605
▁Mike	-10.2605
▁driving	-10.261
▁HER	-10.2625
▁eating	-10.2631
▁Though	-10.2631
▁p	-10.2632
▁vision	-10.2635
▁surrounded	-10.264
▁card	-10.2662
▁creatures	-10.2664
▁admit	-10.2686
▁Mother	-10.269
▁naturally	-10.2695
▁La	-10.2696
▁demanded	-10.2697
▁confused	-10.2702
▁9	-10.2702
▁peculiar	-10.2703
▁becoming	-10.2703
▁wheel	-10.2704
▁pushes	-10.2711
▁grace	-10.2719
▁(_	-10.2721
▁drove	-10.2722
▁closes	-10.2723
imsdb	-10.2729
▁powerful	-10.2731
▁rises	-10.2731
▁club	-10.2731
▁succeeded	-10.2743
▁sleeping	-10.2745
▁cost	-10.2749
te	-10.2757
▁Court	-10.276
▁convinced	-10.2768
▁Arthur	-10.277
▁clever	-10.2778
When	-10.2784
▁express	-10.2787
▁everywhere	-10.2791
▁soldier	-10.2796
▁WITH	-10.2803
▁base	-10.2813
▁presented	-10.2815
who	-10.2816
▁voices	-10.2833
▁choose	-10.2833
▁Nick	-10.284
ry	-10.2842
▁stared	-10.2844
way	-10.2844
▁row	-10.2846
um	-10.2846
▁delicate	-10.2849
▁accepted	-10.2852
▁feared	-10.2858
▁lock	-10.2859
▁sympathy	-10.2864
▁needs	-10.2866
▁pulling	-10.2871
▁Which	-10.2873
▁fun	-10.2882
▁tight	-10.2883
▁named	-10.2886
▁cloud	-10.2893
▁instance	-10.2897
▁forms	-10.2904
▁leaning	-10.2908
▁cabin	-10.291
▁wishes	-10.2911
▁mark	-10.2913
▁Count	-10.2914
Upon	-10.2917
▁General	-10.2934
▁win	-10.2937
▁laughs	-10.2942
▁bought	-10.2943
▁energy	-10.2943
▁yard	-10.2945
▁murder	-10.2946
▁Charlie	-10.2951
▁style	-10.2953
il	-10.2955
▁singing	-10.2969
▁cap	-10.2976
▁beast	-10.2979
▁bosom	-10.2989
▁lamp	-10.2991
▁pipe	-10.2996
▁AT	-10.2999
▁Smith	-10.3003
▁whisper	-10.3022
▁crime	-10.3023
▁counter	-10.3024
▁joined	-10.3032
▁wooden	-10.3034
▁officers	-10.3048
▁Hi	-10.3057
▁usually	-10.3061
▁mass	-10.3067
▁authority	-10.3069
:--	-10.3072
Very	-10.3079
▁Earl	-10.3086
▁sigh	-10.3093
▁signs	-10.3094
▁escaped	-10.3095
▁kindness	-10.3101
▁midst	-10.3101
▁conscience	-10.3109
▁emotion	-10.3114
▁German	-10.3116
▁suffer	-10.3118
▁SAM	-10.3127
▁slept	-10.313
▁Edward	-10.313
▁charming	-10.3131
▁Phineas	-10.3134
▁attitude	-10.3139
As	-10.3141
▁guns	-10.3153
▁religion	-10.3153
▁avoid	-10.3165
▁press	-10.317
▁8	-10.3171
▁Grace	-10.3173
▁bringing	-10.3175
▁eager	-10.3184
▁Those	-10.3189
▁band	-10.3201
▁interview	-10.3207
▁6	-10.3213
▁bodies	-10.3214
▁suffering	-10.3221
▁helped	-10.3239
▁consequence	-10.3254
ting	-10.3254
▁thanks	-10.3257
▁violent	-10.3263
▁pushed	-10.3268
▁drunk	-10.3273
▁shows	-10.3275
▁wealth	-10.3287
▁weary	-10.3291
▁hangs	-10.3292
▁liberty	-10.3302
▁priest	-10.3304
ic	-10.3305
▁President	-10.3307
▁rear	-10.3309
▁fill	-10.3313
▁WE	-10.3313
▁size	-10.3323
▁jumps	-10.3326
▁utter	-10.334
▁pen	-10.3341
▁Philip	-10.3346
▁Indeed	-10.3347
▁Again	-10.336
▁Hello	-10.3361
▁cont	-10.3364
▁blame	-10.338
▁treated	-10.3389
▁dogs	-10.3396
▁clouds	-10.3403
▁aid	-10.3404
▁worn	-10.3407
▁hurried	-10.3408
▁shoot	-10.3417
▁Margaret	-10.3427
▁admitted	-10.3433
▁horrible	-10.3437
▁Hall	-10.3439
▁birth	-10.3449
▁suspicion	-10.345
▁stepped	-10.3451
▁proceeded	-10.3455
▁rode	-10.3468
▁measure	-10.3469
▁considerable	-10.3471
▁lit	-10.3474
▁en	-10.3474
ment	-10.3479
▁madam	-10.3479
▁sell	-10.3484
▁CHARLIE	-10.3492
▁contrary	-10.3495
▁confusion	-10.3499
▁dignity	-10.3504
▁content	-10.3504
▁YOU	-10.3506
▁returning	-10.3507
▁crew	-10.3513
her	-10.3516
how	-10.3521
▁wounded	-10.3525
▁Max	-10.3525
▁leads	-10.3532
▁reasons	-10.3535
▁kisses	-10.3537
▁capable	-10.3544
▁wings	-10.3546
▁equally	-10.3547
Are	-10.355
▁hearts	-10.355
▁reader	-10.3558
▁nurse	-10.3561
▁moral	-10.3563
▁MORNING	-10.3568
was	-10.3578
▁upper	-10.358
▁extremely	-10.3584
▁becomes	-10.359
▁sum	-10.3591
▁spare	-10.3593
▁clock	-10.3593
▁North	-10.3599
▁government	-10.3604
na	-10.3604
▁plainly	-10.3604
▁mercy	-10.3612
▁example	-10.3615
▁claim	-10.3616
▁proof	-10.3618
▁modern	-10.3624
▁brief	-10.3628
▁cottage	-10.3649
▁rule	-10.3654
▁plenty	-10.3659
▁uttered	-10.3659
▁rank	-10.3671
▁importance	-10.3673
▁colour	-10.3675
▁dancing	-10.3676
▁breaking	-10.3679
▁delighted	-10.3683
▁drinking	-10.3693
▁Ann	-10.3705
▁Besides	-10.3708
▁judgment	-10.3712
▁Give	-10.3715
▁radio	-10.3717
▁upstairs	-10.3718
▁consideration	-10.3724
▁misery	-10.3727
▁price	-10.3741
▁direct	-10.3742
▁closely	-10.375
▁political	-10.3751
▁flower	-10.3758
▁shouted	-10.3763
▁fellows	-10.3769
▁south	-10.377
▁fifteen	-10.3776
▁ne	-10.3779
this	-10.3779
▁TWO	-10.378
▁cell	-10.3793
▁glanced	-10.3801
ling	-10.3811
▁Finally	-10.3815
▁prisoner	-10.3817
▁dim	-10.3825
▁alarm	-10.3829
▁arranged	-10.3832
▁reads	-10.3835
Here	-10.3845
▁flame	-10.3849
▁tear	-10.3853
▁guests	-10.3858
▁spend	-10.3877
▁virtue	-10.3879
▁WOMAN	-10.3883
▁triumph	-10.3885
when	-10.389
▁native	-10.3891
▁original	-10.3901
www	-10.3912
▁MIKE	-10.3918
▁departure	-10.3919
▁audience	-10.3924
▁height	-10.3927
▁center	-10.3931
▁stretched	-10.3931
▁Fred	-10.3932
▁ya	-10.3938
Have	-10.3944
▁foolish	-10.3946
▁rushed	-10.395
▁pictures	-10.3953
▁MR	-10.3955
▁melancholy	-10.3959
▁progress	-10.3971
▁concern	-10.398
▁Roger	-10.3986
▁shining	-10.3992
▁wicked	-10.3992
▁People	-10.3993
▁animals	-10.3997
eth	-10.4011
▁addressed	-10.4014
▁fail	-10.4017
▁assure	-10.4017
▁startled	-10.4024
▁risk	-10.4026
▁dining	-10.4032
▁ones	-10.4035
▁assistance	-10.404
▁naked	-10.4046
▁feels	-10.4048
▁starting	-10.4058
▁sin	-10.406
▁female	-10.4062
▁refuse	-10.4063
▁thrust	-10.4064
▁utterly	-10.4066
▁facts	-10.4081
▁rolled	-10.4083
▁cigarette	-10.4085
▁Rachel	-10.409
▁NICK	-10.4099
▁glory	-10.4099
▁pointing	-10.4108
▁More	-10.4113
▁slave	-10.4113
▁brow	-10.4116
▁guilty	-10.4118
▁flash	-10.4121
▁buried	-10.4131
▁happens	-10.414
▁awake	-10.4149
▁sex	-10.4153
▁tomorrow	-10.4158
▁trial	-10.4162
▁per	-10.4175
ne	-10.4176
▁accustomed	-10.4184
LY	-10.4184
▁remarkable	-10.4188
▁credit	-10.4194
▁anywhere	-10.4213
▁glasses	-10.4215
▁setting	-10.4217
▁rope	-10.423
▁handle	-10.4231
▁bearing	-10.4231
▁boots	-10.4237
▁estate	-10.4238
▁sing	-10.4249
▁thoroughly	-10.4253
▁roll	-10.4259
▁Park	-10.4261
▁vessel	-10.4261
▁affected	-10.4263
▁jacket	-10.4264
ey	-10.4265
▁removed	-10.4265
▁amount	-10.4266
▁weapon	-10.4268
▁cars	-10.4268
▁proposed	-10.4275
▁fairly	-10.4275
▁breathing	-10.4282
▁gesture	-10.4286
▁ceiling	-10.4291
▁request	-10.4291
▁reflection	-10.4295
▁tail	-10.4302
▁tale	-10.4304
▁valley	-10.4305
▁desert	-10.4309
▁flung	-10.4309
▁companions	-10.4316
▁season	-10.4316
▁wedding	-10.4321
▁figures	-10.4328
▁regret	-10.4332
▁mystery	-10.4334
▁daily	-10.4343
▁Me	-10.4345
▁informed	-10.4349
▁chain	-10.4352
J	-10.4357
▁nodded	-10.4358
▁sprang	-10.4362
▁confess	-10.4363
▁driver	-10.4363
▁meat	-10.4383
"--	-10.4396
▁enormous	-10.44
▁newspaper	-10.4407
▁plate	-10.4412
▁color	-10.4415
▁members	-10.4415
http	-10.4419
▁hears	-10.4426
▁beer	-10.4435
▁explanation	-10.4445
▁gradually	-10.4445
▁minds	-10.4448
▁coast	-10.445
▁20	-10.445
▁patient	-10.4452
▁throwing	-10.4454
▁Very	-10.4457
▁immediate	-10.4461
▁agree	-10.4462
▁pool	-10.4462
▁remark	-10.4463
▁Men	-10.4465
▁precious	-10.4473
▁consent	-10.4475
▁wisdom	-10.4478
▁consciousness	-10.4485
▁raise	-10.4486
▁inclined	-10.4488
▁wave	-10.4495
▁bowed	-10.4502
▁GEORGE	-10.452
▁managed	-10.4522
▁fierce	-10.4524
▁dreams	-10.4527
▁dared	-10.4532
▁Both	-10.4534
▁resolution	-10.4539
▁Everyone	-10.4541
▁crosses	-10.4543
▁7	-10.4544
▁BLACK	-10.4548
▁intelligence	-10.4549
▁enemies	-10.4567
▁unfortunate	-10.4574
ation	-10.4576
▁furniture	-10.4577
▁tower	-10.4581
▁warning	-10.4582
MAN	-10.4587
▁regular	-10.4589
▁add	-10.4592
▁hated	-10.4605
▁IT	-10.4614
▁pistol	-10.4616
▁resumed	-10.4627
▁area	-10.4649
▁whilst	-10.4658
▁track	-10.4663
▁funny	-10.4663
▁practice	-10.4665
▁rifle	-10.4679
▁clerk	-10.4684
▁couch	-10.4687
▁discover	-10.4694
▁lighted	-10.4695
▁ruin	-10.47
▁smooth	-10.4704
▁notes	-10.4705
▁security	-10.4707
▁swear	-10.4714
▁anyway	-10.4726
▁gazed	-10.4731
▁belief	-10.4742
▁rolls	-10.4743
▁Wait	-10.4751
▁bill	-10.4756
ar	-10.4757
▁trade	-10.4759
▁stones	-10.4762
▁lest	-10.4763
By	-10.4772
▁begged	-10.4774
▁member	-10.4775
▁flew	-10.4777
▁murmured	-10.4779
▁witness	-10.4779
▁lonely	-10.4787
▁blows	-10.4787
▁larger	-10.4789
▁brilliant	-10.4793
ies	-10.4804
▁wretched	-10.4804
▁earnest	-10.4807
▁wondering	-10.4807
▁forever	-10.4813
▁hills	-10.4821
▁nevertheless	-10.4827
his	-10.4832
▁event	-10.4841
▁scarce	-10.4842
▁mood	-10.4854
▁barely	-10.4865
▁desperate	-10.4868
▁material	-10.487
▁silently	-10.487
▁drives	-10.4873
1	-10.4876
▁lands	-10.4877
▁generous	-10.4881
▁palace	-10.4887
▁DR	-10.4891
▁Having	-10.4898
▁conditions	-10.49
▁Could	-10.4904
▁b	-10.4908
▁bold	-10.4908
_)	-10.4911
▁manners	-10.4921
Did	-10.4927
▁seconds	-10.4928
▁million	-10.4931
▁chin	-10.494
▁Database	-10.4956
▁sold	-10.4959
▁Everything	-10.496
▁acquainted	-10.4962
▁Bishop	-10.4962
▁12	-10.4963
▁darling	-10.4976
▁cave	-10.4977
▁tied	-10.498
▁troubled	-10.4982
▁rid	-10.4983
EY	-10.4984
▁fields	-10.4985
▁guest	-10.5
▁smoking	-10.5007
▁beach	-10.501
▁torn	-10.5014
▁star	-10.5014
▁amongst	-10.5017
▁hero	-10.502
▁vague	-10.5021
▁plans	-10.5024
▁quarrel	-10.5025
▁famous	-10.5028
▁knock	-10.5028
▁science	-10.5037
▁highest	-10.504
▁arose	-10.5059
▁heavily	-10.5065
▁Thanks	-10.5075
▁scared	-10.5079
▁hesitated	-10.5084
▁Sometimes	-10.5084
▁accompanied	-10.5105
▁wake	-10.5106
et	-10.5112
▁shade	-10.5115
▁teach	-10.5115
▁ends	-10.5115
▁attached	-10.512
ity	-10.5122
▁dirty	-10.5122
Tis	-10.5123
▁painful	-10.5129
▁partly	-10.5129
▁dressing	-10.5135
▁folks	-10.5138
▁concerning	-10.5141
▁breaks	-10.5141
▁solemn	-10.5142
▁sacrifice	-10.5145
▁gay	-10.5146
▁hungry	-10.5151
▁savage	-10.5153
▁aloud	-10.5158
▁agreeable	-10.516
▁giant	-10.5182
▁Sure	-10.5182
▁aren	-10.5187
▁advance	-10.5189
▁highly	-10.5193
▁lately	-10.5194
▁Pierre	-10.5198
▁cab	-10.5203
ion	-10.5204
▁brings	-10.5204
▁guide	-10.522
▁previous	-10.5221
▁admiration	-10.5224
▁pack	-10.523
▁Rose	-10.5233
▁mile	-10.5242
▁finish	-10.5245
▁smell	-10.5254
▁Clara	-10.5259
▁stern	-10.5286
▁glow	-10.5286
▁list	-10.5313
▁patience	-10.5316
bye	-10.5316
2	-10.5328
▁decision	-10.5329
▁gift	-10.5333
▁recovered	-10.5344
▁imagined	-10.5345
▁Without	-10.5351
▁During	-10.5355
▁powers	-10.5358
▁leaned	-10.5359
▁candle	-10.5359
▁violence	-10.5361
▁prince	-10.5363
▁INTO	-10.5363
▁catches	-10.5364
▁Ray	-10.5375
▁stuck	-10.5378
▁manage	-10.5389
▁splendid	-10.539
▁Christmas	-10.5392
▁X	-10.54
▁individual	-10.5403
▁brothers	-10.5404
▁dread	-10.5417
▁conviction	-10.5421
▁raises	-10.5424
▁hasn	-10.5429
▁Through	-10.5431
▁joke	-10.5445
▁laws	-10.5446
▁waste	-10.5452
▁hastily	-10.5456
▁stories	-10.5456
▁abruptly	-10.547
▁type	-10.5472
▁etc	-10.5473
▁f	-10.5475
▁astonishment	-10.5479
▁U	-10.5482
▁travel	-10.5483
▁abroad	-10.5484
▁Louis	-10.5486
▁cases	-10.5486
▁sheet	-10.549
let	-10.5491
▁loving	-10.5505
ch	-10.5507
▁ugly	-10.5516
▁riding	-10.5517
▁Sarah	-10.5519
▁connection	-10.552
▁atmosphere	-10.5521
▁rolling	-10.5521
▁plays	-10.5526
▁hast	-10.5526
▁seriously	-10.5529
Go	-10.553
▁rare	-10.5531
▁Z	-10.5535
▁Jacob	-10.5546
▁Black	-10.555
▁stock	-10.5551
▁loves	-10.5552
▁reality	-10.5553
▁farm	-10.556
▁reveal	-10.5563
▁bathroom	-10.5573
▁knocked	-10.5577
five	-10.5588
▁chosen	-10.5588
▁steady	-10.5588
▁superior	-10.5589
▁weapons	-10.5591
ful	-10.5593
▁extreme	-10.5608
▁Emmeline	-10.561
▁Listen	-10.5611
▁francs	-10.5619
▁date	-10.5626
ish	-10.5626
rs	-10.5634
▁slipped	-10.5642
ce	-10.5642
▁using	-10.5651
▁handed	-10.5653
▁mamma	-10.5663
▁fruit	-10.5665
▁cared	-10.5667
▁earlier	-10.5667
▁Love	-10.567
▁notices	-10.5672
though	-10.5676
▁jump	-10.5676
▁wit	-10.5679
▁State	-10.5685
▁holy	-10.5686
▁eagerly	-10.5689
▁sacred	-10.5692
▁fires	-10.5694
▁meal	-10.5695
▁title	-10.57
▁SAME	-10.57
▁slightest	-10.571
▁centre	-10.5714
▁solid	-10.572
▁utmost	-10.5725
▁sink	-10.5731
▁Fanny	-10.5733
▁west	-10.5735
▁changes	-10.5735
▁increased	-10.574
▁household	-10.5744
▁City	-10.5748
▁Kate	-10.5753
▁elevator	-10.5754
▁seldom	-10.5757
▁sending	-10.5769
▁armed	-10.5769
▁prospect	-10.5774
▁cloth	-10.5776
▁stayed	-10.5777
▁background	-10.5792
▁nation	-10.5804
▁lift	-10.5809
▁senses	-10.5811
▁quality	-10.5813
▁swept	-10.582
▁waters	-10.5822
▁em	-10.583
▁parted	-10.5839
▁tenderness	-10.584
▁Since	-10.5855
▁hospital	-10.5855
▁button	-10.5857
▁plants	-10.5858
▁Hal	-10.586
▁rings	-10.5864
▁mistaken	-10.5865
▁Over	-10.5869
▁Richard	-10.5875
▁ere	-10.5878
▁Oscar	-10.5883
▁gained	-10.5884
▁distress	-10.5884
▁flies	-10.5888
▁deserted	-10.589
▁lake	-10.5891
▁park	-10.5892
▁foreign	-10.5893
▁discovery	-10.5894
▁realize	-10.5897
▁contact	-10.5898
▁painted	-10.5899
▁efforts	-10.59
▁Finn	-10.5905
▁portion	-10.5905
▁keen	-10.5912
▁retired	-10.5916
▁Indian	-10.592
▁MARY	-10.5922
▁que	-10.5924
▁Nobody	-10.5929
▁knee	-10.5931
▁slip	-10.5932
▁exits	-10.5938
▁faithful	-10.5943
▁Poor	-10.5947
▁queer	-10.595
▁30	-10.5959
▁useless	-10.5959
ist	-10.597
▁hollow	-10.5974
▁physical	-10.5975
▁JOE	-10.5981
▁Ursula	-10.599
▁charm	-10.5993
▁dawn	-10.5994
▁library	-10.5995
▁branches	-10.5996
▁dragged	-10.5999
▁milk	-10.6001
▁lifts	-10.6002
▁lap	-10.6003
▁?!	-10.6004
▁coach	-10.6007
▁afford	-10.601
▁damn	-10.6013
▁learning	-10.6015
▁disturbed	-10.6017
▁Luke	-10.6018
▁poet	-10.602
▁record	-10.6022
▁enjoyed	-10.6026
▁Out	-10.6042
▁landing	-10.6046
▁fought	-10.6055
▁widow	-10.6065
▁described	-10.607
▁similar	-10.6088
▁continuing	-10.6092
▁useful	-10.6097
▁hiding	-10.6109
▁folk	-10.6111
▁AS	-10.6111
▁th	-10.6111
▁crowded	-10.6112
▁FROM	-10.6113
▁reflected	-10.6115
▁frequently	-10.6115
▁horizon	-10.612
▁immense	-10.6122
had	-10.6124
▁whenever	-10.6131
▁interests	-10.6133
▁stronger	-10.6134
▁author	-10.614
▁sail	-10.6141
▁sentence	-10.6141
ism	-10.6142
▁Emma	-10.6145
▁chairs	-10.6152
▁pages	-10.6158
▁15	-10.6168
▁Europe	-10.617
▁attend	-10.6172
▁Uh	-10.6174
▁gratitude	-10.6191
▁genius	-10.6195
▁ignorant	-10.62
▁computer	-10.6203
▁pile	-10.6208
time	-10.6211
▁gain	-10.6211
▁Thy	-10.6218
▁market	-10.6221
▁keys	-10.6221
▁realized	-10.6228
▁du	-10.6228
▁pockets	-10.6245
▁gas	-10.6252
▁provided	-10.6255
ES	-10.6262
▁queen	-10.6263
▁motionless	-10.6266
▁Long	-10.6267
▁sank	-10.627
▁British	-10.627
▁fury	-10.6277
▁firmly	-10.6297
▁belong	-10.6298
▁divine	-10.6298
well	-10.6306
▁entering	-10.6311
▁push	-10.6311
▁lightly	-10.6317
▁pink	-10.6321
▁contempt	-10.6322
Perhaps	-10.6324
be	-10.6325
▁niece	-10.6327
▁tent	-10.6336
▁rushes	-10.6338
▁fatal	-10.6341
styled	-10.6341
▁waist	-10.6346
▁weakness	-10.6354
▁recognized	-10.6354
▁IS	-10.6355
▁grateful	-10.6356
▁badly	-10.6361
▁evident	-10.637
▁duties	-10.637
▁Eve	-10.6373
▁belonged	-10.6374
▁sisters	-10.6377
▁religious	-10.6379
▁worried	-10.638
▁mental	-10.6387
▁Gerard	-10.6395
▁sufficiently	-10.6397
▁Behind	-10.64
▁east	-10.64
▁absolute	-10.6402
▁Steve	-10.6403
▁platform	-10.6407
▁climb	-10.6407
▁Each	-10.6407
▁silk	-10.6416
▁Sidney	-10.6416
▁astonished	-10.6417
▁god	-10.6421
▁Life	-10.6428
▁hunting	-10.6438
▁WHITE	-10.6443
▁HALLWAY	-10.6458
▁remaining	-10.646
▁West	-10.646
▁Italian	-10.6477
▁inner	-10.648
▁Scripts	-10.6486
▁Ed	-10.6488
▁pace	-10.6488
▁secure	-10.6491
▁DOOR	-10.6493
▁magic	-10.6499
▁adventure	-10.6507
▁papa	-10.6514
SAM	-10.6516
▁team	-10.6524
▁Lee	-10.6529
▁Baron	-10.6531
▁strangers	-10.6531
▁settle	-10.6536
▁cook	-10.6537
▁squire	-10.6545
▁Dan	-10.655
▁fired	-10.6551
▁swings	-10.6551
▁exchange	-10.6554
▁sharply	-10.6556
▁silly	-10.656
▁Charlotte	-10.656
▁bid	-10.6563
▁sighed	-10.6563
▁About	-10.6566
▁wrapped	-10.6567
▁trip	-10.6569
▁puzzled	-10.657
▁Dad	-10.6572
▁screaming	-10.6573
▁hallway	-10.6577
▁Ted	-10.6582
▁details	-10.6585
(	-10.6586
are	-10.6589
▁throughout	-10.6593
▁tape	-10.6595
▁losing	-10.6596
▁helpless	-10.6599
▁exhausted	-10.6599
▁observe	-10.6599
▁constantly	-10.6601
▁sounded	-10.6605
▁tie	-10.6606
▁sofa	-10.6607
▁relations	-10.6609
▁crown	-10.6611
▁ocean	-10.6616
▁hitherto	-10.6617
▁Allan	-10.6617
▁venture	-10.6618
▁connected	-10.6618
▁delay	-10.6622
▁wholly	-10.663
▁calmly	-10.6631
▁exercise	-10.6631
▁sets	-10.6636
▁DOWN	-10.6639
▁objects	-10.6642
▁bloody	-10.6644
▁insisted	-10.6647
▁DISSOLVE	-10.665
▁copy	-10.665
▁HENRY	-10.6656
▁Jerry	-10.6657
▁conclusion	-10.6661
▁nearest	-10.6662
▁extent	-10.6662
▁constant	-10.6666
▁stomach	-10.6667
▁thine	-10.6674
land	-10.6675
▁17	-10.6676
▁haste	-10.6679
ia	-10.6681
▁vanished	-10.6686
▁Amy	-10.669
▁reference	-10.6691
▁muttered	-10.6692
▁Amelia	-10.6693
▁Elizabeth	-10.6694
▁pursued	-10.6696
▁whence	-10.6697
▁host	-10.6698
▁est	-10.6702
▁humble	-10.6703
▁Lucien	-10.6705
▁lack	-10.671
▁scattered	-10.671
▁appeal	-10.6712
▁Rome	-10.6718
▁engine	-10.6731
▁descended	-10.674
▁OVER	-10.675
▁announced	-10.6752
▁fled	-10.6752
▁Therefore	-10.6756
▁Re	-10.677
▁perceive	-10.6771
▁gazing	-10.6775
▁intense	-10.6776
▁KITCHEN	-10.6787
▁chose	-10.6787
▁Saint	-10.6788
Look	-10.6794
▁e	-10.68
▁Earth	-10.6808
▁process	-10.6808
▁LIVING	-10.681
▁bench	-10.6823
▁career	-10.6827
▁touching	-10.6827
▁Chris	-10.6833
▁destroy	-10.6834
▁Sorry	-10.6834
▁screams	-10.6842
▁argument	-10.6845
▁relation	-10.6853
▁deeper	-10.6854
At	-10.687
▁11	-10.6872
▁mounted	-10.6873
▁signal	-10.6875
▁lets	-10.6877
▁unconscious	-10.6878
▁c	-10.6882
▁gloom	-10.6883
▁missed	-10.6886
▁engagement	-10.6887
▁mid	-10.6893
▁minister	-10.6896
▁rested	-10.6905
Nay	-10.6908
▁cards	-10.6912
▁belt	-10.6922
▁fence	-10.6923
▁Ha	-10.6925
▁Larry	-10.693
▁missing	-10.693
ter	-10.6934
▁directed	-10.6935
▁shone	-10.6936
AL	-10.6938
▁employed	-10.6941
▁custom	-10.6943
▁intimate	-10.6949
▁knight	-10.695
▁lion	-10.6959
▁cart	-10.6963
▁climbs	-10.6966
▁delightful	-10.6969
▁writer	-10.6969
Will	-10.697
▁obtained	-10.6972
▁cloak	-10.6976
▁distinguished	-10.6978
▁practical	-10.6979
▁committed	-10.6987
▁shooting	-10.6988
▁cheerful	-10.6989
▁concluded	-10.6989
▁beard	-10.6998
▁gods	-10.7002
▁burn	-10.7008
▁treat	-10.7008
▁separate	-10.7009
▁visitor	-10.7011
▁military	-10.7013
▁destroyed	-10.7015
▁DAVID	-10.7017
▁tells	-10.7027
▁block	-10.7034
▁shelter	-10.7039
▁score	-10.7044
▁invited	-10.7046
▁Major	-10.705
▁Levin	-10.7055
▁van	-10.7056
▁uneasy	-10.7059
X	-10.7061
▁aspect	-10.7063
▁amused	-10.7068
US	-10.7069
▁century	-10.7091
▁victim	-10.7093
▁sensible	-10.7102
▁Claude	-10.7105
WILL	-10.7108
▁lucky	-10.7111
▁Next	-10.7114
▁heels	-10.7127
▁spots	-10.7127
▁deny	-10.713
▁disposed	-10.7132
▁BEN	-10.7133
ton	-10.7133
▁leather	-10.7136
▁striking	-10.7137
▁owe	-10.7147
▁slides	-10.7153
▁g	-10.7155
▁slams	-10.716
▁mud	-10.7163
▁SEE	-10.7163
▁smaller	-10.7163
▁inches	-10.7165
▁disposition	-10.7167
▁lunch	-10.7169
Z	-10.717
Can	-10.7171
then	-10.7172
▁yeah	-10.7173
▁produce	-10.7174
ah	-10.7176
▁Stephen	-10.7195
▁current	-10.7198
▁Y	-10.7199
IN	-10.72
hearted	-10.721
▁Back	-10.7212
why	-10.7213
▁nonsense	-10.7219
▁Anthony	-10.722
▁occasions	-10.7222
▁Phil	-10.7222
▁difficulties	-10.7225
▁doubtless	-10.7227
▁South	-10.7232
▁contained	-10.7236
▁strongly	-10.7242
▁letting	-10.7245
▁Mademoiselle	-10.7247
▁checks	-10.7249
▁Russian	-10.725
▁eleven	-10.7254
▁studies	-10.7256
▁burned	-10.7261
▁Green	-10.7265
▁Mac	-10.727
▁scheme	-10.727
▁waits	-10.7271
▁capital	-10.7276
▁Joseph	-10.7278
▁relieved	-10.7279
▁returns	-10.7282
▁Majesty	-10.7286
▁Mme	-10.7286
▁Young	-10.7294
▁decide	-10.7295
▁HIM	-10.7295
▁closing	-10.7296
▁Annie	-10.7302
▁agony	-10.7305
▁rapid	-10.7307
▁smart	-10.7315
▁bless	-10.7315
▁protection	-10.7318
▁Professor	-10.7319
▁pressure	-10.7319
▁ships	-10.7324
▁beating	-10.7327
▁demand	-10.7329
▁mist	-10.7329
▁curtain	-10.733
▁delivered	-10.7332
▁HOTEL	-10.7332
will	-10.7335
▁cutting	-10.7336
▁oil	-10.734
▁ANOTHER	-10.7345
▁Ruth	-10.7351
▁introduced	-10.7359
▁daughters	-10.7361
▁outer	-10.7361
▁monster	-10.7363
▁tunnel	-10.7366
▁endure	-10.7367
▁forces	-10.7372
;"	-10.7374
▁disappointment	-10.7379
▁stiff	-10.7382
la	-10.7383
▁royal	-10.7385
▁goodness	-10.739
▁staircase	-10.7398
▁circumstance	-10.7408
▁mankind	-10.7412
JACK	-10.7413
▁Whatever	-10.7414
▁fever	-10.742
▁purse	-10.7421
▁Many	-10.7426
▁treasure	-10.7432
▁porch	-10.7435
▁observation	-10.7436
▁sheep	-10.7443
▁ignorance	-10.746
off	-10.7462
▁dirt	-10.7463
▁Scott	-10.7468
”	-10.747
▁Tarzan	-10.7481
▁series	-10.7482
▁Say	-10.7482
▁swiftly	-10.7482
▁trunk	-10.7483
▁Van	-10.7485
▁parties	-10.749
▁disappointed	-10.7494
▁FRANK	-10.7499
don	-10.7504
▁frozen	-10.7507
▁civil	-10.7509
▁glimpse	-10.751
▁huh	-10.7513
▁facing	-10.7514
▁reaching	-10.7515
▁terrified	-10.7519
▁active	-10.7524
▁species	-10.7526
▁Day	-10.7527
▁suggestion	-10.7531
▁Linda	-10.7534
▁handkerchief	-10.7536
▁occasionally	-10.7545
x	-10.7546
▁prayer	-10.7549
table	-10.7549
▁successful	-10.7559
▁article	-10.7565
▁plant	-10.7565
▁exit	-10.7567
▁conceal	-10.757
▁JACKIE	-10.7579
▁source	-10.7584
▁sons	-10.7587
▁misfortune	-10.7589
▁throne	-10.759
▁unusual	-10.759
▁arrive	-10.7594
▁bones	-10.7595
▁drank	-10.76
▁plane	-10.76
▁BILLY	-10.7601
▁impulse	-10.7608
▁"_	-10.7609
▁magnificent	-10.761
▁repeat	-10.7613
▁je	-10.7616
▁SARAH	-10.7622
▁compelled	-10.7625
▁16	-10.7635
▁scream	-10.7639
▁Under	-10.7646
▁mask	-10.7647
▁Toby	-10.7658
▁elder	-10.766
▁bade	-10.7662
▁numbers	-10.7663
▁Nell	-10.7663
▁abandoned	-10.7666
▁Walter	-10.7667
▁supply	-10.7673
▁instinct	-10.7687
▁grandfather	-10.769
▁uniform	-10.7692
▁Roman	-10.7692
▁ACE	-10.7693
▁burden	-10.7695
▁profession	-10.7698
▁14	-10.7698
▁domestic	-10.7701
▁remote	-10.7703
▁balance	-10.7704
._]	-10.7707
▁June	-10.7708
go	-10.7716
▁flames	-10.7718
▁blessed	-10.772
▁skill	-10.7721
One	-10.7722
▁Countess	-10.7723
▁Internet	-10.7727
▁ridiculous	-10.7738
▁attended	-10.7746
▁Alex	-10.7748
▁angel	-10.775
▁stir	-10.7752
▁suspect	-10.7756
▁fist	-10.7769
▁Nature	-10.7771
▁gates	-10.7773
▁exact	-10.7776
▁trace	-10.7776
▁RACHEL	-10.7777
▁lieutenant	-10.7778
▁souls	-10.7787
▁severe	-10.7792
▁swift	-10.7792
▁vous	-10.7792
▁glorious	-10.7798
▁favor	-10.7806
▁wanna	-10.7806
▁wanting	-10.7812
place	-10.7813
▁declare	-10.7815
▁Tommy	-10.7817
▁Mom	-10.7819
▁inn	-10.7819
▁downstairs	-10.7826
▁wi	-10.7831
▁assumed	-10.7833
▁GIRL	-10.7836
▁planet	-10.784
▁humanity	-10.784
▁struggling	-10.7841
▁sadly	-10.7841
▁directions	-10.7844
▁slips	-10.7847
▁totally	-10.7848
▁established	-10.7848
ted	-10.7852
▁quarters	-10.7858
PAUL	-10.7861
▁violently	-10.7863
▁test	-10.7866
▁shocked	-10.7869
▁march	-10.787
▁possibility	-10.7872
▁doth	-10.7874
▁protect	-10.7874
▁indifferent	-10.7881
▁suspected	-10.7882
▁rang	-10.7882
▁response	-10.7883
▁praise	-10.7883
▁reputation	-10.7885
▁Un	-10.7887
▁devoted	-10.7898
3	-10.7899
▁STATION	-10.79
▁Carl	-10.7905
▁acted	-10.7911
▁permitted	-10.7911
▁hint	-10.7913
▁amid	-10.7916
▁Kirk	-10.7919
▁mortal	-10.7919
▁wheels	-10.7931
▁strangely	-10.7933
▁obviously	-10.7935
▁awkward	-10.7941
▁college	-10.7943
▁answers	-10.7944
▁rendered	-10.7953
▁rejoined	-10.7958
▁stopping	-10.7961
▁guards	-10.7962
▁sailor	-10.7964
▁trail	-10.7967
▁obtain	-10.7968
▁humour	-10.7968
▁Nevertheless	-10.7974
▁stole	-10.7974
▁idle	-10.7981
▁Clare	-10.7983
▁hid	-10.7984
▁lordship	-10.7984
▁reward	-10.7988
▁behold	-10.7988
▁shouting	-10.799
▁touches	-10.7996
▁thousands	-10.8
▁High	-10.8001
▁San	-10.8006
▁profound	-10.8013
▁Think	-10.8017
▁overcome	-10.8017
▁Ali	-10.8019
▁paying	-10.8029
▁degrees	-10.8031
▁revealing	-10.8031
▁mess	-10.8031
▁Mason	-10.8032
▁statement	-10.8048
▁Put	-10.8049
▁Patrick	-10.805
▁breeze	-10.8059
▁Lizzie	-10.8066
html	-10.8066
▁upward	-10.8068
▁departed	-10.8073
▁Meanwhile	-10.8074
▁attempted	-10.8074
son	-10.8077
▁income	-10.8078
▁volume	-10.8085
▁blank	-10.8094
▁partner	-10.8094
▁Ma	-10.81
▁port	-10.8104
▁fears	-10.8108
▁stunned	-10.8115
▁ladder	-10.8115
▁basket	-10.8119
▁grasp	-10.8123
▁limbs	-10.8126
▁obey	-10.8128
▁sunshine	-10.8138
▁folly	-10.8144
▁grim	-10.8148
▁deed	-10.8154
▁Blue	-10.8155
▁Julia	-10.8157
▁tide	-10.8157
▁Louise	-10.8159
▁uncomfortable	-10.8171
▁quit	-10.8174
▁Helen	-10.8177
▁midnight	-10.8179
▁infinite	-10.8182
▁ceremony	-10.8185
▁enthusiasm	-10.8185
▁respectable	-10.8186
▁concealed	-10.8186
▁merry	-10.8196
▁wire	-10.8199
▁searching	-10.8203
▁Ch	-10.8204
▁Parliament	-10.8205
▁singular	-10.8215
▁Blood	-10.8218
▁collar	-10.8223
▁pursuit	-10.8227
▁resting	-10.823
▁dearest	-10.8236
▁uh	-10.8242
▁telephone	-10.8244
▁non	-10.8249
▁Hector	-10.825
▁Spanish	-10.8254
▁Chief	-10.8256
▁13	-10.8258
▁acting	-10.8262
▁jumped	-10.8264
▁qui	-10.8271
▁official	-10.8274
▁PAT	-10.828
▁States	-10.828
▁subjects	-10.8283
Thank	-10.8287
beat	-10.8288
▁trick	-10.8293
▁HALL	-10.8295
▁moreover	-10.8295
▁SOUND	-10.8296
▁")	-10.8296
Footnote	-10.8307
▁theory	-10.8312
▁paint	-10.8314
▁Saturday	-10.8316
▁Holy	-10.8318
▁depths	-10.8318
▁roar	-10.8323
▁Time	-10.8325
▁happening	-10.8327
▁behaviour	-10.8328
▁jealous	-10.8329
▁ghost	-10.8333
▁Pecksniff	-10.8336
▁embrace	-10.8336
▁Most	-10.8338
▁RED	-10.8339
▁movie	-10.8344
▁agent	-10.8357
ian	-10.8363
▁slaves	-10.8364
▁sticks	-10.8369
▁hatred	-10.837
▁failure	-10.8372
▁indifference	-10.8376
▁Greek	-10.8376
▁apparent	-10.8384
▁pauses	-10.8386
▁cuts	-10.8389
▁scorn	-10.8394
▁sorts	-10.8397
▁Government	-10.8397
▁nearby	-10.8403
▁Val	-10.8407
▁principle	-10.8409
▁likewise	-10.8415
▁inch	-10.8418
▁Oliver	-10.8418
▁marble	-10.8421
▁fix	-10.843
▁beasts	-10.8441
▁palm	-10.8443
▁activity	-10.8446
▁proceed	-10.8448
▁owner	-10.8451
▁trembled	-10.8451
Because	-10.8452
▁Fawn	-10.8452
▁pretend	-10.8461
▁pour	-10.8463
▁nephew	-10.8465
▁parish	-10.8472
▁local	-10.8473
▁THAT	-10.8476
▁killing	-10.8478
Never	-10.848
▁lip	-10.8482
▁properly	-10.8483
▁cigar	-10.8484
▁lesson	-10.8485
▁Robin	-10.8486
▁staying	-10.8488
▁Any	-10.8488
▁honey	-10.849
▁massive	-10.8491
▁Carol	-10.8495
▁retreat	-10.8496
▁upset	-10.8498
▁bride	-10.8501
▁dumb	-10.8502
▁views	-10.8505
▁boxes	-10.8505
▁movements	-10.8506
▁design	-10.8508
▁display	-10.8517
▁backward	-10.8518
▁Big	-10.8526
▁discussion	-10.8526
▁laying	-10.853
oh	-10.8532
▁Four	-10.8534
▁Gregory	-10.8538
▁blade	-10.8539
▁Martha	-10.8539
▁NEW	-10.854
▁freely	-10.8542
▁exist	-10.8543
▁build	-10.8543
▁Kipps	-10.8544
ANGLE	-10.8546
▁Up	-10.855
▁Ramona	-10.8552
▁bullet	-10.8552
▁fourth	-10.8553
▁drag	-10.8565
▁Really	-10.8566
▁prisoners	-10.8569
God	-10.8571
▁borne	-10.8571
▁urged	-10.8575
▁Does	-10.8578
▁notion	-10.8587
▁wrath	-10.8587
▁grip	-10.8588
▁gown	-10.8589
▁unexpected	-10.8595
▁revealed	-10.8597
▁pushing	-10.8601
▁poured	-10.8603
▁raising	-10.8605
▁amazement	-10.8606
▁gloomy	-10.861
▁punishment	-10.8612
▁leader	-10.8612
▁faster	-10.8619
▁branch	-10.8621
▁furious	-10.8621
▁Alan	-10.8624
▁examined	-10.8624
▁pot	-10.8624
▁issue	-10.8628
▁probable	-10.8628
▁steadily	-10.8628
TV	-10.8633
age	-10.8635
▁afterward	-10.8636
▁impressed	-10.8639
▁folded	-10.864
▁separated	-10.8644
▁revenge	-10.8645
▁III	-10.8654
▁method	-10.8654
box	-10.8655
▁LOUIS	-10.8658
▁cliff	-10.8659
▁19	-10.8659
▁Cobb	-10.8677
▁threatened	-10.8678
▁straw	-10.8692
▁sixty	-10.8695
just	-10.8698
▁Malcolm	-10.8707
▁fetch	-10.871
▁ruined	-10.8713
▁BUILDING	-10.8721
▁obvious	-10.8724
▁description	-10.8726
▁nations	-10.8732
▁habits	-10.8734
▁seeking	-10.8735
▁struggles	-10.874
▁angrily	-10.874
▁Betty	-10.8743
▁Norman	-10.8744
▁veil	-10.8745
▁considering	-10.8746
▁elbow	-10.8751
▁Shall	-10.8752
▁Presently	-10.8758
▁Land	-10.8763
▁anymore	-10.877
▁farewell	-10.8786
▁Le	-10.8793
▁range	-10.8794
▁victory	-10.8807
▁Madam	-10.8808
▁MAX	-10.8809
▁benefit	-10.8809
▁Stop	-10.881
▁Castle	-10.881
▁gathering	-10.8816
▁cash	-10.8829
▁HOME	-10.883
▁betrayed	-10.883
▁labour	-10.8832
▁August	-10.8838
▁gather	-10.8842
▁popular	-10.8846
▁IMSDb	-10.8848
▁indignation	-10.8849
▁alarmed	-10.885
▁kick	-10.8855
▁heavens	-10.8857
▁succeed	-10.8862
▁salt	-10.8864
▁Virginia	-10.8867
▁leaps	-10.8868
ant	-10.8869
▁rules	-10.887
▁cage	-10.8877
▁footsteps	-10.8879
▁Everybody	-10.888
▁hesitation	-10.8886
▁wildly	-10.8887
▁behalf	-10.8891
▁families	-10.8893
▁sweat	-10.8894
▁kingdom	-10.8894
▁composed	-10.8894
▁absent	-10.8913
▁Neither	-10.8913
▁ambition	-10.8915
▁nervously	-10.8916
▁dis	-10.8926
Nothing	-10.8933
▁arrangement	-10.8938
▁purple	-10.8938
▁faded	-10.894
▁impatient	-10.8942
▁Kim	-10.8942
▁normal	-10.8944
▁Danny	-10.8951
▁trusted	-10.8952
▁(-	-10.8952
▁ventured	-10.8954
▁favourite	-10.8959
▁crack	-10.8962
▁leaped	-10.8962
▁correct	-10.8964
▁jungle	-10.8966
▁eh	-10.8967
ul	-10.8978
▁LARRY	-10.8979
▁crept	-10.8988
▁actual	-10.8992
▁appointed	-10.8994
▁wrist	-10.8996
▁Peregrine	-10.8996
▁easier	-10.9002
▁beheld	-10.9006
▁strain	-10.9011
▁prefer	-10.9019
▁CORRIDOR	-10.9019
▁Grant	-10.9023
▁staff	-10.9026
▁represented	-10.9027
▁worship	-10.9027
▁aim	-10.9034
▁envelope	-10.9041
▁stirred	-10.9044
▁PAUL	-10.9046
▁spiritual	-10.9049
▁loudly	-10.905
▁neighbourhood	-10.9061
▁waving	-10.9064
▁vanity	-10.9069
▁ate	-10.907
▁NO	-10.9073
▁rent	-10.9075
▁invitation	-10.9078
▁OFF	-10.9081
▁divided	-10.9086
▁temple	-10.9086
▁disagreeable	-10.9091
▁permit	-10.9095
▁swung	-10.9098
▁beloved	-10.91
▁lawn	-10.9103
▁file	-10.9104
▁piano	-10.9108
▁solitary	-10.9113
▁pressing	-10.9115
▁OLD	-10.9117
▁invisible	-10.9117
▁40	-10.9118
▁18	-10.9121
▁decent	-10.9126
▁EVENING	-10.9128
▁Molly	-10.9128
▁warmth	-10.9131
JOHN	-10.9134
▁TIME	-10.9136
▁results	-10.9136
▁map	-10.9136
▁intend	-10.9139
▁dine	-10.9142
▁v	-10.9151
▁artist	-10.9155
▁bushes	-10.9161
side	-10.9163
▁FOR	-10.9171
▁upright	-10.9173
▁thunder	-10.9174
can	-10.9174
▁wears	-10.9174
▁marks	-10.9177
eyed	-10.9178
▁hideous	-10.9184
▁changing	-10.9186
▁ex	-10.9194
▁wandering	-10.9195
▁created	-10.9196
▁rushing	-10.9197
▁meantime	-10.9199
▁alike	-10.9201
▁50	-10.9206
▁distinct	-10.9215
▁daylight	-10.9216
▁cops	-10.9218
▁seats	-10.922
▁expense	-10.9221
▁male	-10.9223
▁cleared	-10.9223
▁assurance	-10.9224
▁inquiry	-10.9225
▁wandered	-10.9227
▁gravely	-10.9229
▁Englishman	-10.923
▁quoth	-10.9233
▁counsel	-10.9234
▁ME	-10.9239
▁dropping	-10.9244
▁lightning	-10.9245
▁defend	-10.9247
▁bars	-10.9252
▁principal	-10.9253
▁communication	-10.9259
▁Five	-10.9264
▁bus	-10.9266
▁Minister	-10.9267
▁eternal	-10.9276
*	-10.9276
▁moonlight	-10.9279
▁extended	-10.9288
▁resist	-10.9289
▁amusement	-10.929
▁maiden	-10.9291
▁flood	-10.9296
▁sighs	-10.9296
▁shaken	-10.93
▁clergyman	-10.9301
▁embarrassed	-10.9304
▁detail	-10.9309
▁covering	-10.9313
▁hoping	-10.9318
▁involved	-10.9318
▁knocking	-10.9324
▁recognize	-10.9327
▁load	-10.9331
▁visited	-10.9332
▁Herbert	-10.9333
▁nowhere	-10.9334
▁pillow	-10.9347
▁parting	-10.9348
book	-10.9354
▁glowing	-10.9356
▁Alessandro	-10.9364
LE	-10.9366
▁troubles	-10.9368
▁leap	-10.9369
▁PHONE	-10.9369
Just	-10.9369
ally	-10.9375
▁expecting	-10.9375
▁carries	-10.9378
▁panic	-10.9378
▁tones	-10.938
▁solitude	-10.9384
▁25	-10.9386
▁Harriet	-10.9388
▁mon	-10.9391
▁mingled	-10.9394
AN	-10.9395
▁pre	-10.9398
▁deserve	-10.9402
▁soil	-10.9404
▁permission	-10.9407
▁absorbed	-10.9408
some	-10.9413
▁experienced	-10.9413
▁motive	-10.9414
▁traffic	-10.9416
▁Wilson	-10.9416
▁Joan	-10.9419
▁nay	-10.9422
▁Booth	-10.9423
▁Rob	-10.943
▁poverty	-10.943
now	-10.9442
▁Stanbury	-10.9445
▁exposed	-10.9449
▁shower	-10.945
▁weren	-10.9453
z	-10.9453
▁swing	-10.9457
▁buildings	-10.9459
▁Brown	-10.946
Indeed	-10.9462
▁rights	-10.9462
▁Am	-10.9473
▁corn	-10.9476
▁destruction	-10.9478
▁thither	-10.9484
▁prey	-10.9485
▁tables	-10.9495
▁poetry	-10.95
▁legal	-10.95
images	-10.9501
▁absurd	-10.9504
▁Delamere	-10.9515
uite	-10.952
▁nerves	-10.9524
▁readily	-10.9524
▁opinions	-10.9525
▁!!	-10.9537
your	-10.9545
▁weeping	-10.9546
▁funeral	-10.9546
▁contents	-10.9547
▁Ten	-10.9549
▁Square	-10.9554
▁races	-10.9556
▁Andy	-10.9558
▁y	-10.9558
▁draws	-10.956
▁shed	-10.9563
▁bills	-10.9569
EE	-10.957
▁spins	-10.9571
▁harder	-10.9572
▁24	-10.9572
▁goin	-10.9574
▁fastened	-10.9578
only	-10.9578
▁faced	-10.9582
▁talks	-10.9595
▁passionate	-10.9598
▁sunlight	-10.9602
▁film	-10.9602
▁retorted	-10.9609
▁rude	-10.9612
▁gestures	-10.9614
▁mate	-10.9622
cont	-10.9628
▁interior	-10.9631
▁crossing	-10.9641
▁nights	-10.9646
▁acknowledged	-10.9647
▁mischief	-10.9647
▁powder	-10.9649
▁flushed	-10.965
▁lean	-10.9651
▁stolen	-10.9651
▁risen	-10.9652
Sir	-10.9654
▁possess	-10.9656
▁Sylvia	-10.9657
▁fearful	-10.9659
▁major	-10.9664
▁ONE	-10.9665
from	-10.9665
▁weird	-10.9666
▁medical	-10.9672
▁applied	-10.9678
head	-10.9679
ate	-10.968
▁steep	-10.9681
▁Fuck	-10.9681
▁earnestly	-10.9683
▁cop	-10.9685
▁hither	-10.9685
▁picking	-10.9689
▁steal	-10.9694
▁offence	-10.9696
▁commanded	-10.9697
▁describe	-10.9703
▁World	-10.9704
▁flow	-10.9704
▁mixed	-10.9712
▁anxiously	-10.9713
▁related	-10.9714
▁Judge	-10.9717
▁accordingly	-10.9718
▁curtains	-10.9719
▁heap	-10.9733
▁deadly	-10.9741
▁guessed	-10.9742
?!	-10.9743
▁bunch	-10.9744
▁phrase	-10.9745
▁protest	-10.9748
▁answering	-10.9749
yes	-10.975
▁CAPTAIN	-10.9755
▁bowl	-10.9757
▁characters	-10.9766
▁require	-10.9766
▁incident	-10.9767
▁gracious	-10.9771
▁floating	-10.9776
▁Daddy	-10.9777
0	-10.9783
▁scenes	-10.9785
▁Isabel	-10.9785
▁se	-10.9785
Ay	-10.9789
▁theatre	-10.9792
▁Although	-10.9794
▁angle	-10.9796
▁feed	-10.98
Be	-10.9806
▁Eric	-10.9806
▁Susan	-10.9807
▁fuckin	-10.9811
▁stout	-10.9815
▁beaten	-10.9815
▁accomplished	-10.9816
MRS	-10.9817
▁Several	-10.9823
▁ages	-10.9823
▁heartily	-10.9824
Tell	-10.9826
▁safely	-10.9826
▁teacher	-10.9826
▁wash	-10.9827
▁photo	-10.9827
▁responsibility	-10.9829
▁oath	-10.9831
▁paces	-10.9833
▁troops	-10.9833
▁happily	-10.9834
▁co	-10.9836
▁heading	-10.9836
▁landlord	-10.9837
▁louder	-10.984
▁closet	-10.984
▁KING	-10.9841
HARRY	-10.9842
▁21	-10.9856
Certainly	-10.9858
▁h	-10.9863
▁altered	-10.9863
▁endeavoured	-10.9864
im	-10.9864
▁objection	-10.9864
▁roused	-10.9864
▁neighborhood	-10.9869
▁East	-10.9879
ier	-10.9882
▁numerous	-10.9886
▁anguish	-10.9889
▁stroke	-10.9901
▁formerly	-10.9905
▁emotions	-10.9909
▁recover	-10.9923
▁BOY	-10.9923
▁twisted	-10.9927
▁pas	-10.9929
▁including	-10.9931
▁section	-10.9931
▁Death	-10.9934
▁string	-10.9938
▁qualities	-10.9941
even	-10.9948
▁completed	-10.9949
▁assist	-10.9949
▁yield	-10.9951
▁eggs	-10.9951
▁Sue	-10.9959
▁remarks	-10.9959
▁prevented	-10.9965
▁preparing	-10.9974
▁politics	-10.9974
▁addressing	-10.9978
▁Harding	-10.9984
▁grows	-10.9985
▁pitch	-10.9986
▁MORE	-10.9987
▁blowing	-10.9987
▁suggest	-10.9991
▁hastened	-10.9991
ty	-10.9993
▁reminded	-10.9996
▁trap	-11.0002
▁chase	-11.0006
▁saddle	-11.0006
▁United	-11.0006
▁wagon	-11.0008
▁glancing	-11.001
Dear	-11.0015
▁AN	-11.0017
▁Too	-11.0017
▁nod	-11.0019
▁disgust	-11.0021
▁Miller	-11.0024
ning	-11.0024
▁corpse	-11.0026
▁term	-11.0032
▁total	-11.0036
▁noon	-11.0038
▁Carter	-11.004
▁propose	-11.0046
▁craft	-11.0047
▁Kitty	-11.0049
▁parlour	-11.0051
▁affectionate	-11.0052
▁professional	-11.0054
▁eaten	-11.0055
▁shout	-11.0059
▁recall	-11.0064
▁covers	-11.0067
▁impatience	-11.0071
▁Leonard	-11.0077
▁Lisa	-11.008
▁Alwynne	-11.0082
▁Pete	-11.0089
▁shrugs	-11.0089
▁THROUGH	-11.0092
▁amazed	-11.0098
ra	-11.01
▁fancied	-11.0104
▁Bond	-11.0104
▁intervals	-11.0104
▁LISA	-11.0105
▁lodgings	-11.0107
▁Nay	-11.0108
▁tin	-11.0108
▁consequences	-11.011
▁Keep	-11.0112
▁warrant	-11.0113
ley	-11.0113
▁Rick	-11.0115
▁IV	-11.0118
▁dreamed	-11.0119
▁elsewhere	-11.0122
▁prepare	-11.0125
An	-11.0126
ud	-11.0127
▁bull	-11.0133
▁railway	-11.0134
▁Latin	-11.0134
▁whip	-11.0135
▁wing	-11.0144
▁remind	-11.0153
▁disappears	-11.0154
▁disgrace	-11.0154
▁des	-11.0158
BILLY	-11.0162
▁pit	-11.0172
▁fortnight	-11.0178
per	-11.018
▁prize	-11.0187
▁yielded	-11.019
▁presses	-11.0198
▁checked	-11.0206
▁hundreds	-11.0207
▁TOM	-11.0214
▁distinctly	-11.0214
▁extra	-11.0216
▁positive	-11.0218
▁awe	-11.0219
▁instructions	-11.0222
▁jealousy	-11.0223
▁Duchess	-11.0225
▁residence	-11.0228
▁tremendous	-11.0242
▁flashed	-11.0243
▁intent	-11.0243
▁Tim	-11.0244
▁coal	-11.0245
▁wives	-11.0247
▁reasonable	-11.0247
▁contented	-11.0274
▁inhabitants	-11.0274
▁Also	-11.0274
▁community	-11.0278
▁Sandy	-11.0278
Miss	-11.0287
▁slender	-11.0287
▁articles	-11.0301
▁bay	-11.0308
▁OK	-11.0315
▁parked	-11.0317
▁sunk	-11.0317
▁Looks	-11.0318
▁Jordan	-11.0321
▁Johnny	-11.0323
▁MUSIC	-11.0324
▁furnished	-11.0326
▁actions	-11.0327
▁submit	-11.0327
▁blew	-11.0328
▁STEPHEN	-11.0328
▁compared	-11.0333
▁faintly	-11.0337
▁Night	-11.0338
very	-11.0343
▁citizen	-11.0344
▁romantic	-11.0346
▁secretary	-11.0348
▁performed	-11.0348
que	-11.0348
▁bishop	-11.0353
▁drinks	-11.0354
▁reduced	-11.0355
ine	-11.036
▁kicks	-11.0363
▁Hill	-11.0369
▁Jennie	-11.0372
▁principles	-11.0374
▁gallery	-11.038
▁BY	-11.038
▁fog	-11.0384
▁YOUNG	-11.0387
▁warriors	-11.0387
▁granted	-11.0399
▁feeble	-11.04
▁whereas	-11.0402
▁policy	-11.0403
▁MED	-11.0406
▁]	-11.0411
▁engineer	-11.0413
▁gloves	-11.0418
▁interfere	-11.0421
5	-11.043
▁SHE	-11.0431
▁sore	-11.0432
▁sole	-11.0437
MR	-11.044
where	-11.0443
▁banks	-11.0444
▁Were	-11.0447
ha	-11.0451
▁whispers	-11.0452
▁Ross	-11.046
▁services	-11.0461
▁tosses	-11.0461
▁reception	-11.0462
▁damp	-11.0465
▁Emperor	-11.0465
▁outward	-11.0477
▁sentiment	-11.0477
▁backs	-11.048
▁breathe	-11.0488
▁hunt	-11.0489
▁crushed	-11.0492
▁grin	-11.0496
▁AFTERNOON	-11.0498
▁Oz	-11.0498
▁merit	-11.0503
▁practically	-11.0504
▁chapter	-11.0506
four	-11.0509
▁Tin	-11.0511
▁climbed	-11.0511
▁heir	-11.0518
▁Should	-11.0519
lo	-11.0524
▁Arabella	-11.0524
▁offering	-11.0528
▁catching	-11.0531
▁FLOOR	-11.0534
▁Dorothea	-11.0534
▁cheap	-11.0535
▁Soon	-11.0536
▁curse	-11.0538
▁MATT	-11.0539
▁Sophia	-11.054
▁Other	-11.054
▁shoots	-11.0542
▁blown	-11.0543
▁brains	-11.0543
▁swinging	-11.0546
▁pavement	-11.0549
▁meanwhile	-11.0549
▁Betsy	-11.055
▁positively	-11.0553
▁Island	-11.0553
▁acknowledge	-11.0556
hand	-11.0557
▁Logan	-11.0559
▁ladyship	-11.0559
▁hence	-11.0563
▁apt	-11.0567
led	-11.057
▁recalled	-11.0571
▁GUARD	-11.0571
ta	-11.0572
▁Rebecca	-11.0574
▁lofty	-11.0575
▁shield	-11.0576
▁painting	-11.0578
▁polite	-11.0581
▁MARK	-11.0585
▁fro	-11.0586
▁wilt	-11.0589
▁Magdalen	-11.0592
▁performance	-11.0592
▁instrument	-11.0596
▁Kennedy	-11.0602
▁training	-11.0604
▁bite	-11.0605
▁Nigel	-11.0608
With	-11.0618
▁illness	-11.0623
▁innocence	-11.0626
▁vulgar	-11.0626
▁monstrous	-11.0631
▁images	-11.0635
▁proposal	-11.0636
▁trifle	-11.0636
▁depend	-11.0638
▁receiving	-11.0643
▁carpet	-11.0644
▁princess	-11.0644
▁voyage	-11.0645
▁cautiously	-11.0653
▁Ashe	-11.0657
▁preferred	-11.066
▁murmur	-11.066
▁conceived	-11.0661
▁passenger	-11.0666
▁Italy	-11.0672
▁spell	-11.0673
▁Call	-11.0673
▁Remember	-11.0675
▁tobacco	-11.0678
▁offended	-11.0681
▁enjoying	-11.0682
▁rescue	-11.0686
▁Benny	-11.0687
▁Excuse	-11.0689
▁fortunate	-11.0692
two	-11.0694
▁War	-11.0699
▁BEAT	-11.0699
▁beam	-11.07
▁Violet	-11.0705
▁pants	-11.0709
ship	-11.071
▁POLICE	-11.0711
▁studied	-11.0712
▁bags	-11.0714
▁Hugh	-11.0714
▁portrait	-11.0716
▁Jackie	-11.0716
se	-11.0719
▁boats	-11.0721
▁backwards	-11.0727
----------------	-11.0728
▁spear	-11.073
▁intelligent	-11.0737
headed	-11.0742
▁winds	-11.0743
▁listens	-11.0744
▁modest	-11.0744
▁Fairy	-11.0749
▁Dale	-11.075
▁SCREEN	-11.0752
▁lovers	-11.0753
▁sober	-11.076
▁Down	-11.0761
▁loaded	-11.0766
▁continually	-11.0766
▁mission	-11.0775
▁firing	-11.0777
ee	-11.0778
▁BAR	-11.0779
▁Adams	-11.0782
SON	-11.0783
▁bigger	-11.0783
▁hunger	-11.0784
▁WILL	-11.0788
▁cares	-11.0795
▁tray	-11.08
TO	-11.08
▁persuaded	-11.08
▁Palliser	-11.08
▁emerges	-11.081
▁Monday	-11.0811
▁linen	-11.0812
▁longing	-11.082
▁chap	-11.0828
▁bush	-11.0828
ner	-11.0829
les	-11.0832
ily	-11.0833
▁twilight	-11.0835
TED	-11.0837
▁attracted	-11.0839
ur	-11.084
▁valuable	-11.0844
▁prayers	-11.0844
EN	-11.0844
▁philosophy	-11.0845
▁Close	-11.0849
▁bitch	-11.0851
▁rays	-11.0852
▁intellectual	-11.0854
▁leisure	-11.0859
▁mode	-11.086
▁travelling	-11.0862
▁Jimmy	-11.0863
▁Wolf	-11.0863
▁pours	-11.0864
▁jail	-11.0865
▁mild	-11.0866
▁overhead	-11.0867
▁filling	-11.0868
▁Shit	-11.0868
▁alley	-11.0868
▁brick	-11.0872
▁offers	-11.0878
▁Bell	-11.0878
▁28	-11.0881
▁horrid	-11.0881
▁union	-11.0882
Take	-11.0882
▁rival	-11.0883
▁assume	-11.0884
▁fed	-11.0886
▁MEN	-11.0888
▁shouts	-11.0889
▁Instead	-11.0892
▁electric	-11.0893
gate	-11.0895
▁county	-11.0897
▁Catherine	-11.0899
4	-11.0899
▁depth	-11.0901
▁DANNY	-11.0903
▁wreck	-11.0904
▁impatiently	-11.0905
our	-11.0907
▁www	-11.0911
▁longed	-11.0913
▁bitterly	-11.0916
▁refuge	-11.0917
▁22	-11.0918
▁DAWN	-11.0919
▁bone	-11.0926
▁wept	-11.0927
▁lively	-11.0933
▁remove	-11.0934
▁helping	-11.0934
▁washed	-11.0938
▁inevitable	-11.0942
▁Rev	-11.0944
▁mansion	-11.0946
▁millions	-11.0953
down	-11.0954
▁maintain	-11.0954
gif	-11.0955
▁madness	-11.0955
▁acquired	-11.0956
▁sensation	-11.0957
natured	-11.0966
▁Leo	-11.0967
▁Glencora	-11.0971
▁model	-11.0971
▁obeyed	-11.0974
▁Chia	-11.0976
▁devotion	-11.0981
▁HEAD	-11.0982
▁kinds	-11.0983
▁Sea	-11.0986
▁charged	-11.0987
▁frequent	-11.0995
▁Pope	-11.0998
▁marrying	-11.0999
▁fur	-11.0999
▁Governor	-11.1001
▁shortly	-11.1004
▁signed	-11.1009
▁colonel	-11.1015
▁favorite	-11.1018
▁drawer	-11.102
▁wishing	-11.1023
▁DE	-11.1026
▁sang	-11.1029
▁sugar	-11.1029
▁admired	-11.103
mo	-11.1031
▁satisfy	-11.1031
▁MOTHER	-11.1033
▁existed	-11.1036
▁leaf	-11.1039
▁video	-11.1045
ad	-11.1046
▁contrast	-11.1046
▁com	-11.1049
▁vengeance	-11.1049
▁determination	-11.1049
▁knocks	-11.1049
▁supported	-11.105
▁regarding	-11.1053
▁grounds	-11.1054
▁doubted	-11.1056
ring	-11.1058
▁cheer	-11.1064
▁eighteen	-11.1066
▁hesitates	-11.1071
▁visitors	-11.1073
ph	-11.1075
▁whispering	-11.1075
▁Has	-11.1076
▁Al	-11.1076
▁chiefly	-11.1077
▁VI	-11.1082
▁LADY	-11.1082
▁novel	-11.1087
▁mustn	-11.1091
▁Squire	-11.1092
line	-11.1097
▁injured	-11.1099
▁desperately	-11.11
▁unpleasant	-11.1105
▁wounds	-11.1108
▁clothing	-11.1113
▁hopeless	-11.1114
▁grandmother	-11.1116
▁lowered	-11.1117
▁genuine	-11.1127
▁KIRK	-11.1128
▁Half	-11.1128
▁pronounced	-11.1137
▁awhile	-11.1139
▁agitation	-11.114
▁gravity	-11.114
▁restless	-11.1141
▁crash	-11.1146
▁monsieur	-11.1149
▁murdered	-11.1151
vo	-11.1155
7	-11.1156
ized	-11.116
▁shy	-11.1164
▁Lily	-11.1165
▁blast	-11.1165
▁foul	-11.1166
▁Barney	-11.1167
▁bewildered	-11.1169
▁fan	-11.1171
▁tough	-11.1172
▁cunning	-11.1173
▁plastic	-11.1176
▁passions	-11.1177
▁secrets	-11.1177
▁Gerald	-11.1196
▁fame	-11.1196
▁Moon	-11.1201
▁Eddie	-11.1204
▁restored	-11.121
Mrs	-11.121
▁grant	-11.1215
▁exquisite	-11.122
▁velvet	-11.1229
▁sub	-11.1229
▁Trevelyan	-11.1232
▁None	-11.1232
▁harsh	-11.1233
MARK	-11.1234
▁whither	-11.1236
▁cure	-11.1237
▁uncertain	-11.1237
▁qu	-11.1239
▁increase	-11.1239
▁100	-11.1244
▁Veronica	-11.1251
light	-11.1254
▁effects	-11.1255
▁thumb	-11.1255
ma	-11.1256
▁duke	-11.126
▁clearing	-11.1263
▁sunset	-11.1264
ive	-11.1265
▁ringing	-11.1268
▁childhood	-11.1268
▁discuss	-11.1269
▁Caesar	-11.1277
▁brush	-11.1281
▁FADE	-11.1281
▁wherever	-11.1282
▁enjoyment	-11.1285
▁shalt	-11.1288
LARRY	-11.1288
▁altar	-11.1294
▁kissing	-11.1296
because	-11.1297
▁precisely	-11.1298
▁FRONT	-11.13
▁advise	-11.1303
▁terribly	-11.1305
▁Dorrit	-11.1305
▁Being	-11.1309
▁containing	-11.1309
▁bargain	-11.1312
▁operation	-11.1313
▁Scotland	-11.1315
▁steam	-11.1316
▁defence	-11.1319
▁blessing	-11.1321
▁cattle	-11.1323
▁curiously	-11.1324
▁ROB	-11.1327
▁Lester	-11.1333
▁mail	-11.1335
▁packed	-11.1335
▁Lieutenant	-11.1337
▁torture	-11.1343
▁appreciate	-11.1343
▁Jude	-11.1345
▁Royal	-11.1345
▁wolf	-11.1345
▁MALCOLM	-11.1347
▁disappear	-11.135
▁Boy	-11.1351
▁motions	-11.1355
▁Mount	-11.1361
▁LA	-11.1362
▁DUSK	-11.1363
See	-11.1364
▁tip	-11.1364
▁Doc	-11.1366
▁26	-11.1366
▁locks	-11.1369
▁chances	-11.1376
▁vaguely	-11.1377
▁balls	-11.1379
▁Lapham	-11.1379
▁injury	-11.1379
▁render	-11.1379
▁annoyed	-11.1383
▁frightful	-11.1387
▁Eustace	-11.1388
](	-11.1388
▁warrior	-11.139
▁thief	-11.139
▁interval	-11.1397
▁Gresham	-11.1398
▁unlike	-11.1399
▁mostly	-11.14
▁bath	-11.1401
▁Coningsby	-11.1407
▁Pencroft	-11.1407
▁RE	-11.1408
▁Blanche	-11.1419
▁release	-11.1423
▁seeming	-11.1429
▁den	-11.143
▁debt	-11.1432
▁graceful	-11.1433
▁lo	-11.1439
▁recognised	-11.1439
▁ape	-11.144
▁waved	-11.1442
▁romance	-11.1444
▁capacity	-11.1444
▁responsible	-11.1445
▁Bobby	-11.1446
▁shoe	-11.1448
▁treatment	-11.1448
wood	-11.1451
▁dad	-11.1453
▁arrested	-11.1458
▁Him	-11.1458
▁belongs	-11.1461
▁split	-11.1463
▁Mowbray	-11.1463
▁Miles	-11.1469
▁rector	-11.147
▁Looking	-11.1472
▁arrest	-11.1478
▁examine	-11.1486
▁acts	-11.1488
▁lane	-11.149
▁lifting	-11.1495
▁autumn	-11.1497
▁RICK	-11.1497
▁farmer	-11.15
▁Hold	-11.1504
▁confession	-11.151
▁Geoffrey	-11.1513
▁deceived	-11.1517
▁Harold	-11.152
▁memories	-11.1521
▁jewels	-11.1523
▁landed	-11.1531
▁sinking	-11.1533
▁wont	-11.1535
▁bottles	-11.1542
▁caution	-11.1547
▁suspicious	-11.1549
▁landscape	-11.1549
▁CHARLES	-11.155
▁aboard	-11.1559
▁Son	-11.1561
▁doubtful	-11.1561
▁barrel	-11.1563
.'"	-11.1564
▁gang	-11.1565
▁fitted	-11.1569
old	-11.1574
▁neat	-11.1577
▁brass	-11.1577
▁robe	-11.1581
▁aged	-11.1581
▁45	-11.1582
▁Make	-11.1583
▁MARGARET	-11.1586
▁chill	-11.1587
▁conceive	-11.1587
▁tracks	-11.1593
▁assembled	-11.1597
▁inform	-11.1604
▁Among	-11.1607
▁Charley	-11.1608
▁pains	-11.1609
bed	-11.161
▁pretended	-11.161
▁VAN	-11.1613
co	-11.1614
▁daring	-11.1615
▁clasped	-11.1616
▁wretch	-11.1619
▁Grey	-11.1625
▁attacked	-11.1627
▁reserve	-11.1627
▁surrounding	-11.1628
▁insult	-11.163
▁yonder	-11.1634
▁Grand	-11.1634
▁perform	-11.1642
▁deliver	-11.1648
▁MOMENTS	-11.1656
▁hut	-11.166
▁scale	-11.166
▁pouring	-11.1661
▁criminal	-11.1666
▁HAND	-11.1671
▁attractive	-11.1672
▁Lufton	-11.1672
▁variety	-11.1672
▁warned	-11.1676
▁corners	-11.168
▁diamonds	-11.1681
▁hurries	-11.1682
▁fairy	-11.1682
▁discourse	-11.1685
▁ALL	-11.1691
▁Kelly	-11.1691
▁agitated	-11.1692
NA	-11.1697
▁Roland	-11.1705
▁dish	-11.1705
▁stretch	-11.1706
▁charity	-11.171
▁ERIC	-11.1714
▁grab	-11.1714
▁Friday	-11.1715
▁mill	-11.1716
▁shaft	-11.1717
▁slope	-11.1719
work	-11.172
▁Silence	-11.1723
▁admire	-11.1724
▁PA	-11.1728
▁strikes	-11.1732
▁encounter	-11.1733
▁Washington	-11.1739
▁reckon	-11.174
▁recollection	-11.1742
▁blanket	-11.1743
▁sleeve	-11.1749
▁inquiries	-11.1749
▁Marian	-11.1751
ard	-11.1754
▁swore	-11.1759
▁Whether	-11.176
▁DOCTOR	-11.1762
▁hook	-11.1763
▁belonging	-11.1763
▁Beat	-11.1769
▁independent	-11.1771
▁plunged	-11.1773
▁sport	-11.1774
▁thanked	-11.1778
▁resentment	-11.1778
▁aught	-11.1784
▁reproach	-11.1784
▁bleeding	-11.1789
▁Po	-11.179
▁Strether	-11.1791
▁threshold	-11.1798
▁incredible	-11.1799
der	-11.1799
▁wrought	-11.1802
▁tightly	-11.1805
▁FIRE	-11.1806
ro	-11.1809
▁END	-11.1809
▁examination	-11.1809
▁mutual	-11.1814
ities	-11.1817
▁counted	-11.1818
▁JULIE	-11.1818
May	-11.1823
▁dwelling	-11.1828
▁inward	-11.183
▁behaved	-11.184
▁vehicle	-11.184
6	-11.1844
▁murderer	-11.1847
▁appointment	-11.185
▁induced	-11.1853
▁amiable	-11.1856
▁nigh	-11.1858
▁WILLIAM	-11.1862
▁helmet	-11.1868
more	-11.1869
▁anyhow	-11.1873
▁trousers	-11.1875
▁observing	-11.1876
rd	-11.1876
▁Angel	-11.188
▁gear	-11.1882
ai	-11.1889
▁revolver	-11.189
▁sheets	-11.1892
▁ideal	-11.1893
▁tune	-11.1897
▁certainty	-11.1897
▁Sid	-11.1906
▁privilege	-11.1912
▁balcony	-11.1915
▁Barbara	-11.1916
▁Clennam	-11.1925
ous	-11.1925
▁FACE	-11.1928
▁error	-11.1929
▁cease	-11.193
▁cursed	-11.1935
▁Homer	-11.1939
▁inspired	-11.1942
▁60	-11.1946
▁Scarecrow	-11.1954
▁elegant	-11.1954
▁Rosamond	-11.1956
ci	-11.196
▁skull	-11.1972
▁charges	-11.1973
Star	-11.1973
▁column	-11.1978
▁Lydgate	-11.1984
▁Jason	-11.1987
▁halt	-11.1988
▁JIM	-11.1991
▁literature	-11.1994
▁notwithstanding	-11.1996
▁charms	-11.1996
▁holes	-11.1998
▁gleam	-11.1999
▁messenger	-11.2
▁dislike	-11.2001
ex	-11.2003
▁occasional	-11.2005
▁cake	-11.2006
▁dashed	-11.2007
▁chimney	-11.2009
▁trained	-11.2016
▁dried	-11.2018
▁cow	-11.202
▁toilet	-11.2022
▁Cat	-11.2024
▁INTERIOR	-11.2025
▁tossed	-11.2026
▁profit	-11.2032
▁policeman	-11.2037
▁stable	-11.2038
▁esteem	-11.2039
▁peers	-11.2039
▁opposition	-11.2043
▁flashing	-11.2047
▁bitterness	-11.2047
▁secured	-11.2048
▁weep	-11.2052
▁labor	-11.2053
▁alien	-11.2058
▁boss	-11.2061
▁persuade	-11.2065
▁OFFICER	-11.2066
▁pound	-11.2066
▁Pao	-11.2068
▁lodging	-11.2069
▁sentiments	-11.2074
▁scent	-11.2075
▁MY	-11.2076
▁Room	-11.2076
▁HARRY	-11.2077
have	-11.2078
▁Daniel	-11.2079
▁subtle	-11.208
▁MAC	-11.2081
▁Mars	-11.2083
▁pig	-11.2088
▁rail	-11.209
▁shots	-11.209
▁breathed	-11.2091
▁shan	-11.2093
▁Gordon	-11.2095
▁FIRST	-11.2095
▁jaw	-11.2095
past	-11.21
▁Ford	-11.2104
▁Moreover	-11.2106
▁purposes	-11.2107
▁realizes	-11.2108
▁personally	-11.2108
▁yo	-11.2112
▁universe	-11.2113
▁Victor	-11.2114
▁substance	-11.212
▁landlady	-11.2123
▁complain	-11.2125
▁Thee	-11.2126
▁candles	-11.2127
▁Andrew	-11.2133
▁birthday	-11.2136
▁multitude	-11.214
▁Fox	-11.2144
▁.)	-11.2146
▁butter	-11.2148
▁sidewalk	-11.2151
▁arrangements	-11.2152
▁********	-11.2153
▁displayed	-11.2159
▁adventures	-11.2161
▁Dear	-11.2169
▁deserved	-11.2172
▁flips	-11.2174
▁eldest	-11.2184
▁0	-11.2185
▁TOMMY	-11.2187
▁Jackson	-11.2188
▁developed	-11.219
▁attorney	-11.2191
▁Israel	-11.2191
▁enabled	-11.2192
faced	-11.2196
▁collected	-11.2197
▁thence	-11.2198
▁Meg	-11.22
DR	-11.2206
▁noted	-11.2213
▁intimacy	-11.2214
▁accompany	-11.2218
ir	-11.2219
▁Graham	-11.2224
▁Chiltern	-11.2225
▁establishment	-11.2225
▁liquid	-11.2225
▁Nancy	-11.2228
▁27	-11.2232
ler	-11.2232
On	-11.2233
▁Clavering	-11.2234
▁BRIDGE	-11.2239
▁rows	-11.2241
tic	-11.2243
▁denied	-11.2245
▁bother	-11.2245
▁withdrew	-11.2246
▁medicine	-11.2252
▁Place	-11.2259
▁expedition	-11.2262
▁passengers	-11.2263
▁pencil	-11.2264
▁awoke	-11.2275
▁scientific	-11.2276
▁purchase	-11.2277
▁alongside	-11.2278
▁Bernard	-11.2278
▁booth	-11.2281
here	-11.2282
▁fishing	-11.2285
▁exceedingly	-11.2286
▁definite	-11.2291
▁console	-11.2295
▁likes	-11.2296
▁desires	-11.2301
▁saving	-11.2302
▁peaceful	-11.2303
▁costume	-11.2304
▁amidst	-11.2307
▁Isn	-11.2308
▁shell	-11.2312
▁delicious	-11.2313
▁apprehension	-11.2314
▁23	-11.2316
▁confined	-11.2318
▁penny	-11.2323
▁Cross	-11.2325
▁Rue	-11.2333
▁coarse	-11.2339
▁intently	-11.234
▁Far	-11.2341
▁bend	-11.2345
▁reported	-11.2347
▁arrives	-11.2354
▁remembrance	-11.2355
▁guilt	-11.2355
▁ROAD	-11.2355
His	-11.2356
▁sweep	-11.2356
▁Africa	-11.2357
▁Vanstone	-11.2357
▁bows	-11.2357
▁Li	-11.2358
▁uses	-11.2361
would	-11.2366
▁simplicity	-11.2367
▁MAIN	-11.2375
▁confirmed	-11.2381
▁enable	-11.2382
▁BILL	-11.2383
▁reaction	-11.2387
▁literary	-11.2389
▁COP	-11.239
▁newspapers	-11.239
ga	-11.2391
▁descend	-11.2392
▁oak	-11.2393
ue	-11.2394
▁project	-11.2397
▁equipment	-11.2398
▁Wall	-11.2398
▁Maria	-11.24
▁gifts	-11.2403
▁bending	-11.2404
▁fragments	-11.2407
▁Armadale	-11.241
▁Hale	-11.2411
▁compliment	-11.2414
▁selfish	-11.2416
▁causes	-11.2421
▁entertained	-11.2422
▁con	-11.2424
...."	-11.2431
▁needle	-11.2433
▁compassion	-11.2436
▁damned	-11.2436
▁centuries	-11.2439
▁regards	-11.2444
▁provide	-11.2451
▁Harris	-11.2451
▁Co	-11.2455
▁Dis	-11.2457
▁gardens	-11.2458
▁ours	-11.2458
▁flag	-11.246
▁careless	-11.2462
▁flashes	-11.2463
▁repose	-11.2464
▁greeted	-11.2464
▁thoughtful	-11.2465
▁[![	-11.2465
▁LONG	-11.247
water	-11.2479
▁Nora	-11.2482
▁procession	-11.2482
▁renewed	-11.2483
▁beings	-11.2492
▁struggled	-11.2493
▁shelf	-11.2496
j	-11.2496
▁mob	-11.25
▁consented	-11.25
▁pollen	-11.2502
▁studying	-11.2502
▁RAY	-11.2504
▁Doug	-11.2509
▁addition	-11.2512
▁Arnold	-11.2514
os	-11.2518
▁lace	-11.2518
▁Hell	-11.2519
▁confessed	-11.2521
▁average	-11.2523
▁temptation	-11.2523
▁Thorne	-11.2524
▁VIEW	-11.2524
▁Dave	-11.2527
▁betray	-11.2528
▁endless	-11.2531
▁warn	-11.2531
▁destiny	-11.2533
▁switch	-11.2534
▁poison	-11.2536
▁protested	-11.2538
▁growth	-11.2541
▁climbing	-11.2543
▁greet	-11.2545
▁manager	-11.2547
▁sensitive	-11.255
▁STARK	-11.255
▁lighter	-11.2554
▁Jeff	-11.2557
▁drowned	-11.2559
▁Prime	-11.2561
▁CHRIS	-11.2563
▁clung	-11.2564
▁35	-11.2564
▁deeds	-11.258
▁stove	-11.258
▁dwell	-11.2581
▁awakened	-11.2582
▁Mackenzie	-11.2585
▁Company	-11.2587
▁GUY	-11.2587
▁threatening	-11.2588
born	-11.259
▁execution	-11.2592
▁finest	-11.2593
▁relative	-11.2594
▁Western	-11.2597
▁generation	-11.2599
▁masters	-11.2601
▁tools	-11.2602
▁steward	-11.2604
▁HIGH	-11.2604
▁doubts	-11.2605
ance	-11.2607
▁inquire	-11.2609
▁discussed	-11.2611
▁fills	-11.2612
▁SECOND	-11.2625
▁collection	-11.2629
▁sobbing	-11.2629
▁bursts	-11.2631
▁resolve	-11.2631
▁willingly	-11.2631
▁Indians	-11.2632
▁Someone	-11.2635
▁joint	-11.2638
▁BARBARA	-11.2638
▁underneath	-11.2638
▁tribe	-11.2639
nd	-11.2644
▁snaps	-11.2648
▁luxury	-11.2649
con	-11.2649
▁abandon	-11.2652
▁recent	-11.2658
▁bonnet	-11.2659
▁Bible	-11.266
▁teaching	-11.2662
▁feast	-11.2665
▁Woman	-11.2666
▁published	-11.2671
▁pin	-11.2675
▁jest	-11.2676
▁whistle	-11.2677
▁Council	-11.2681
▁Midwinter	-11.2682
▁feminine	-11.2683
▁lots	-11.2683
▁remembering	-11.2692
▁pattern	-11.2693
▁brute	-11.2693
▁declined	-11.2696
▁introduce	-11.2696
▁visits	-11.27
▁BATHROOM	-11.2702
▁presume	-11.2704
▁complexion	-11.2706
▁attempts	-11.2708
▁rarely	-11.2708
▁India	-11.2709
▁preserved	-11.2712
▁owing	-11.2712
▁intercourse	-11.2712
▁robbed	-11.2712
▁scarlet	-11.2712
▁dreaming	-11.2713
▁national	-11.2714
▁text	-11.2717
▁increasing	-11.2717
▁sale	-11.2728
▁disturb	-11.2735
▁seventy	-11.2737
▁amazing	-11.2742
▁neighbours	-11.2743
▁Sun	-11.2746
▁slain	-11.275
▁tragedy	-11.2755
▁Florence	-11.2755
▁openly	-11.2757
▁proportion	-11.2761
▁MISS	-11.2771
▁printed	-11.2772
▁avoided	-11.2776
▁danced	-11.2776
▁parking	-11.2777
▁obedience	-11.2778
▁chambers	-11.2778
▁commenced	-11.2779
▁believing	-11.278
▁bundle	-11.2781
▁Nice	-11.2781
▁Matthew	-11.2783
▁entitled	-11.2788
▁motives	-11.279
▁mom	-11.2792
▁March	-11.2792
over	-11.2793
▁briefly	-11.2795
▁Jean	-11.2795
▁conducted	-11.2795
▁insist	-11.2796
▁29	-11.2796
▁circles	-11.2798
▁waiter	-11.2799
▁statue	-11.2802
▁Dean	-11.2803
▁talent	-11.2808
▁tenderly	-11.2808
▁ALEX	-11.2815
▁eagerness	-11.2822
▁orange	-11.2823
▁depart	-11.2824
▁students	-11.2827
▁questioned	-11.2834
▁student	-11.2838
ver	-11.2838
▁summoned	-11.2842
▁restaurant	-11.2844
▁doctrine	-11.2844
▁terrace	-11.2847
▁hurriedly	-11.285
▁spy	-11.2851
▁Ozma	-11.2855
▁ASH	-11.2855
▁Hester	-11.2861
ka	-11.2862
▁pole	-11.2864
▁MOM	-11.2865
▁brook	-11.2866
▁removes	-11.2868
▁tank	-11.2869
▁fiercely	-11.2869
▁OUTSIDE	-11.287
▁Holly	-11.2874
▁frankly	-11.2876
▁CITY	-11.2876
▁district	-11.2877
▁w	-11.2879
▁spectacle	-11.2879
▁FRED	-11.288
▁Stay	-11.2881
▁writes	-11.2881
▁sixteen	-11.2883
▁Oxford	-11.2884
▁Justice	-11.2888
da	-11.2891
▁Drew	-11.2895
▁distinction	-11.2899
▁indicated	-11.29
▁Got	-11.2903
▁expectation	-11.2911
▁lessons	-11.2912
▁monitor	-11.2915
▁cream	-11.2917
IE	-11.2918
▁tremble	-11.2923
Poor	-11.2924
▁unseen	-11.2928
▁towel	-11.2933
tree	-11.2933
▁panel	-11.2934
▁combat	-11.2936
▁humor	-11.2936
▁TED	-11.2937
▁Surely	-11.2946
▁sincere	-11.2947
▁universal	-11.2947
▁Haven	-11.2953
▁Matt	-11.2958
▁swim	-11.2963
id	-11.2964
▁bullets	-11.2964
▁confident	-11.2966
▁glare	-11.2968
▁ashes	-11.297
▁Jo	-11.2971
▁resistance	-11.2971
▁Cole	-11.2975
▁fireplace	-11.2976
▁boldly	-11.2978
▁Ned	-11.2979
▁winding	-11.2983
ri	-11.2984
▁Jenny	-11.2984
▁TONY	-11.2985
red	-11.2987
▁development	-11.2988
▁Julie	-11.2989
▁lined	-11.299
▁RADIO	-11.2992
▁coldly	-11.2993
▁Montoni	-11.2993
▁dragging	-11.2993
▁pleasures	-11.3002
▁parent	-11.3006
▁Glass	-11.3007
▁advancing	-11.3007
▁Agnes	-11.3007
CLOSE	-11.3011
▁roses	-11.3012
▁alert	-11.3015
▁intellect	-11.3017
▁narrative	-11.302
▁OMITTED	-11.302
▁Ken	-11.3021
▁supreme	-11.3023
▁accent	-11.3027
▁avail	-11.3027
▁inclination	-11.3031
▁miracle	-11.3031
▁Guard	-11.3036
▁ability	-11.3036
after	-11.3039
▁Shut	-11.3047
▁examining	-11.3052
▁fright	-11.3052
▁sheer	-11.3053
▁formal	-11.3056
▁countries	-11.3059
▁element	-11.3059
▁appetite	-11.3064
▁endeavour	-11.3067
perhaps	-11.3067
▁intensity	-11.307
▁newly	-11.3072
▁seeds	-11.3073
▁April	-11.3074
▁dollar	-11.3077
▁election	-11.3079
▁Ripley	-11.3081
▁Lawrence	-11.3083
▁Percival	-11.3093
▁mouths	-11.3094
▁neglected	-11.3095
▁wasted	-11.3096
▁behave	-11.3096
▁tense	-11.3104
▁secretly	-11.3105
▁ink	-11.3106
▁ARE	-11.3111
▁surgeon	-11.3112
▁38	-11.3113
▁emergency	-11.3114
▁cities	-11.3114
▁employment	-11.3115
▁Miguel	-11.3115
▁cheese	-11.3117
▁vote	-11.3125
▁cruelty	-11.3126
▁comments	-11.3127
▁needn	-11.3129
▁origin	-11.3133
▁lantern	-11.3135
8	-11.3139
▁bored	-11.3142
▁dusk	-11.3144
▁obscure	-11.3145
nothing	-11.3146
▁!!!	-11.315
▁woke	-11.3155
▁fatigue	-11.3159
▁Felix	-11.316
▁veins	-11.3163
▁housekeeper	-11.3163
▁owed	-11.3163
iness	-11.3164
io	-11.3168
▁promptly	-11.3171
▁stated	-11.3172
▁DOLL	-11.3175
▁canvas	-11.3176
▁proposition	-11.3176
▁solemnly	-11.3176
▁childish	-11.3181
▁recognition	-11.3183
▁LUCY	-11.3184
▁beams	-11.3185
▁hood	-11.3186
lin	-11.3188
▁exception	-11.3189
▁counting	-11.319
▁united	-11.3192
▁shift	-11.3193
▁LATE	-11.3197
▁arrange	-11.3201
▁Marilla	-11.3205
▁si	-11.3206
▁honourable	-11.3206
▁eyebrows	-11.3213
▁courtyard	-11.3215
▁owned	-11.3216
▁pine	-11.3217
▁commit	-11.322
▁snake	-11.3221
▁KATE	-11.3225
▁argue	-11.323
▁hammer	-11.3233
▁quantity	-11.3237
▁swallowed	-11.324
▁natives	-11.324
▁darkened	-11.324
▁anchor	-11.3242
▁pilot	-11.3244
▁blush	-11.3245
▁Knight	-11.3246
▁peasant	-11.3255
▁Six	-11.3256
▁SUSAN	-11.3259
door	-11.326
stairs	-11.3263
▁burnt	-11.327
▁earn	-11.3281
▁Chinese	-11.3283
▁amusing	-11.3283
▁dishes	-11.3286
▁motor	-11.3288
▁occupation	-11.3289
▁thoughtfully	-11.3293
▁uneasiness	-11.3293
▁skirt	-11.3299
ye	-11.3299
▁convenient	-11.3301
▁...?	-11.3309
▁perfection	-11.3314
▁thread	-11.3316
▁persisted	-11.3317
▁Lopez	-11.3317
▁dies	-11.3323
▁document	-11.3323
▁liking	-11.3331
▁Cap	-11.3332
▁PETER	-11.3332
▁gallant	-11.3333
▁vivid	-11.3334
▁comparison	-11.3335
▁Last	-11.3335
▁channel	-11.3338
▁apron	-11.3338
▁apple	-11.334
▁brandy	-11.3341
▁31	-11.3341
▁Leave	-11.3343
▁slide	-11.3345
▁physician	-11.3348
▁JAKE	-11.3351
▁advised	-11.3354
▁Chicago	-11.3356
▁Road	-11.3358
▁STEVE	-11.3367
▁Inside	-11.3381
▁writers	-11.3383
▁Lupin	-11.3384
▁lawyers	-11.3385
▁bends	-11.3386
▁hurrying	-11.339
au	-11.3393
▁Temple	-11.3395
▁cellar	-11.3405
▁hired	-11.3411
▁nails	-11.3416
▁shine	-11.3421
▁Francis	-11.3421
▁undertake	-11.3426
▁yer	-11.3428
▁comment	-11.3428
▁JORDAN	-11.3429
▁arch	-11.343
▁MICHAEL	-11.3435
▁r	-11.3435
glass	-11.3439
▁lend	-11.344
▁suspended	-11.3441
▁Alaric	-11.3442
▁highway	-11.3443
▁Girl	-11.3445
▁forgetting	-11.3446
▁nodding	-11.3446
Ha	-11.3447
▁apply	-11.3447
▁delicacy	-11.3452
▁garage	-11.3452
▁pupil	-11.3454
▁condemned	-11.3454
▁accused	-11.3457
▁wits	-11.3462
▁applause	-11.3464
ating	-11.3469
▁Marguerite	-11.347
▁strict	-11.347
▁expensive	-11.3475
▁Denry	-11.3475
▁structure	-11.3476
▁healthy	-11.3477
▁net	-11.3478
▁belly	-11.3481
▁horn	-11.3482
▁Clay	-11.3483
▁plates	-11.3483
▁majesty	-11.3487
▁jolly	-11.3489
▁soup	-11.3491
▁vile	-11.3492
▁distinguish	-11.3495
▁naught	-11.3495
▁Slowly	-11.35
▁pet	-11.3512
▁barn	-11.3517
▁Gertrude	-11.3524
▁crimson	-11.3529
▁fountain	-11.3531
▁polished	-11.3537
▁FBI	-11.3538
▁frank	-11.354
▁Mistress	-11.3542
▁Trevor	-11.3544
▁arrow	-11.3548
▁***	-11.3552
▁dismay	-11.3552
▁swords	-11.3554
▁roads	-11.3555
▁despite	-11.3557
▁disguise	-11.3558
▁Johnson	-11.3559
▁colored	-11.3567
▁dismissed	-11.357
▁garments	-11.3575
▁deliberately	-11.3582
▁literally	-11.3585
minded	-11.3587
▁roaring	-11.3589
▁contain	-11.3593
▁downward	-11.36
▁occur	-11.3601
▁errand	-11.3602
▁Vavasor	-11.3602
▁television	-11.3602
▁adopted	-11.3605
yard	-11.3605
▁classes	-11.3609
▁ce	-11.3609
▁priests	-11.3609
▁shuts	-11.361
▁travellers	-11.361
▁cabinet	-11.3614
▁disease	-11.3617
▁nest	-11.3623
▁Help	-11.3625
▁Gray	-11.3627
such	-11.3633
▁Troy	-11.3633
▁erect	-11.3634
▁MOVING	-11.3635
▁idiot	-11.3636
▁Vronsky	-11.3637
▁EDWARD	-11.3637
▁lowers	-11.364
▁cent	-11.3645
▁infant	-11.3648
▁application	-11.3648
▁suited	-11.3653
▁cord	-11.3655
▁conception	-11.366
PETER	-11.3664
▁gotten	-11.3664
▁problems	-11.3667
▁encouraged	-11.3667
▁preserve	-11.3667
▁Guy	-11.3669
▁respects	-11.367
▁entertain	-11.3671
▁rides	-11.3674
▁Evan	-11.3675
▁dat	-11.3677
▁Brother	-11.3677
▁helps	-11.3679
▁blocks	-11.3679
▁tidings	-11.3684
▁chicken	-11.3684
▁tempted	-11.3686
▁envy	-11.369
▁ruins	-11.3692
▁coward	-11.3693
▁breathless	-11.3694
▁Jeffrey	-11.3696
▁client	-11.3696
▁Con	-11.3697
▁Em	-11.3702
▁rigid	-11.3704
▁Raffles	-11.3705
▁jury	-11.3707
▁released	-11.3707
▁reverence	-11.3708
▁muscles	-11.3708
▁rat	-11.3712
TH	-11.3712
▁proceedings	-11.3718
▁diamond	-11.372
▁travelled	-11.372
▁Dead	-11.3721
▁Myles	-11.3722
▁accounts	-11.3725
ated	-11.3727
▁lobby	-11.3731
▁standard	-11.3733
▁snap	-11.3734
▁Things	-11.3736
▁infinitely	-11.3736
▁yourselves	-11.3744
▁BE	-11.3747
▁neighbour	-11.3748
▁studio	-11.3754
▁necessarily	-11.3757
▁LITTLE	-11.3758
▁Dora	-11.3758
TE	-11.3759
▁maintained	-11.376
▁sends	-11.376
UE	-11.3761
▁tearing	-11.3762
▁parson	-11.3767
▁ETHAN	-11.3768
▁consisted	-11.3768
▁agreement	-11.3768
****************	-11.3769
▁learnt	-11.3771
▁speaker	-11.3773
▁earthly	-11.3778
▁Murray	-11.3778
▁swimming	-11.3778
▁Micawber	-11.3779
Only	-11.3786
▁commercial	-11.3792
ni	-11.3792
▁convince	-11.3794
▁responded	-11.3794
▁alas	-11.3795
▁witnesses	-11.3797
▁rubber	-11.3801
▁route	-11.3802
▁Wharton	-11.3802
▁generosity	-11.3802
▁doctors	-11.3804
ten	-11.3811
▁Du	-11.3811
▁peril	-11.3817
▁recently	-11.3817
fashioned	-11.3818
top	-11.3819
▁manifest	-11.3825
▁log	-11.3826
▁foe	-11.3829
Enter	-11.383
▁holiday	-11.3832
▁greeting	-11.3834
▁Almost	-11.3834
▁reserved	-11.3836
ERS	-11.3838
▁Chichikov	-11.3838
▁lasted	-11.3838
mon	-11.3838
▁Undine	-11.384
▁reflect	-11.384
▁parlor	-11.3841
▁Alas	-11.3847
▁tube	-11.3849
▁proceeding	-11.3849
▁essential	-11.3851
▁fifth	-11.3852
▁ter	-11.3853
▁gossip	-11.3853
did	-11.3861
▁LAURA	-11.3862
ade	-11.3863
▁Tony	-11.3864
▁dispute	-11.3867
▁July	-11.3867
▁CU	-11.3873
▁referred	-11.3874
▁sails	-11.388
▁dig	-11.3883
▁fain	-11.3884
▁desolate	-11.3885
▁abode	-11.3886
▁conference	-11.3886
▁sins	-11.389
▁sadness	-11.3892
▁Simon	-11.3893
▁gladly	-11.3893
▁heed	-11.3899
▁affect	-11.3901
▁elderly	-11.3903
▁region	-11.3903
▁Twenty	-11.3912
RE	-11.392
▁bike	-11.3921
▁chains	-11.3922
▁och	-11.3922
▁entertainment	-11.3924
▁prevailed	-11.3924
▁preparations	-11.3926
▁suits	-11.3926
▁VAL	-11.3927
▁retire	-11.3927
▁marched	-11.3929
▁sphere	-11.393
ck	-11.3931
▁induce	-11.3933
▁Wizard	-11.3933
▁forming	-11.3934
▁instruments	-11.3944
▁panting	-11.3947
▁Neil	-11.3948
MILES	-11.3951
▁reflections	-11.3951
Thou	-11.3951
▁rubbing	-11.3952
chair	-11.3953
ST	-11.3953
▁Cyrus	-11.3958
▁consolation	-11.396
▁sack	-11.3966
▁bits	-11.3967
▁reporter	-11.3969
▁HOSPITAL	-11.3971
▁October	-11.3974
▁professor	-11.3975
▁placing	-11.3975
▁Easy	-11.3976
▁stillness	-11.3976
▁warmly	-11.3986
CAROL	-11.3988
▁kicked	-11.3988
▁fitting	-11.399
▁code	-11.3992
▁discretion	-11.3994
▁BOBBY	-11.3994
▁checking	-11.3994
▁toast	-11.3994
▁merchant	-11.3995
▁Brooke	-11.3995
▁raw	-11.3995
▁cavern	-11.3996
▁finishes	-11.3997
▁http	-11.4001
▁bomb	-11.4007
▁32	-11.4008
▁Lucilla	-11.4008
▁aroused	-11.4008
▁dash	-11.4009
▁SCHOOL	-11.401
▁JERRY	-11.4012
After	-11.4012
▁intentions	-11.4017
▁plot	-11.4019
▁Forrest	-11.4019
▁approval	-11.4021
▁washing	-11.4022
▁kings	-11.4022
...?	-11.4024
▁folds	-11.4025
▁JAC	-11.4027
▁Magee	-11.403
▁Hodder	-11.4032
▁carved	-11.4032
▁boot	-11.4035
▁clutching	-11.4036
▁Catholic	-11.4036
▁commission	-11.4038
▁perpetual	-11.404
▁consult	-11.4041
▁stepping	-11.4041
▁gigantic	-11.4042
▁supplied	-11.4042
▁liquor	-11.4046
▁celebrated	-11.4046
▁DEBBIE	-11.4046
▁End	-11.4047
▁contrived	-11.4047
▁Sara	-11.405
▁te	-11.4054
▁Thibault	-11.4054
Thriller	-11.4057
▁prayed	-11.4057
▁vice	-11.4057
▁copper	-11.4059
▁Pauline	-11.406
▁commands	-11.4063
▁par	-11.4064
▁depends	-11.4065
▁HEAR	-11.4065
▁LIGHT	-11.4068
▁justified	-11.407
▁comrades	-11.4072
▁experiment	-11.4072
▁department	-11.4073
▁Furnival	-11.4079
rate	-11.4081
▁ragged	-11.4081
ent	-11.4082
▁waking	-11.4083
▁pursue	-11.4083
▁Chad	-11.4083
▁hearth	-11.4084
▁defeat	-11.4085
boy	-11.4086
▁TRUCK	-11.4088
▁cable	-11.4088
▁elements	-11.4089
▁roughly	-11.409
▁Maya	-11.409
▁photograph	-11.4093
▁wherein	-11.4094
▁embarrassment	-11.4095
▁assistant	-11.4095
▁encountered	-11.4096
▁Fine	-11.4099
ably	-11.4104
▁succession	-11.4105
▁ending	-11.411
▁headed	-11.4115
▁rubbed	-11.4116
▁cotton	-11.4116
▁Ball	-11.412
▁bark	-11.412
▁bolt	-11.4124
▁FULL	-11.4126
▁largest	-11.4127
▁cliffs	-11.4128
▁joins	-11.4133
▁definitely	-11.4133
▁incapable	-11.4135
▁governor	-11.4136
▁magazine	-11.4136
▁dusty	-11.4142
▁suitable	-11.4142
▁furiously	-11.4145
▁mute	-11.4146
▁surprising	-11.4149
▁fourteen	-11.4152
▁spinning	-11.4152
▁subdued	-11.4155
▁youthful	-11.4155
▁chapel	-11.4155
▁convey	-11.4155
ber	-11.4156
▁stool	-11.4157
▁exchanged	-11.4158
▁THEY	-11.4159
▁prudence	-11.4165
▁Nina	-11.4165
▁clinging	-11.4168
▁36	-11.4169
▁relieve	-11.4169
▁tomb	-11.4172
▁Cousin	-11.4172
▁egg	-11.4173
▁kicking	-11.4174
▁SECURITY	-11.4177
▁Chuck	-11.4177
▁spared	-11.4177
▁consequently	-11.4178
▁fools	-11.4178
▁Kazan	-11.418
▁NOT	-11.418
▁AREA	-11.4181
▁painfully	-11.4185
▁unwilling	-11.4185
▁hedge	-11.4187
▁beautifully	-11.4191
▁happier	-11.4191
▁planned	-11.4192
9	-11.4192
▁irritated	-11.4194
▁Hence	-11.4196
▁groups	-11.4196
▁seed	-11.4198
▁courtesy	-11.4202
▁timid	-11.4202
▁Holmes	-11.4202
Would	-11.4206
▁regiment	-11.4207
▁limited	-11.4207
▁agents	-11.421
▁Walt	-11.4211
▁Ernest	-11.4212
▁expressions	-11.4218
▁Didn	-11.4219
den	-11.4226
▁lays	-11.4233
▁punch	-11.4244
▁brows	-11.4245
▁access	-11.425
▁65	-11.4252
▁Newton	-11.4253
▁BELLA	-11.4255
▁aisle	-11.4257
▁cheerfully	-11.4258
▁handful	-11.4264
▁challenge	-11.4266
ize	-11.4267
▁sworn	-11.427
▁previously	-11.4271
▁echo	-11.4273
ge	-11.4275
▁KAFF	-11.4276
▁champagne	-11.4276
▁alright	-11.4276
▁grins	-11.4276
▁hug	-11.4279
▁fantastic	-11.4282
▁patch	-11.4284
▁ribbon	-11.4287
▁fortunes	-11.429
▁DON	-11.4291
▁virtues	-11.4292
RSS	-11.4294
▁dresses	-11.4294
▁Marquis	-11.4297
▁Feeds	-11.4297
▁OPEN	-11.4298
▁claims	-11.43
▁ray	-11.43
▁DOROTHY	-11.4301
▁strip	-11.4303
▁bedside	-11.4305
tel	-11.4309
ALI	-11.4311
bo	-11.4311
▁Marmaduke	-11.4313
▁Ryan	-11.4313
▁ut	-11.4315
ise	-11.4315
▁roots	-11.4316
▁September	-11.4317
▁replaced	-11.4318
▁tailor	-11.4318
▁Kid	-11.4319
▁drama	-11.4319
▁player	-11.4323
▁shilling	-11.4323
▁citizens	-11.4324
▁porter	-11.4324
▁ANNA	-11.4326
▁fleet	-11.4326
▁casting	-11.4328
▁measures	-11.4329
▁NICKY	-11.4329
▁mixture	-11.4338
▁Felipe	-11.4341
▁ROSE	-11.4346
▁swell	-11.4347
ns	-11.4348
▁wander	-11.435
▁pathetic	-11.4351
▁probability	-11.4351
▁Leopold	-11.4353
▁Providence	-11.4353
▁smallest	-11.4354
▁Parker	-11.436
▁clad	-11.4361
▁characteristic	-11.4367
▁jaws	-11.4368
▁sealed	-11.4369
▁haunted	-11.4371
▁dimly	-11.4372
▁ANN	-11.4373
▁ticket	-11.4374
▁bat	-11.4377
▁Beth	-11.4385
hour	-11.4387
▁affections	-11.4388
▁Aylmer	-11.4389
▁Monica	-11.4391
▁colors	-11.4391
▁Shann	-11.4393
▁PETE	-11.4393
▁halted	-11.4394
▁Gudrun	-11.4402
▁hatch	-11.4403
▁pleaded	-11.4404
▁presents	-11.4405
▁grain	-11.4408
TJ	-11.4412
▁dreaded	-11.4412
▁Bruce	-11.4414
▁betwixt	-11.442
▁semi	-11.4423
▁buttons	-11.4424
▁Crosbie	-11.4426
▁hasty	-11.4427
▁wipes	-11.4427
▁sweetness	-11.4428
▁guided	-11.4435
▁comrade	-11.4437
▁bells	-11.444
▁Americans	-11.4442
▁respond	-11.4443
▁sobs	-11.4451
▁torch	-11.4452
▁Alright	-11.4452
▁Bo	-11.4454
▁honestly	-11.4455
▁CO	-11.4458
▁restore	-11.4459
▁admirable	-11.4464
▁Armand	-11.4466
▁shapes	-11.4468
▁flowing	-11.447
▁Bridge	-11.447
▁poem	-11.4473
▁suspicions	-11.4473
▁Jennifer	-11.4477
▁Lenny	-11.4477
▁les	-11.4482
▁shrill	-11.4482
▁ducks	-11.4485
▁print	-11.4488
▁hesitate	-11.449
▁crisis	-11.449
▁wiped	-11.4493
▁lamps	-11.4498
▁council	-11.4499
▁il	-11.4499
▁arguments	-11.4501
▁shattered	-11.4503
▁quivering	-11.4506
OR	-11.4514
▁Crawford	-11.4515
▁encouragement	-11.4516
▁hitting	-11.4517
▁hearty	-11.4518
except	-11.4522
▁VII	-11.4523
▁planted	-11.4524
▁hay	-11.4527
tre	-11.4528
▁momentary	-11.4532
▁Mine	-11.4533
▁Show	-11.4534
▁despise	-11.4538
▁passages	-11.4538
▁dwelt	-11.4541
▁central	-11.4541
▁snapped	-11.4541
▁unworthy	-11.4541
▁seize	-11.4541
Was	-11.4542
▁temporary	-11.4545
▁manuscript	-11.4549
▁brutal	-11.455
▁34	-11.4552
op	-11.4553
▁contract	-11.4553
▁dined	-11.4558
▁Pollyanna	-11.4559
▁opposed	-11.4559
▁serving	-11.4561
▁protected	-11.4561
▁seal	-11.4565
▁relatives	-11.4565
▁appearing	-11.4566
▁damage	-11.4567
▁constitution	-11.457
▁Lion	-11.4576
▁framed	-11.4578
▁spoil	-11.4587
▁monk	-11.4588
▁afforded	-11.4588
▁stake	-11.4592
▁zeal	-11.4592
▁shoves	-11.4605
▁Peggotty	-11.4607
▁selected	-11.4608
▁JIMMY	-11.4613
▁summit	-11.4614
▁conflict	-11.4617
nor	-11.4623
Shall	-11.4623
▁Gloria	-11.4624
▁Fire	-11.4626
▁Egyptian	-11.4627
▁repeating	-11.4629
▁clay	-11.4631
▁civilization	-11.4631
▁witch	-11.4632
▁particulars	-11.4637
▁beds	-11.4637
▁flashlight	-11.464
▁awfully	-11.4642
▁Jonas	-11.4644
▁rob	-11.4645
▁FRAME	-11.4646
▁villain	-11.465
▁attendant	-11.4654
Drama	-11.4656
▁advantages	-11.4662
▁device	-11.4666
▁dreary	-11.467
ists	-11.4672
▁fists	-11.4676
▁critical	-11.468
▁morrow	-11.4682
▁Irish	-11.4682
▁hostile	-11.4683
▁offices	-11.4683
▁ledge	-11.4688
▁unconsciously	-11.4689
▁Into	-11.4691
▁dock	-11.4693
▁concrete	-11.4695
▁springs	-11.4697
▁conquered	-11.4699
▁recollect	-11.4701
▁trigger	-11.4705
▁stretching	-11.4707
ez	-11.4709
▁represent	-11.4709
▁interposed	-11.471
▁thirst	-11.4711
▁thankful	-11.4713
▁](	-11.4723
▁conveyed	-11.4725
has	-11.4726
▁stirring	-11.4727
▁asks	-11.4728
▁explosion	-11.4732
▁nerve	-11.4734
▁resemblance	-11.4734
▁wilderness	-11.4735
▁Allison	-11.4735
▁shared	-11.4735
▁harbour	-11.4738
▁eyed	-11.4738
▁Kit	-11.4739
Give	-11.4749
▁tricks	-11.4749
▁snatched	-11.4749
▁lodge	-11.4751
▁Beyond	-11.4752
▁selling	-11.4752
▁sullen	-11.4756
into	-11.4757
▁42	-11.4757
▁satisfactory	-11.476
never	-11.4763
▁judged	-11.4767
▁root	-11.4768
▁sailors	-11.4776
▁amuse	-11.4776
▁THREE	-11.4779
▁kneels	-11.478
▁sailed	-11.4783
about	-11.4783
▁vacant	-11.4784
▁honesty	-11.4792
▁ample	-11.4793
▁inferior	-11.4797
▁separation	-11.48
▁Lecount	-11.48
▁majority	-11.48
▁pops	-11.4802
▁bears	-11.4802
▁Hetty	-11.4804
▁Home	-11.4806
▁forbid	-11.4808
▁echoed	-11.4811
▁Japanese	-11.4813
▁shrugged	-11.4813
▁fiery	-11.4813
▁strictly	-11.4816
▁arts	-11.4817
▁coffin	-11.4824
▁towns	-11.4825
▁unnecessary	-11.4826
▁pop	-11.4827
▁floated	-11.4829
ward	-11.483
▁shillings	-11.4833
▁deaf	-11.4833
▁Verloc	-11.4839
▁Maid	-11.4839
▁winning	-11.484
▁Lincoln	-11.4841
▁Dolly	-11.4845
▁thereby	-11.4847
▁drift	-11.4851
▁Ethan	-11.4853
▁70	-11.4853
▁construction	-11.4854
▁kneeling	-11.4856
▁communicate	-11.4857
▁hostess	-11.486
▁figured	-11.486
▁compass	-11.4865
▁frantically	-11.4866
▁employ	-11.4868
▁Art	-11.4869
Or	-11.4876
▁mock	-11.4879
▁HANNA	-11.4887
▁sweeping	-11.4888
▁emphasis	-11.4888
▁adding	-11.4893
▁machinery	-11.4893
▁racing	-11.4899
ANNIE	-11.49
▁prospects	-11.4901
▁conquer	-11.4902
▁enterprise	-11.4903
▁39	-11.4905
▁apartments	-11.4907
▁Dutch	-11.4908
▁axe	-11.4908
▁create	-11.4911
▁THEM	-11.4911
▁cracked	-11.4912
▁reports	-11.4921
▁47	-11.4921
▁claws	-11.4923
▁woe	-11.4924
▁neglect	-11.4925
▁Cut	-11.4925
▁deceive	-11.4928
▁attachment	-11.4932
▁punches	-11.4933
▁OTHER	-11.4935
▁deer	-11.4935
▁super	-11.4938
▁emerged	-11.4939
▁latest	-11.4941
car	-11.4944
▁cock	-11.4946
▁Percy	-11.4949
▁entry	-11.4951
▁intolerable	-11.4958
▁Monk	-11.4962
▁remorse	-11.4963
▁towers	-11.4971
▁Tower	-11.4972
▁Cameron	-11.4972
▁Senora	-11.4974
▁nothin	-11.4975
▁grasped	-11.4979
▁ashore	-11.4982
▁colours	-11.4982
▁mount	-11.4985
DISSOLVE	-11.4988
LA	-11.4989
▁Ho	-11.4995
▁Je	-11.4995
▁VIII	-11.4997
▁declaration	-11.4998
▁cups	-11.4998
▁Gould	-11.4999
▁comfortably	-11.4999
▁stooped	-11.5001
field	-11.5002
▁throng	-11.5002
▁approve	-11.5004
▁Until	-11.5007
▁western	-11.5009
▁nuts	-11.501
▁spake	-11.5012
▁quitted	-11.5012
▁games	-11.5014
▁HELEN	-11.5016
oo	-11.5018
ham	-11.5019
▁Snow	-11.502
▁ranks	-11.5023
▁opera	-11.5026
▁Kane	-11.5027
▁neighbors	-11.503
▁surrender	-11.5031
▁dangers	-11.5032
▁mechanical	-11.5038
▁Elinor	-11.5039
▁fashionable	-11.5041
▁dazed	-11.5043
▁balloon	-11.5048
▁37	-11.5052
ius	-11.5052
▁players	-11.5055
▁PAN	-11.5055
▁Watch	-11.5058
UES	-11.5071
▁Patience	-11.5073
▁crystal	-11.5073
▁liberal	-11.5076
▁dripping	-11.5079
▁Gandhi	-11.5081
▁distracted	-11.5081
▁gleaming	-11.5087
▁tu	-11.5087
▁radiant	-11.5089
▁tap	-11.5091
▁composure	-11.5093
▁plus	-11.5093
▁disaster	-11.5093
▁undoubtedly	-11.5093
▁Boston	-11.5094
▁pleasantly	-11.5098
▁44	-11.5105
▁Gervaise	-11.5106
▁Garth	-11.5107
▁Gabriel	-11.5108
▁methods	-11.5109
▁proudly	-11.5109
haired	-11.511
▁traces	-11.5112
].	-11.5116
▁outline	-11.5118
▁complaint	-11.5119
▁Comte	-11.512
▁Kenny	-11.512
▁Brian	-11.512
▁Spain	-11.512
▁Isaac	-11.5122
▁searched	-11.5123
▁Erik	-11.5123
▁link	-11.5124
▁European	-11.5126
▁lords	-11.5126
▁yells	-11.5128
▁resources	-11.5132
▁overwhelmed	-11.5135
▁lingered	-11.5135
▁Agent	-11.5135
▁gasped	-11.5136
▁sailing	-11.514
▁THIS	-11.514
▁GUN	-11.5145
▁chorus	-11.5147
▁shadowy	-11.5152
▁expressing	-11.5153
▁doll	-11.5153
▁dense	-11.5154
▁feathers	-11.5156
▁triumphant	-11.5158
▁ANNIE	-11.5159
ite	-11.516
▁Craig	-11.516
▁exciting	-11.5161
▁attendance	-11.5161
▁KAREN	-11.5161
▁casually	-11.5165
▁lads	-11.5168
▁reacts	-11.5169
▁curb	-11.5172
▁shops	-11.5178
▁eighty	-11.518
▁lighting	-11.5182
▁43	-11.5182
▁vent	-11.5185
▁GREE	-11.5186
hole	-11.5186
▁rips	-11.5186
▁songs	-11.5186
▁Huh	-11.5187
▁desirous	-11.5188
▁glittering	-11.519
▁..."	-11.5193
▁assisted	-11.5194
▁specially	-11.5195
▁allowing	-11.5196
▁correspondence	-11.5201
▁ho	-11.5202
▁dealing	-11.5204
▁Sergeant	-11.5205
▁Dude	-11.5205
▁limits	-11.5205
▁BB	-11.5209
▁Germany	-11.5213
▁Tulliver	-11.5215
▁testimony	-11.5215
▁Outside	-11.5215
▁pretence	-11.5217
▁JONES	-11.5219
▁strides	-11.5219
La	-11.5223
▁Virginian	-11.5225
▁threat	-11.5229
▁**************	-11.5234
▁heel	-11.5234
▁distressed	-11.5238
▁Law	-11.5242
▁compliments	-11.5243
▁coin	-11.5246
▁JAR	-11.5246
▁dramatic	-11.5247
▁engage	-11.5247
▁Mayor	-11.5251
▁shallow	-11.5253
▁Light	-11.5257
▁El	-11.5262
▁version	-11.527
▁LT	-11.5276
▁screamed	-11.5278
were	-11.5281
▁waistcoat	-11.5286
made	-11.5287
▁peering	-11.5289
▁NANCY	-11.5293
▁Try	-11.5294
▁hanged	-11.5297
▁Pray	-11.5298
▁pleasing	-11.5299
▁pro	-11.5299
▁fox	-11.53
▁guarded	-11.5302
▁Clark	-11.5306
▁Richie	-11.5311
▁yelling	-11.5314
▁Above	-11.5315
▁muffled	-11.5315
▁forgiven	-11.5317
▁Ye	-11.5317
▁k	-11.5318
▁worms	-11.5319
▁comprehend	-11.5321
▁ties	-11.5321
▁perplexed	-11.5327
▁flush	-11.5327
twenty	-11.5331
▁depended	-11.5331
▁faults	-11.5335
▁hereafter	-11.5335
▁insane	-11.5336
▁pan	-11.5339
▁Bella	-11.534
▁Nicholas	-11.5341
▁combination	-11.5342
▁relationship	-11.5342
▁River	-11.5344
▁tales	-11.5345
▁dost	-11.5345
▁script	-11.5352
▁parallel	-11.5352
▁complicated	-11.5353
▁glove	-11.5353
▁collect	-11.5354
making	-11.5355
▁masses	-11.5358
▁awaiting	-11.5358
▁Wood	-11.5361
▁apology	-11.5366
▁1.	-11.5367
▁breach	-11.5368
▁vexed	-11.537
UEEN	-11.5373
▁shotgun	-11.5373
▁angels	-11.5373
▁casual	-11.5377
▁lid	-11.5379
▁Seeing	-11.538
▁cannon	-11.538
set	-11.538
▁Miriam	-11.5382
▁JULIA	-11.5386
▁AGENT	-11.539
▁unnatural	-11.5391
▁knelt	-11.5394
▁elbows	-11.5395
▁creeping	-11.5399
▁DO	-11.5407
▁Eames	-11.5408
▁kidding	-11.5408
▁islands	-11.541
▁55	-11.541
▁doin	-11.5413
lu	-11.5417
▁Trot	-11.5419
tin	-11.542
▁descent	-11.5422
ow	-11.5429
";	-11.5432
▁nasty	-11.5436
Does	-11.5438
▁urgent	-11.5438
▁witnessed	-11.5447
▁measured	-11.5449
▁BERLIN	-11.545
▁33	-11.5451
▁exclamation	-11.5454
▁dame	-11.5457
▁Storm	-11.5459
▁discipline	-11.5462
come	-11.5464
Say	-11.5464
▁sweetheart	-11.5468
▁Davies	-11.547
▁CAN	-11.5472
▁Somebody	-11.5475
▁CH	-11.5475
▁Office	-11.5479
▁neatly	-11.5482
▁feather	-11.5484
▁seas	-11.5487
▁spreading	-11.5487
▁spectacles	-11.5487
▁wiser	-11.5491
▁AMELIA	-11.5493
▁Society	-11.5495
▁consulted	-11.5497
▁jumping	-11.5497
▁DEAN	-11.5502
EL	-11.5502
▁Tappitt	-11.5506
▁desirable	-11.5506
▁formidable	-11.5506
ION	-11.5508
▁necklace	-11.5511
▁guardian	-11.5512
▁whips	-11.5513
ina	-11.5518
▁softened	-11.5522
▁combined	-11.5523
▁alter	-11.5526
▁Milton	-11.5528
Wait	-11.5529
ANNA	-11.553
ries	-11.553
ng	-11.5531
▁luggage	-11.5534
▁thieves	-11.5539
▁accord	-11.5539
▁MARTIN	-11.5542
▁communicated	-11.5543
▁En	-11.5546
▁license	-11.5547
▁Austin	-11.5548
▁sparkling	-11.5549
▁attempting	-11.5553
▁barrier	-11.5554
▁dug	-11.5555
▁48	-11.5558
known	-11.5558
▁invite	-11.5559
▁Julian	-11.556
▁cooking	-11.5562
▁destined	-11.5563
▁causing	-11.5563
▁Kale	-11.5564
▁Priscilla	-11.5565
▁Todd	-11.5574
▁swallow	-11.5577
▁democratic	-11.5578
▁Rupert	-11.558
▁Leslie	-11.5581
▁madame	-11.5581
▁disorder	-11.5584
▁frown	-11.5585
▁tub	-11.5591
▁industry	-11.5591
▁Birkin	-11.5591
▁Abbot	-11.5591
▁Tuesday	-11.5595
▁package	-11.56
▁indignant	-11.5602
▁valet	-11.5604
▁freezes	-11.5604
▁Annette	-11.5606
▁Diana	-11.561
--_	-11.5612
ny	-11.5613
▁streams	-11.562
▁WALL	-11.5621
▁Weston	-11.5624
coloured	-11.5626
▁True	-11.5627
▁bolts	-11.5629
▁Police	-11.563
▁justify	-11.563
nt	-11.5637
▁46	-11.564
ICE	-11.5642
three	-11.5643
▁blackness	-11.5645
▁prudent	-11.5647
▁instinctively	-11.565
Some	-11.5651
▁Suppose	-11.5653
▁SPACE	-11.5655
izing	-11.5655
ary	-11.5657
year	-11.5657
▁Secretary	-11.5658
▁oblige	-11.5659
board	-11.5661
▁aims	-11.5661
▁VITT	-11.5662
▁considerably	-11.5663
▁deemed	-11.5665
▁records	-11.5665
▁pulse	-11.5666
back	-11.5666
▁nightmare	-11.5669
▁manages	-11.5671
without	-11.5673
▁rack	-11.5675
Re	-11.5675
▁peer	-11.5676
▁Baby	-11.5677
▁Lorna	-11.568
▁dragon	-11.5681
▁Mills	-11.5681
▁verse	-11.5681
▁wonderfully	-11.5682
▁unfortunately	-11.5686
▁brightly	-11.5688
▁solution	-11.5691
Our	-11.5691
▁frantic	-11.5694
ium	-11.5697
good	-11.5701
▁pretending	-11.5705
▁Bear	-11.5707
▁shuddered	-11.5709
▁deprived	-11.571
▁Between	-11.5714
▁Hans	-11.5716
▁wealthy	-11.5717
▁rag	-11.5721
▁magistrate	-11.5728
▁provisions	-11.5728
dis	-11.5731
▁buying	-11.5733
▁painter	-11.5734
▁additional	-11.5736
▁blaze	-11.5737
▁j	-11.5744
▁Christians	-11.5749
▁NEIL	-11.5751
▁withdraw	-11.5753
▁severely	-11.5755
▁Ever	-11.5755
▁readers	-11.5762
▁blazing	-11.5763
▁Genji	-11.5763
▁vault	-11.5764
unless	-11.5764
▁Elsa	-11.5767
▁lamb	-11.5767
▁noticing	-11.5768
ons	-11.5768
▁descending	-11.5771
▁FIRES	-11.5773
▁Lo	-11.5774
▁respected	-11.5775
▁eloquence	-11.5777
IS	-11.5778
▁prejudice	-11.5778
▁scandal	-11.5778
▁personality	-11.5779
▁expenses	-11.5784
▁Taylor	-11.5792
▁Archie	-11.5794
▁knot	-11.5797
▁Lake	-11.5798
▁Second	-11.58
▁wax	-11.5804
▁Katie	-11.5806
▁embraced	-11.5809
▁explaining	-11.5809
▁injustice	-11.5811
▁reluctantly	-11.5812
twas	-11.5814
▁Part	-11.5817
▁gorgeous	-11.5818
▁sticking	-11.5818
▁Ay	-11.5818
▁shades	-11.5818
▁educated	-11.582
▁stealing	-11.5822
▁STORE	-11.5825
▁addresses	-11.5826
▁58	-11.5829
▁Anything	-11.5833
▁requested	-11.5833
▁Club	-11.5835
▁medium	-11.5835
▁ridge	-11.5835
▁Later	-11.5836
▁weighed	-11.5838
TY	-11.5844
▁Senator	-11.5845
▁cracks	-11.5847
▁Priest	-11.5849
▁CHEV	-11.5849
▁Bay	-11.5854
▁(2)	-11.5854
ere	-11.5859
▁goddamn	-11.586
FRANK	-11.5862
▁negro	-11.5863
▁identity	-11.5864
cut	-11.5868
▁invented	-11.5869
▁Except	-11.587
▁KIRSTY	-11.5871
▁upwards	-11.5872
▁80	-11.5877
▁welfare	-11.5879
▁harmony	-11.5879
▁Barry	-11.588
boat	-11.5882
ron	-11.5885
▁sliding	-11.5885
▁trash	-11.5891
▁questioning	-11.5892
▁border	-11.5893
ial	-11.5893
▁visiting	-11.5897
▁grinning	-11.5901
▁bond	-11.5904
▁speeches	-11.5904
▁IX	-11.5904
▁PARK	-11.5905
▁pony	-11.5905
▁hats	-11.5906
▁Better	-11.5907
▁bestowed	-11.5911
▁endured	-11.5914
php	-11.5915
▁preparation	-11.5917
ran	-11.5917
▁guitar	-11.5923
▁Army	-11.5924
▁monkey	-11.5926
▁RITA	-11.593
▁earl	-11.593
▁rifles	-11.5933
▁suspense	-11.5938
▁committee	-11.5941
--“	-11.5941
▁allusion	-11.5947
▁leaping	-11.5949
▁assault	-11.5952
▁flock	-11.5952
▁favourable	-11.5954
▁packing	-11.5954
▁Claire	-11.5955
▁clenched	-11.5955
▁recommend	-11.5957
▁passionately	-11.596
CARL	-11.5961
▁stockings	-11.5962
▁Sal	-11.5964
▁escort	-11.5967
▁SHEPHERD	-11.5967
▁sprung	-11.5967
▁Allworthy	-11.5967
▁speedily	-11.5968
▁seemingly	-11.5973
▁sternly	-11.5976
▁focus	-11.5979
▁LORD	-11.5981
going	-11.5983
▁reverse	-11.5984
▁president	-11.5987
▁toil	-11.5987
▁duck	-11.5989
▁bastard	-11.5991
▁patiently	-11.5991
▁suitcase	-11.5992
▁heroes	-11.5996
▁Car	-11.5996
▁RYAN	-11.5996
▁trifling	-11.5996
▁neighbor	-11.5997
▁mourning	-11.5999
▁darted	-11.5999
▁Bernie	-11.6
▁harmless	-11.6001
▁stumbles	-11.6003
▁captured	-11.6004
▁contest	-11.6004
▁editor	-11.6009
From	-11.6009
▁loyal	-11.6011
▁JENNIFER	-11.6012
▁depressed	-11.6012
▁sovereign	-11.6013
▁Marianne	-11.6016
▁peasants	-11.6017
see	-11.6027
▁LOT	-11.603
▁ego	-11.6033
▁founded	-11.6037
▁fork	-11.6038
▁armour	-11.604
▁Cyril	-11.6041
▁Hammond	-11.6041
▁issued	-11.6043
▁SCREAMS	-11.6045
▁limit	-11.6045
▁WINDOW	-11.605
▁philosopher	-11.6051
▁rocky	-11.6052
▁CLYDE	-11.6056
▁creep	-11.6056
▁JACOB	-11.6058
▁crawl	-11.6059
▁columns	-11.6063
▁vessels	-11.6064
▁stores	-11.6064
▁SMITH	-11.6064
▁roared	-11.6064
▁dagger	-11.6066
▁beef	-11.6069
Comedy	-11.6069
▁disposal	-11.6071
▁void	-11.6072
▁dearly	-11.6072
▁Nico	-11.6074
▁Norah	-11.6075
▁gravel	-11.6079
▁Sit	-11.6081
▁Spirit	-11.6082
▁tribes	-11.6083
▁arise	-11.6086
▁Gordy	-11.6086
▁management	-11.6087
▁railing	-11.6089
▁cousins	-11.609
▁designed	-11.6094
▁TIN	-11.6098
▁MS	-11.6099
▁defiance	-11.61
▁population	-11.61
BEN	-11.6103
▁School	-11.6103
▁revolution	-11.6104
▁calculated	-11.6106
CH	-11.6106
▁gap	-11.6107
▁90	-11.6109
▁yacht	-11.6113
▁Jew	-11.6116
▁Roper	-11.6116
▁melted	-11.6118
▁assented	-11.6119
▁traveller	-11.6119
▁perish	-11.612
▁inter	-11.6123
▁sermon	-11.6126
▁stack	-11.6127
▁thyself	-11.6131
▁crush	-11.6133
▁rabbit	-11.6134
▁Within	-11.6136
▁41	-11.6136
▁shelves	-11.6139
▁slaps	-11.6143
▁significance	-11.6145
▁creation	-11.6146
ba	-11.6149
▁Probably	-11.615
▁followers	-11.6156
▁limb	-11.6158
▁Hotel	-11.6161
▁64	-11.6161
▁dealt	-11.6165
▁carelessly	-11.6166
▁impressions	-11.6167
▁75	-11.617
▁stately	-11.617
▁Lovel	-11.6171
▁avenue	-11.6172
▁complex	-11.6174
▁BARRY	-11.6176
▁EVE	-11.6176
▁heroic	-11.6177
▁driveway	-11.6178
▁drunken	-11.6179
▁borrowed	-11.6179
▁introduction	-11.6187
▁shawl	-11.6187
▁reasoning	-11.6187
▁stuffed	-11.6189
trees	-11.619
▁token	-11.619
▁audible	-11.6191
▁customers	-11.6191
▁perceiving	-11.6191
▁hospitality	-11.6191
▁sympathetic	-11.6191
▁Raymond	-11.62
▁goose	-11.6202
▁2.	-11.6202
▁surroundings	-11.6203
▁begging	-11.6205
▁Peak	-11.6206
ger	-11.6206
▁remainder	-11.6207
▁California	-11.6207
▁Bull	-11.6208
▁BISHOP	-11.6208
pe	-11.6209
▁SIDE	-11.621
▁blushed	-11.6211
▁Certainly	-11.6212
SCOTT	-11.6218
▁BOX	-11.6218
GRAHAM	-11.622
▁sincerity	-11.6221
▁shrank	-11.6221
▁bidding	-11.6221
▁bursting	-11.6224
▁Till	-11.6225
▁Maud	-11.6229
▁umbrella	-11.6233
▁Must	-11.6234
▁Somerset	-11.6236
▁Orme	-11.6241
eh	-11.6242
▁victims	-11.6243
▁musical	-11.6243
▁sergeant	-11.625
end	-11.6251
▁dignified	-11.6251
▁foliage	-11.6251
IC	-11.6251
▁included	-11.6257
still	-11.6259
▁Fran	-11.6265
logo	-11.6265
▁tumult	-11.6266
▁crouched	-11.6267
▁slumber	-11.6268
▁Se	-11.627
▁Wow	-11.6271
▁bald	-11.6275
▁Shakespeare	-11.6277
▁globe	-11.6279
▁Anthea	-11.6281
▁sinister	-11.6281
▁Terry	-11.6281
▁worldly	-11.6282
▁tension	-11.6284
most	-11.6288
▁customs	-11.6292
▁abide	-11.6292
▁sufferings	-11.6293
▁requires	-11.6295
▁pipes	-11.6295
ALVY	-11.6297
▁tradition	-11.6305
▁lent	-11.6308
▁strained	-11.6308
▁LUKE	-11.6312
▁piled	-11.6315
▁steamer	-11.6316
▁forgiveness	-11.6317
▁Merrick	-11.6327
▁shaped	-11.6328
▁Lesta	-11.6328
▁Pan	-11.6329
▁flattered	-11.633
▁Thursday	-11.6331
▁resembled	-11.6331
▁stays	-11.6333
▁flowed	-11.6335
▁determine	-11.6336
▁forcing	-11.6338
▁web	-11.634
▁slipping	-11.6343
MORE	-11.6344
▁finishing	-11.6344
▁curled	-11.6348
▁Frenchman	-11.6349
▁despised	-11.6352
▁Anyway	-11.6353
▁vigorous	-11.6355
▁stained	-11.6359
▁strokes	-11.636
▁readiness	-11.636
▁asserted	-11.6361
▁CLUB	-11.6362
▁individuals	-11.6362
▁53	-11.6362
▁workers	-11.6363
▁meadow	-11.6371
▁attraction	-11.6371
talk	-11.6372
▁remedy	-11.6373
▁refer	-11.6373
▁basement	-11.6375
▁rejected	-11.6375
▁restrain	-11.6376
▁Indy	-11.6378
▁divorce	-11.638
▁occupy	-11.6383
▁frighten	-11.6385
▁ROSS	-11.6386
▁footing	-11.6387
▁Robarts	-11.6388
▁Burton	-11.6389
▁rosy	-11.6389
▁staggered	-11.6389
Lord	-11.6391
▁November	-11.6392
▁stamped	-11.6392
▁receiver	-11.6394
▁52	-11.6394
▁cautious	-11.6397
▁harness	-11.6399
▁butler	-11.6402
▁commonwealth	-11.6404
▁Sharp	-11.6405
▁elaborate	-11.6408
fully	-11.6408
▁emerge	-11.6414
▁Bath	-11.6414
▁sinks	-11.6415
▁biggest	-11.6419
▁Stepan	-11.642
▁TIFFANY	-11.642
▁Casaubon	-11.642
▁horrified	-11.6422
ster	-11.6423
▁57	-11.6426
▁worm	-11.6426
ov	-11.6428
▁telegram	-11.6433
▁Watson	-11.6435
▁BOWER	-11.6435
▁ZOE	-11.6435
▁Christianity	-11.6436
▁forbidden	-11.6436
▁punished	-11.6438
ens	-11.6439
▁interrupting	-11.6444
▁rascal	-11.6446
▁outta	-11.6447
▁detective	-11.6449
▁terrific	-11.645
▁commander	-11.6452
▁Precious	-11.6453
▁TERRY	-11.6457
▁choked	-11.6458
▁tastes	-11.6459
20	-11.6464
▁ascended	-11.6468
▁Alexander	-11.6468
kin	-11.6471
▁Damn	-11.6472
▁hinted	-11.6475
▁wallet	-11.6475
▁Kurt	-11.6477
▁saint	-11.6479
case	-11.648
▁tread	-11.648
▁Women	-11.648
▁eventually	-11.6481
▁3.	-11.6484
ho	-11.6485
▁muttering	-11.6486
▁encourage	-11.6487
Get	-11.6487
▁deepest	-11.6491
▁drug	-11.6492
▁seventeen	-11.6496
long	-11.6497
ig	-11.6499
▁bucket	-11.6499
▁CONTROL	-11.6503
▁sorrows	-11.6504
These	-11.6506
▁generations	-11.6511
IT	-11.6512
▁preceding	-11.6512
▁primitive	-11.6512
▁Debbie	-11.6512
▁equality	-11.6514
▁rug	-11.6515
▁FIELD	-11.6517
▁settlement	-11.6517
▁foam	-11.6518
▁privately	-11.6519
▁PULL	-11.6526
▁Tudor	-11.6528
▁northern	-11.6528
cha	-11.6528
▁von	-11.6529
▁vital	-11.6531
▁groaned	-11.6531
▁recommended	-11.6532
▁AIR	-11.6534
▁pledge	-11.6535
▁Devil	-11.6538
▁cane	-11.6541
▁adjoining	-11.6543
BOB	-11.6547
▁Russia	-11.6555
▁DOUG	-11.6558
▁Harman	-11.6559
▁Wade	-11.656
Internet	-11.6562
▁mis	-11.6567
▁Highness	-11.6568
▁dismal	-11.6572
ging	-11.6573
▁supplies	-11.6575
▁College	-11.6575
▁bodily	-11.6575
▁empire	-11.6575
▁engines	-11.6575
ray	-11.6576
▁Ongar	-11.6576
▁pupils	-11.6578
IMSDb	-11.6578
▁boast	-11.6584
▁disdain	-11.6584
▁judges	-11.6585
▁WIDE	-11.6586
▁pious	-11.6588
▁admiring	-11.6589
▁earned	-11.6589
▁alternative	-11.659
▁Barton	-11.6591
Her	-11.6592
▁Biddy	-11.6594
▁wages	-11.6599
▁mould	-11.6601
▁Dame	-11.6606
▁arriving	-11.6606
▁MAGGIE	-11.6607
!!	-11.6607
▁curls	-11.6608
▁GO	-11.6611
▁awaited	-11.6617
▁doom	-11.6618
▁59	-11.6618
▁scripts	-11.6619
▁obligation	-11.6622
)](	-11.6623
▁PARKING	-11.6625
▁JEAN	-11.6626
▁49	-11.6626
▁punish	-11.663
▁tour	-11.6631
▁governess	-11.6636
▁foundation	-11.6636
▁Peggy	-11.6637
▁strove	-11.6637
▁Palace	-11.6637
▁Corey	-11.6638
dvd	-11.6653
▁Jeanne	-11.6654
10/10	-11.6654
▁Ash	-11.6656
master	-11.6656
▁nail	-11.6657
▁promises	-11.6659
▁Pip	-11.666
▁Top	-11.6663
ca	-11.6667
▁privacy	-11.6668
▁resigned	-11.6672
▁resolute	-11.6682
▁Helium	-11.6685
▁southern	-11.6685
▁annoyance	-11.6686
▁thrill	-11.6687
▁Book	-11.6687
▁limp	-11.6687
▁heavenly	-11.669
▁abuse	-11.6695
▁LEONARD	-11.67
▁Spooner	-11.6701
▁storms	-11.6701
▁demands	-11.6702
War	-11.6704
▁NURSE	-11.6706
NE	-11.6708
▁resource	-11.6708
▁supposing	-11.671
▁drags	-11.6713
▁Karen	-11.6714
▁purely	-11.6715
▁nostrils	-11.6716
▁irresistible	-11.6717
▁propriety	-11.6717
▁Lewis	-11.6717
▁mare	-11.6719
ac	-11.6721
▁Run	-11.6722
▁bonds	-11.6723
▁Holland	-11.6729
ping	-11.6729
▁bounds	-11.673
▁African	-11.6736
six	-11.6737
▁dances	-11.6742
▁lowest	-11.6743
▁Georgiana	-11.6749
▁division	-11.675
▁switches	-11.6751
▁UN	-11.6751
▁cargo	-11.6752
▁BOOK	-11.6753
▁54	-11.6755
▁Valancourt	-11.6764
▁WALTER	-11.6766
▁shepherd	-11.6766
▁shudder	-11.6769
▁organ	-11.677
▁crawling	-11.677
▁improved	-11.6771
▁lab	-11.6772
li	-11.6773
▁lions	-11.6775
▁situated	-11.6781
▁loses	-11.6782
▁tongues	-11.6783
▁horns	-11.6784
▁moderate	-11.6785
▁payment	-11.6786
▁machines	-11.6788
▁Rita	-11.6797
something	-11.6802
▁politely	-11.6802
RI	-11.6802
▁stair	-11.6805
▁confidential	-11.6809
▁Han	-11.6811
▁Peters	-11.6812
▁bliss	-11.6812
▁Tyler	-11.6812
▁customary	-11.6813
▁92	-11.6813
▁hurled	-11.6815
▁Alexey	-11.6817
MAX	-11.6818
▁breeches	-11.682
▁Honor	-11.6821
▁hugs	-11.6821
▁wondrous	-11.6825
▁regions	-11.6826
▁Gideon	-11.6828
▁assembly	-11.6828
▁Sykes	-11.6828
▁weariness	-11.6829
▁Fang	-11.6829
▁disciples	-11.683
▁wolves	-11.6833
ble	-11.6834
▁compare	-11.6837
▁repair	-11.6838
▁Snake	-11.6844
▁refusal	-11.6844
▁concerns	-11.6846
▁immortal	-11.6847
▁occasioned	-11.685
▁Work	-11.6853
▁Comments	-11.6855
▁reckless	-11.6856
▁respectful	-11.6857
Has	-11.6858
▁66	-11.6858
▁quest	-11.6859
▁GREEN	-11.686
▁Raoul	-11.6861
▁Vincent	-11.6861
▁temperament	-11.6861
▁announcement	-11.6861
▁ALI	-11.6862
▁anticipated	-11.6865
▁documents	-11.6865
▁modesty	-11.6867
▁99	-11.6867
▁obstinate	-11.6875
▁forests	-11.6877
▁REBECCA	-11.6877
▁babies	-11.6877
▁noisy	-11.6877
▁jet	-11.6886
▁strongest	-11.6887
▁INSIDE	-11.689
▁types	-11.6891
▁HEDDA	-11.6893
▁inspiration	-11.6893
▁fer	-11.6898
MA	-11.69
▁arrows	-11.6905
▁Joey	-11.6909
▁whistling	-11.6909
▁ropes	-11.691
▁Gilbert	-11.6913
▁Wednesday	-11.6914
▁feature	-11.6915
▁discharge	-11.6917
▁Stone	-11.6919
▁Ne	-11.692
▁tragic	-11.692
▁tendency	-11.6925
▁debts	-11.6926
▁investigation	-11.6929
▁torment	-11.693
▁taxi	-11.6935
▁groan	-11.6937
!**	-11.6942
▁authorities	-11.6942
▁Curtis	-11.6942
▁attacks	-11.6943
▁Beast	-11.6945
▁youngest	-11.6945
▁51	-11.6949
▁capture	-11.695
▁Rocky	-11.695
▁blonde	-11.6951
▁temples	-11.6952
ical	-11.6954
▁Sally	-11.6955
pan	-11.6956
▁virtuous	-11.6958
▁Senate	-11.6958
▁lazy	-11.6958
▁resignation	-11.6958
▁paths	-11.6958
▁Much	-11.6959
▁bien	-11.6959
▁):	-11.6963
▁Already	-11.6963
ure	-11.6963
▁Inn	-11.6965
▁rejoiced	-11.6966
▁attentive	-11.6971
▁Eli	-11.6972
▁COLUMB	-11.6974
▁nobility	-11.6976
▁senior	-11.6977
▁drifted	-11.6979
▁Head	-11.6979
▁accomplish	-11.698
▁BOB	-11.6981
▁verge	-11.6985
▁flaming	-11.699
▁malice	-11.699
▁briefcase	-11.6991
▁minor	-11.6991
▁Country	-11.6992
▁Lisbeth	-11.6992
▁Star	-11.6995
▁sketch	-11.6996
▁hunted	-11.6998
▁transport	-11.6999
▁animated	-11.7005
▁Goesler	-11.7007
▁National	-11.7007
▁Godolphin	-11.7008
▁frost	-11.7009
▁coachman	-11.7009
▁PK	-11.7011
MARTIN	-11.7013
▁BIG	-11.7015
▁canoe	-11.7015
▁bravely	-11.7021
▁wiping	-11.7023
▁taps	-11.7023
▁derived	-11.7027
▁manly	-11.7027
▁clue	-11.7027
▁traitor	-11.7032
▁bucks	-11.7035
▁noises	-11.7036
di	-11.7039
ja	-11.704
▁lungs	-11.7041
▁tossing	-11.7044
OLD	-11.7045
▁ward	-11.7046
▁borrow	-11.7046
pot	-11.7047
▁PANS	-11.7048
▁marvellous	-11.7054
mer	-11.7055
▁Hannah	-11.7056
rie	-11.706
▁Egypt	-11.7062
▁litter	-11.7062
▁grimly	-11.7063
▁rejoice	-11.7064
▁misfortunes	-11.7068
▁ANAKIN	-11.7068
▁claimed	-11.7071
VIOLET	-11.7072
▁gulf	-11.7072
▁Celia	-11.7073
▁relaxed	-11.7075
▁Bar	-11.7076
▁RINGS	-11.7076
▁criticism	-11.7077
▁forthwith	-11.7078
▁approved	-11.7082
▁62	-11.7084
▁streaming	-11.7086
▁beforehand	-11.7089
▁beggar	-11.709
▁vainly	-11.709
▁Fair	-11.7091
▁comparatively	-11.7091
▁Marie	-11.7101
▁vicious	-11.7101
▁indicates	-11.7102
▁hoarse	-11.7102
▁Racksole	-11.7105
▁float	-11.7106
▁Cor	-11.7107
▁Evil	-11.7109
▁captive	-11.7112
▁unexpectedly	-11.7112
▁sob	-11.7113
him	-11.7117
▁feeding	-11.7117
▁argued	-11.7118
stone	-11.7119
▁Stafford	-11.7119
▁prime	-11.712
▁react	-11.712
▁Sheriff	-11.7122
▁Always	-11.7122
▁EMILY	-11.7123
▁raft	-11.7124
▁breasts	-11.7124
▁sunny	-11.7125
▁fucked	-11.7125
▁transformed	-11.7125
▁retained	-11.7125
▁mechanically	-11.7126
▁Jews	-11.7126
▁Tai	-11.7127
▁scoundrel	-11.7128
▁draught	-11.713
pause	-11.7131
Action	-11.7131
▁Mister	-11.7135
▁sickness	-11.7136
pin	-11.7137
▁negative	-11.7138
▁Others	-11.7138
▁invariably	-11.7138
▁chaos	-11.7138
▁pad	-11.7146
HELEN	-11.7147
▁notions	-11.7147
▁bred	-11.7149
▁external	-11.7152
▁signals	-11.7152
▁shriek	-11.7153
▁failing	-11.7154
▁Neefit	-11.7155
▁eternity	-11.7155
▁petty	-11.7155
▁curve	-11.7155
▁based	-11.7157
_;	-11.7158
▁clothed	-11.716
▁spending	-11.716
▁SE	-11.716
IL	-11.7164
▁lain	-11.7164
▁chanced	-11.7164
▁ST	-11.7168
▁assent	-11.7168
▁ardent	-11.7169
king	-11.717
▁Harvey	-11.7172
▁haughty	-11.7172
▁Diego	-11.7172
▁LOBBY	-11.7173
▁crest	-11.7174
▁Mo	-11.7174
▁Wendy	-11.7174
▁harvest	-11.7176
▁XI	-11.7176
▁sings	-11.7177
▁YURI	-11.7178
▁indulge	-11.718
▁TABLE	-11.718
▁rags	-11.7182
▁marching	-11.7186
▁crooked	-11.7186
▁sleepy	-11.7187
▁Penelope	-11.7188
▁routine	-11.7188
▁dazzling	-11.719
▁jerks	-11.719
▁GRACE	-11.7191
▁SMALL	-11.7193
▁perception	-11.7194
▁Ex	-11.7197
▁hull	-11.7205
▁growled	-11.7209
▁digging	-11.7209
▁pacing	-11.7211
▁unjust	-11.7212
▁ANDY	-11.7214
▁blankets	-11.7217
▁PRESIDENT	-11.7221
▁momentarily	-11.7222
▁Corso	-11.7222
▁startling	-11.7222
▁Bathsheba	-11.7224
▁geese	-11.7225
▁provision	-11.7227
▁province	-11.7228
▁goods	-11.723
▁killer	-11.7236
tu	-11.7238
▁ghastly	-11.7238
▁varied	-11.7238
▁gratified	-11.7238
▁Rowan	-11.7239
▁Buddy	-11.7239
▁battered	-11.7239
▁whoever	-11.724
▁joyous	-11.7252
▁barren	-11.7254
ave	-11.7255
▁gaiety	-11.7255
▁eagle	-11.7257
▁Conan	-11.7257
▁56	-11.7258
▁pluck	-11.7259
▁coloured	-11.726
▁63	-11.7261
▁invention	-11.7262
▁utterance	-11.7262
PO	-11.7263
tes	-11.7264
DANTE	-11.7266
ti	-11.727
▁displeasure	-11.7272
▁Neville	-11.7272
HE	-11.7274
▁WHAT	-11.7274
▁exhibited	-11.7274
▁stumbled	-11.7275
▁Open	-11.7276
▁doomed	-11.7276
▁interruption	-11.7279
▁cupboard	-11.7279
▁tips	-11.7282
▁Jesse	-11.7286
▁bullshit	-11.7289
▁Pinch	-11.729
▁Button	-11.7292
war	-11.7293
▁spoiled	-11.7294
▁campaign	-11.7295
▁YORK	-11.7296
▁grabbing	-11.7296
▁DRIVER	-11.7302
▁SHIP	-11.7303
▁volumes	-11.7306
▁Bring	-11.731
▁FATHER	-11.731
▁nobleman	-11.7312
▁NOW	-11.7313
▁pleading	-11.7313
lit	-11.7313
▁yell	-11.7318
▁smoked	-11.7319
▁extremity	-11.7322
▁prosperity	-11.7322
▁outstretched	-11.7324
▁hum	-11.7324
LING	-11.7328
▁spectators	-11.7329
▁drifting	-11.733
▁packet	-11.7331
▁staggers	-11.7331
▁Stan	-11.7332
▁wakes	-11.7338
▁Dinah	-11.7339
▁superiority	-11.734
▁China	-11.7341
▁briskly	-11.7342
▁Um	-11.7344
▁mantle	-11.7345
put	-11.7346
▁mirth	-11.7349
▁sublime	-11.7353
▁Page	-11.7354
▁rocking	-11.7354
▁Toward	-11.7354
▁shabby	-11.7356
▁attained	-11.736
▁materials	-11.7361
white	-11.7367
▁REPORTER	-11.7368
▁confounded	-11.7372
▁opportunities	-11.7373
▁disgusted	-11.7378
tion	-11.7381
▁Water	-11.7383
▁realizing	-11.7383
▁prevail	-11.7384
!’	-11.7385
class	-11.7388
▁Avenue	-11.739
▁suicide	-11.739
▁severity	-11.739
):	-11.7391
▁traveling	-11.7392
▁negroes	-11.7392
▁Said	-11.7398
INDY	-11.7399
▁suppressed	-11.74
▁declaring	-11.7407
▁goat	-11.7408
▁edges	-11.741
▁restrained	-11.7411
INE	-11.7416
▁aristocratic	-11.7418
▁bulk	-11.742
▁Number	-11.7421
▁impressive	-11.7423
VIKTOR	-11.7424
▁contains	-11.7425
▁echoes	-11.7426
▁awkwardly	-11.7432
▁69	-11.7433
DEAN	-11.7434
CHARLIE	-11.7436
▁Hope	-11.7438
▁fits	-11.7439
▁Kennicott	-11.7441
▁Jules	-11.7441
▁circular	-11.7444
▁brand	-11.7449
▁urge	-11.745
piece	-11.7451
▁brushed	-11.7453
MELA	-11.7456
▁piercing	-11.7458
▁decline	-11.7459
▁prolonged	-11.746
▁rightly	-11.746
▁Fi	-11.7463
▁obstacle	-11.7467
▁moss	-11.7472
▁Steven	-11.7476
▁dives	-11.7477
▁partially	-11.7477
▁Erin	-11.7477
tan	-11.7478
▁CON	-11.7479
voice	-11.7479
▁traced	-11.748
ible	-11.7481
ence	-11.7482
Listen	-11.7487
Please	-11.7487
▁purchased	-11.7489
▁Milo	-11.749
▁defense	-11.7494
▁Bud	-11.7497
▁chateau	-11.7507
▁dialogue	-11.751
▁baseball	-11.751
▁Grimm	-11.7512
rip	-11.7513
▁Cal	-11.7516
▁Theo	-11.7519
▁phrases	-11.7525
▁interrupt	-11.7526
▁Patsy	-11.7527
▁greatness	-11.7527
▁CABIN	-11.7527
▁copies	-11.7528
ERIN	-11.753
▁executed	-11.7534
▁Enter	-11.7535
sken	-11.7535
▁appropriate	-11.7536
▁stamp	-11.7537
KELLY	-11.754
▁permanent	-11.7543
▁Jessica	-11.7544
▁available	-11.7545
▁promising	-11.7547
▁theater	-11.755
▁Elle	-11.7554
RY	-11.7555
▁Ask	-11.7556
▁Bank	-11.7561
▁gaily	-11.7561
▁possibilities	-11.7561
▁bloom	-11.7565
▁bury	-11.7567
▁lingering	-11.7568
▁spark	-11.7573
Exit	-11.7575
▁pal	-11.7576
▁shores	-11.7578
chabod	-11.7579
▁independence	-11.7579
▁windshield	-11.7579
▁fuel	-11.7579
▁Belton	-11.7579
▁sweetly	-11.7579
▁di	-11.758
▁hounds	-11.7581
▁ZED	-11.7581
▁EYES	-11.7582
▁overcoat	-11.7587
▁summons	-11.7589
▁advances	-11.7591
▁67	-11.7591
Adventure	-11.7592
▁lump	-11.7592
FADE	-11.7593
▁backed	-11.7594
▁Morris	-11.7595
▁STUDIO	-11.7596
▁dangling	-11.7596
▁slay	-11.7596
▁site	-11.7598
▁ramp	-11.7599
▁Zoe	-11.7604
▁allowance	-11.7607
▁roars	-11.7608
▁bestow	-11.7608
▁Grief	-11.7613
▁catastrophe	-11.7613
▁Helmut	-11.7613
▁shrink	-11.7614
▁reins	-11.7616
▁Bride	-11.7617
▁achieved	-11.7619
▁recovery	-11.7621
▁cleaning	-11.7621
▁intensely	-11.7622
▁95	-11.7624
▁discussing	-11.7624
▁BUS	-11.7624
▁ancestors	-11.7626
..."	-11.7628
▁saints	-11.7629
▁Kathy	-11.7631
▁attending	-11.7631
under	-11.7634
bar	-11.7637
▁plains	-11.7637
▁meets	-11.7639
aged	-11.7641
lar	-11.7642
▁SO	-11.7644
▁knives	-11.7646
▁git	-11.7648
▁faculties	-11.7648
▁Baroness	-11.7649
▁sideways	-11.7651
ned	-11.7652
▁Chance	-11.7652
▁pierced	-11.7652
▁ditch	-11.7653
▁Ace	-11.7653
▁irony	-11.7654
▁BEAN	-11.7654
▁recognise	-11.7657
▁brightness	-11.7662
▁Wragge	-11.7666
▁choking	-11.7666
▁Archer	-11.7668
▁attract	-11.7671
▁shifts	-11.7673
▁distrust	-11.7675
tle	-11.7677
▁Ladies	-11.7678
▁eyelids	-11.7679
▁pistols	-11.7679
COBB	-11.768
▁villages	-11.7681
▁indicating	-11.7683
▁Alexandrovitch	-11.7683
▁mysteries	-11.7683
▁Virgin	-11.7685
dy	-11.7687
▁shines	-11.7689
▁MOVES	-11.769
▁spray	-11.7692
▁converse	-11.7692
▁instruction	-11.7694
▁Brad	-11.7695
▁fights	-11.7697
▁quaint	-11.7703
ol	-11.7703
▁stretches	-11.7704
▁fearing	-11.7704
▁revived	-11.7705
▁Whose	-11.7706
▁Jove	-11.7707
▁experiences	-11.7711
▁edition	-11.7712
▁timber	-11.7713
town	-11.7714
▁fruits	-11.7715
SE	-11.7716
▁rotten	-11.7717
▁clumsy	-11.7718
▁visibly	-11.7718
▁remarkably	-11.7719
▁Bulstrode	-11.7719
▁ELEVATOR	-11.772
▁politeness	-11.7721
▁WATER	-11.7721
▁IRA	-11.7722
▁repent	-11.7722
▁January	-11.7723
▁hail	-11.7729
▁wonders	-11.773
▁originally	-11.7731
▁establish	-11.7734
▁Welcome	-11.7734
▁Algren	-11.7736
▁Jasper	-11.7738
▁Hawk	-11.7739
▁reign	-11.774
▁spin	-11.7745
BOND	-11.775
▁tranquil	-11.775
▁artificial	-11.7752
▁offend	-11.7753
▁splendour	-11.7753
▁stripped	-11.7753
▁Irene	-11.7754
▁potatoes	-11.7754
▁relate	-11.7755
▁spoon	-11.7755
▁SLAMS	-11.7756
▁assertion	-11.7757
▁objected	-11.7758
▁wench	-11.7761
▁Force	-11.7761
must	-11.7764
▁didst	-11.7767
▁FLASH	-11.7767
!...	-11.7768
▁foes	-11.777
▁countess	-11.777
▁Milt	-11.777
▁dainty	-11.7771
▁ascertain	-11.7771
▁Scotch	-11.7771
ak	-11.7772
ette	-11.7777
▁Ivan	-11.7779
▁comforted	-11.7782
▁Forget	-11.7783
▁94	-11.7783
▁Speed	-11.7784
TON	-11.7785
▁venerable	-11.7789
▁demon	-11.7789
▁vow	-11.7792
▁crawled	-11.7793
▁61	-11.7793
away	-11.7794
▁deliberate	-11.7795
▁wraps	-11.7798
▁Clement	-11.7801
▁purity	-11.7806
▁debris	-11.7807
▁target	-11.7808
▁illuminated	-11.7809
taking	-11.7811
Am	-11.7817
▁disappearing	-11.7817
▁fertilised	-11.7818
▁darker	-11.7824
▁Hilliard	-11.7824
▁submission	-11.7824
▁Low	-11.7832
▁juice	-11.7832
▁slim	-11.7833
▁pounding	-11.7834
▁twist	-11.7836
▁railroad	-11.7837
pa	-11.7839
▁LEE	-11.784
▁buddy	-11.7842
▁rubs	-11.7842
▁oppressed	-11.7843
▁Valley	-11.7843
▁Chauvelin	-11.7843
▁SHOP	-11.7844
▁compact	-11.7844
▁poets	-11.7846
▁Need	-11.7846
▁grieved	-11.7848
▁vicar	-11.7851
▁mix	-11.7852
colored	-11.7854
▁jokes	-11.7855
eight	-11.7856
▁actor	-11.7858
▁Racine	-11.786
▁GINGER	-11.786
▁strings	-11.7862
▁jerk	-11.7865
▁Hicks	-11.7866
▁thereof	-11.7867
▁concert	-11.7869
▁reflecting	-11.7869
▁snuff	-11.787
▁sung	-11.787
▁gasping	-11.7872
▁TRAIN	-11.7872
woman	-11.7873
▁stall	-11.7874
continuing	-11.7876
▁Stephanie	-11.7877
▁accordance	-11.7878
▁farmers	-11.788
too	-11.788
▁Fate	-11.7882
▁CLAY	-11.7889
▁ta	-11.789
▁irregular	-11.7892
ors	-11.7894
since	-11.7894
▁ecstasy	-11.7895
▁innumerable	-11.7895
▁detected	-11.7898
▁Off	-11.79
▁MEDIUM	-11.79
▁pie	-11.79
▁resume	-11.79
▁BEHIND	-11.7901
▁files	-11.7907
▁drawers	-11.7908
▁illusion	-11.7909
cher	-11.791
▁grotesque	-11.791
▁TOP	-11.7912
▁await	-11.7913
▁Jerome	-11.7913
▁contemplation	-11.7913
▁significant	-11.7913
▁loyalty	-11.7913
▁fascinated	-11.7914
Surely	-11.7915
▁Union	-11.7915
▁LINDA	-11.7915
▁fare	-11.7918
▁virgin	-11.7919
▁horseback	-11.792
▁blushing	-11.7927
▁hose	-11.7928
▁plunge	-11.7929
▁culture	-11.7931
▁91	-11.7931
▁frenzy	-11.7931
▁furnish	-11.7933
▁Ellen	-11.7935
arrow	-11.7936
Nor	-11.7937
take	-11.7939
port	-11.7941
▁bands	-11.7943
▁THEIR	-11.7943
▁hip	-11.7943
ised	-11.7944
▁raging	-11.7945
▁Michel	-11.7946
▁mule	-11.7947
Romance	-11.7948
▁thirteen	-11.7948
Pray	-11.7949
▁Jay	-11.7949
▁revelation	-11.7949
▁hush	-11.7949
▁salary	-11.7949
▁Godwin	-11.795
▁AWAY	-11.795
▁Marty	-11.795
ya	-11.7957
▁fades	-11.7957
▁slippers	-11.7958
▁palms	-11.7958
▁knights	-11.7961
▁lecture	-11.7965
▁personage	-11.7967
ls	-11.7968
▁nursery	-11.7969
▁perched	-11.7969
▁afore	-11.797
▁recovering	-11.798
sh	-11.7982
▁drum	-11.7982
▁treasures	-11.7984
▁rational	-11.7984
▁Brumley	-11.7985
▁smashed	-11.7988
▁Modeste	-11.7988
▁shutting	-11.7989
▁!...	-11.7989
▁XIV	-11.7991
▁Eh	-11.7992
▁exile	-11.7995
handed	-11.7998
▁disliked	-11.8
▁tasted	-11.8001
▁stamens	-11.8003
▁Ardan	-11.8003
▁enthusiastic	-11.8003
▁clutches	-11.8004
ELLE	-11.8006
▁onward	-11.8006
▁COBB	-11.8008
uick	-11.8017
▁pond	-11.8017
▁existing	-11.8018
▁cordial	-11.8018
▁observations	-11.802
DAVID	-11.8021
▁loneliness	-11.8021
▁speechless	-11.8023
▁flutter	-11.8025
▁whatsoever	-11.8026
▁frock	-11.8026
▁trapped	-11.8028
De	-11.8033
▁helicopter	-11.8036
▁pitiful	-11.8036
▁precise	-11.8036
JOE	-11.8036
▁wires	-11.8037
▁77	-11.8037
▁abrupt	-11.8037
▁odds	-11.8039
▁HONEY	-11.8039
▁Woodward	-11.804
▁clutched	-11.8042
▁BEACH	-11.8044
▁68	-11.8047
▁positions	-11.8048
▁comedy	-11.8048
▁lied	-11.8049
▁brighter	-11.805
▁gross	-11.8054
TOM	-11.8054
▁asshole	-11.8055
▁irritation	-11.8058
▁humming	-11.8058
▁DEAD	-11.8058
Lady	-11.8058
▁Claus	-11.806
▁satin	-11.8061
▁photos	-11.8062
▁trunks	-11.8064
NER	-11.8066
▁da	-11.8071
▁Zed	-11.8071
▁Per	-11.8071
▁ivory	-11.8076
▁uneasily	-11.8076
▁sobbed	-11.8076
▁tumbled	-11.8076
▁basis	-11.8076
▁respecting	-11.8076
▁wheat	-11.8079
▁Denys	-11.8079
▁Barbican	-11.8079
fire	-11.8079
point	-11.808
▁workmen	-11.808
▁rests	-11.8081
▁Katy	-11.8082
▁complained	-11.8083
RA	-11.8083
▁headlong	-11.8083
▁sleeves	-11.8085
▁uncommon	-11.8091
maker	-11.8091
▁sentimental	-11.8091
▁cigarettes	-11.8092
▁turf	-11.8094
▁interference	-11.8094
▁escaping	-11.8094
▁Yuri	-11.8094
▁unit	-11.8098
▁slid	-11.8099
▁Round	-11.8099
▁debate	-11.8101
▁indicate	-11.8101
▁neighbouring	-11.8103
▁maids	-11.8106
▁recorded	-11.8107
▁sur	-11.8108
▁72	-11.8108
▁courteous	-11.8109
▁Ambrose	-11.8112
▁Arkadyevitch	-11.8112
▁rats	-11.8113
▁Farm	-11.8113
▁attentively	-11.8116
▁Penny	-11.8116
▁Music	-11.8117
▁retain	-11.8117
▁NELL	-11.8118
▁73	-11.8118
▁basin	-11.8125
▁duel	-11.8128
chi	-11.8129
▁grinned	-11.8131
▁Wayne	-11.8131
▁earliest	-11.8131
Crime	-11.8131
▁submitted	-11.8131
▁stress	-11.8133
▁Seth	-11.8134
ut	-11.8135
▁Pull	-11.8136
▁armor	-11.8145
▁86	-11.8145
▁picturesque	-11.8149
▁ambitious	-11.8149
▁striving	-11.8149
▁Da	-11.8149
▁ELAINE	-11.8151
writer	-11.8152
▁soothing	-11.8153
▁considers	-11.8155
▁PULLS	-11.8157
▁sincerely	-11.8157
▁beats	-11.8161
▁bind	-11.8163
▁dreadfully	-11.8165
▁schools	-11.8167
▁coats	-11.8168
▁mothers	-11.8171
▁controls	-11.8174
▁fiction	-11.8176
▁procure	-11.8177
▁appealed	-11.8179
▁footman	-11.8182
▁cathedral	-11.8183
▁Magic	-11.8183
▁affliction	-11.8183
▁pays	-11.8184
▁CECIL	-11.8185
▁Bonteen	-11.8186
▁hue	-11.8186
▁Josh	-11.8186
▁underground	-11.8189
▁fathers	-11.8189
▁scrap	-11.8195
UI	-11.8195
▁indulgence	-11.8196
▁keenly	-11.8196
▁disturbance	-11.8202
▁savages	-11.8203
▁pillar	-11.8204
▁Cardinal	-11.8204
▁merits	-11.8204
▁stammered	-11.8205
▁snatches	-11.8205
▁tool	-11.8205
▁Khalid	-11.8206
▁sustained	-11.8207
▁lifetime	-11.8211
▁howling	-11.8212
▁expert	-11.8217
▁CARTER	-11.822
▁Spock	-11.8222
▁topic	-11.8222
▁inspection	-11.8223
▁Mc	-11.8223
▁convent	-11.8225
▁Hard	-11.8225
▁acquaintances	-11.8227
▁Grandet	-11.8228
ADAM	-11.8228
▁riches	-11.8228
▁accepting	-11.8235
▁DAD	-11.8239
▁Rosmer	-11.8241
▁Jamal	-11.8241
▁SIDNEY	-11.8241
▁churchyard	-11.8242
▁Empire	-11.8243
min	-11.8247
ALL	-11.8248
▁salute	-11.8252
could	-11.8252
▁Seven	-11.8253
▁signature	-11.8258
▁humiliation	-11.8259
▁henceforth	-11.8259
▁sombre	-11.826
▁Actually	-11.8262
▁forlorn	-11.8264
▁skirts	-11.8265
▁dials	-11.8267
▁survive	-11.8268
▁Papa	-11.8272
these	-11.8273
▁tooth	-11.8275
▁stricken	-11.8277
▁nought	-11.8278
▁gaining	-11.8278
▁sports	-11.8279
▁shivering	-11.8282
▁4.	-11.8283
▁acid	-11.8287
▁glares	-11.8289
▁STAN	-11.8292
▁wipe	-11.8293
▁eloquent	-11.8293
▁anticipation	-11.8295
▁exalted	-11.8297
▁accuse	-11.8298
▁planning	-11.8298
▁rusty	-11.8298
▁simultaneously	-11.8298
▁posture	-11.8299
VOICE	-11.8299
▁96	-11.8299
▁travels	-11.83
▁earnestness	-11.83
▁Eyes	-11.8301
▁Rock	-11.8303
▁attic	-11.8304
▁tend	-11.8307
▁Unless	-11.8307
▁effective	-11.8313
▁JO	-11.8314
▁humility	-11.8315
▁Russell	-11.8315
PHIL	-11.8315
▁Vicar	-11.8316
▁CAT	-11.8317
▁Post	-11.832
▁pausing	-11.8321
▁Turn	-11.8321
▁spit	-11.8327
▁photographs	-11.8328
▁Signor	-11.8328
▁pump	-11.8329
▁cough	-11.833
▁expressive	-11.8331
ric	-11.8332
cy	-11.8334
jpg	-11.8334
▁icy	-11.8334
▁settling	-11.8335
▁appreciation	-11.8335
▁professed	-11.8336
▁Officer	-11.8337
BACK	-11.8337
▁Th	-11.8339
ped	-11.8341
Me	-11.8342
▁afar	-11.8346
▁deserves	-11.8347
▁chat	-11.8349
▁ominous	-11.8349
▁ultimate	-11.8349
▁corporal	-11.8352
▁XII	-11.8355
▁rub	-11.8356
▁alliance	-11.8358
?...	-11.8359
▁produces	-11.8359
▁?...	-11.8359
▁emotional	-11.836
▁aimed	-11.8363
▁tho	-11.8368
va	-11.8371
▁odious	-11.8371
▁Wheeler	-11.8373
▁familiarity	-11.8373
▁ribs	-11.8374
▁hovering	-11.8374
▁unreasonable	-11.8374
▁decidedly	-11.8374
till	-11.8374
foot	-11.8375
▁December	-11.8375
▁BANK	-11.8377
▁realised	-11.838
▁muscle	-11.8382
▁Reed	-11.8385
ENNY	-11.8386
▁Glen	-11.8388
▁abyss	-11.8389
▁actress	-11.8389
▁Cause	-11.8389
▁torrent	-11.839
▁robes	-11.839
▁BONNIE	-11.839
▁destination	-11.839
▁Gibson	-11.839
lic	-11.839
▁DUDE	-11.8393
▁tire	-11.8394
▁sweetest	-11.8398
▁endeavouring	-11.84
▁HI	-11.8403
thou	-11.8404
▁archdeacon	-11.8409
▁shaggy	-11.8409
▁screw	-11.8409
▁sweeps	-11.8412
Mother	-11.8412
▁Phoenix	-11.8414
▁Fa	-11.8417
gu	-11.8419
▁keeper	-11.842
▁crashing	-11.8421
▁JESSE	-11.8422
▁Town	-11.8423
▁GENERAL	-11.8424
▁oars	-11.8424
▁amiss	-11.8425
▁coolly	-11.8427
▁temperature	-11.8428
▁imaginary	-11.8428
▁composition	-11.8428
▁yanks	-11.8428
▁85	-11.8429
▁rash	-11.843
▁hateful	-11.843
▁Copperfield	-11.843
▁anti	-11.8431
▁huddled	-11.8431
▁praised	-11.8433
▁Duncan	-11.8436
▁Sub	-11.8439
ative	-11.8442
▁THOMAS	-11.8443
▁threats	-11.8444
▁churches	-11.8444
▁heathen	-11.8446
▁disturbing	-11.8446
▁brethren	-11.8446
▁Department	-11.8447
▁hi	-11.8448
▁devils	-11.8451
▁Admiral	-11.8452
▁parcel	-11.8452
▁refined	-11.8452
▁handing	-11.8453
▁Beauty	-11.8454
ECKER	-11.8456
▁JOEY	-11.8458
▁crawls	-11.8462
▁plump	-11.8462
▁kin	-11.8462
▁legitimate	-11.8462
▁88	-11.8465
▁symptoms	-11.8465
▁treachery	-11.8465
▁strode	-11.8465
▁pursuing	-11.8466
▁HAVEN	-11.8466
▁falsehood	-11.8466
▁Willow	-11.8467
rt	-11.8468
▁operations	-11.8468
▁involuntarily	-11.8469
▁toys	-11.8476
▁bowing	-11.8477
▁sacrificed	-11.8478
▁extravagant	-11.8481
▁identical	-11.8481
▁ENID	-11.8484
▁Tracy	-11.8484
▁crimes	-11.8488
▁shew	-11.8489
▁swaying	-11.8489
▁vi	-11.8491
qui	-11.8492
▁98	-11.8499
▁Hilary	-11.8503
▁luncheon	-11.8503
nail	-11.8504
WAY	-11.8504
▁courts	-11.8506
▁71	-11.8506
BILL	-11.8506
▁soap	-11.8509
▁indulged	-11.8513
▁goodbye	-11.8516
[	-11.8517
▁historical	-11.852
▁dire	-11.852
▁Phyllis	-11.8522
▁horribly	-11.8522
▁ungrateful	-11.8522
▁Truman	-11.8522
▁Mickey	-11.8522
▁pinned	-11.8522
▁cute	-11.8523
▁omitted	-11.8523
▁Plis	-11.8523
▁moustache	-11.8523
▁attain	-11.8523
▁Reverend	-11.8526
John	-11.8526
▁Santa	-11.8527
▁jar	-11.8528
▁CUP	-11.8529
▁practised	-11.8529
▁honoured	-11.8533
▁leaders	-11.8535
▁Tara	-11.8536
▁refrain	-11.8537
▁conspicuous	-11.8538
▁Republic	-11.854
▁rattle	-11.8541
▁Courcy	-11.8541
▁uncertainty	-11.8542
▁Baker	-11.8542
▁scholar	-11.8542
▁Believe	-11.8543
▁enclosed	-11.8543
▁Across	-11.8546
▁butcher	-11.8547
▁plead	-11.8548
▁STAGE	-11.855
▁therein	-11.8551
▁charmed	-11.8555
▁Ronnie	-11.856
▁Brion	-11.8561
▁tutor	-11.8561
▁RESTAURANT	-11.8562
▁improve	-11.8564
▁tramp	-11.8565
▁helplessly	-11.8572
▁states	-11.8573
tor	-11.8573
quite	-11.8579
▁explodes	-11.8579
▁NEVILLE	-11.858
▁ACROSS	-11.8581
▁twin	-11.8581
▁riot	-11.8584
▁sour	-11.8584
▁evenings	-11.8584
Horror	-11.8584
▁BOOM	-11.8585
▁namely	-11.8585
▁twisting	-11.8586
▁gasp	-11.8588
▁perfume	-11.8593
▁REVEAL	-11.8593
▁Servadac	-11.8599
▁inhabited	-11.86
▁Benjamin	-11.8601
▁74	-11.8603
▁LE	-11.8606
▁controlled	-11.8607
om	-11.8608
▁MOLLY	-11.861
Aye	-11.8611
fe	-11.8612
▁Ad	-11.8614
▁decorated	-11.8619
▁skies	-11.8619
▁MOVE	-11.8619
▁Gentlemen	-11.8619
1.	-11.8621
▁frowned	-11.8623
▁BRIAN	-11.8624
Alas	-11.8625
▁function	-11.8626
▁factory	-11.8627
▁customer	-11.8629
▁shifting	-11.8629
▁shells	-11.8629
▁ridicule	-11.863
▁bathed	-11.863
▁Happy	-11.8634
▁withered	-11.8639
ator	-11.8642
▁collapses	-11.8647
▁fuss	-11.8648
▁din	-11.8651
▁gasps	-11.8655
▁Murphy	-11.8656
▁admission	-11.8656
▁Teddy	-11.8657
▁Saul	-11.8657
▁oppose	-11.8657
▁visions	-11.8659
▁bruised	-11.8659
Sci	-11.866
▁ruled	-11.8661
▁thicket	-11.8661
▁der	-11.8661
▁assert	-11.8661
Father	-11.8662
▁hides	-11.8664
▁carriages	-11.8666
▁duly	-11.8667
▁hinder	-11.8673
▁differently	-11.8673
▁Glascock	-11.8676
▁Glendinning	-11.8676
▁Strickland	-11.8676
▁fluid	-11.8676
▁Jeffard	-11.8676
▁CHURCH	-11.8677
▁Colin	-11.8678
▁liar	-11.8678
▁bachelor	-11.8679
▁boiling	-11.8679
▁78	-11.8679
▁83	-11.868
▁Crystal	-11.8681
being	-11.8682
▁manhood	-11.8684
▁Laurent	-11.8684
▁gazes	-11.8689
▁dew	-11.8693
▁Amadis	-11.8695
▁sheriff	-11.8695
▁Nathan	-11.8695
▁ROCKY	-11.8696
▁tucked	-11.8696
▁helm	-11.8696
▁babe	-11.8697
▁Douglas	-11.8698
▁largely	-11.8698
▁Barris	-11.87
JIM	-11.8701
▁pissed	-11.8701
▁tangled	-11.8702
▁drown	-11.8705
▁starve	-11.8705
RO	-11.8706
▁cheat	-11.8706
▁barrels	-11.8713
▁serene	-11.8713
▁Curdie	-11.8714
▁glaring	-11.8714
▁Francisco	-11.8715
▁muddy	-11.8715
▁smashes	-11.8715
▁isolated	-11.8716
_--	-11.8717
▁Noel	-11.8719
▁vein	-11.8727
▁troop	-11.873
▁withdrawn	-11.873
▁sly	-11.8732
▁LOGAN	-11.8733
▁Syme	-11.8734
▁shopping	-11.8736
Stop	-11.8741
▁Pause	-11.8743
▁Brangwen	-11.8753
▁University	-11.8753
▁microphone	-11.8753
istic	-11.8756
▁conquest	-11.8757
iv	-11.8757
▁baffled	-11.8758
▁retreated	-11.8765
▁imposed	-11.8767
▁ignore	-11.8768
▁wa	-11.8771
▁une	-11.8772
▁justly	-11.8773
▁regretted	-11.8774
▁Glaucus	-11.8777
▁weigh	-11.8781
▁repeatedly	-11.8781
▁Il	-11.8782
▁regularly	-11.8785
▁finer	-11.8787
▁peculiarly	-11.8788
▁accounted	-11.8789
▁locker	-11.879
form	-11.8791
tte	-11.8792
▁Dunstable	-11.8792
▁Ellinor	-11.8792
▁ELLIE	-11.8792
▁refusing	-11.8793
▁79	-11.8797
▁attendants	-11.8798
▁fake	-11.88
▁oldest	-11.88
▁moor	-11.8801
▁Ki	-11.8806
▁hunter	-11.8806
▁stray	-11.8807
▁Trust	-11.8808
▁profile	-11.8812
▁vexation	-11.8812
▁imposing	-11.8812
▁Alfred	-11.8814
▁receipt	-11.8816
▁pearls	-11.8818
▁stiffly	-11.8821
▁SALLY	-11.8822
▁suffice	-11.8823
▁verses	-11.8824
▁crow	-11.8825
▁wrists	-11.8827
▁shrewd	-11.8827
▁wearily	-11.8832
▁removing	-11.8833
▁robbery	-11.8834
▁welcomed	-11.8843
▁adopt	-11.8844
▁CLAIRE	-11.8845
▁hopeful	-11.8845
MINI	-11.8847
▁overwhelming	-11.8851
▁sequence	-11.8851
▁symbol	-11.8854
▁suite	-11.8855
▁avoiding	-11.8859
▁eastern	-11.8859
yet	-11.8859
▁sparks	-11.8859
▁Pat	-11.886
▁scope	-11.8861
▁array	-11.8867
▁BARON	-11.8873
▁hates	-11.8873
▁Find	-11.8875
▁association	-11.8875
▁treating	-11.8877
▁HAN	-11.8877
▁associated	-11.8878
▁acute	-11.8879
▁considerations	-11.8884
▁09	-11.8889
▁Dockwrath	-11.8891
▁picnic	-11.8891
▁PRE	-11.8891
▁Knightley	-11.8891
▁Honey	-11.8891
▁Pacific	-11.8892
▁JUST	-11.8892
▁steering	-11.8894
▁lame	-11.8895
▁convenience	-11.8895
▁ED	-11.8899
▁Want	-11.8899
▁hasten	-11.8901
▁Link	-11.8903
Sure	-11.8904
▁goddess	-11.8911
▁insects	-11.8919
▁eats	-11.8919
▁shorter	-11.8921
▁87	-11.8922
ND	-11.8923
▁wickedness	-11.8925
▁excitedly	-11.8927
▁squeeze	-11.8927
▁Port	-11.8927
▁astonishing	-11.8929
post	-11.8929
▁Montreville	-11.893
▁Reardon	-11.893
▁Hanaud	-11.893
▁boards	-11.8932
coming	-11.8937
▁congratulate	-11.8942
▁76	-11.8946
▁excess	-11.8949
pp	-11.895
cat	-11.895
▁ERICA	-11.8952
leg	-11.8953
▁folding	-11.8955
▁TIGHT	-11.8956
▁uttering	-11.8957
French	-11.8958
▁crowned	-11.896
▁mournful	-11.8966
▁commonly	-11.8967
▁Mind	-11.897
▁verdict	-11.897
▁Bunny	-11.897
▁ninety	-11.8971
tell	-11.8972
▁rubbish	-11.8972
▁patches	-11.8972
▁confronted	-11.8973
▁rogue	-11.8975
▁dome	-11.8975
▁GLASS	-11.8976
▁wrinkled	-11.8976
▁exists	-11.8978
Mystery	-11.8978
▁WAS	-11.898
shaped	-11.898
gen	-11.8981
▁wider	-11.8983
▁WIFE	-11.8984
▁nineteen	-11.8989
▁examines	-11.8989
▁harbor	-11.899
▁dans	-11.899
▁Lloyd	-11.8992
▁schemes	-11.8994
▁sewing	-11.8994
▁STAR	-11.8995
▁************	-11.8998
vi	-11.8998
ville	-11.8998
▁Dog	-11.8999
▁impress	-11.8999
ke	-11.9
▁doings	-11.9001
▁gale	-11.9001
▁instincts	-11.9001
▁Bad	-11.9006
▁straining	-11.9008
▁wars	-11.9008
▁ALLMERS	-11.901
▁imitation	-11.901
▁Dashwood	-11.901
▁Calvin	-11.901
▁baggage	-11.901
NEFF	-11.901
may	-11.9014
▁transparent	-11.9014
_]	-11.9016
▁foremost	-11.9017
bag	-11.9017
▁procured	-11.9019
▁93	-11.902
▁discharged	-11.902
▁chatter	-11.9021
▁praying	-11.9025
▁goal	-11.9027
UR	-11.9029
po	-11.9029
▁lust	-11.9029
▁secrecy	-11.903
▁creek	-11.903
▁Instantly	-11.903
▁impact	-11.903
▁hesitating	-11.9031
▁Traddles	-11.9032
JACOB	-11.9033
▁garment	-11.9036
while	-11.9036
▁Dark	-11.9039
▁84	-11.9039
▁ca	-11.904
▁SIR	-11.904
▁ornaments	-11.9041
▁pleases	-11.9042
▁Speak	-11.9043
▁expose	-11.9045
▁thorough	-11.9046
▁Ellida	-11.905
▁fancies	-11.905
▁sentences	-11.905
▁grandeur	-11.905
▁Herr	-11.9054
love	-11.9055
▁consumed	-11.9056
▁contracted	-11.9056
▁penetrated	-11.9057
▁relax	-11.9059
▁Neb	-11.9059
▁commanding	-11.9059
▁BARRIS	-11.9061
▁tortured	-11.9068
▁Poyser	-11.907
▁Picard	-11.907
▁Mackel	-11.907
▁preference	-11.907
▁filthy	-11.9071
▁admiral	-11.9072
DA	-11.9073
▁Ba	-11.9076
▁successfully	-11.908
▁survey	-11.9083
▁ignores	-11.9086
▁abstract	-11.9089
Yea	-11.9089
▁Commons	-11.9089
▁Inspector	-11.909
iest	-11.9094
▁shifted	-11.9097
▁MILLER	-11.9097
▁matches	-11.9098
▁ROSENFELD	-11.9099
▁81	-11.9101
▁accusation	-11.9103
▁fa	-11.9108
▁kinda	-11.9108
▁DECK	-11.911
▁Immediately	-11.911
▁schooner	-11.911
▁Darcy	-11.911
▁enchanted	-11.911
▁adorned	-11.9112
▁genre	-11.9113
30	-11.9113
▁Julius	-11.9115
▁patron	-11.9115
▁wool	-11.9116
right	-11.9119
Which	-11.912
▁ranch	-11.9121
▁HARVEY	-11.9122
▁talents	-11.9125
▁Hills	-11.9125
▁00	-11.9126
▁Venice	-11.913
▁Lane	-11.9131
▁cured	-11.9132
▁likeness	-11.9137
▁US	-11.9137
▁loan	-11.9139
▁elected	-11.9141
▁sounding	-11.9147
▁peek	-11.9149
▁Germans	-11.9151
▁perplexity	-11.9151
▁Partridge	-11.9151
▁Alleyne	-11.9151
▁companionship	-11.9152
▁ripe	-11.9152
▁Finch	-11.9157
▁production	-11.9158
▁dart	-11.9162
▁ale	-11.9163
▁bronze	-11.9165
▁Willie	-11.9168
▁CRASH	-11.917
▁Gilliatt	-11.9171
▁joys	-11.9171
▁acceptance	-11.9172
▁solemnity	-11.9172
▁Wind	-11.9173
▁heights	-11.9175
▁Wa	-11.9176
▁clicks	-11.9179
10	-11.9179
▁extends	-11.9184
▁Godfrey	-11.9191
▁liable	-11.9191
▁Psmith	-11.9191
▁AL	-11.9192
▁effectually	-11.9192
▁Oak	-11.9194
▁joking	-11.9196
▁drugs	-11.9198
▁rapture	-11.9199
Fantasy	-11.9202
ANN	-11.9208
▁comic	-11.921
▁razor	-11.9212
▁implied	-11.9212
▁assuming	-11.9212
▁Ireland	-11.9212
▁wisely	-11.9213
▁fulfilled	-11.9213
▁scarf	-11.9213
▁messages	-11.9213
▁register	-11.9214
▁Yellow	-11.9214
▁February	-11.9214
Twas	-11.9217
elle	-11.922
▁tops	-11.922
▁pitched	-11.9222
▁82	-11.9222
▁bridle	-11.9224
▁plague	-11.9224
▁ghosts	-11.9225
▁Georges	-11.9227
▁freed	-11.9227
Yet	-11.9227
▁laden	-11.9228
▁halfway	-11.9228
ions	-11.9229
▁Derek	-11.9232
▁morality	-11.9233
▁football	-11.9234
▁outfit	-11.9235
▁dive	-11.9236
▁HIGHWAY	-11.9236
▁madman	-11.9239
▁discern	-11.9241
▁meals	-11.9244
▁lodged	-11.9245
▁Hush	-11.9246
▁History	-11.9247
▁condemn	-11.9247
ious	-11.9248
▁Rudolf	-11.9252
air	-11.9253
▁assigned	-11.9254
▁Mercy	-11.9256
Ch	-11.9257
▁discovering	-11.9257
▁excuses	-11.9262
▁dependent	-11.9263
▁Faith	-11.9264
▁rounds	-11.9266
▁languages	-11.9266
CONRAD	-11.9273
▁AROUND	-11.9273
▁Sowerby	-11.9273
▁wardrobe	-11.9273
▁daresay	-11.9273
▁lance	-11.9274
▁borough	-11.9276
▁producing	-11.9279
▁wholesome	-11.9281
▁unaware	-11.9282
▁specimen	-11.9282
▁representative	-11.9282
▁sensations	-11.9283
ford	-11.9285
General	-11.9285
cause	-11.9286
▁Parr	-11.9291
▁mayor	-11.9291
▁GROUND	-11.9291
▁AM	-11.9293
▁gallop	-11.9293
▁meetings	-11.9293
▁converted	-11.9296
▁PEOPLE	-11.9297
Two	-11.9297
▁aloft	-11.9299
▁vehicles	-11.9306
▁Free	-11.9307
ding	-11.9309
▁incidents	-11.9311
▁Know	-11.9313
▁Maguire	-11.9314
▁climate	-11.9314
wise	-11.9314
▁Jody	-11.9314
▁plea	-11.9319
▁invalid	-11.9319
▁institution	-11.9321
▁sites	-11.9322
▁Paradise	-11.9323
ALLISON	-11.9326
▁ankle	-11.9326
▁TYLER	-11.9326
▁mocking	-11.9327
▁XIII	-11.9333
▁cur	-11.9333
▁upside	-11.9334
▁Cindy	-11.9335
▁abundance	-11.9335
▁pregnant	-11.9335
▁provincial	-11.9335
▁pretext	-11.9335
▁happiest	-11.9335
▁prompted	-11.9338
▁Power	-11.9339
UM	-11.9343
▁elephant	-11.9344
▁Leon	-11.9345
▁Angela	-11.9347
whether	-11.9347
ze	-11.9348
▁apparatus	-11.9355
▁fascination	-11.9355
▁Vivian	-11.9355
▁Peterkin	-11.9356
▁Arab	-11.9359
▁Lorraine	-11.936
▁detached	-11.936
NICK	-11.9361
▁brooding	-11.9362
ji	-11.9363
▁fluttering	-11.9363
AS	-11.9364
▁Air	-11.9364
▁orderly	-11.9364
▁saloon	-11.9365
▁exertion	-11.9365
▁banker	-11.9366
▁FRAN	-11.9366
▁Pro	-11.9368
▁acquire	-11.9368
uff	-11.9371
AR	-11.9372
▁reluctance	-11.9376
▁essence	-11.9376
▁frail	-11.9376
▁Rowley	-11.9376
▁Twinkle	-11.9376
▁Price	-11.9376
▁extend	-11.9376
▁conclude	-11.9377
▁elapsed	-11.9378
▁devote	-11.9383
▁actors	-11.9383
▁brushes	-11.9385
▁fold	-11.9387
▁Ro	-11.9388
▁pills	-11.9389
!!!	-11.9391
▁hound	-11.9392
▁sa	-11.9393
office	-11.9397
▁civility	-11.9398
▁crude	-11.9398
▁Gods	-11.9398
ute	-11.9403
▁Englishmen	-11.9404
▁designs	-11.9405
▁tickets	-11.9407
▁MOON	-11.941
▁joining	-11.941
▁Jacques	-11.9415
▁discreet	-11.9417
▁behavior	-11.9418
▁nowadays	-11.9418
▁humbly	-11.9418
▁laboratory	-11.9418
▁cats	-11.9418
▁Mon	-11.9418
▁feverish	-11.9419
▁Eleanor	-11.942
▁concentrated	-11.9422
▁flickering	-11.9423
▁contemplated	-11.9423
▁scar	-11.9424
▁flatter	-11.9424
▁artistic	-11.9425
▁wheeled	-11.9428
mm	-11.9433
▁sweating	-11.9434
▁wrap	-11.9434
▁continual	-11.9436
▁Gerhardt	-11.9438
▁Katharine	-11.9438
▁MOTEL	-11.9438
▁ENTRANCE	-11.944
▁INTERCUT	-11.9441
▁believes	-11.9441
CAL	-11.9443
▁thrilled	-11.9443
▁GUARDS	-11.9444
▁STREETS	-11.9445
▁HAVE	-11.9449
▁apologize	-11.9451
▁Dodge	-11.9457
▁swollen	-11.9459
▁vigour	-11.9459
▁CENTER	-11.946
▁Fitz	-11.946
▁crumpled	-11.946
▁seizing	-11.9462
▁deposited	-11.9462
▁rod	-11.9462
▁POOL	-11.9465
▁mouse	-11.9469
▁champion	-11.947
▁mistakes	-11.9471
▁Mula	-11.9472
▁chalk	-11.9473
MELANIE	-11.9473
▁rouse	-11.9473
▁stain	-11.9473
ALEX	-11.9473
▁scans	-11.9474
▁unkind	-11.9475
▁nicely	-11.9476
▁canst	-11.948
▁Bloom	-11.948
▁junior	-11.948
▁salvation	-11.948
▁bicycle	-11.948
▁Monmouth	-11.948
▁Dragon	-11.948
▁snapping	-11.9486
▁SNOW	-11.9488
▁gaping	-11.9489
▁scratch	-11.9491
▁execute	-11.9493
▁warmed	-11.9496
▁delayed	-11.9496
rn	-11.9497
▁percent	-11.9501
▁whiskey	-11.9501
▁EARLY	-11.9502
bred	-11.9503
▁instructed	-11.9503
▁Abe	-11.9504
dog	-11.9505
▁relish	-11.951
▁needful	-11.9511
▁SHOTS	-11.9511
girl	-11.9512
▁Heav	-11.9513
▁Davis	-11.9515
▁Wars	-11.9515
Lost	-11.9516
▁flee	-11.9517
▁slaughter	-11.9519
▁Elenor	-11.9522
▁Laurie	-11.9522
▁rugged	-11.9522
IAN	-11.9524
▁pr	-11.9524
▁roofs	-11.9525
▁Des	-11.9525
▁Standing	-11.9527
1**	-11.9528
▁XV	-11.9529
▁entreat	-11.9531
▁crushing	-11.9533
▁trapper	-11.9534
▁faithfully	-11.9535
▁supporting	-11.9536
▁Ya	-11.9537
▁rim	-11.9539
▁DOC	-11.9542
▁Won	-11.9543
▁pavilion	-11.9543
▁Samms	-11.9544
▁prosperous	-11.9544
▁Jen	-11.9546
cap	-11.955
▁novels	-11.9551
▁insulted	-11.9552
ip	-11.9555
▁legend	-11.9555
ko	-11.9555
▁Sean	-11.9557
▁fling	-11.9562
▁FOREST	-11.9564
▁Perry	-11.9565
▁grandson	-11.9566
▁DAN	-11.9566
▁tumbling	-11.9566
▁Cecil	-11.9567
▁SR	-11.9573
tro	-11.9577
▁wad	-11.9578
seven	-11.9582
▁obtaining	-11.9582
▁ingenious	-11.9582
je	-11.9582
▁Chandler	-11.9585
▁Shrek	-11.9585
▁mademoiselle	-11.9585
▁ripped	-11.9585
▁supernatural	-11.9587
▁restraint	-11.9587
▁heaps	-11.9587
▁handwriting	-11.9588
▁Gus	-11.9589
▁worthless	-11.9589
▁hushed	-11.959
▁Judy	-11.959
▁HOLD	-11.9591
▁compose	-11.9591
▁Against	-11.9592
▁WALT	-11.9592
▁CROWD	-11.9594
▁THEN	-11.9595
za	-11.9595
arms	-11.9597
▁resort	-11.9598
▁compromise	-11.9598
▁referring	-11.9599
▁smoothly	-11.9599
▁PAST	-11.9601
ARD	-11.9603
▁cheering	-11.9605
▁logic	-11.9606
▁Hulot	-11.9607
▁disappearance	-11.9607
▁baronet	-11.9607
▁fade	-11.9607
▁monsters	-11.9608
▁troublesome	-11.961
▁undertaken	-11.9615
▁sip	-11.9616
▁formation	-11.9617
ery	-11.9619
▁somethin	-11.9621
Short	-11.9622
▁brisk	-11.9624
ay	-11.9624
▁infernal	-11.9625
▁biting	-11.9625
ugh	-11.9625
▁Junior	-11.9628
▁Wessex	-11.9628
▁Rudy	-11.9628
▁garbage	-11.9628
▁depression	-11.9628
▁Board	-11.9631
▁hints	-11.9633
▁slavery	-11.9636
▁click	-11.9639
▁Taking	-11.9643
▁clubs	-11.9645
▁piles	-11.9647
▁HOLMES	-11.9649
▁mechanism	-11.9649
▁oblivious	-11.9649
▁Cabinet	-11.9649
▁Silas	-11.9649
▁EXTERIOR	-11.9651
▁displeased	-11.9651
▁Truth	-11.9655
▁yielding	-11.9665
▁improvement	-11.9666
ab	-11.9667
▁husbands	-11.9667
ang	-11.9667
ther	-11.9668
▁Beatrice	-11.967
▁Feng	-11.9671
▁Brock	-11.9672
▁inherited	-11.9673
▁ultimately	-11.9674
▁sting	-11.9677
▁patients	-11.9677
▁Clear	-11.9679
▁slows	-11.9679
▁Shelly	-11.9682
▁Either	-11.9683
▁shrug	-11.9683
▁Jake	-11.9683
▁Year	-11.9684
▁environment	-11.9684
▁girlfriend	-11.9684
▁frowning	-11.9685
▁BOAT	-11.9685
▁bounded	-11.9689
▁nigger	-11.969
▁blades	-11.9691
▁rescued	-11.9691
▁Greystock	-11.9692
▁BLUE	-11.9693
▁Gold	-11.9695
▁overheard	-11.9696
▁resign	-11.9705
▁cruelly	-11.9712
▁OR	-11.9712
▁Carbuncle	-11.9713
▁Dudley	-11.9713
▁congregation	-11.9713
▁FORREST	-11.9713
▁insolence	-11.9713
▁civilized	-11.9714
▁ERIK	-11.9714
▁policemen	-11.9717
▁glided	-11.9719
▁tiger	-11.972
▁flattering	-11.9721
▁solely	-11.9721
▁CHUCK	-11.9722
▁OMIT	-11.9723
▁crap	-11.9724
▁FORD	-11.9728
▁commonplace	-11.9729
▁signify	-11.9729
BEAT	-11.973
▁internal	-11.9732
DIGNAN	-11.9735
▁Committee	-11.9735
▁Spilett	-11.9735
▁nursing	-11.9735
▁submarine	-11.9735
▁Milroy	-11.9735
▁ELIZABETH	-11.9735
▁PHIL	-11.9736
said	-11.9738
▁Gary	-11.9739
▁spies	-11.9739
▁grove	-11.9744
▁aft	-11.9745
▁entertaining	-11.9751
▁ferocious	-11.9753
▁wig	-11.9755
▁faculty	-11.9756
▁MARTHA	-11.9756
▁Shaggy	-11.9756
▁thrice	-11.9756
▁Warden	-11.9757
▁108	-11.9758
▁automatic	-11.9758
▁differ	-11.976
▁draft	-11.9761
▁Small	-11.9762
▁Christine	-11.9763
▁exasperated	-11.9763
▁SCOTTY	-11.9767
▁MASTER	-11.9769
▁SLOW	-11.9769
▁Detective	-11.977
▁Lou	-11.9773
▁headache	-11.9773
▁insolent	-11.9775
▁Job	-11.9775
▁beauties	-11.9778
▁Edith	-11.9778
▁Carteret	-11.9779
▁Elsbeth	-11.9782
▁preach	-11.9782
▁lowering	-11.9783
ROBIN	-11.9785
▁According	-11.9787
▁swam	-11.9791
▁lounge	-11.9791
▁league	-11.9792
▁rounded	-11.9793
True	-11.9795
▁mainly	-11.9799
▁Lambert	-11.9799
▁luminous	-11.9799
▁torches	-11.9802
▁maze	-11.9803
▁PATRICK	-11.9804
▁lifeless	-11.9805
ick	-11.9805
▁chart	-11.9806
get	-11.9807
▁senseless	-11.9813
▁frowns	-11.9813
ations	-11.9814
WALT	-11.9816
Monsieur	-11.9817
▁FERGUS	-11.9821
▁university	-11.9821
▁pearl	-11.9822
mi	-11.9824
▁BELL	-11.9826
▁respectfully	-11.9826
▁Station	-11.9827
▁dispose	-11.9828
▁streak	-11.9832
▁renew	-11.9834
▁groom	-11.9836
▁clerks	-11.9836
▁overboard	-11.9838
▁fixing	-11.9839
▁prominent	-11.984
▁lunges	-11.9841
Animation	-11.9843
▁Avenel	-11.9843
ans	-11.9843
▁arguing	-11.9843
▁perpetually	-11.9848
ians	-11.9848
▁minded	-11.9849
▁cradle	-11.9849
▁claw	-11.9849
▁scare	-11.9852
UN	-11.9855
▁som	-11.9856
▁wan	-11.9857
▁han	-11.9857
▁compartment	-11.9857
▁Act	-11.9858
▁pigs	-11.9859
▁...**	-11.986
▁stride	-11.9861
▁LORI	-11.9862
▁horrors	-11.9865
▁tents	-11.9865
▁Yule	-11.9865
ever	-11.9866
nes	-11.9866
▁hops	-11.987
▁Jill	-11.9871
▁cultivated	-11.9872
▁appearances	-11.9874
▁quicker	-11.9875
▁_[	-11.9875
▁revolt	-11.9876
▁boarding	-11.9878
▁growl	-11.988
LARGE	-11.9882
▁miniature	-11.9886
▁Burke	-11.9886
▁jewel	-11.9888
▁cows	-11.9888
▁exaggerated	-11.9889
covered	-11.9889
▁DEAR	-11.9889
Musical	-11.9893
▁posted	-11.9893
▁representing	-11.9896
▁WADE	-11.9897
dic	-11.99
▁Times	-11.9904
▁Mlle	-11.9904
▁MAR	-11.9904
▁excessive	-11.9905
▁attire	-11.9907
▁RIVER	-11.9908
▁Crevel	-11.9908
▁Lundie	-11.9908
▁inheritance	-11.9908
▁97	-11.9908
▁systems	-11.9909
▁prone	-11.991
ign	-11.9911
▁WIN	-11.9912
▁shirts	-11.9914
▁effected	-11.9917
▁WOODS	-11.9918
▁dwarf	-11.9919
▁Third	-11.9919
gy	-11.9921
▁hind	-11.9923
Edward	-11.9927
before	-11.9927
▁puzzle	-11.9928
skin	-11.9928
▁program	-11.993
▁PICARD	-11.993
▁AIRPORT	-11.993
▁Gwilt	-11.993
▁commotion	-11.993
▁pirate	-11.9933
▁Accordingly	-11.9933
▁insignificant	-11.9934
▁barred	-11.994
▁speculation	-11.9946
▁spears	-11.9946
▁101	-11.9947
almost	-11.995
CO	-11.995
ile	-11.9951
▁ash	-11.9951
▁relating	-11.9952
▁Central	-11.9952
▁Halbert	-11.9952
▁Enid	-11.9952
▁plaster	-11.9954
▁CLOSER	-11.9957
du	-11.9959
▁settles	-11.9959
▁leagues	-11.996
▁Doesn	-11.9962
▁LAB	-11.9963
▁gardener	-11.9965
▁transfer	-11.9966
▁CHAMBER	-11.997
South	-11.9971
▁Moscow	-11.9974
▁Aubert	-11.9974
▁Docchi	-11.9974
▁120	-11.9975
▁whirling	-11.9979
▁pinch	-11.9988
▁mo	-11.9988
▁FOUR	-11.9991
▁offensive	-11.9993
▁GROUP	-11.9993
▁bailiff	-11.9995
▁encouraging	-11.9995
▁Solomon	-11.9996
PAULINE	-11.9997
▁fading	-11.9997
bell	-11.9997
▁89	-11.9997
▁arranging	-12
▁latch	-12.0002
▁Buck	-12.0003
sher	-12.0003
▁INDY	-12.0004
▁Yu	-12.0006
▁110	-12.0006
ground	-12.0009
▁monitors	-12.001
▁rivers	-12.0011
tra	-12.0011
▁caps	-12.0012
▁precaution	-12.0012
▁murmuring	-12.0014
▁oddly	-12.0014
▁subsequent	-12.0015
Family	-12.0015
▁CELL	-12.0018
▁Ratcliffe	-12.0018
▁economy	-12.0018
▁GARAGE	-12.0018
▁Merdle	-12.0018
▁Dawson	-12.0018
▁Elaine	-12.0018
wa	-12.0018
▁Bush	-12.0021
maid	-12.0021
WAYNE	-12.0022
▁Neo	-12.0022
▁surveyed	-12.0022
▁scenery	-12.0023
▁bunk	-12.0023
▁COMPUTER	-12.0026
▁lui	-12.0031
▁thir	-12.0032
▁Anti	-12.0034
▁chopper	-12.0034
▁glowed	-12.0035
ANT	-12.0035
legged	-12.0037
▁proofs	-12.0037
▁violin	-12.0038
▁hire	-12.0039
▁curses	-12.004
▁tax	-12.0041
▁Mal	-12.0041
▁realization	-12.0041
▁Elton	-12.0041
▁Napoleon	-12.0043
▁crashes	-12.0044
▁knob	-12.0044
roul	-12.0045
▁tame	-12.0046
▁hop	-12.0048
▁affectionately	-12.0048
KO	-12.0048
Noir	-12.0053
▁floats	-12.0055
Ye	-12.0056
gar	-12.0058
▁ridden	-12.0058
▁SAL	-12.0059
▁HALLE	-12.006
▁rider	-12.006
▁fetched	-12.0061
▁Security	-12.0062
▁obstinacy	-12.0062
▁discomfort	-12.0062
▁angles	-12.0062
▁pillars	-12.0064
▁Commander	-12.0065
▁Tu	-12.007
EMMA	-12.007
▁premises	-12.0074
▁withal	-12.0074
▁objections	-12.0079
▁intending	-12.0079
▁reef	-12.0081
Western	-12.0083
▁reluctant	-12.0085
▁prompt	-12.0086
▁ABOVE	-12.0087
▁bang	-12.0088
▁Friend	-12.0088
▁constructed	-12.0089
▁hysterical	-12.009
▁surround	-12.0092
▁pang	-12.0093
▁penetrate	-12.0093
▁conjecture	-12.0093
▁ignored	-12.0094
▁NED	-12.0101
▁delicately	-12.0101
▁expanse	-12.0107
▁disbelief	-12.0107
▁Coraline	-12.0107
▁endowed	-12.0107
▁stairway	-12.0108
▁shiny	-12.0108
▁electrical	-12.0109
▁poised	-12.011
▁blinded	-12.011
▁resolutely	-12.0111
▁Rain	-12.0111
▁Sammy	-12.0112
other	-12.0112
▁Ham	-12.0113
▁research	-12.0114
▁defeated	-12.0114
ap	-12.0117
▁Away	-12.012
▁swallows	-12.0121
_,"	-12.0124
▁THERE	-12.0127
▁weaker	-12.0127
die	-12.0128
NBECK	-12.0129
▁authors	-12.0129
▁starving	-12.0129
▁quarrelled	-12.013
▁Rhoda	-12.013
▁Bassett	-12.0131
!)	-12.0131
▁poker	-12.0131
▁stooping	-12.0135
▁sneer	-12.0137
▁gentleness	-12.0142
▁hello	-12.0143
▁handled	-12.0144
▁nut	-12.0149
par	-12.0149
▁jack	-12.015
MOORE	-12.015
Really	-12.015
▁DESERT	-12.0151
▁Meriem	-12.0151
▁Pancks	-12.0151
▁TESMAN	-12.0151
▁ambulance	-12.0151
▁Korak	-12.0151
▁faltered	-12.0152
▁consultation	-12.0154
▁shivered	-12.0155
▁Edmee	-12.0155
▁Peace	-12.0156
▁Ghost	-12.0156
▁peered	-12.0158
▁Honour	-12.016
▁realise	-12.0162
OS	-12.0162
▁stables	-12.0166
▁MURPHY	-12.0166
▁tempest	-12.0168
▁banner	-12.017
▁data	-12.017
▁Might	-12.0172
shot	-12.0173
▁howl	-12.0173
▁Dunstan	-12.0174
▁gratification	-12.0174
rudatta	-12.0174
▁BRIDE	-12.0174
▁Scarlet	-12.0174
TIM	-12.0177
▁sped	-12.0178
▁deem	-12.0178
▁kettle	-12.0179
▁excused	-12.0179
▁monks	-12.018
▁bout	-12.0181
coat	-12.0182
▁LOVE	-12.0182
▁confirm	-12.0182
▁homes	-12.0185
▁bees	-12.0185
▁estates	-12.0187
vis	-12.0188
▁comforts	-12.0188
DE	-12.019
BY	-12.019
▁Mountains	-12.019
net	-12.0191
▁aching	-12.0194
dozen	-12.0195
▁dungeon	-12.0196
▁inevitably	-12.0196
▁twinkling	-12.0196
▁stumbling	-12.0196
▁Mabel	-12.0197
▁sunrise	-12.0197
houses	-12.0198
▁cents	-12.0198
▁reconciled	-12.0204
▁Lu	-12.0208
▁watchful	-12.0209
▁smells	-12.0209
▁acres	-12.0211
▁lone	-12.0211
▁screens	-12.0215
ung	-12.0215
ball	-12.0216
▁haggard	-12.0219
▁transferred	-12.0219
▁XVI	-12.022
▁undertaking	-12.022
▁Fortune	-12.0221
▁Camilla	-12.0222
OVER	-12.0222
▁canyon	-12.0223
▁towering	-12.0223
▁SOLDIER	-12.0224
▁speeds	-12.0225
LES	-12.0229
▁unusually	-12.023
▁subjected	-12.023
▁rewarded	-12.0232
DAY	-12.0235
▁genial	-12.0238
AT	-12.0241
rum	-12.0241
▁merrily	-12.0241
▁feebly	-12.0241
▁Below	-12.0242
▁habitual	-12.0242
▁colony	-12.0242
▁rapidity	-12.0242
▁lesser	-12.0242
▁proclaimed	-12.0244
▁Bentley	-12.0244
▁detained	-12.0245
▁Hang	-12.0245
▁Valentine	-12.0245
▁Maurice	-12.0247
▁conventional	-12.0247
▁wink	-12.0248
ments	-12.0251
▁include	-12.0252
▁blossoms	-12.0253
▁barking	-12.0253
▁develop	-12.0253
▁Cop	-12.0255
ANNE	-12.0256
▁random	-12.0262
PAUSE	-12.0264
EDWARD	-12.0264
▁enclosure	-12.0264
▁unlucky	-12.0264
▁Chi	-12.0267
▁madly	-12.0269
mar	-12.027
▁cherished	-12.0271
▁cheers	-12.0273
▁Raf	-12.0274
▁Jupiter	-12.0274
▁burns	-12.0274
▁mound	-12.0274
▁NEWS	-12.0278
▁huts	-12.0282
▁bustle	-12.0284
▁SP	-12.0284
▁MO	-12.0284
▁director	-12.0286
▁squad	-12.0287
▁Weldon	-12.0287
▁desperation	-12.0287
▁insensible	-12.0287
▁Juno	-12.0287
▁treason	-12.0288
▁Donnie	-12.0288
▁realm	-12.029
▁tumble	-12.0291
▁tribute	-12.0292
▁hurts	-12.0294
▁gracefully	-12.0295
▁floors	-12.0296
▁STORM	-12.0296
▁AMY	-12.0297
▁villa	-12.03
▁Sweet	-12.03
nine	-12.0303
▁Morning	-12.0303
▁groans	-12.0304
▁CLOSEUP	-12.0305
▁skeleton	-12.0306
▁RIPLEY	-12.0306
▁morals	-12.0309
▁guineas	-12.0309
▁DARCY	-12.0309
▁phenomenon	-12.0309
ui	-12.0311
Man	-12.0313
▁comp	-12.0315
▁handy	-12.0316
▁MONTAGE	-12.0319
▁exercised	-12.0319
VO	-12.032
▁saluted	-12.032
▁Bird	-12.032
▁clearer	-12.0324
tus	-12.0324
ney	-12.0325
▁parade	-12.0325
▁trusting	-12.0327
▁whereby	-12.0327
ep	-12.0328
▁widely	-12.0328
▁SYDNEY	-12.0329
▁organization	-12.0329
▁Therese	-12.0329
▁Greshamsbury	-12.0332
▁clapped	-12.0332
▁Hellboy	-12.0332
▁scratched	-12.0336
▁Near	-12.0337
▁EVIL	-12.0337
▁haze	-12.0338
▁twists	-12.0339
▁banquet	-12.034
▁LEADER	-12.034
▁fainted	-12.034
▁Full	-12.0342
▁Nash	-12.0342
cr	-12.0342
▁stoop	-12.0343
▁UNDER	-12.0344
▁capsules	-12.0352
▁blindly	-12.0353
Rip	-12.0355
▁exterior	-12.0355
▁tavern	-12.0355
▁Daisy	-12.0355
HILDY	-12.0355
▁Fairlie	-12.0355
Film	-12.0355
▁Greenow	-12.0355
▁AGAIN	-12.0356
▁Pre	-12.0357
▁flask	-12.036
▁Victoria	-12.0361
▁weakly	-12.0361
▁embroidered	-12.0362
▁Nugent	-12.0363
ane	-12.0364
▁phase	-12.0365
▁weeds	-12.0365
▁searches	-12.0366
▁pat	-12.0366
▁111	-12.0367
▁errors	-12.0367
▁jam	-12.0368
▁performing	-12.0369
Eh	-12.037
▁RAIN	-12.0373
▁pans	-12.0374
▁Kill	-12.0374
▁Halcombe	-12.0378
▁dingy	-12.0379
▁glistening	-12.038
HOUSE	-12.0381
▁moist	-12.0382
▁naughty	-12.0385
▁mused	-12.0387
▁gleamed	-12.0387
▁hunters	-12.0388
▁springing	-12.039
pre	-12.039
▁clatter	-12.0391
▁presumed	-12.0396
!_	-12.0399
▁JEFFR	-12.04
Link	-12.0401
▁Jennings	-12.0401
▁Mozart	-12.0401
▁Sholmes	-12.0401
▁Chase	-12.0401
▁hermit	-12.0402
▁princes	-12.0403
▁TUNNEL	-12.0403
▁daddy	-12.0406
▁powerless	-12.0406
▁frustrated	-12.0407
▁Del	-12.0408
▁Flora	-12.0409
▁armchair	-12.0411
▁survived	-12.0411
▁vanish	-12.0413
▁pronounce	-12.0413
▁Lila	-12.0414
fer	-12.0418
▁SPEED	-12.0419
▁Tears	-12.0419
▁stubborn	-12.042
▁joyful	-12.042
▁Jonson	-12.0424
▁deference	-12.0424
▁preacher	-12.0425
▁obscurity	-12.0426
link	-12.0431
▁ignoring	-12.0437
DO	-12.0437
▁JEFF	-12.0442
▁occurrence	-12.0445
▁Lori	-12.0447
▁Desnoyers	-12.0447
▁insurance	-12.0447
▁brink	-12.0447
▁undone	-12.0448
ATION	-12.0448
▁TOWN	-12.0449
▁Crown	-12.045
▁strolled	-12.045
▁possessions	-12.0452
▁RICHARD	-12.0455
▁hardened	-12.0455
▁shocking	-12.0457
Fi	-12.0458
▁immensely	-12.046
EEDY	-12.046
▁expectations	-12.0463
▁Fancy	-12.0465
▁rustic	-12.0468
▁Coming	-12.0468
ris	-12.0469
▁plantation	-12.0469
▁majestic	-12.047
▁breadth	-12.047
▁Coupeau	-12.047
▁Lydia	-12.047
▁chasing	-12.047
▁whipped	-12.047
▁Lionel	-12.0471
▁undertook	-12.0471
stricken	-12.0471
▁energetic	-12.0472
▁banished	-12.0473
▁blinking	-12.0474
▁timidly	-12.0476
▁armies	-12.0479
▁Enough	-12.0485
▁strive	-12.0486
KER	-12.0487
ps	-12.049
▁extensive	-12.049
▁calamity	-12.0493
▁ANDREW	-12.0493
▁spur	-12.0494
▁salon	-12.0494
▁lashes	-12.0495
▁fans	-12.0495
▁serpent	-12.0496
SAMMY	-12.0496
▁loading	-12.0496
▁Marjory	-12.0496
▁Pearl	-12.0497
▁LARGE	-12.0497
▁alluded	-12.0498
▁moaning	-12.0499
▁misses	-12.0502
▁dice	-12.0503
▁threaten	-12.0507
▁sway	-12.051
▁treacherous	-12.0513
▁pins	-12.0515
hi	-12.0515
▁activities	-12.0516
▁chocolate	-12.0516
▁paradise	-12.0516
▁rattling	-12.0516
▁rebellion	-12.0516
▁Public	-12.0516
▁blouse	-12.0516
▁Gamp	-12.0517
▁Edna	-12.0518
Exactly	-12.0518
About	-12.0521
▁Aye	-12.0522
▁blasts	-12.0523
▁102	-12.0527
qua	-12.0529
▁sheltered	-12.0531
▁ANNOUNCER	-12.0534
▁margin	-12.0536
▁CHIP	-12.0538
▁Ricardo	-12.054
▁Joel	-12.0541
▁Silent	-12.0542
▁softness	-12.0543
▁decides	-12.0543
▁Walker	-12.0544
▁repaired	-12.0545
▁shutters	-12.0549
▁breed	-12.0551
▁vest	-12.0552
▁swarm	-12.0556
▁boyish	-12.0557
▁mattress	-12.0561
▁reverie	-12.0562
▁opponent	-12.0562
▁trivial	-12.0562
▁Sebastian	-12.0563
▁select	-12.0564
▁Secret	-12.0565
▁attentions	-12.0567
▁singularly	-12.0573
▁swelling	-12.0573
eur	-12.0575
▁Pa	-12.0576
▁107	-12.0581
▁strains	-12.0581
▁glimpses	-12.0582
▁tyrant	-12.0586
▁meditation	-12.0586
▁Hand	-12.0586
▁preliminary	-12.0586
▁Harley	-12.0586
▁Vitti	-12.0586
▁antique	-12.0586
ENZO	-12.0588
▁Herrick	-12.0588
Submit	-12.0589
ties	-12.059
▁NEXT	-12.0594
▁MARGE	-12.0596
stand	-12.0596
▁peak	-12.0596
▁coldness	-12.0598
▁grieve	-12.0599
▁dealer	-12.06
▁sorrowful	-12.06
▁widen	-12.0601
▁corridors	-12.0602
▁JOSH	-12.0603
▁buck	-12.0603
▁barber	-12.0605
NO	-12.0606
▁PRISON	-12.0609
▁KANE	-12.061
▁rum	-12.061
▁sixth	-12.0611
▁idly	-12.0612
software	-12.0612
▁Ike	-12.0613
▁SG	-12.0613
▁entreated	-12.0614
des	-12.0615
Such	-12.0616
▁Mini	-12.0617
▁mug	-12.0618
▁yearning	-12.0618
▁peep	-12.0619
▁mystic	-12.0632
gown	-12.0632
▁expedient	-12.0633
▁Pedro	-12.0633
▁repentance	-12.0633
▁reveals	-12.0633
▁Giles	-12.0634
▁elevated	-12.0635
▁accidentally	-12.0637
▁Sophie	-12.0637
▁JOHNNY	-12.064
▁WILSON	-12.064
▁Southern	-12.0641
Hold	-12.0644
▁lama	-12.0645
▁Mill	-12.0647
▁grate	-12.0652
▁terrors	-12.0653
▁Frances	-12.0654
▁blinding	-12.0654
▁Juliet	-12.0654
▁core	-12.0655
▁Official	-12.0657
▁commerce	-12.0657
▁furnace	-12.0657
▁Seaton	-12.0657
▁whereof	-12.0658
▁COLE	-12.0659
▁outburst	-12.0661
▁Lost	-12.0662
LI	-12.0664
BOD	-12.0667
▁wrecked	-12.0667
▁oxygen	-12.067
PK	-12.0672
▁bust	-12.0672
▁gig	-12.0673
▁Si	-12.0674
▁associate	-12.0674
▁melt	-12.0675
▁atop	-12.0675
▁lever	-12.0678
▁tedious	-12.0679
▁Fletcher	-12.068
▁Mexico	-12.068
▁granite	-12.068
Seinfeld	-12.068
▁superstition	-12.0681
▁Fortunately	-12.0681
▁specific	-12.0681
▁freak	-12.0682
PEGGY	-12.0683
▁fluttered	-12.0685
▁understands	-12.0686
▁mounting	-12.069
bound	-12.0691
▁scores	-12.0693
▁savagely	-12.0695
▁Cup	-12.0696
sk	-12.0697
▁Trim	-12.0699
▁beads	-12.0701
▁sandwich	-12.0703
▁fails	-12.0704
▁deliberation	-12.0704
▁vacation	-12.0704
▁saith	-12.0704
▁heavier	-12.0704
▁spurs	-12.0705
▁Mar	-12.0706
▁CAMP	-12.0707
▁mast	-12.071
LAND	-12.0711
dressed	-12.0713
▁trains	-12.0713
▁safer	-12.0713
▁JET	-12.0716
▁monarch	-12.0718
▁flicker	-12.072
▁veiled	-12.0722
ering	-12.0725
▁DIRK	-12.0728
▁CASTLE	-12.0728
▁Gilmore	-12.0728
Futurama	-12.0728
▁4400	-12.0728
▁TURNS	-12.0732
VE	-12.0732
▁ripper	-12.0732
▁session	-12.0735
▁Around	-12.0735
▁pier	-12.0735
Ho	-12.0737
hall	-12.0738
▁soaked	-12.0739
▁pose	-12.0742
▁movies	-12.0743
▁DANIEL	-12.0743
▁guides	-12.0744
▁heated	-12.0747
▁LONDON	-12.0751
▁Sydney	-12.0751
▁consternation	-12.0751
▁guidance	-12.0751
▁trim	-12.0751
▁ROPER	-12.0752
▁cursing	-12.0753
▁distorted	-12.0755
Think	-12.0756
tempered	-12.0756
▁DUKE	-12.0758
▁Eastern	-12.076
▁PETERS	-12.0762
AM	-12.0763
any	-12.0763
▁mentally	-12.0764
▁whiskers	-12.0766
think	-12.0767
▁freeze	-12.0773
▁zero	-12.0774
▁Gascoigne	-12.0775
▁Thwaite	-12.0775
▁emptied	-12.0775
▁Exeter	-12.0775
called	-12.0777
▁crouching	-12.0778
BREAN	-12.0779
▁anew	-12.078
ero	-12.0786
say	-12.0789
▁announce	-12.0789
bout	-12.0791
▁defy	-12.0793
▁Pretty	-12.0794
▁grasping	-12.0795
▁merciful	-12.0796
▁crowds	-12.0797
▁launch	-12.0798
▁trumpet	-12.0798
ET	-12.0798
▁Vanderpoel	-12.0799
▁parchment	-12.0799
▁exceeding	-12.0799
BA	-12.0799
▁stature	-12.08
▁spider	-12.0801
▁exhibition	-12.0801
▁sometime	-12.0802
▁EXPLODES	-12.0802
▁boyfriend	-12.0803
▁inquiring	-12.0803
fish	-12.0805
▁weekend	-12.0807
▁Chancellor	-12.0808
ks	-12.0815
ement	-12.0816
look	-12.0816
▁Toto	-12.0817
▁fabric	-12.0821
▁cling	-12.0821
▁Check	-12.0823
▁Lavretsky	-12.0823
▁apparition	-12.0823
UARTERS	-12.0824
▁Pen	-12.0825
▁drill	-12.084
▁JESSICA	-12.0841
▁tow	-12.0842
▁Mor	-12.0843
▁compound	-12.0844
▁perilous	-12.0844
▁goodly	-12.0844
Isn	-12.0846
▁badge	-12.0847
▁substantial	-12.0847
▁Darwin	-12.0847
▁muscular	-12.0847
▁solicitude	-12.0847
▁honours	-12.0848
ESTAT	-12.0849
▁mini	-12.0849
▁honorable	-12.085
Captain	-12.0852
▁logical	-12.0856
▁Ain	-12.0859
▁ankles	-12.086
▁publicly	-12.0869
▁obligations	-12.087
▁Stangerson	-12.0871
▁spacious	-12.0871
▁sturdy	-12.0871
▁territory	-12.0871
▁Abraham	-12.0871
STEW	-12.0871
▁architecture	-12.0871
▁Lynn	-12.0871
▁Jewish	-12.0871
▁Lamb	-12.0872
WAN	-12.0872
▁Clotilde	-12.0873
▁Service	-12.0873
▁incessantly	-12.0873
▁blinks	-12.0874
▁meadows	-12.0874
HECTOR	-12.0876
▁inwardly	-12.0879
▁Janet	-12.0879
▁Prew	-12.0881
▁grade	-12.0883
▁Going	-12.0886
▁serves	-12.0889
▁organs	-12.0893
WOMAN	-12.0895
KATHLEEN	-12.0895
▁Rouletabille	-12.0895
▁radiance	-12.0895
▁Di	-12.0897
▁Early	-12.0899
▁ascertained	-12.09
▁shrieked	-12.0901
▁contributed	-12.0902
▁tended	-12.0905
▁divide	-12.0905
▁Nurse	-12.0906
▁instances	-12.0907
▁canal	-12.0907
▁resisted	-12.0907
▁moi	-12.0908
▁GON	-12.0911
▁marvel	-12.0912
▁NORMAN	-12.0913
▁merchants	-12.0913
▁placid	-12.0916
▁contemptuous	-12.0916
▁YOUR	-12.0916
▁WHO	-12.0917
▁Beach	-12.0918
▁Barfoot	-12.0919
▁Wangel	-12.092
▁shark	-12.092
▁plateau	-12.092
▁hillside	-12.0923
▁quivered	-12.0923
▁EVAN	-12.0923
lie	-12.0923
▁Jan	-12.0924
HOLLY	-12.0925
▁DINING	-12.0925
▁Ok	-12.0928
▁extending	-12.0929
▁INSERT	-12.0931
▁STONE	-12.0932
▁foreigner	-12.0934
ag	-12.0934
▁REVERSE	-12.0935
▁noses	-12.0937
▁shares	-12.0937
▁scramble	-12.0942
▁gait	-12.0943
▁Beautrelet	-12.0943
▁Imperial	-12.0943
▁Valiant	-12.0943
▁inexplicable	-12.0943
▁BASE	-12.0943
▁rustling	-12.0944
▁Middleton	-12.0944
▁na	-12.0945
▁diminished	-12.0945
▁lapse	-12.0946
▁whirled	-12.0947
▁wherefore	-12.0947
▁countless	-12.0948
JEFF	-12.0949
▁homeward	-12.0953
▁proves	-12.0953
▁109	-12.0955
▁Whoa	-12.0957
▁suck	-12.0959
▁titles	-12.0962
▁inviting	-12.0965
▁companies	-12.0968
▁MILK	-12.0968
▁Mitch	-12.0969
_."	-12.097
▁network	-12.0971
books	-12.0971
▁JOAN	-12.0973
▁plucked	-12.0973
CALVIN	-12.0974
▁Strange	-12.0974
▁Cleves	-12.0975
▁MANAGER	-12.0975
▁Yo	-12.0977
▁continent	-12.0978
half	-12.098
▁trout	-12.0981
."--"	-12.0981
▁benches	-12.0981
▁Guards	-12.0981
▁Banks	-12.0981
ets	-12.0986
▁futile	-12.0989
▁sk	-12.0989
▁teachers	-12.099
▁Witch	-12.0991
▁rhythm	-12.0992
▁gripped	-12.0992
▁Marsh	-12.0995
▁devoured	-12.0995
▁terrifying	-12.0995
▁fragment	-12.0996
▁Nan	-12.0996
▁estimate	-12.0996
▁triumphantly	-12.0998
▁Bon	-12.0998
▁heaving	-12.0998
DOUG	-12.0999
▁Cape	-12.1003
00	-12.1006
▁officials	-12.101
▁wot	-12.1011
MO	-12.1012
ari	-12.1014
▁wasting	-12.1015
▁posts	-12.1016
▁desolation	-12.1016
▁rejoicing	-12.1016
▁illustrious	-12.1016
▁perchance	-12.1017
▁Freddie	-12.1017
▁Smiley	-12.1017
▁180	-12.1019
▁involuntary	-12.102
paper	-12.1021
▁rocket	-12.1022
GIRL	-12.1023
▁KELLY	-12.1024
▁HAMMOND	-12.1027
▁MIN	-12.1029
▁marches	-12.103
▁RIGHT	-12.1032
▁doctrines	-12.1034
]:	-12.1036
▁beaming	-12.1036
▁Phillip	-12.1037
▁continuous	-12.1038
ROOM	-12.1038
▁Exactly	-12.1039
▁rebel	-12.1039
▁outrage	-12.104
▁Swift	-12.104
▁stony	-12.1041
ROKO	-12.1042
▁afflicted	-12.1042
lock	-12.1043
▁Turns	-12.1043
▁prairie	-12.1045
▁Spaniard	-12.1045
▁Horn	-12.1047
▁cowardly	-12.1047
▁Rubb	-12.1048
nay	-12.105
▁projected	-12.105
▁obstacles	-12.1053
▁bricks	-12.1055
used	-12.1056
▁decay	-12.1056
▁reform	-12.1061
▁necks	-12.1061
▁Turning	-12.1062
▁monotonous	-12.1062
▁Gale	-12.1065
▁200	-12.1066
keeper	-12.1066
▁Morgan	-12.1066
IES	-12.1067
▁Ojo	-12.1068
▁connections	-12.1068
▁caresses	-12.1068
▁greedy	-12.1068
▁wailing	-12.1071
▁muzzle	-12.1073
Bright	-12.1074
Put	-12.1074
ied	-12.1075
▁Terran	-12.1076
▁Aren	-12.1079
▁consists	-12.1082
▁periods	-12.1083
▁squeezes	-12.1084
▁stroll	-12.1084
▁deuce	-12.1084
▁suggestions	-12.1085
▁costs	-12.1086
▁crisp	-12.1087
▁International	-12.109
▁KONG	-12.109
▁tranquillity	-12.109
▁sights	-12.109
▁STUMP	-12.109
▁LIONEL	-12.109
▁concealment	-12.1093
▁Bye	-12.1094
ress	-12.1103
▁cot	-12.1105
▁toss	-12.1106
▁slap	-12.1106
▁SUMMER	-12.1107
▁circuit	-12.1108
▁GET	-12.1109
▁scruple	-12.1111
▁HANDS	-12.1113
▁fortress	-12.1114
▁garrison	-12.1115
▁Natalie	-12.1115
▁bacon	-12.1115
▁battery	-12.1116
▁112	-12.1116
▁extinguished	-12.1118
▁Mesty	-12.1118
▁alarming	-12.1119
▁swayed	-12.1119
▁whereupon	-12.1119
▁GIN	-12.1121
▁coals	-12.1121
▁swamp	-12.1121
▁portal	-12.1122
▁SYKES	-12.1123
liness	-12.1125
▁flings	-12.1126
▁dick	-12.1127
▁fortunately	-12.1128
▁bail	-12.113
▁chaise	-12.113
▁cue	-12.1134
▁telegraph	-12.1135
▁Augusta	-12.1137
▁Assistant	-12.1139
▁smote	-12.1139
▁puppy	-12.1139
▁queried	-12.1139
▁museum	-12.1139
▁drifts	-12.1142
lay	-12.1145
▁DOG	-12.1146
▁103	-12.1146
▁chattering	-12.1146
▁Sitting	-12.1146
sar	-12.1147
CAPTAIN	-12.1147
JACKIE	-12.1148
▁notebook	-12.1152
▁CAESAR	-12.1154
▁ADAM	-12.1155
▁strewn	-12.1159
▁inconvenience	-12.1162
▁Abigail	-12.1164
▁penalty	-12.1164
▁Albert	-12.1164
▁Patty	-12.1164
▁hazard	-12.1164
▁lurking	-12.1166
▁descends	-12.1167
▁proprietor	-12.1169
▁episode	-12.1169
▁bug	-12.117
▁essentially	-12.117
▁profoundly	-12.1175
▁Thirty	-12.1176
▁freshness	-12.1176
▁AD	-12.1177
▁lacked	-12.118
▁injure	-12.1182
▁review	-12.1187
▁150	-12.1187
▁respective	-12.1188
▁greasy	-12.1189
▁promotion	-12.1189
▁Marvin	-12.1189
None	-12.119
▁offspring	-12.1191
▁Save	-12.1191
▁girdle	-12.1192
▁pats	-12.1192
▁FIGURE	-12.1192
▁Than	-12.1194
▁vigorously	-12.1194
DANNY	-12.1197
▁poisoned	-12.1198
▁vines	-12.1199
▁Deep	-12.1202
▁Often	-12.1203
▁prophet	-12.1204
Even	-12.1206
▁comin	-12.1207
▁favoured	-12.1207
uh	-12.1208
▁slopes	-12.1208
▁whistled	-12.1208
dom	-12.1208
rous	-12.1211
▁bo	-12.1213
▁Staveley	-12.1214
▁desiring	-12.1214
▁paternal	-12.1214
▁sloop	-12.1215
▁mike	-12.1216
▁golf	-12.1217
▁115	-12.1218
mother	-12.1218
hot	-12.1221
▁PRESENT	-12.1222
▁Grantly	-12.1224
act	-12.1226
know	-12.1228
▁105	-12.1229
sen	-12.1229
ek	-12.1232
▁digs	-12.1235
▁CLICK	-12.1236
▁shiver	-12.1237
▁dismiss	-12.1237
▁cavalry	-12.1239
▁Blakeney	-12.1239
▁Mont	-12.1241
▁JILL	-12.1242
▁attributed	-12.1244
▁orphan	-12.1245
);	-12.1245
▁melting	-12.1245
▁proceeds	-12.1251
▁solve	-12.1251
▁wanders	-12.1252
KA	-12.1252
▁affecting	-12.1252
▁Hedra	-12.1252
▁LIKE	-12.1253
▁trucks	-12.1253
▁downright	-12.1254
▁sane	-12.1255
▁shrinking	-12.1256
▁GILLI	-12.1257
▁oaths	-12.1258
▁Ione	-12.1259
▁cluster	-12.126
▁Wild	-12.1262
VIST	-12.1263
che	-12.1264
▁homage	-12.1264
▁cockpit	-12.1264
▁accidents	-12.1267
▁Sidwell	-12.1268
▁swearing	-12.127
▁Persian	-12.1271
▁skins	-12.1273
▁delivery	-12.1273
▁absently	-12.1274
▁Romeo	-12.1274
▁whirl	-12.1274
horse	-12.1275
▁presenting	-12.1278
sky	-12.1279
▁richly	-12.1279
▁Slow	-12.1281
▁differences	-12.1281
▁mentioning	-12.1282
▁Brooks	-12.1284
▁TA	-12.1286
tz	-12.1287
▁Eva	-12.1288
▁FINAL	-12.1289
▁Farnham	-12.1289
▁Steerforth	-12.1289
▁approbation	-12.1289
▁lagoon	-12.1289
▁disinterested	-12.1289
lilbutton	-12.1289
▁repetition	-12.1295
▁constable	-12.1295
▁RONNIE	-12.1296
▁recollected	-12.1296
▁sorely	-12.1298
▁Cont	-12.1298
▁Howard	-12.13
▁JOEL	-12.1301
▁prejudices	-12.1301
those	-12.1302
▁ALLEY	-12.1303
▁darts	-12.1305
▁junk	-12.1306
▁candy	-12.1309
▁financial	-12.1311
▁TOWER	-12.1311
▁RATH	-12.1312
▁aloof	-12.1313
▁scatter	-12.1313
▁impenetrable	-12.1314
▁accursed	-12.1314
▁Petersburg	-12.1315
▁afresh	-12.1316
▁disclosed	-12.132
▁JUNO	-12.1325
▁clears	-12.1327
▁blur	-12.133
▁overtake	-12.1336
▁malicious	-12.1336
uail	-12.1337
▁reared	-12.1337
▁nurses	-12.1339
▁Camperdown	-12.1339
▁endurance	-12.1339
▁splendor	-12.1339
▁gliding	-12.1339
▁exhaustion	-12.1339
▁yon	-12.1341
DF	-12.1341
▁bites	-12.1342
▁indignantly	-12.1344
▁thrusting	-12.1346
▁morsel	-12.1346
▁acknowledgment	-12.1346
▁Mountain	-12.1346
▁vows	-12.1347
▁swelled	-12.1347
▁Main	-12.1349
▁Word	-12.1351
▁um	-12.1351
▁Stand	-12.1352
▁Moses	-12.1354
Le	-12.1355
▁sands	-12.1355
▁shrieks	-12.1356
▁XVIII	-12.1356
▁SPOCK	-12.136
▁miraculous	-12.1361
▁especial	-12.1361
▁labours	-12.1363
▁Scene	-12.1363
▁lacking	-12.1364
▁JUD	-12.1364
▁Graeme	-12.1364
▁Almighty	-12.1364
SSUS	-12.1364
▁JASON	-12.1366
▁DIL	-12.1366
▁spotted	-12.1367
▁feeds	-12.137
▁befallen	-12.1371
▁delights	-12.1371
▁clasp	-12.1373
▁monkeys	-12.1374
▁fearfully	-12.1377
▁104	-12.1385
▁Golden	-12.1385
▁Cheesacre	-12.139
▁fascinating	-12.139
▁theories	-12.1391
▁releases	-12.1391
▁subsided	-12.1392
▁apprehensions	-12.1394
▁crust	-12.1394
▁DOORS	-12.1396
▁SARA	-12.1397
▁telescope	-12.1397
▁pained	-12.1398
▁quid	-12.1403
▁doubled	-12.1404
▁surf	-12.1407
▁detect	-12.1408
▁horsemen	-12.141
▁trailing	-12.1411
▁Babylon	-12.1413
▁wail	-12.1413
ld	-12.1414
▁Camera	-12.1414
▁adjacent	-12.1415
▁indispensable	-12.1415
▁Dignan	-12.1415
▁siege	-12.1415
▁novelty	-12.1415
▁comforting	-12.1417
▁tapping	-12.1418
▁tapped	-12.1418
▁eve	-12.1419
Bahr	-12.1419
▁meek	-12.142
▁Real	-12.1422
▁chariot	-12.1422
▁Mexican	-12.1423
▁shovel	-12.1424
should	-12.1426
▁alighted	-12.1428
▁blocked	-12.1431
▁breathes	-12.1432
▁blinds	-12.1435
SING	-12.1435
▁everlasting	-12.1437
▁Spragg	-12.144
▁Assingham	-12.144
▁charging	-12.144
▁fangs	-12.1441
▁caring	-12.1442
▁menace	-12.1443
▁regained	-12.1444
▁adapted	-12.1446
ot	-12.1446
▁Opera	-12.1446
▁hailed	-12.1446
▁pirates	-12.1447
▁provoked	-12.1447
▁transaction	-12.1448
▁Lucky	-12.1449
▁valued	-12.1449
▁Gardens	-12.1449
▁Fear	-12.145
▁boiled	-12.145
▁Williams	-12.1451
▁yu	-12.1451
▁heaped	-12.1453
?’	-12.1453
▁Talk	-12.1457
▁allows	-12.146
▁obscured	-12.146
▁toes	-12.146
▁instinctive	-12.1463
▁sustain	-12.1464
▁blamed	-12.1465
▁benevolence	-12.1466
▁precision	-12.1466
▁Ivanovitch	-12.1466
▁Thorpe	-12.1466
▁urging	-12.1466
ARNA	-12.1466
▁Meagles	-12.1466
▁Satan	-12.1466
▁pitied	-12.1466
▁rung	-12.1466
▁Submit	-12.1466
IRVING	-12.1468
▁longest	-12.1469
▁era	-12.147
▁spits	-12.1471
▁JOHAN	-12.1473
▁coolness	-12.1474
▁slice	-12.1475
Nonsense	-12.1477
▁prick	-12.1478
▁Scotty	-12.148
▁recess	-12.148
▁bathing	-12.1481
▁embraces	-12.1483
▁linger	-12.1485
▁KID	-12.1487
▁diameter	-12.1492
▁Mercedes	-12.1492
▁durst	-12.1492
▁mutton	-12.1492
CORALINE	-12.1492
▁Move	-12.1494
▁drooping	-12.1495
▁warehouse	-12.15
▁SHERIFF	-12.15
▁LEWIS	-12.1502
▁visage	-12.1502
▁ghostly	-12.1503
▁consulting	-12.1504
▁mirrors	-12.1508
▁dashing	-12.1509
▁reckoning	-12.1509
TER	-12.1513
▁Hu	-12.1513
▁menacing	-12.1514
▁Fergus	-12.1516
▁engaging	-12.1517
▁fragrance	-12.1517
▁melody	-12.1517
▁constrained	-12.1518
▁retirement	-12.1518
▁Franklin	-12.1519
▁Caroline	-12.1523
▁Britain	-12.1523
▁reigned	-12.1523
▁Science	-12.1524
▁perished	-12.1524
▁patrol	-12.1524
▁silenced	-12.1526
ches	-12.1526
▁scrambled	-12.1526
▁zone	-12.1527
▁calmness	-12.1528
▁COPS	-12.1529
▁curved	-12.153
▁Cooke	-12.1534
LEY	-12.1536
▁slack	-12.1536
▁scrambles	-12.154
▁pensive	-12.154
▁custody	-12.1543
▁energies	-12.1543
▁extravagance	-12.1543
▁tyranny	-12.1543
▁BLOM	-12.1543
▁musing	-12.1544
▁Scottish	-12.1544
▁slamming	-12.1544
▁partial	-12.1545
▁impertinent	-12.1545
MARGOT	-12.1548
life	-12.1553
▁collecting	-12.1553
tter	-12.1554
▁spine	-12.1554
▁Comrade	-12.1556
▁employer	-12.1557
▁reconcile	-12.1559
▁hips	-12.1563
▁rein	-12.1565
▁doubting	-12.1566
▁BOURNE	-12.1566
▁Kevin	-12.1569
▁bewilderment	-12.1569
▁drain	-12.1569
▁pondered	-12.1571
▁preceded	-12.1571
▁pa	-12.1572
▁Ko	-12.1573
▁twins	-12.1573
▁hawk	-12.1574
▁LOOKS	-12.1574
▁quiver	-12.1579
ecker	-12.1581
▁cells	-12.1582
▁sarcastic	-12.1582
▁privileges	-12.1583
▁glimmer	-12.1584
▁Whenever	-12.1586
▁DARK	-12.1589
▁Marvel	-12.1589
."]	-12.159
▁attacking	-12.1591
▁valiant	-12.1591
deck	-12.1592
▁sire	-12.1593
▁Send	-12.1594
▁bridegroom	-12.1594
▁Turkish	-12.1595
▁westward	-12.1596
▁administration	-12.1596
▁EARL	-12.1598
▁chuckled	-12.1602
ology	-12.1606
▁MOTION	-12.1606
DETECTIVE	-12.1607
▁flourish	-12.1609
▁institutions	-12.1609
▁Eight	-12.161
▁CURTI	-12.1611
▁prodigious	-12.1617
▁Kent	-12.1618
ral	-12.1619
▁Wilkins	-12.1619
▁elegance	-12.162
▁industrial	-12.162
▁strife	-12.162
▁sordid	-12.162
▁demeanour	-12.162
▁Carnby	-12.162
▁DELA	-12.1621
▁qualified	-12.1624
▁resented	-12.1624
▁circling	-12.1624
▁grinding	-12.1625
▁peeped	-12.1625
▁Barnes	-12.1625
▁drums	-12.1626
▁jerked	-12.1626
▁Apollo	-12.1626
▁stem	-12.1629
▁translation	-12.163
▁advertisement	-12.163
IST	-12.1631
▁fishes	-12.1631
Like	-12.1634
▁jug	-12.1634
▁handling	-12.1637
▁XVII	-12.1637
▁boughs	-12.1638
▁SCREAM	-12.1638
▁cooked	-12.1646
▁BUCK	-12.1647
▁unique	-12.1647
▁Babe	-12.1648
▁loaf	-12.1648
▁aback	-12.165
▁Large	-12.165
▁traversed	-12.1651
▁incredibly	-12.1658
▁ribbons	-12.166
▁pledged	-12.166
▁splash	-12.1661
▁rice	-12.1662
▁flicks	-12.1662
▁Alone	-12.1662
▁items	-12.1664
▁detain	-12.1665
▁KNOCK	-12.1667
▁mature	-12.1667
▁product	-12.1667
▁protecting	-12.1667
▁reporters	-12.1671
▁gathers	-12.1672
▁RACIN	-12.1672
▁tubes	-12.1672
▁abominable	-12.1672
▁aristocracy	-12.1672
▁choosing	-12.1672
▁Marmont	-12.1672
▁passive	-12.1672
▁Sapt	-12.1674
▁frankness	-12.1675
▁GIRLS	-12.1675
tri	-12.1677
▁typical	-12.1678
HUB	-12.1678
ule	-12.1679
▁kindled	-12.1684
▁brushing	-12.1688
▁tails	-12.1693
▁GORDON	-12.1693
▁adventurer	-12.1695
▁106	-12.1695
▁obedient	-12.1695
▁interfered	-12.1698
▁LESTER	-12.1698
MOZART	-12.1699
▁Glenvarloch	-12.1699
▁Hermione	-12.1699
▁Tyrrel	-12.1699
▁sarcasm	-12.1699
▁foreground	-12.1699
▁propped	-12.1699
▁grabbed	-12.1699
▁bureau	-12.1699
▁Atlantic	-12.17
▁schoolmaster	-12.17
▁scrape	-12.1701
▁kindred	-12.1705
than	-12.1707
▁EDDIE	-12.1707
▁sixpence	-12.1708
▁CLERK	-12.1709
▁demonstration	-12.1709
▁echoing	-12.171
Those	-12.1712
Hush	-12.1713
▁explore	-12.1714
▁rip	-12.1714
▁wouldst	-12.1714
▁Sh	-12.1717
▁statues	-12.1718
▁gum	-12.1718
▁forwards	-12.1718
▁JUDGE	-12.1719
▁insight	-12.172
▁lime	-12.1723
▁MAVERICK	-12.1725
▁cowardice	-12.1725
▁cherry	-12.1725
▁uns	-12.1725
▁BOOTH	-12.1726
▁SCOTT	-12.1727
▁CARL	-12.1728
▁accidental	-12.1728
▁ALICE	-12.1728
▁arches	-12.1729
▁apples	-12.1733
LL	-12.1736
▁Gar	-12.1736
▁thirsty	-12.1738
▁defended	-12.1738
especially	-12.1739
ISH	-12.1742
▁achieve	-12.1742
▁trials	-12.1743
▁Converte	-12.1746
▁ROBERT	-12.1748
gan	-12.1748
▁persistent	-12.1748
▁dove	-12.175
▁Delamayn	-12.1751
▁mortification	-12.1751
▁BASEMENT	-12.1751
▁sandy	-12.1752
▁Robinson	-12.1752
▁Boone	-12.1752
▁Director	-12.1755
▁orbit	-12.1757
HA	-12.1758
▁Marya	-12.1759
!_"	-12.176
▁SUITE	-12.1761
▁reckoned	-12.1761
▁squeezed	-12.1762
▁ravine	-12.1762
▁tissue	-12.1763
▁cigars	-12.1763
▁Beck	-12.1763
OUISA	-12.1763
▁constituted	-12.1764
▁GRANT	-12.1765
▁classic	-12.1766
▁conceit	-12.1768
TOBY	-12.1771
▁crowns	-12.1771
▁accurate	-12.1774
▁ornament	-12.1775
▁Django	-12.1777
▁Scatcherd	-12.1777
▁CHANCE	-12.1777
▁Foster	-12.1777
▁confinement	-12.1777
▁Us	-12.1778
▁SOUNDS	-12.1778
▁Pickle	-12.1779
▁Ferdinand	-12.178
▁strengthened	-12.1781
▁enveloped	-12.1781
▁yelled	-12.1783
▁Bat	-12.1786
▁Frederic	-12.1787
▁Unfortunately	-12.1789
▁connect	-12.1789
RUSTY	-12.179
sp	-12.179
ANTHONY	-12.1792
Keep	-12.1792
RACHEL	-12.1792
▁physically	-12.1792
▁YARD	-12.1797
pit	-12.1798
▁soda	-12.1801
MATER	-12.1803
▁disgusting	-12.1803
▁Elijah	-12.1804
▁Gadsby	-12.1804
▁TAYLOR	-12.1804
▁Barchester	-12.1804
▁giddy	-12.1804
JULES	-12.1804
▁limo	-12.1804
▁gorge	-12.1804
▁Blake	-12.1804
▁Darkness	-12.1805
▁imp	-12.1806
▁BAY	-12.1806
▁translated	-12.1808
▁confided	-12.181
▁CAMERON	-12.1813
▁thumbs	-12.1813
IR	-12.1814
▁esteemed	-12.1814
TOR	-12.1814
▁ICHA	-12.1815
▁maidens	-12.1815
▁paced	-12.1816
▁Emil	-12.1817
▁Parisian	-12.1818
▁clutch	-12.1819
▁Par	-12.182
▁OBI	-12.182
▁LI	-12.1823
▁arisen	-12.1823
▁trench	-12.1823
▁benevolent	-12.1827
▁HA	-12.183
▁Askerton	-12.183
▁decency	-12.183
▁burial	-12.183
▁journal	-12.1831
▁curate	-12.1831
▁role	-12.1834
▁loveliness	-12.1835
▁quoted	-12.1837
▁Mater	-12.1839
▁mayhap	-12.184
chamber	-12.1843
▁aye	-12.1843
STEVE	-12.1844
▁slam	-12.1847
▁headlights	-12.1847
▁excite	-12.1848
low	-12.1849
▁disguised	-12.1849
▁syllable	-12.1849
looks	-12.185
unt	-12.1851
▁proportions	-12.1851
▁PILOT	-12.1851
▁Na	-12.1851
▁poles	-12.1852
▁coins	-12.1853
▁defined	-12.1853
ual	-12.1853
▁anon	-12.1854
▁soothe	-12.1855
▁Schindler	-12.1857
▁fidelity	-12.1857
▁maternal	-12.1857
▁ruddy	-12.1857
▁scanning	-12.1857
▁Trent	-12.1857
▁barbarous	-12.1858
▁Marshall	-12.1859
▁Manning	-12.1859
▁lawful	-12.186
use	-12.186
▁sharing	-12.1862
▁STOP	-12.1864
▁Rod	-12.1865
▁snowy	-12.1867
▁pitcher	-12.1872
▁glared	-12.1877
▁Money	-12.188
KIT	-12.1881
OWELL	-12.1881
▁Elsie	-12.1883
ERRIS	-12.1883
▁Gate	-12.1884
▁imprisoned	-12.1884
▁Sonny	-12.1885
▁FAMILY	-12.1886
▁wearied	-12.1889
▁viewed	-12.1891
▁poems	-12.1894
TS	-12.1895
▁hairy	-12.1896
▁Way	-12.1896
▁smash	-12.1899
▁thigh	-12.1901
▁constitute	-12.1902
▁belongings	-12.1902
▁succeeding	-12.1904
ois	-12.1906
▁breeding	-12.1907
▁throbbing	-12.191
▁unmistakable	-12.191
cur	-12.191
▁patted	-12.191
▁occurs	-12.1912
▁brakes	-12.1912
▁whisky	-12.1912
▁mar	-12.1914
▁fairies	-12.1915
▁idleness	-12.1916
▁china	-12.1916
▁tempt	-12.1917
▁escorted	-12.1917
▁Lordship	-12.1918
green	-12.1922
▁spun	-12.1923
▁refreshment	-12.1923
▁colleague	-12.1923
▁divers	-12.1924
▁links	-12.1924
BURNS	-12.1927
▁replace	-12.193
▁donkey	-12.193
yn	-12.1932
▁Answer	-12.1935
atory	-12.1936
▁exclusive	-12.1936
▁Szpilman	-12.1937
▁Stanley	-12.1937
CK	-12.1937
▁Otto	-12.1937
▁Dirk	-12.1938
▁VIVIAN	-12.1938
▁CINDY	-12.1938
▁uproar	-12.1939
▁Madeleine	-12.1939
▁statements	-12.194
▁GLEN	-12.194
▁enraged	-12.1942
▁Bi	-12.1943
▁Twice	-12.1943
▁transported	-12.1943
▁tormented	-12.1943
▁dunno	-12.1945
▁trot	-12.1946
▁profits	-12.1948
▁SKY	-12.1954
▁sources	-12.1956
▁ministers	-12.1957
▁unfit	-12.1962
RAY	-12.1963
▁Fischer	-12.1963
▁Greece	-12.1963
▁consistent	-12.1965
▁org	-12.1965
▁enlightened	-12.1965
▁Vi	-12.1965
▁conclusions	-12.1967
▁Read	-12.1967
▁Pop	-12.1968
▁summon	-12.1968
▁rig	-12.1968
▁fertile	-12.1968
▁sexual	-12.1968
▁collapse	-12.1969
▁bandage	-12.197
▁glee	-12.197
▁coughing	-12.1972
ice	-12.1973
pose	-12.1974
▁CAB	-12.1975
▁cork	-12.1975
▁candidate	-12.1977
▁censure	-12.1982
▁blossom	-12.1986
▁plank	-12.1987
UP	-12.1988
▁concealing	-12.1989
▁hoofs	-12.1989
▁contradict	-12.1989
▁Melanie	-12.199
▁scrutiny	-12.199
▁superstitious	-12.199
▁Crofts	-12.199
▁fraud	-12.199
▁Apparently	-12.1995
▁CHIEF	-12.1995
▁moan	-12.1995
▁flare	-12.1996
▁SET	-12.1996
▁Left	-12.1996
▁gilt	-12.1997
▁writ	-12.1997
▁DODGE	-12.1997
▁kneel	-12.1997
▁petition	-12.1997
▁Blade	-12.1998
▁ascend	-12.2
▁cheered	-12.2002
▁Numa	-12.2003
CE	-12.2004
▁idol	-12.2005
▁provinces	-12.2007
Suppose	-12.2007
▁LOOKING	-12.2007
▁guarantee	-12.2009
▁sage	-12.2011
▁SEA	-12.2012
▁destroying	-12.2016
▁heiress	-12.2016
▁conspiracy	-12.2017
▁invasion	-12.2017
▁jammed	-12.2017
▁chased	-12.2018
▁Frederick	-12.2018
▁embarrassing	-12.2021
▁Divine	-12.2022
▁Frog	-12.2023
▁climax	-12.2023
cal	-12.2023
▁adored	-12.2025
▁repay	-12.2027
▁Sister	-12.2027
▁shameful	-12.2027
shop	-12.2029
▁arena	-12.2036
horn	-12.204
▁tremulous	-12.2041
▁veranda	-12.2043
▁114	-12.2044
▁audacity	-12.2044
▁velocity	-12.2044
▁forefinger	-12.2044
▁appalling	-12.2044
▁beckoned	-12.2045
▁antagonist	-12.2046
▁brightened	-12.2046
▁Hunter	-12.205
▁stump	-12.2051
▁rectory	-12.2054
school	-12.2062
▁prostrate	-12.2064
▁Rae	-12.2065
▁("	-12.2065
▁Tomorrow	-12.2066
▁HELICOPTER	-12.2066
Every	-12.2067
▁counts	-12.2071
▁Glegg	-12.2071
▁integrity	-12.2071
▁Benedict	-12.2072
incomprehensible	-12.2074
▁berth	-12.2075
mine	-12.2075
ERTIE	-12.2075
▁HAS	-12.2077
▁regain	-12.2077
▁silhouette	-12.2078
▁pouch	-12.2078
▁cameras	-12.2079
▁groaning	-12.2081
▁seasons	-12.2082
▁hopelessly	-12.2082
▁import	-12.2082
▁bubble	-12.2084
▁corrected	-12.2086
▁CAROL	-12.2086
▁infamous	-12.2087
ky	-12.2088
▁magazines	-12.2089
▁sleeps	-12.2095
▁appreciated	-12.2096
▁snakes	-12.2096
▁Revolution	-12.2098
▁artillery	-12.2099
▁frustration	-12.2099
LMUT	-12.2099
▁verily	-12.2099
▁disgraced	-12.2099
▁Samuel	-12.2099
▁diving	-12.2099
▁defiant	-12.21
▁trance	-12.2101
▁LILA	-12.2101
▁Tropile	-12.2101
▁undergone	-12.2102
▁explanations	-12.2102
▁launched	-12.2103
▁superb	-12.2104
▁Sounds	-12.2107
▁leisurely	-12.2108
▁stab	-12.2111
▁stirs	-12.2112
GER	-12.2113
▁owners	-12.2119
▁frontier	-12.2121
▁spreads	-12.2124
▁ammunition	-12.2126
▁unaccountable	-12.2126
▁laundry	-12.2126
▁penetrating	-12.2126
▁Robbie	-12.2126
▁grating	-12.2126
▁circus	-12.2126
▁peaks	-12.2126
▁Summer	-12.2127
JEANNE	-12.2127
▁Greer	-12.2128
▁foreseen	-12.2129
▁taller	-12.213
▁GATES	-12.2132
▁Aline	-12.2135
▁proving	-12.2137
▁crop	-12.2138
▁pudding	-12.2141
ach	-12.2142
Scripts	-12.2144
▁giants	-12.2145
▁FLASHBACK	-12.2147
▁GOOD	-12.2147
▁starved	-12.2148
▁invent	-12.2149
▁adequate	-12.215
▁grievous	-12.215
▁COCKPIT	-12.2153
▁Elzevir	-12.2153
▁felicity	-12.2153
▁reverend	-12.2153
▁morbid	-12.2153
▁Clarence	-12.2153
▁pulpit	-12.2154
▁Lin	-12.2155
▁BLOOD	-12.2155
▁Thompson	-12.2155
▁Hyde	-12.2156
▁Edmund	-12.2157
control	-12.2158
ENT	-12.2158
▁ascending	-12.2159
▁eminent	-12.2162
▁Walk	-12.2162
“	-12.2164
▁disc	-12.2165
▁sucking	-12.2166
▁insect	-12.2169
▁stations	-12.2172
▁sighing	-12.2179
11	-12.2179
▁HARDCASTLE	-12.2181
▁ingenuity	-12.2181
▁Adrian	-12.2181
▁removal	-12.2181
▁Carson	-12.2181
▁distraction	-12.2181
▁hurl	-12.2182
▁flannel	-12.2183
▁deceased	-12.2183
▁Eugene	-12.2183
▁Forest	-12.2184
▁sucked	-12.2185
▁Cripps	-12.2185
▁cheerfulness	-12.2185
▁cushions	-12.2189
▁wary	-12.219
▁corresponding	-12.219
▁loop	-12.219
▁NA	-12.2191
▁denial	-12.2191
▁governed	-12.2192
▁dude	-12.2192
▁Somehow	-12.2193
▁Huns	-12.2196
▁Voice	-12.2196
▁NEO	-12.2197
▁bangs	-12.2199
KUMAR	-12.2199
Maybe	-12.22
▁dial	-12.2202
▁evils	-12.2204
ib	-12.2206
CROIX	-12.2208
▁concentration	-12.2208
▁vehemence	-12.2208
▁supposition	-12.2208
▁ruler	-12.2209
ORDELL	-12.221
▁BRAD	-12.221
▁staggering	-12.2211
▁scanty	-12.2211
▁enlarged	-12.2213
▁inspire	-12.2213
▁cafe	-12.2216
▁directing	-12.2216
▁Knights	-12.2218
▁confront	-12.222
▁uniforms	-12.2223
▁coincidence	-12.2224
face	-12.2224
▁puff	-12.2227
▁chant	-12.2229
▁possessing	-12.2229
▁tangle	-12.223
▁appealing	-12.2232
▁bait	-12.2232
▁luxurious	-12.2233
▁halls	-12.2235
▁prettiest	-12.2236
▁Rigby	-12.2236
MENT	-12.2236
▁tar	-12.2238
▁WOMEN	-12.2238
▁6.7	-12.2239
▁Clem	-12.2241
uit	-12.2242
▁Woody	-12.2242
▁trips	-12.2243
▁funds	-12.2245
▁dancers	-12.2248
▁abused	-12.225
▁jobs	-12.2257
LO	-12.2258
▁Follow	-12.226
▁ACT	-12.2261
their	-12.2262
PRECIOUS	-12.2263
▁Omnium	-12.2263
▁retiring	-12.2263
▁Viktor	-12.2263
▁aversion	-12.2263
▁Dunbar	-12.2263
▁cricket	-12.2263
▁corruption	-12.2264
▁whale	-12.2266
▁LIFE	-12.2267
▁binoculars	-12.2268
▁smashing	-12.2269
▁HOW	-12.2271
DALE	-12.2272
▁judging	-12.2272
▁creeps	-12.2272
val	-12.2272
▁harshly	-12.2272
▁mildly	-12.2273
▁Same	-12.2274
cloth	-12.2278
▁LIGHTS	-12.2279
▁damsel	-12.228
LONGFELLOW	-12.2282
▁sexy	-12.2284
▁retreating	-12.2286
▁Martian	-12.2287
▁convincing	-12.2288
▁leapt	-12.2288
LESS	-12.2288
▁ferocity	-12.2291
▁Pascal	-12.2291
▁Utah	-12.2291
▁deafening	-12.2291
▁Geoff	-12.2291
▁knitting	-12.2291
ites	-12.2291
▁TRUE	-12.2293
UIN	-12.2293
▁selection	-12.2294
▁MACHINE	-12.2297
▁Otherwise	-12.2297
▁implored	-12.2299
▁Heron	-12.23
▁moods	-12.23
▁vine	-12.2301
▁TILLE	-12.2301
▁hooked	-12.2302
▁owl	-12.2304
▁departing	-12.2305
▁LAZARUS	-12.2308
▁pictured	-12.2309
Since	-12.2311
SEAN	-12.2311
ica	-12.2313
▁holidays	-12.2316
▁var	-12.2318
ana	-12.2318
▁untouched	-12.2319
▁!?	-12.2321
▁jag	-12.2321
▁grunted	-12.2322
▁metallic	-12.2325
▁socks	-12.2332
▁strips	-12.2333
▁FEMALE	-12.2336
▁napkin	-12.2336
TION	-12.2337
▁Today	-12.2338
▁wand	-12.2338
▁scales	-12.2341
▁fondly	-12.2344
▁fashioned	-12.2344
▁Own	-12.2345
▁Bargeton	-12.2346
▁corral	-12.2347
▁Langham	-12.2347
▁Alvy	-12.2347
▁Langdon	-12.2347
▁butterfly	-12.2347
▁righteous	-12.2348
rville	-12.2349
▁Carthage	-12.2351
▁magician	-12.2352
▁Search	-12.2352
▁inflicted	-12.2354
▁125	-12.2354
▁Laz	-12.2355
▁calculations	-12.2355
▁critic	-12.2357
▁Senor	-12.2357
▁Takes	-12.236
ways	-12.236
▁dump	-12.2361
blu	-12.2362
▁accompanying	-12.2362
▁VIDEO	-12.2363
▁snatch	-12.2363
▁Commissioner	-12.2366
▁tact	-12.2369
▁trifles	-12.237
▁sneak	-12.2371
▁wronged	-12.2373
▁emerging	-12.2374
▁sensibility	-12.2374
▁Osborne	-12.2374
▁Westhaven	-12.2374
▁Stacy	-12.2375
▁Hands	-12.2375
▁comb	-12.2377
q	-12.2378
hill	-12.2379
▁sooth	-12.238
▁kills	-12.2382
▁exhibit	-12.2382
▁influences	-12.2384
VADA	-12.2385
▁rattled	-12.2387
▁rumour	-12.2389
▁Garden	-12.239
▁RO	-12.2393
▁beseech	-12.2397
▁pots	-12.2397
▁118	-12.2398
▁bass	-12.2398
▁flown	-12.2399
▁Dennis	-12.2402
▁Chaffanbrass	-12.2402
▁Myrtle	-12.2402
▁wrung	-12.2402
▁Kingdom	-12.2404
▁MCU	-12.2404
▁Abbey	-12.2405
▁dates	-12.2405
▁Strong	-12.2409
▁DETECTIVE	-12.2409
TA	-12.241
▁firmness	-12.241
ino	-12.2411
ters	-12.2412
▁soothed	-12.2415
DI	-12.2416
▁Allen	-12.2416
▁gettin	-12.2417
tur	-12.2418
▁battles	-12.2418
HANNAH	-12.2421
▁artists	-12.2421
▁glitter	-12.2421
ec	-12.2421
▁ham	-12.2428
akr	-12.2428
▁theatrical	-12.2431
▁writhing	-12.2431
▁facility	-12.2431
▁mockery	-12.2431
▁XIX	-12.2431
▁Paulette	-12.2431
▁calf	-12.2431
▁interpretation	-12.2432
▁amounted	-12.2432
▁airport	-12.2434
▁Tree	-12.2436
▁precautions	-12.2438
ula	-12.2438
▁cleaned	-12.2443
▁ordering	-12.2443
ini	-12.2444
SUE	-12.2445
▁pairs	-12.2446
Co	-12.2446
▁worrying	-12.2446
▁dresser	-12.2447
KYLE	-12.2447
▁assumption	-12.2449
arm	-12.2449
▁refinement	-12.2449
▁spaces	-12.245
▁habitation	-12.2451
▁lass	-12.2452
▁reduce	-12.2452
▁cracking	-12.2452
▁speeding	-12.2455
▁slate	-12.2456
▁DARWIN	-12.2459
▁Glyde	-12.2459
▁accuracy	-12.2459
▁vegetation	-12.2459
▁doubly	-12.2459
▁Marsham	-12.246
▁noiselessly	-12.2461
IA	-12.2462
ME	-12.2464
▁Play	-12.2465
▁blackened	-12.2468
▁vol	-12.2469
▁bee	-12.247
▁stored	-12.2471
▁blankly	-12.2471
tain	-12.2472
▁magistrates	-12.2474
▁damaged	-12.2477
▁PART	-12.2477
ration	-12.2478
▁experiments	-12.2478
▁Fe	-12.2482
▁TI	-12.2484
▁Meag	-12.2486
▁tenant	-12.2486
▁Adelina	-12.2487
▁Hildy	-12.2487
▁TARLETON	-12.2487
▁choir	-12.2487
▁Hartill	-12.2487
WE	-12.2488
▁signified	-12.2488
Tar	-12.2489
▁Berlin	-12.2491
▁va	-12.2492
▁sparkled	-12.2493
▁Fan	-12.2495
OW	-12.2495
▁erected	-12.2496
▁130	-12.2498
MP	-12.2498
▁bra	-12.2499
every	-12.25
▁knots	-12.2501
vous	-12.2502
▁lists	-12.2502
▁despairing	-12.2503
▁softer	-12.2503
▁attach	-12.2504
▁elders	-12.2504
▁vices	-12.2508
▁conductor	-12.2508
▁lining	-12.2508
▁scout	-12.251
MOTHER	-12.251
▁arched	-12.2513
Ma	-12.2514
▁Whom	-12.2515
▁ARCHIE	-12.2515
▁Bashwood	-12.2515
▁orchestra	-12.2515
▁Delmar	-12.2515
▁tattered	-12.2516
▁cushion	-12.2516
▁laser	-12.2517
turning	-12.2518
▁Ready	-12.2518
▁ensued	-12.2518
▁WHICH	-12.2518
seeing	-12.252
▁slew	-12.252
▁consisting	-12.252
▁defensive	-12.2521
▁sha	-12.2521
▁devices	-12.2523
▁vividly	-12.2523
▁commented	-12.2525
▁Citizen	-12.2526
▁fund	-12.2526
▁dinners	-12.2528
▁THIRD	-12.2529
▁overlooking	-12.2529
▁Margot	-12.253
▁Spring	-12.2533
ju	-12.2533
▁estimation	-12.2544
▁disconcerted	-12.2544
▁Sophy	-12.2544
▁BROWN	-12.2545
▁Christie	-12.2547
▁Family	-12.2547
▁Forgive	-12.2548
▁ache	-12.2548
▁preached	-12.2549
_!"	-12.2553
▁hairs	-12.2553
▁prose	-12.2559
▁Guess	-12.2563
AND	-12.2564
▁calculation	-12.2564
▁113	-12.2564
▁Ms	-12.2565
▁carpenter	-12.2567
HAM	-12.2568
party	-12.257
▁DORANTE	-12.2572
▁Nostromo	-12.2572
▁OCEAN	-12.2572
▁excellence	-12.2572
▁Bourne	-12.2572
▁Ferris	-12.2572
▁Warren	-12.2573
▁ejaculated	-12.2573
▁gallantry	-12.2573
▁seventh	-12.2573
▁meditated	-12.2577
▁tha	-12.2579
▁enquired	-12.258
▁scratching	-12.258
▁PO	-12.2581
▁SOLDIERS	-12.2581
▁broom	-12.2583
▁graciously	-12.2583
▁Venus	-12.2585
MS	-12.2589
▁heartless	-12.2595
▁assuredly	-12.2595
▁roast	-12.2596
▁Kat	-12.2597
▁imperfect	-12.2597
▁countrymen	-12.2598
▁bearded	-12.26
▁Marley	-12.2601
▁worshipped	-12.2601
▁Middle	-12.2601
▁patent	-12.2601
▁GREAT	-12.2602
_!	-12.2604
▁blessings	-12.2605
▁traditions	-12.2605
...**	-12.2605
▁screwed	-12.2607
▁straightway	-12.2608
play	-12.2608
▁gin	-12.2612
▁farthing	-12.2612
▁aliens	-12.2613
▁resemble	-12.2613
▁Tess	-12.2616
▁chiefs	-12.2617
▁steaming	-12.2618
▁automobile	-12.2621
▁phantom	-12.2621
▁recollections	-12.2621
▁pursuits	-12.2624
▁compel	-12.2624
CABLE	-12.2625
▁Hear	-12.2625
▁shields	-12.2627
▁blocking	-12.2628
▁Carr	-12.2628
▁tug	-12.2629
▁Terminator	-12.2629
▁contemplating	-12.2629
▁ritual	-12.2629
▁hilt	-12.263
▁unbroken	-12.263
▁engrossed	-12.263
▁Ram	-12.2631
▁sundry	-12.2631
▁Br	-12.2633
▁monument	-12.2633
▁Hooker	-12.2634
▁stung	-12.2635
▁creating	-12.2635
PA	-12.2637
▁strap	-12.2639
BARTON	-12.2641
▁119	-12.2651
▁homely	-12.2653
▁innocently	-12.2653
▁Ri	-12.2655
▁females	-12.2656
▁FAUST	-12.2658
▁Schaefer	-12.2658
▁unnoticed	-12.2658
▁HUGE	-12.2658
▁corrupt	-12.2658
▁Boldwood	-12.2658
▁describing	-12.2658
▁lanes	-12.2658
▁Maxwell	-12.266
▁stupidity	-12.266
rooms	-12.2662
▁contemptuously	-12.2662
▁clasping	-12.2665
▁mortals	-12.2665
▁buzz	-12.2666
▁rustle	-12.2669
▁valleys	-12.267
▁Hasar	-12.2674
▁specimens	-12.2675
▁Erica	-12.2678
UL	-12.2678
▁implore	-12.2679
▁SHADOW	-12.268
▁slab	-12.2682
▁Spaniards	-12.2682
first	-12.2683
▁adds	-12.2683
▁apes	-12.2683
VICK	-12.2683
▁flows	-12.2684
▁proverb	-12.2687
▁Marneffe	-12.2687
▁Moggs	-12.2687
▁improbable	-12.2687
▁unspeakable	-12.2687
▁Nadia	-12.2687
▁Campbell	-12.2687
▁Andor	-12.2687
▁casket	-12.2687
▁chatting	-12.2688
▁demanding	-12.2688
▁tennis	-12.2688
▁wheelchair	-12.2688
▁DICK	-12.2689
▁invested	-12.2689
▁HARD	-12.2691
▁Roy	-12.2691
▁vowed	-12.2693
▁awakening	-12.2693
▁layer	-12.2695
▁cocked	-12.2695
▁Grandma	-12.2695
▁thickly	-12.2697
▁Er	-12.2703
ELVIN	-12.2703
▁miracles	-12.2703
▁persuasion	-12.2708
▁vegetable	-12.2709
▁talkin	-12.271
little	-12.271
[...]
