<unk>	0
<s>	0
</s>	0
,	-3.09834
▁the	-3.30894
.	-3.40351
▁to	-3.93719
▁and	-3.93939
▁of	-3.97536
▁a	-4.156
s	-4.32212
▁**	-4.48788
▁I	-4.48889
▁in	-4.52759
▁.	-4.54382
'	-4.56209
▁	-4.6297
▁that	-4.78275
▁"	-4.83943
▁was	-4.85984
▁he	-4.90672
▁it	-4.92919
▁his	-4.93132
▁you	-4.968
▁her	-5.09411
▁with	-5.18051
▁had	-5.24405
▁'	-5.25043
▁for	-5.30096
▁is	-5.30371
▁as	-5.31398
;	-5.34302
▁,	-5.39452
▁on	-5.42164
▁at	-5.44232
▁not	-5.46376
-	-5.49896
▁be	-5.50628
▁him	-5.54618
▁she	-5.54988
**	-5.65788
▁have	-5.6966
▁The	-5.69706
t	-5.71253
▁me	-5.73308
▁my	-5.81026
--	-5.85095
▁but	-5.87261
▁He	-5.88118
."	-5.88431
▁from	-5.8875
▁this	-5.91633
▁all	-5.9285
▁by	-5.93528
▁which	-5.9936
▁said	-6.01571
▁so	-6.07452
?	-6.09269
▁they	-6.09758
▁out	-6.12876
▁up	-6.13753
▁were	-6.14829
▁one	-6.16684
,"	-6.16959
▁-	-6.18944
▁would	-6.20581
!	-6.21451
▁are	-6.22768
▁(	-6.23062
▁an	-6.23725
▁we	-6.27165
I	-6.3031
▁been	-6.31426
▁them	-6.32292
▁no	-6.326
▁there	-6.38617
▁or	-6.38998
▁s	-6.41114
▁into	-6.41364
▁what	-6.4173
▁do	-6.43124
▁your	-6.45665
▁who	-6.45926
▁their	-6.46539
▁if	-6.47753
▁She	-6.4954
▁It	-6.49767
▁will	-6.53018
▁could	-6.54683
▁when	-6.5476
▁man	-6.57644
ing	-6.5786
▁know	-6.60262
▁And	-6.60328
▁like	-6.6077
▁can	-6.6136
:	-6.6238
▁more	-6.62425
d	-6.64394
?"	-6.64532
▁now	-6.65225
▁But	-6.66846
▁about	-6.66964
▁A	-6.71415
▁down	-6.72938
ed	-6.73119
▁very	-6.74494
▁?	-6.75508
▁back	-6.76211
▁then	-6.7692
▁over	-6.78176
▁see	-6.78205
▁...	-6.78422
▁time	-6.79247
▁You	-6.79264
▁some	-6.80181
▁did	-6.81788
▁little	-6.84009
S	-6.85553
▁has	-6.87068
▁Mr	-6.89534
▁than	-6.90287
)	-6.92758
▁any	-6.92766
▁other	-6.94167
▁go	-6.96079
▁should	-6.97113
▁upon	-7.02044
▁_	-7.02548
▁only	-7.03085
ly	-7.0413
▁before	-7.05458
▁come	-7.05829
▁think	-7.07212
▁don	-7.08001
▁good	-7.08565
▁--	-7.09451
!"	-7.09542
▁two	-7.1072
▁way	-7.10953
e	-7.11208
▁made	-7.11805
▁us	-7.12302
m	-7.1279
▁here	-7.13225
▁never	-7.13314
▁much	-7.13571
▁t	-7.13996
▁just	-7.14237
▁say	-7.14255
▁again	-7.14653
▁himself	-7.15483
▁****	-7.16144
▁must	-7.16862
▁own	-7.17991
▁such	-7.18307
▁They	-7.18383
▁our	-7.18757
▁through	-7.22309
▁away	-7.22436
▁eyes	-7.23661
▁off	-7.23866
▁hand	-7.24558
▁old	-7.25924
▁get	-7.25949
▁too	-7.26423
▁might	-7.27144
ll	-7.27606
a	-7.27918
re	-7.28405
▁after	-7.29097
▁)	-7.3
▁first	-7.30086
▁We	-7.30086
▁am	-7.30481
▁well	-7.30527
▁great	-7.31845
▁make	-7.32232
▁came	-7.32826
▁What	-7.32991
▁face	-7.33568
▁!	-7.33838
▁long	-7.34248
▁thought	-7.3541
▁door	-7.36318
er	-7.36407
y	-7.36723
▁S	-7.37045
▁still	-7.381
▁head	-7.38477
▁where	-7.38516
▁how	-7.38731
▁right	-7.38857
▁day	-7.41964
▁life	-7.43668
▁even	-7.45475
▁take	-7.46675
▁There	-7.46888
▁look	-7.47279
▁In	-7.47391
▁these	-7.47704
▁may	-7.48154
▁went	-7.48431
▁its	-7.48497
▁men	-7.48563
▁last	-7.4987
▁going	-7.50205
’	-7.50271
▁room	-7.50292
▁got	-7.50618
▁shall	-7.53973
▁Mrs	-7.55069
▁without	-7.55144
_	-7.5622
▁tell	-7.564
▁being	-7.56602
▁nothing	-7.57163
n	-7.5844
▁:	-7.60054
▁house	-7.6152
▁something	-7.61806
▁THE	-7.6196
▁those	-7.63927
▁ever	-7.64002
▁want	-7.64188
▁moment	-7.65119
...	-7.65306
▁That	-7.66303
▁looks	-7.67044
▁INT	-7.67102
▁another	-7.67752
and	-7.67803
▁This	-7.67875
▁young	-7.68032
▁people	-7.68205
▁thing	-7.68345
▁love	-7.69037
▁Then	-7.69411
▁“	-7.69482
▁yet	-7.70026
▁place	-7.70381
▁re	-7.70543
r	-7.70591
▁though	-7.70624
▁No	-7.70685
▁[	-7.71086
ve	-7.71093
▁mind	-7.71514
▁As	-7.71998
▁while	-7.72727
▁left	-7.72819
in	-7.73216
▁saw	-7.73472
▁most	-7.74561
▁once	-7.75116
▁night	-7.75225
▁every	-7.76379
▁found	-7.7641
▁woman	-7.76819
▁under	-7.76831
▁put	-7.77852
▁things	-7.77869
▁father	-7.78716
▁knew	-7.78822
▁******	-7.78986
▁same	-7.7923
▁looked	-7.8009
▁hands	-7.81438
▁give	-7.82463
▁world	-7.83306
▁around	-7.83393
▁against	-7.83691
▁let	-7.83844
▁always	-7.84455
You	-7.84483
▁side	-7.84497
▁many	-7.85582
▁seemed	-7.86255
▁herself	-7.86581
▁heart	-7.86611
▁If	-7.87214
▁told	-7.87278
▁took	-7.88548
A	-7.89502
▁better	-7.89549
▁His	-7.90024
▁heard	-7.90119
▁done	-7.90678
▁DAY	-7.91366
▁mother	-7.91917
▁asked	-7.92327
▁three	-7.93625
▁enough	-7.9437
▁find	-7.94578
▁work	-7.95849
▁course	-7.96099
▁home	-7.96511
▁m	-7.97474
▁When	-7.98497
▁because	-7.98508
▁far	-7.99169
▁light	-7.99571
▁seen	-7.99995
▁So	-8.00133
▁quite	-8.00815
▁few	-8.00966
▁looking	-8.01063
▁behind	-8.02464
▁between	-8.02771
▁O	-8.02995
es	-8.0412
▁new	-8.04266
▁girl	-8.04322
▁half	-8.04439
▁each	-8.04908
▁myself	-8.05556
▁open	-8.05929
▁voice	-8.06274
▁anything	-8.06662
o	-8.06687
▁felt	-8.07297
▁almost	-8.0743
▁TO	-8.07459
▁years	-8.07715
)**	-8.08863
▁friend	-8.0935
▁end	-8.09381
▁name	-8.11047
▁At	-8.11461
▁For	-8.11836
▁both	-8.12354
,--	-8.12461
▁word	-8.12659
▁sure	-8.12731
▁D	-8.13449
▁NIGHT	-8.14016
▁turned	-8.14713
▁words	-8.14785
▁next	-8.14863
▁Miss	-8.14872
▁part	-8.15279
▁having	-8.15582
▁mean	-8.15718
▁EXT	-8.15932
▁hear	-8.1673
"	-8.17102
▁whole	-8.17639
It	-8.17812
▁)**	-8.18015
▁de	-8.18799
▁water	-8.19202
▁To	-8.20654
▁money	-8.20938
the	-8.21096
▁soon	-8.21131
▁morning	-8.21152
▁whom	-8.21475
▁matter	-8.21634
▁wife	-8.2189
▁gone	-8.22031
▁really	-8.22309
▁dear	-8.22402
▁God	-8.2365
▁also	-8.24881
/	-8.25392
▁believe	-8.25663
D	-8.25752
▁Oh	-8.26076
i	-8.26941
▁round	-8.27038
The	-8.27071
▁set	-8.27306
▁together	-8.27552
▁gave	-8.27792
▁began	-8.28261
▁small	-8.28464
▁stood	-8.28668
▁does	-8.29376
▁Now	-8.29523
▁air	-8.30273
▁How	-8.30448
▁poor	-8.3066
▁kind	-8.30776
▁leave	-8.31677
▁keep	-8.3193
▁white	-8.32023
▁sir	-8.32201
▁feet	-8.32482
▁days	-8.32559
▁didn	-8.32697
▁why	-8.3272
▁called	-8.32763
▁table	-8.33828
▁since	-8.33896
▁turns	-8.34041
O	-8.34295
What	-8.34523
▁help	-8.35032
▁best	-8.35067
▁alone	-8.3548
it	-8.35511
▁Lady	-8.3581
▁coming	-8.36561
▁full	-8.36689
▁My	-8.36832
▁call	-8.36899
▁Sir	-8.37312
▁brought	-8.37319
And	-8.37944
But	-8.38116
▁bed	-8.38509
▁window	-8.38531
▁rather	-8.38612
▁car	-8.38675
▁across	-8.38764
▁need	-8.39047
▁black	-8.40088
▁taken	-8.40347
▁All	-8.40408
▁**(	-8.40417
▁boy	-8.40649
▁along	-8.40778
▁speak	-8.40845
▁toward	-8.40895
to	-8.41098
▁till	-8.41334
▁talk	-8.4198
▁feel	-8.42132
](/	-8.42807
▁.**	-8.42872
▁dead	-8.43381
▁front	-8.43436
▁un	-8.43471
▁hope	-8.43641
▁sat	-8.43721
ness	-8.43761
▁Her	-8.43911
▁until	-8.4395
Oh	-8.44095
h	-8.4531
▁cried	-8.45338
▁lady	-8.45905
▁child	-8.46049
l	-8.46171
▁towards	-8.46253
E	-8.46347
Yes	-8.46386
▁fire	-8.46523
▁Well	-8.46609
▁hard	-8.47709
▁high	-8.47948
▁already	-8.48069
▁comes	-8.48071
▁Why	-8.48184
▁nor	-8.48211
▁d	-8.48253
No	-8.49136
▁among	-8.49622
▁won	-8.49752
▁perhaps	-8.49817
that	-8.49882
▁M	-8.50001
▁indeed	-8.5019
▁replied	-8.50458
▁answered	-8.50478
▁present	-8.50707
▁Lord	-8.50861
▁understand	-8.5118
▁near	-8.51937
▁turn	-8.53344
▁less	-8.53395
▁body	-8.53733
▁dark	-8.53841
▁arm	-8.54051
but	-8.54232
▁letter	-8.54408
▁son	-8.54417
▁least	-8.5447
▁On	-8.54717
▁passed	-8.54728
▁ask	-8.55231
▁above	-8.55342
▁care	-8.55376
▁C	-8.554
▁cannot	-8.55699
▁else	-8.55841
▁death	-8.56216
▁ground	-8.56317
▁close	-8.56445
▁takes	-8.56874
▁others	-8.57043
▁doing	-8.57241
▁everything	-8.57392
▁wish	-8.57497
▁answer	-8.57604
▁hour	-8.59163
▁question	-8.59202
▁true	-8.59389
▁One	-8.5943
▁suddenly	-8.59623
▁whose	-8.59682
▁rest	-8.5975
al	-8.60258
▁point	-8.60937
▁given	-8.60994
Well	-8.61136
▁large	-8.61161
▁o	-8.61194
▁thou	-8.61379
▁second	-8.61397
▁past	-8.61442
▁floor	-8.61598
▁big	-8.61689
▁case	-8.61705
▁read	-8.61794
▁country	-8.61961
▁live	-8.62132
▁short	-8.62465
▁however	-8.62575
?'	-8.62623
▁family	-8.6267
▁goes	-8.6278
▁brother	-8.62997
▁With	-8.63337
▁business	-8.6346
▁arms	-8.63499
▁sound	-8.63564
or	-8.63864
He	-8.64197
▁children	-8.64274
▁lay	-8.64338
▁friends	-8.64491
▁lost	-8.64535
▁John	-8.64674
▁ll	-8.65137
▁hair	-8.65772
▁themselves	-8.65975
▁ON	-8.66082
▁certain	-8.66575
▁making	-8.66729
--"	-8.66772
▁wall	-8.67273
▁sort	-8.67333
Y	-8.67412
▁fact	-8.67454
▁husband	-8.67716
▁Yes	-8.67773
▁P	-8.67978
c	-8.68108
ers	-8.68282
▁Don	-8.68331
▁Do	-8.68448
▁women	-8.68451
▁eye	-8.68513
▁known	-8.68553
T	-8.68588
▁*	-8.68668
▁used	-8.6912
▁OF	-8.6926
.”	-8.69307
INT	-8.69546
▁evening	-8.69619
▁power	-8.69623
▁use	-8.69737
▁T	-8.70204
▁doubt	-8.70442
man	-8.70778
▁truth	-8.71013
._	-8.71284
▁four	-8.71612
▁idea	-8.71807
u	-8.71849
▁hundred	-8.72426
▁fear	-8.72629
▁ready	-8.72944
C	-8.72967
▁wanted	-8.72997
▁says	-8.73135
as	-8.73745
▁V	-8.73857
▁B	-8.73922
▁manner	-8.74192
▁person	-8.7426
▁within	-8.74993
▁whether	-8.75268
▁hold	-8.75552
▁sight	-8.75713
▁forward	-8.7625
▁show	-8.76275
th	-8.76401
en	-8.76474
▁held	-8.77155
▁reason	-8.77483
▁means	-8.77617
▁doesn	-8.77851
▁year	-8.77888
▁either	-8.77938
▁yourself	-8.77961
▁smile	-8.77962
▁become	-8.7809
▁run	-8.7816
▁often	-8.78426
▁taking	-8.78615
▁happy	-8.78669
B	-8.78705
ING	-8.78838
▁walk	-8.78906
▁itself	-8.7895
▁order	-8.79422
▁red	-8.79491
▁town	-8.79544
▁returned	-8.79764
▁spoke	-8.80426
▁bad	-8.80465
▁blood	-8.80674
▁slowly	-8.80735
▁sea	-8.8082
▁kept	-8.80868
▁Let	-8.80935
G	-8.81112
▁silence	-8.81245
▁five	-8.81369
▁stand	-8.81504
▁standing	-8.81624
▁possible	-8.81677
▁sent	-8.81755
▁feeling	-8.82033
▁Not	-8.8214
▁ve	-8.82174
▁suppose	-8.82223
is	-8.8262
▁steps	-8.83045
▁fell	-8.83255
▁times	-8.83326
▁strange	-8.83497
▁walks	-8.83679
on	-8.8373
▁pretty	-8.83877
▁sense	-8.83979
▁return	-8.84116
he	-8.84216
▁able	-8.84559
▁fine	-8.84639
▁saying	-8.84781
▁ten	-8.84968
▁Of	-8.85177
▁remember	-8.85437
▁street	-8.85557
R	-8.85659
▁sister	-8.85708
▁fellow	-8.85941
▁longer	-8.86213
▁wrong	-8.86258
That	-8.86413
▁trying	-8.86543
▁CONTINUED	-8.86571
▁happened	-8.8677
▁mine	-8.86892
▁daughter	-8.87411
an	-8.87479
▁bring	-8.87572
▁sitting	-8.87612
▁After	-8.87875
,”	-8.88473
▁chair	-8.88609
▁mouth	-8.88853
▁thinking	-8.88923
▁beautiful	-8.89276
▁thy	-8.89297
est	-8.89433
▁CONT	-8.89656
▁AND	-8.9001
▁getting	-8.90145
▁followed	-8.90431
▁nature	-8.90543
▁Tom	-8.90554
▁gentleman	-8.90819
▁became	-8.91096
P	-8.91188
▁deep	-8.91504
▁thousand	-8.91672
▁low	-8.91681
▁cold	-8.91914
N	-8.9204
you	-8.92188
▁thus	-8.92415
▁soul	-8.92551
V	-8.92665
g	-8.93134
▁human	-8.93285
▁clear	-8.93301
▁talking	-8.93719
▁earth	-8.9374
▁story	-8.93759
▁real	-8.93801
▁L	-8.9388
]	-8.93981
le	-8.94017
▁road	-8.94215
▁sun	-8.94325
▁strong	-8.94442
▁meet	-8.94485
▁late	-8.94656
▁stands	-8.94791
▁watch	-8.94899
▁seems	-8.951
p	-8.95365
▁try	-8.95954
▁line	-8.96229
▁ought	-8.96317
▁pulls	-8.96567
▁living	-8.96621
▁play	-8.96935
▁appeared	-8.97342
▁sits	-8.97373
▁different	-8.9775
▁stop	-8.98111
▁free	-8.98212
We	-8.98354
b	-8.98448
▁met	-8.98703
▁afraid	-8.9875
▁ROOM	-8.98764
▁several	-8.98804
em	-8.98905
▁thee	-8.98971
▁rose	-8.9905
▁hours	-8.99385
▁sit	-8.99643
▁inside	-8.99853
▁continued	-9.00232
▁move	-9.00322
▁master	-9.00332
▁makes	-9.00337
▁waiting	-9.00457
▁/	-9.00551
▁position	-9.00612
▁cut	-9.00722
▁chance	-9.00849
▁Who	-9.00855
▁tried	-9.01004
Why	-9.01047
▁gets	-9.01249
▁subject	-9.01336
▁sorry	-9.01342
▁beat	-9.01558
▁view	-9.01864
!'	-9.02152
▁Here	-9.023
▁IN	-9.02374
▁change	-9.02379
▁starts	-9.02606
▁book	-9.02629
▁foot	-9.02683
▁stay	-9.02983
▁lips	-9.0349
▁Where	-9.03742
▁corner	-9.03886
▁horse	-9.03915
▁quickly	-9.04158
▁state	-9.04176
▁seem	-9.04224
▁opened	-9.04298
for	-9.04312
▁minutes	-9.04341
▁G	-9.04421
ER	-9.04468
▁CUT	-9.04646
▁twenty	-9.04648
▁beyond	-9.04778
▁trouble	-9.04876
▁form	-9.04973
▁therefore	-9.0515
▁phone	-9.0521
▁Yeah	-9.0539
▁top	-9.05449
▁glad	-9.05726
▁wind	-9.05957
▁doctor	-9.05997
▁outside	-9.06183
▁glass	-9.06216
▁Just	-9.06488
▁tears	-9.06896
L	-9.07468
▁walked	-9.07559
▁sleep	-9.0776
▁please	-9.07954
▁sees	-9.07982
▁further	-9.08294
▁Captain	-9.0869
▁paper	-9.08906
▁added	-9.08981
▁land	-9.0936
▁E	-9.09392
▁ran	-9.0947
▁isn	-9.09503
▁Jack	-9.09651
▁pass	-9.09692
▁Mary	-9.09704
▁lot	-9.09773
at	-9.10303
▁bit	-9.10638
▁gun	-9.10756
▁deal	-9.10836
▁distance	-9.10904
▁during	-9.10941
▁quiet	-9.11366
If	-9.11384
f	-9.1162
▁F	-9.11724
▁interest	-9.11954
▁London	-9.1199
▁ship	-9.12075
▁self	-9.12123
▁pay	-9.12216
▁Dr	-9.12428
▁office	-9.12435
▁ill	-9.12619
▁wait	-9.12735
▁none	-9.12784
▁seeing	-9.12795
▁dinner	-9.12806
▁ago	-9.1285
▁fall	-9.12906
▁CHAPTER	-9.13237
room	-9.13355
▁King	-9.13787
▁An	-9.14018
▁certainly	-9.14245
▁beside	-9.14245
▁six	-9.14466
▁hardly	-9.14525
▁Come	-9.14652
F	-9.14816
▁St	-9.15472
M	-9.15476
▁reached	-9.15568
▁figure	-9.15863
;--	-9.16091
ED	-9.16314
▁company	-9.16337
able	-9.16496
▁knows	-9.16512
▁school	-9.16693
▁party	-9.16858
if	-9.16883
▁received	-9.1698
▁From	-9.1707
▁silent	-9.17148
▁sometimes	-9.17238
▁shoulder	-9.17465
▁married	-9.17719
▁wouldn	-9.17834
▁entered	-9.17982
▁later	-9.1835
▁gonna	-9.18427
K	-9.18436
▁shot	-9.18451
▁die	-9.18698
▁attention	-9.18763
▁blue	-9.18816
▁stopped	-9.1946
▁pleasure	-9.19523
▁moves	-9.19597
us	-9.19643
less	-9.19687
▁neither	-9.19722
▁step	-9.20039
▁seat	-9.2004
There	-9.20226
EXT	-9.20524
▁running	-9.20536
▁forth	-9.2057
H	-9.20585
w	-9.20599
▁start	-9.20605
▁loved	-9.20775
▁heavy	-9.21044
▁immediately	-9.21237
▁week	-9.2125
▁easy	-9.21318
▁fair	-9.21319
▁caught	-9.2138
▁account	-9.21463
▁breath	-9.21554
▁led	-9.2199
▁holding	-9.2203
▁bear	-9.22229
▁carried	-9.22259
▁By	-9.2239
▁conversation	-9.22578
▁opens	-9.227
My	-9.22804
▁wild	-9.22939
▁watching	-9.23349
▁English	-9.2361
▁broken	-9.23698
▁follow	-9.2378
▁R	-9.23789
▁except	-9.2402
▁cause	-9.24167
▁city	-9.24414
▁K	-9.24482
day	-9.24606
ic	-9.24661
▁wonder	-9.24878
▁tone	-9.25144
▁2	-9.25201
▁number	-9.25251
▁secret	-9.25444
k	-9.25578
st	-9.25787
She	-9.25815
▁below	-9.25829
▁straight	-9.2583
▁ye	-9.25937
▁war	-9.25955
▁character	-9.26092
▁sweet	-9.26383
▁length	-9.26439
▁general	-9.26836
▁smiles	-9.26889
▁minute	-9.27071
▁fast	-9.27098
▁Your	-9.27227
▁spirit	-9.27259
▁age	-9.27304
▁boat	-9.27345
▁early	-9.27391
▁save	-9.27442
▁purpose	-9.27501
▁necessary	-9.27535
▁lived	-9.27774
▁marriage	-9.27875
▁laugh	-9.27973
▁remained	-9.28347
▁couldn	-9.28357
▁thoughts	-9.28605
▁moved	-9.29106
▁girls	-9.29156
▁crowd	-9.29228
el	-9.29439
▁Can	-9.30104
▁yes	-9.30599
▁leaving	-9.3066
▁sign	-9.30903
W	-9.31154
▁George	-9.31197
How	-9.31561
▁neck	-9.31702
▁turning	-9.31721
▁trees	-9.32136
▁green	-9.32219
il	-9.32325
▁probably	-9.32429
ity	-9.32541
▁laid	-9.32672
▁stops	-9.32701
▁presence	-9.32845
▁walking	-9.33005
▁following	-9.33009
ation	-9.33444
no	-9.33767
▁force	-9.33797
▁hat	-9.33869
▁drink	-9.3408
▁fight	-9.34457
▁started	-9.34702
▁dog	-9.34711
_,	-9.34895
▁sudden	-9.35154
▁art	-9.35248
▁drew	-9.35265
▁Go	-9.35351
ie	-9.35549
▁future	-9.35567
▁send	-9.35649
▁piece	-9.35652
▁meant	-9.35714
▁months	-9.3579
▁pocket	-9.35866
de	-9.36144
▁public	-9.362
▁duty	-9.36242
▁nearly	-9.36348
▁gold	-9.36456
▁hall	-9.36487
▁write	-9.36528
▁box	-9.36536
▁king	-9.36626
▁speaking	-9.36689
Do	-9.3682
am	-9.36847
▁expression	-9.36898
▁opinion	-9.37025
▁Will	-9.37065
▁struck	-9.37128
▁scene	-9.37219
▁kill	-9.37415
▁act	-9.3742
▁Good	-9.37513
ry	-9.37637
▁heads	-9.37649
ion	-9.37695
▁filled	-9.37972
▁desire	-9.38131
▁empty	-9.38239
U	-9.38467
▁darkness	-9.38482
▁effect	-9.38577
▁closed	-9.38621
▁HOUSE	-9.38651
▁whatever	-9.38764
▁These	-9.38805
▁natural	-9.39117
▁impossible	-9.3923
▁moving	-9.39526
▁New	-9.396
▁common	-9.39639
▁break	-9.39664
▁eat	-9.39911
▁strength	-9.39986
▁church	-9.40063
▁beginning	-9.40235
▁garden	-9.40819
▁laughed	-9.40908
CONT	-9.40953
▁England	-9.41254
▁exclaimed	-9.41264
ling	-9.41381
men	-9.41407
▁begin	-9.4154
▁direction	-9.41563
▁occasion	-9.41633
▁Man	-9.41658
▁dress	-9.41661
▁SHOT	-9.41672
▁giving	-9.4182
▁sky	-9.41935
▁Some	-9.42037
▁clothes	-9.42125
▁knowledge	-9.42152
▁J	-9.42673
▁nice	-9.4274
▁pain	-9.42825
▁wide	-9.42939
▁middle	-9.4304
▁law	-9.43108
▁cry	-9.43162
▁service	-9.43174
by	-9.43415
um	-9.44095
not	-9.44196
▁music	-9.44204
▁usual	-9.44398
▁single	-9.44636
▁Are	-9.44662
▁captain	-9.44677
▁desk	-9.44705
▁Or	-9.44737
▁marry	-9.44956
▁note	-9.44983
▁lord	-9.44998
▁afternoon	-9.45024
▁onto	-9.45124
▁quick	-9.45161
▁bright	-9.45178
▁hot	-9.45192
▁escape	-9.45297
▁stone	-9.45349
▁beauty	-9.45494
▁wasn	-9.45604
▁beneath	-9.45612
▁tree	-9.45651
ch	-9.45736
▁uncle	-9.4613
▁terrible	-9.46204
▁joy	-9.46291
▁begins	-9.46387
▁runs	-9.46462
▁shut	-9.46799
▁object	-9.47031
▁Hey	-9.47034
▁puts	-9.4705
▁fingers	-9.47149
▁river	-9.47177
▁space	-9.47198
▁visit	-9.47256
▁trust	-9.47307
▁stares	-9.47519
▁honour	-9.47642
▁news	-9.47834
▁gives	-9.47915
▁touch	-9.47953
▁died	-9.48116
▁worth	-9.48528
▁instant	-9.48556
▁wished	-9.49035
alphabetical	-9.49064
▁Harry	-9.49392
▁perfect	-9.49478
▁circumstances	-9.49499
we	-9.49533
▁creature	-9.49646
▁carry	-9.49665
▁kitchen	-9.49716
▁forget	-9.49772
▁grabs	-9.49963
▁surprise	-9.50032
▁lie	-9.50388
▁reach	-9.50404
▁expected	-9.50428
▁worse	-9.50464
▁broke	-9.5049
▁picture	-9.5064
▁ladies	-9.50645
▁1	-9.50652
▁plain	-9.50853
▁grew	-9.50854
▁Look	-9.50897
▁guess	-9.51132
▁Joe	-9.51229
▁learned	-9.51289
▁holds	-9.51333
▁raised	-9.51349
ment	-9.51414
▁couple	-9.51417
▁stairs	-9.51477
▁written	-9.51559
▁working	-9.51591
▁fortune	-9.51596
▁watches	-9.51787
▁lying	-9.51889
▁soft	-9.5193
▁sake	-9.52382
▁guy	-9.52703
Then	-9.52855
▁showed	-9.5304
▁food	-9.53045
▁David	-9.53088
▁angry	-9.53135
▁covered	-9.53201
▁exactly	-9.53324
▁edge	-9.53389
▁legs	-9.53439
▁journey	-9.53444
▁youth	-9.53572
ter	-9.53755
▁instead	-9.53756
▁N	-9.54158
▁boys	-9.5431
▁building	-9.5433
▁miles	-9.5463
▁appearance	-9.5481
▁aunt	-9.54861
▁pale	-9.54867
?”	-9.54902
Ah	-9.54963
_.	-9.55025
▁Yet	-9.55087
▁promise	-9.55168
▁train	-9.55191
▁Did	-9.55318
▁spoken	-9.55327
▁safe	-9.55374
like	-9.55549
▁bar	-9.55608
▁walls	-9.55643
▁Even	-9.55816
▁leaves	-9.55827
▁books	-9.55864
▁MAN	-9.55901
of	-9.55955
▁changed	-9.56083
▁nods	-9.5624
▁rich	-9.56608
▁ear	-9.56618
▁simply	-9.56646
▁notice	-9.56663
▁danger	-9.56743
▁understood	-9.56763
un	-9.56843
▁reaches	-9.56891
▁hurt	-9.57128
▁ears	-9.57383
do	-9.57399
▁baby	-9.57576
so	-9.57646
▁placed	-9.57759
▁la	-9.57806
▁drawing	-9.58029
▁Two	-9.58105
▁dressed	-9.58175
▁game	-9.58346
▁l	-9.58376
They	-9.58404
▁rock	-9.58412
▁serious	-9.58498
▁Sam	-9.58537
morrow	-9.58554
▁Madame	-9.58625
▁spot	-9.58639
▁hath	-9.58798
▁reading	-9.58832
▁wood	-9.5884
▁supposed	-9.58924
▁finally	-9.58962
▁French	-9.59041
▁fresh	-9.59094
up	-9.59123
▁happiness	-9.59125
▁peace	-9.59136
▁W	-9.59244
▁shoulders	-9.59247
▁cast	-9.59263
!--	-9.59409
ty	-9.59552
▁expect	-9.59695
),	-9.59712
▁situation	-9.59764
▁surprised	-9.59928
▁ain	-9.60014
▁Frank	-9.6015
rs	-9.60197
.]	-9.60386
▁huge	-9.6049
▁shook	-9.60512
▁bag	-9.60567
▁allowed	-9.60796
ate	-9.60855
na	-9.6092
▁glance	-9.61335
▁pleased	-9.6175
▁dream	-9.61844
▁easily	-9.61943
▁enters	-9.62065
▁tea	-9.62152
▁Martin	-9.62242
she	-9.62444
▁remain	-9.62499
▁third	-9.62711
▁simple	-9.62948
clock	-9.62997
te	-9.63049
▁particular	-9.63103
▁killed	-9.6315
▁evil	-9.63243
▁reply	-9.63266
▁quietly	-9.6344
▁bound	-9.63493
▁observed	-9.63537
▁Peter	-9.63582
▁nose	-9.63681
▁haven	-9.63834
▁court	-9.63927
▁coat	-9.64061
▁gate	-9.64126
▁smoke	-9.64183
▁La	-9.64336
▁listen	-9.64409
▁knowing	-9.64497
▁telling	-9.64599
▁enter	-9.64625
▁private	-9.64724
▁lights	-9.64748
▁arrived	-9.64904
▁places	-9.65149
▁pleasant	-9.65236
▁paid	-9.65369
▁respect	-9.65453
led	-9.6565
ies	-9.65671
▁Suddenly	-9.65755
▁rate	-9.65918
▁ahead	-9.65952
▁altogether	-9.66075
▁liked	-9.66078
▁talked	-9.6627
▁hell	-9.66297
▁tries	-9.66321
Not	-9.66434
▁H	-9.66545
▁aware	-9.66579
▁CLOSE	-9.66634
▁servant	-9.66672
▁smiled	-9.66805
▁cousin	-9.66902
▁blow	-9.67023
1	-9.67024
▁sword	-9.67039
be	-9.67058
▁lives	-9.67078
▁smiling	-9.67107
▁flowers	-9.67151
▁cross	-9.67175
▁appear	-9.67258
▁condition	-9.6726
▁bottom	-9.67276
▁lead	-9.67284
▁doors	-9.673
ueen	-9.6738
▁ANGLE	-9.67391
▁repeated	-9.6749
▁speech	-9.67561
▁grave	-9.67616
v	-9.67647
ne	-9.6769
▁fool	-9.67783
▁Dorothy	-9.6783
▁wine	-9.67866
▁wants	-9.67878
house	-9.67931
▁staring	-9.68039
▁Paris	-9.6811
▁laughing	-9.68286
▁horses	-9.68458
▁important	-9.68614
▁board	-9.68645
▁fixed	-9.68708
ish	-9.6879
▁meeting	-9.68828
ful	-9.6904
▁learn	-9.69058
▁offer	-9.69063
ton	-9.69115
▁somewhat	-9.69418
▁although	-9.69469
▁believed	-9.69582
▁sharp	-9.69584
▁happen	-9.6962
▁fit	-9.69708
▁Be	-9.6973
▁Re	-9.69832
▁passion	-9.69909
▁Nothing	-9.69943
▁thick	-9.69987
▁threw	-9.7004
ar	-9.70434
▁writing	-9.70607
▁perfectly	-9.70773
▁lose	-9.70841
.)**	-9.71044
▁letters	-9.71117
▁village	-9.71219
▁VOICE	-9.71283
▁declared	-9.71318
▁Ben	-9.71345
▁path	-9.7144
▁alive	-9.71536
▁heaven	-9.71627
▁hit	-9.71716
▁action	-9.71718
▁experience	-9.71764
▁entirely	-9.72035
▁opening	-9.72076
▁finger	-9.72081
▁unless	-9.72179
ce	-9.72341
▁determined	-9.72428
▁knees	-9.72465
▁passing	-9.72474
▁pause	-9.7252
▁playing	-9.72594
▁seven	-9.72618
▁points	-9.7275
▁charge	-9.72763
me	-9.72773
▁drive	-9.72821
▁group	-9.72835
▁p	-9.72856
▁proper	-9.72862
▁dropped	-9.72946
▁spite	-9.7297
▁3	-9.7324
▁watched	-9.73242
▁stranger	-9.73282
MAN	-9.73456
▁dare	-9.73545
▁Okay	-9.7367
what	-9.7369
▁anxious	-9.73764
▁warm	-9.73772
▁Get	-9.73815
In	-9.73905
▁opportunity	-9.74058
▁society	-9.74102
et	-9.74195
ist	-9.74303
▁aside	-9.74406
▁narrow	-9.74418
▁comfort	-9.74435
▁sad	-9.7454
ted	-9.74608
▁fallen	-9.74715
▁putting	-9.74784
▁afterwards	-9.74796
▁drawn	-9.74812
▁regard	-9.74857
▁Prince	-9.74882
▁windows	-9.74916
▁memory	-9.7498
Now	-9.75007
▁teeth	-9.75368
▁mad	-9.7544
▁De	-9.75462
▁lies	-9.75469
genre	-9.7549
▁faces	-9.75501
▁breakfast	-9.75523
▁someone	-9.75677
▁appears	-9.75716
▁tall	-9.75743
son	-9.75863
▁waited	-9.76153
▁snow	-9.76177
▁greater	-9.76215
▁carefully	-9.76269
To	-9.7627
▁gentlemen	-9.76285
ES	-9.76295
▁noise	-9.76295
▁born	-9.76361
▁slow	-9.76381
▁latter	-9.76462
CUT	-9.76468
ting	-9.76547
▁companion	-9.76587
▁screen	-9.76672
▁merely	-9.76685
▁personal	-9.76748
▁history	-9.76855
▁opposite	-9.76898
▁suit	-9.76904
▁difficulty	-9.76935
▁Ah	-9.7706
▁battle	-9.77152
▁thank	-9.77368
▁iron	-9.77428
▁kiss	-9.77526
▁wonderful	-9.77535
▁field	-9.77588
night	-9.77607
This	-9.77608
all	-9.77618
▁sick	-9.77765
▁proud	-9.77809
▁calm	-9.77837
▁shit	-9.77853
▁en	-9.77927
▁House	-9.78034
▁nobody	-9.78086
▁CAR	-9.78168
▁rain	-9.78387
▁hate	-9.78432
▁tired	-9.7845
ON	-9.78454
▁BACK	-9.78511
▁stage	-9.78571
ul	-9.78628
▁Duke	-9.78832
▁roof	-9.78924
▁pride	-9.78928
▁carrying	-9.78965
▁effort	-9.79008
▁pair	-9.79026
▁former	-9.79077
▁surface	-9.79159
▁finished	-9.79303
ia	-9.79328
one	-9.79335
▁wrote	-9.79465
▁summer	-9.79514
▁difficult	-9.79514
▁LATER	-9.79621
▁likely	-9.79674
▁questions	-9.79729
▁Their	-9.79794
▁guys	-9.79872
▁stuff	-9.79985
▁plan	-9.80045
▁noble	-9.80127
So	-9.80132
▁catch	-9.80154
▁allow	-9.80171
▁Doctor	-9.80193
▁thin	-9.80226
▁mere	-9.8028
Don	-9.80411
▁eight	-9.80452
▁rising	-9.80487
▁month	-9.80503
▁fifty	-9.80581
▁hill	-9.80655
▁discovered	-9.80673
▁ball	-9.80757
▁job	-9.80793
2	-9.80817
ine	-9.80949
▁Only	-9.81011
▁various	-9.8104
▁actually	-9.81092
▁bank	-9.81133
▁thrown	-9.81208
▁ma	-9.81302
▁ring	-9.81311
ent	-9.81349
▁moon	-9.81455
▁drop	-9.81522
▁obliged	-9.81544
▁honest	-9.81687
▁falls	-9.81722
▁attempt	-9.81733
▁spent	-9.81749
▁picks	-9.8191
▁shadow	-9.8195
▁carriage	-9.82017
ad	-9.82147
▁pull	-9.82194
▁settled	-9.82195
▁hung	-9.825
▁race	-9.82624
▁loud	-9.82737
▁promised	-9.82807
▁thirty	-9.82872
▁American	-9.82963
▁scarcely	-9.82973
▁considered	-9.82979
▁courage	-9.83059
▁guard	-9.83265
▁Charles	-9.83322
▁See	-9.83323
▁feelings	-9.83332
▁Jesus	-9.83343
▁control	-9.83441
▁shop	-9.8363
▁Street	-9.83715
▁class	-9.83744
!”	-9.83998
▁ha	-9.84034
▁seated	-9.84054
▁throat	-9.84073
CONTINUED	-9.84083
▁especially	-9.84087
▁offered	-9.84173
▁police	-9.8426
LY	-9.84275
▁entrance	-9.84284
▁CAMERA	-9.84287
▁remembered	-9.84299
▁okay	-9.84384
▁weeks	-9.84428
▁tongue	-9.84562
ir	-9.84596
▁station	-9.84813
▁post	-9.84851
▁asleep	-9.84872
▁terror	-9.84973
▁Master	-9.85019
▁throw	-9.85067
▁burst	-9.85071
▁chest	-9.85112
▁Was	-9.85184
ant	-9.85397
▁matters	-9.85489
▁pity	-9.85496
▁gentle	-9.85505
▁apartment	-9.85621
▁touched	-9.85678
▁faith	-9.85741
▁pounds	-9.85765
▁breast	-9.85824
▁gently	-9.85898
▁Ralph	-9.86254
age	-9.86296
▁wearing	-9.86298
▁fancy	-9.86341
▁forest	-9.86375
▁forgotten	-9.86396
▁anybody	-9.86529
▁spring	-9.86558
my	-9.86878
▁Our	-9.87058
▁result	-9.8709
▁explain	-9.87146
▁CONTINUOUS	-9.87154
▁special	-9.8751
▁whispered	-9.87637
▁confidence	-9.87649
▁judge	-9.87675
▁rise	-9.87686
▁mistress	-9.87793
▁command	-9.87853
▁calling	-9.879
▁prepared	-9.87989
ur	-9.8802
▁clean	-9.88021
▁Like	-9.88048
▁silver	-9.88143
▁Anne	-9.88146
▁everybody	-9.88178
▁drops	-9.88342
▁brain	-9.88355
▁presently	-9.88366
▁ancient	-9.88423
▁meaning	-9.88457
▁follows	-9.88676
▁bottle	-9.88748
▁Perhaps	-9.88756
▁coffee	-9.88905
▁broad	-9.88962
▁Father	-9.88985
ated	-9.89178
▁Have	-9.89218
▁passage	-9.89328
▁shore	-9.89376
▁difference	-9.89492
▁grand	-9.89701
▁continues	-9.89776
▁lines	-9.89845
▁closer	-9.89884
▁While	-9.89892
5	-9.89909
▁key	-9.89914
▁complete	-9.90097
▁decided	-9.90182
ga	-9.90246
▁enemy	-9.90397
▁success	-9.90455
▁resolved	-9.90487
▁property	-9.90511
Z	-9.90544
▁fault	-9.90553
with	-9.90644
▁le	-9.90656
▁receive	-9.90675
J	-9.908
▁share	-9.90803
▁yellow	-9.90891
▁fly	-9.91013
▁deck	-9.91019
▁Maybe	-9.91108
▁completely	-9.91146
ance	-9.91185
▁Before	-9.91205
▁chamber	-9.91231
▁quarter	-9.91469
▁buy	-9.91589
▁knife	-9.91632
▁unto	-9.91792
▁distant	-9.91806
▁conduct	-9.91834
▁keeping	-9.92041
IN	-9.92052
▁anyone	-9.92104
▁affair	-9.92211
▁listening	-9.92443
▁language	-9.92455
▁4	-9.92561
▁Had	-9.92631
▁pulled	-9.92794
▁weight	-9.92855
▁bedroom	-9.9297
▁lower	-9.93039
▁anger	-9.93349
▁dry	-9.93382
▁Paul	-9.93399
▁Dick	-9.93422
▁dust	-9.93452
ian	-9.93848
ive	-9.93858
▁slight	-9.94069
▁fate	-9.94073
▁false	-9.94213
▁Emily	-9.94268
AL	-9.94342
▁ourselves	-9.94408
▁chief	-9.94427
▁forced	-9.94444
▁engaged	-9.9446
▁spread	-9.94547
co	-9.94637
?--	-9.94722
▁intended	-9.94733
")	-9.94824
which	-9.94926
▁Lucy	-9.94996
▁hearing	-9.95023
▁vain	-9.95063
▁weak	-9.95204
▁directly	-9.95269
▁Tell	-9.95292
▁faint	-9.95452
▁camera	-9.95463
▁dance	-9.95496
▁dis	-9.9556
▁listened	-9.95699
▁grass	-9.95711
▁handsome	-9.95829
▁Henry	-9.95951
▁maybe	-9.96035
▁busy	-9.96266
▁hanging	-9.96284
Of	-9.96566
▁taste	-9.96612
go	-9.96751
▁brown	-9.96776
▁due	-9.9694
▁horror	-9.96969
▁draw	-9.97066
ism	-9.971
ey	-9.97106
▁TV	-9.97202
▁glances	-9.97336
▁asking	-9.97362
▁study	-9.97367
▁orders	-9.97438
▁shakes	-9.97462
▁papers	-9.97636
▁twice	-9.97671
▁UP	-9.97767
▁growing	-9.97974
▁ways	-9.97991
▁surely	-9.98002
out	-9.98021
▁equal	-9.98068
▁sounds	-9.98085
com	-9.98101
▁cap	-9.98104
Come	-9.98146
▁Bill	-9.98151
▁falling	-9.98161
▁fashion	-9.98315
LE	-9.98339
Let	-9.98393
▁devil	-9.98417
▁cover	-9.98473
▁fucking	-9.98536
▁Old	-9.98571
▁finding	-9.98628
▁wise	-9.98673
▁bent	-9.988
▁lover	-9.98846
RE	-9.98847
▁Me	-9.98851
lo	-9.98876
▁attack	-9.98886
▁Such	-9.98945
▁clearly	-9.99175
▁consider	-9.99333
▁mountain	-9.99347
▁influence	-9.99351
▁speed	-9.99366
▁shirt	-9.9937
▁explained	-9.99519
▁ease	-9.99536
▁hole	-9.99619
▁Jones	-9.99737
▁familiar	-9.99784
▁island	-9.99875
▁worked	-9.99959
3	-10.0002
▁ride	-10.0003
▁Laura	-10.0011
▁camp	-10.0013
▁imagine	-10.0017
▁mirror	-10.0019
▁curious	-10.0046
THE	-10.0053
▁advice	-10.0055
▁**********	-10.0063
▁main	-10.0065
▁countenance	-10.0078
▁n	-10.0083
▁Ha	-10.0084
tis	-10.0087
▁frightened	-10.0111
▁softly	-10.0125
▁officer	-10.0128
mo	-10.0146
▁OFFICE	-10.015
▁movement	-10.0162
▁greatest	-10.0181
▁Mark	-10.0181
▁pick	-10.0184
▁social	-10.0195
▁skin	-10.0206
▁noticed	-10.0208
la	-10.0217
▁HE	-10.0224
▁store	-10.023
▁pieces	-10.0231
▁pointed	-10.0241
▁delight	-10.0245
way	-10.0246
▁health	-10.0251
▁satisfied	-10.0253
▁servants	-10.0258
▁evidence	-10.027
▁moments	-10.0272
▁stream	-10.0275
▁somewhere	-10.0296
▁prove	-10.0308
▁stick	-10.0313
▁leg	-10.0322
▁fond	-10.0323
▁affairs	-10.0326
ring	-10.0332
▁Z	-10.0335
▁Thus	-10.0336
▁failed	-10.0341
▁cool	-10.0342
▁vast	-10.0342
▁Colonel	-10.0345
▁worst	-10.0348
▁bare	-10.0354
▁hotel	-10.0365
4	-10.037
▁twelve	-10.0372
▁slightly	-10.0379
▁doorway	-10.0385
▁f	-10.0396
OR	-10.04
▁search	-10.04
▁affection	-10.0402
7	-10.0405
ta	-10.0411
▁flesh	-10.0414
▁Every	-10.0419
▁paused	-10.0445
▁frame	-10.0448
▁loss	-10.0455
▁shame	-10.0461
▁per	-10.0472
▁However	-10.0482
▁square	-10.0491
▁grow	-10.0499
▁according	-10.0507
▁yours	-10.0508
▁persons	-10.051
▁justice	-10.0511
▁bridge	-10.0522
▁streets	-10.0537
▁Anna	-10.0539
▁advantage	-10.0544
there	-10.0547
▁5	-10.0549
▁U	-10.0571
▁storm	-10.0575
▁soldiers	-10.0583
▁support	-10.059
▁mistake	-10.0591
▁tender	-10.0593
▁Nor	-10.0596
▁dozen	-10.0597
▁spirits	-10.0598
▁fish	-10.0598
▁somebody	-10.0599
▁harm	-10.0601
▁beg	-10.0601
▁sand	-10.0608
▁double	-10.0614
▁weather	-10.0616
▁formed	-10.0619
▁Alice	-10.0625
....	-10.0627
▁absolutely	-10.0632
Who	-10.0634
▁entire	-10.0635
▁thinks	-10.0639
eth	-10.0641
▁interested	-10.0643
▁accept	-10.0645
▁concerned	-10.0652
▁cup	-10.0664
▁message	-10.067
▁Thank	-10.067
▁wore	-10.067
----	-10.0672
▁satisfaction	-10.068
▁lovely	-10.069
▁degree	-10.0691
▁Monsieur	-10.0695
▁grown	-10.0707
▁ideas	-10.0708
▁POV	-10.0715
land	-10.0716
▁existence	-10.0723
▁forehead	-10.0725
▁pen	-10.0725
▁Still	-10.0746
▁occurred	-10.0756
▁White	-10.0756
▁Polly	-10.077
▁Hi	-10.0774
ary	-10.0788
▁STREET	-10.0791
6	-10.0794
▁APARTMENT	-10.0794
▁sooner	-10.0803
▁yesterday	-10.0803
▁crying	-10.0804
▁instantly	-10.0806
▁bread	-10.0811
x	-10.0826
▁leading	-10.083
▁song	-10.0837
▁mention	-10.0837
▁Great	-10.0843
▁OUT	-10.0844
▁everyone	-10.0847
▁e	-10.0862
▁machine	-10.0871
▁May	-10.0876
Good	-10.0881
▁wear	-10.0882
im	-10.0883
▁suggested	-10.0896
▁otherwise	-10.0904
▁Church	-10.0914
▁kid	-10.0919
▁cat	-10.0923
▁truly	-10.0924
▁generally	-10.093
▁waves	-10.0931
▁pray	-10.094
▁dangerous	-10.0954
8	-10.0954
▁sorrow	-10.0969
▁possession	-10.097
▁cruel	-10.0972
▁throws	-10.0972
▁played	-10.0978
▁nearer	-10.0979
▁Another	-10.0979
▁dull	-10.0982
▁remarked	-10.0996
▁animal	-10.1007
ra	-10.1012
▁Christian	-10.1013
▁ordinary	-10.1027
▁expressed	-10.1035
law	-10.1047
▁saved	-10.1053
▁shown	-10.1055
▁despair	-10.1056
▁motion	-10.1058
▁welcome	-10.1058
▁grief	-10.1065
▁winter	-10.1069
ro	-10.1078
▁problem	-10.108
▁William	-10.1089
▁mentioned	-10.109
▁period	-10.1102
▁tiny	-10.1103
▁rough	-10.111
▁pardon	-10.1113
▁besides	-10.1123
▁SCENE	-10.1125
▁fuck	-10.1126
▁Because	-10.1126
▁passes	-10.1133
pe	-10.114
▁castle	-10.1144
▁hidden	-10.1146
▁Would	-10.1149
▁Take	-10.1157
▁higher	-10.1165
▁Uncle	-10.1168
▁i	-10.1177
▁Christ	-10.1177
▁flight	-10.1179
▁lifted	-10.1189
ally	-10.1195
▁bow	-10.1195
▁shaking	-10.1195
▁York	-10.1203
▁approach	-10.121
▁conscious	-10.1211
▁level	-10.1229
▁flat	-10.1236
▁Maggie	-10.1244
▁nine	-10.1247
▁desired	-10.1248
▁information	-10.1264
▁acquaintance	-10.1267
▁Billy	-10.1274
▁gaze	-10.1275
▁WE	-10.1283
▁friendship	-10.1288
▁shape	-10.1291
▁fat	-10.1296
▁Script	-10.13
▁pressed	-10.1301
▁check	-10.1309
▁truck	-10.1313
▁bird	-10.1323
▁events	-10.1326
▁army	-10.1327
▁begun	-10.134
▁nervous	-10.1352
▁possibly	-10.1352
▁hoped	-10.1353
▁worthy	-10.1356
▁bore	-10.1357
ud	-10.1362
▁blind	-10.1362
▁relief	-10.1363
ph	-10.1373
▁Please	-10.1375
▁HIS	-10.1383
▁Sunday	-10.1384
▁France	-10.1384
▁crossed	-10.1388
▁impression	-10.14
ating	-10.1404
▁needed	-10.1413
▁produced	-10.1414
que	-10.1416
▁loose	-10.1416
ley	-10.1439
▁join	-10.1439
▁excellent	-10.1443
://	-10.145
All	-10.145
▁Adam	-10.1456
▁greatly	-10.1457
ard	-10.1459
Mr	-10.1464
▁temper	-10.1465
▁forty	-10.1477
▁et	-10.1478
▁Ma	-10.148
▁ordered	-10.1491
her	-10.1495
▁perceived	-10.1498
▁cries	-10.1511
▁honor	-10.1529
0	-10.1546
▁Chapter	-10.1548
▁pure	-10.1554
▁match	-10.1565
▁dying	-10.1565
▁terms	-10.1572
se	-10.1577
▁unhappy	-10.1582
▁laughter	-10.1583
▁wound	-10.1594
▁metal	-10.1595
▁unable	-10.1601
▁shock	-10.1601
▁task	-10.1603
▁kids	-10.1607
looking	-10.161
▁odd	-10.1611
▁caused	-10.1614
▁rage	-10.1618
▁b	-10.1627
les	-10.1634
▁Thomas	-10.1635
▁apart	-10.1635
▁brave	-10.1635
▁cont	-10.1657
▁houses	-10.1664
▁enjoy	-10.1667
▁works	-10.1669
▁seek	-10.167
▁MRS	-10.1687
▁JACK	-10.169
▁shouldn	-10.1691
US	-10.1698
▁leans	-10.1704
▁10	-10.1707
▁value	-10.171
▁possessed	-10.1711
▁excitement	-10.1712
▁burning	-10.1717
▁gotta	-10.1723
▁golden	-10.1728
▁final	-10.1734
▁choice	-10.1738
▁Once	-10.174
▁HER	-10.1746
▁base	-10.1749
▁page	-10.1752
▁visible	-10.1757
▁dreadful	-10.176
▁Bob	-10.1762
▁kissed	-10.177
▁circle	-10.1778
▁suffered	-10.1785
▁favour	-10.1794
▁Red	-10.1798
ier	-10.1802
▁taught	-10.181
▁Mo	-10.1822
▁report	-10.1829
▁ice	-10.1829
▁hide	-10.1833
▁em	-10.1835
▁gathered	-10.1839
▁count	-10.1844
▁cheek	-10.1848
▁maid	-10.1848
▁names	-10.185
▁corridor	-10.1864
▁showing	-10.1865
▁hits	-10.1867
▁continue	-10.1867
▁sides	-10.187
▁interview	-10.1871
▁today	-10.1872
▁Court	-10.1878
▁awful	-10.1884
▁Jim	-10.1888
▁seized	-10.1889
▁Heaven	-10.1901
der	-10.1906
▁murder	-10.1914
▁supper	-10.1918
▁flying	-10.1921
▁evidently	-10.1926
▁lad	-10.1927
▁8	-10.1939
▁unknown	-10.1949
▁driven	-10.195
ee	-10.195
▁9	-10.1957
▁birds	-10.1961
▁ceased	-10.1983
they	-10.1986
▁parts	-10.1987
▁luck	-10.1987
▁gray	-10.1987
▁regarded	-10.1988
▁firm	-10.1989
▁Thou	-10.1996
▁prison	-10.2001
▁habit	-10.2007
▁imagination	-10.2009
▁comfortable	-10.201
▁grey	-10.2013
▁shadows	-10.2015
Your	-10.2016
▁Jane	-10.2017
▁forgive	-10.2019
▁Little	-10.2024
▁Never	-10.203
▁g	-10.2031
▁Princess	-10.2032
▁hurry	-10.2034
▁James	-10.2044
▁Michael	-10.2047
▁wondered	-10.205
▁serve	-10.2061
▁prevent	-10.2062
RA	-10.2066
ities	-10.2076
▁6	-10.2086
ship	-10.2086
▁lawyer	-10.2089
▁keeps	-10.209
X	-10.2095
▁shake	-10.2096
▁built	-10.2096
▁Aunt	-10.2097
▁system	-10.2099
▁Y	-10.2099
For	-10.2105
let	-10.2112
▁farther	-10.2114
▁heat	-10.2119
▁fighting	-10.2123
▁ashamed	-10.2125
▁marked	-10.2128
▁rooms	-10.2133
▁parents	-10.2135
▁stare	-10.2139
▁win	-10.215
▁mass	-10.2153
▁[_	-10.2154
▁rocks	-10.2163
▁interesting	-10.2169
▁speaks	-10.2173
▁image	-10.2173
▁ne	-10.2175
▁proved	-10.2189
▁agreed	-10.2192
▁anxiety	-10.2195
▁calls	-10.2198
▁fully	-10.2202
▁willing	-10.2213
▁bell	-10.2218
▁mighty	-10.2222
▁trembling	-10.2224
▁counter	-10.2225
▁band	-10.2239
▁innocent	-10.2252
▁miserable	-10.2253
▁apparently	-10.2261
▁Right	-10.2262
ning	-10.2271
▁intention	-10.2282
▁miss	-10.2284
▁sufficient	-10.2284
z	-10.2288
▁Robert	-10.2289
ri	-10.23
Illustration	-10.2301
▁disappeared	-10.2301
Where	-10.2303
.)	-10.2307
▁grace	-10.2309
▁extraordinary	-10.2319
▁hang	-10.232
▁deeply	-10.2322
▁sought	-10.2326
▁younger	-10.2327
▁flower	-10.2328
▁excuse	-10.2332
▁approaches	-10.2334
9	-10.2345
ci	-10.2345
▁education	-10.2357
▁steel	-10.2367
▁excited	-10.2368
▁shoes	-10.2387
▁Nick	-10.2393
▁address	-10.2393
▁friendly	-10.2396
▁curiosity	-10.2396
▁absence	-10.2396
▁bitter	-10.2404
▁row	-10.2409
▁ended	-10.2418
▁cheeks	-10.2431
▁admit	-10.2432
▁approaching	-10.2434
ut	-10.2438
▁18	-10.2439
▁stupid	-10.2442
ma	-10.2449
▁suffer	-10.2453
▁strike	-10.2454
▁accident	-10.2456
▁Three	-10.2463
▁Movie	-10.2471
▁rear	-10.2471
▁forgot	-10.248
▁interrupted	-10.2484
▁pipe	-10.2484
▁soldier	-10.2485
ha	-10.2485
▁arrival	-10.2489
----"	-10.249
▁First	-10.2492
▁rush	-10.2495
▁mountains	-10.2501
▁fun	-10.2511
▁locked	-10.2515
▁careful	-10.2518
▁hadn	-10.2524
how	-10.2525
▁dollars	-10.2533
▁refused	-10.2544
▁attitude	-10.2557
ner	-10.2575
▁direct	-10.2575
ah	-10.2584
▁understanding	-10.2586
▁pre	-10.2587
▁avoid	-10.2587
▁rapidly	-10.2587
▁BEDROOM	-10.259
▁finds	-10.2594
AN	-10.262
▁struggle	-10.2624
▁America	-10.2627
▁club	-10.2628
▁older	-10.2628
▁remains	-10.2629
▁oh	-10.2631
▁picked	-10.2635
▁woods	-10.2637
▁clever	-10.2638
▁wet	-10.2669
CH	-10.2671
ous	-10.269
▁cost	-10.2692
When	-10.2694
▁religion	-10.2699
▁occupied	-10.2711
IE	-10.2715
▁required	-10.2717
▁assured	-10.2717
▁somehow	-10.2718
▁JOHN	-10.2722
▁cabin	-10.2724
▁card	-10.2732
▁yards	-10.2734
▁tight	-10.2742
▁inquired	-10.2754
▁Smith	-10.276
▁SAM	-10.2765
▁served	-10.2772
▁freedom	-10.2772
▁north	-10.2777
▁20	-10.2788
ak	-10.2798
▁features	-10.2798
ck	-10.2803
▁worry	-10.2804
▁mysterious	-10.2806
who	-10.2806
▁wheel	-10.281
▁bosom	-10.2811
▁Something	-10.2815
▁approached	-10.2828
▁crazy	-10.2833
▁North	-10.284
id	-10.2843
▁advanced	-10.2847
▁necessity	-10.2853
▁kindly	-10.2857
▁particularly	-10.2865
▁AT	-10.2879
▁Hall	-10.2882
▁Mike	-10.2882
▁vision	-10.2883
▁charming	-10.2884
▁safety	-10.2885
▁tonight	-10.2888
▁driving	-10.2888
▁shoot	-10.2889
▁hopes	-10.2892
▁Though	-10.291
▁Count	-10.2911
▁stars	-10.2912
▁WITH	-10.2914
▁Con	-10.2917
▁clock	-10.292
▁surrounded	-10.2921
▁crew	-10.2923
▁eating	-10.2925
▁measure	-10.2934
▁lock	-10.2935
▁General	-10.296
time	-10.2961
▁Philip	-10.2969
▁Mother	-10.297
▁Which	-10.2972
▁sell	-10.2975
▁peculiar	-10.2975
▁confused	-10.2976
▁demanded	-10.2981
per	-10.2981
TH	-10.2982
▁lamp	-10.2984
▁becoming	-10.2985
▁naturally	-10.2987
▁pushes	-10.2991
▁drove	-10.3001
▁(_	-10.3005
▁powerful	-10.3006
▁Edward	-10.3007
imsdb	-10.3008
▁creatures	-10.3026
▁succeeded	-10.3027
▁conscience	-10.3032
▁Po	-10.3032
▁co	-10.3037
▁express	-10.3039
▁c	-10.3046
▁Arthur	-10.3048
▁convinced	-10.3048
▁sleeping	-10.3051
▁yard	-10.3061
▁progress	-10.3066
▁rises	-10.3067
▁everywhere	-10.307
▁choose	-10.3075
well	-10.3076
▁dim	-10.3086
▁birth	-10.3089
▁emotion	-10.309
tic	-10.3091
EY	-10.3097
▁rank	-10.3108
▁mark	-10.3109
▁President	-10.3115
▁credit	-10.3116
▁delicate	-10.3122
▁style	-10.3124
▁cloud	-10.3128
▁stared	-10.3135
▁desert	-10.3137
▁instance	-10.314
▁accepted	-10.3142
▁presented	-10.3142
▁sympathy	-10.3143
▁Le	-10.3145
EL	-10.3151
▁pulling	-10.3161
▁kindness	-10.317
▁moral	-10.3172
▁feared	-10.3176
▁leaning	-10.3189
don	-10.3202
▁wishes	-10.3202
▁triumph	-10.3211
▁named	-10.3211
▁beast	-10.3212
▁closes	-10.3214
▁government	-10.3219
▁bought	-10.3221
▁energy	-10.3222
was	-10.3226
▁Charlie	-10.3231
vo	-10.3235
▁Earl	-10.3236
▁priest	-10.3236
▁7	-10.324
Upon	-10.3243
▁aid	-10.3245
▁whisper	-10.3252
▁singing	-10.3252
▁brief	-10.3262
▁crime	-10.3265
▁material	-10.327
▁v	-10.3282
:--	-10.3298
▁risk	-10.33
▁amount	-10.3303
▁sigh	-10.3313
▁wooden	-10.3314
▁joined	-10.3321
▁forms	-10.3327
▁laughs	-10.3329
▁press	-10.3331
▁trade	-10.3334
▁judgment	-10.3335
ily	-10.3341
▁authority	-10.3348
ably	-10.335
Very	-10.3353
▁usually	-10.3353
▁Ann	-10.3355
▁sin	-10.3356
▁German	-10.3356
▁midst	-10.3376
▁officers	-10.338
▁escaped	-10.3387
▁lit	-10.3393
▁wealth	-10.3394
▁Roger	-10.3405
▁slept	-10.3409
▁19	-10.341
▁needs	-10.3412
▁Phineas	-10.3413
▁sum	-10.3429
▁alarm	-10.344
▁du	-10.3444
▁Margaret	-10.3445
j	-10.3447
▁Grace	-10.345
▁eager	-10.3455
▁voices	-10.3461
▁Those	-10.3469
▁suffering	-10.347
▁fill	-10.3471
▁nurse	-10.3473
▁signs	-10.3485
▁delighted	-10.3486
▁bringing	-10.3488
RI	-10.349
▁bodies	-10.3491
▁consequence	-10.3496
▁guns	-10.3497
▁claim	-10.35
Go	-10.3505
▁spend	-10.3512
▁jumps	-10.3513
▁Give	-10.3531
▁con	-10.3532
▁violent	-10.3536
▁wicked	-10.3539
▁ya	-10.3548
▁drunk	-10.3553
▁pushed	-10.3553
ler	-10.3554
▁size	-10.3567
▁track	-10.3572
▁color	-10.3575
▁helped	-10.3576
▁YOU	-10.3581
▁liberty	-10.3582
▁weary	-10.3591
▁rode	-10.3603
▁thanks	-10.3604
▁utter	-10.3607
▁coast	-10.3608
▁hangs	-10.3618
▁Al	-10.3618
▁handle	-10.362
ward	-10.3621
▁content	-10.3629
▁Indeed	-10.363
▁Again	-10.3634
▁Hello	-10.3634
are	-10.3635
▁blame	-10.3654
▁flash	-10.3656
▁discover	-10.3669
▁treated	-10.3677
▁hurried	-10.3681
den	-10.3682
▁driver	-10.3689
▁worn	-10.3691
▁suspicion	-10.3692
▁center	-10.37
▁admitted	-10.3712
▁glow	-10.3714
▁horrible	-10.3715
▁clouds	-10.3719
▁stepped	-10.3729
▁jacket	-10.373
▁proceeded	-10.3739
▁shows	-10.3742
ge	-10.3746
▁cottage	-10.3746
▁season	-10.375
▁considerable	-10.3751
▁madam	-10.3755
▁political	-10.3758
some	-10.3763
▁confess	-10.3768
▁dogs	-10.3771
▁Max	-10.3771
▁CHARLIE	-10.3773
▁contrary	-10.3774
Is	-10.3775
▁confusion	-10.3779
▁dignity	-10.3783
▁stock	-10.3797
_)	-10.3809
when	-10.3812
▁wounded	-10.3814
▁kisses	-10.3819
▁reader	-10.382
Are	-10.3821
▁returning	-10.3822
▁capable	-10.3823
▁equally	-10.3834
▁cell	-10.3838
▁wings	-10.3844
▁MORNING	-10.3847
op	-10.3851
▁slave	-10.3852
▁example	-10.3858
▁proof	-10.3866
▁extremely	-10.3867
▁tear	-10.387
▁spare	-10.387
▁upper	-10.3872
▁radio	-10.3873
▁resolution	-10.3881
▁leads	-10.3886
▁mercy	-10.3889
▁request	-10.3895
▁rule	-10.3897
▁plainly	-10.3897
▁NICK	-10.3901
▁modern	-10.3902
▁colour	-10.3903
EN	-10.3917
▁plenty	-10.3937
his	-10.394
▁uttered	-10.3944
▁cab	-10.3948
▁ex	-10.395
▁importance	-10.3952
▁dancing	-10.3954
▁south	-10.3961
▁consideration	-10.3967
▁price	-10.3981
▁agree	-10.3981
▁breaking	-10.3982
▁warning	-10.3989
▁Besides	-10.3993
▁drinking	-10.3993
▁reasons	-10.3998
▁upstairs	-10.3999
▁couch	-10.4006
▁misery	-10.4007
▁belief	-10.401
As	-10.4012
▁thrust	-10.4024
▁regret	-10.4027
ial	-10.4028
this	-10.4033
oo	-10.4042
▁shouted	-10.4047
▁becomes	-10.4052
▁Men	-10.4053
▁practice	-10.4054
▁fifteen	-10.4055
▁fierce	-10.4056
▁TWO	-10.4059
▁prisoner	-10.4061
▁closely	-10.4064
▁Both	-10.4071
▁DR	-10.4072
▁Wait	-10.4072
▁gay	-10.408
▁flame	-10.4085
▁glanced	-10.4091
www	-10.4092
▁MR	-10.4093
▁Finally	-10.4094
▁arranged	-10.4117
▁Black	-10.4119
▁virtue	-10.412
Here	-10.412
▁native	-10.4134
▁ceiling	-10.4137
▁WOMAN	-10.4165
▁Co	-10.4169
▁MIKE	-10.4169
▁guests	-10.417
▁original	-10.4177
▁height	-10.418
▁quarrel	-10.418
▁awake	-10.4195
▁departure	-10.4198
▁sing	-10.4199
con	-10.4202
▁audience	-10.4203
▁concern	-10.4206
ol	-10.4207
▁stretched	-10.4212
Have	-10.4216
▁foolish	-10.4219
▁fellows	-10.4221
▁Fred	-10.4222
▁meat	-10.4233
▁consent	-10.4236
▁melancholy	-10.4238
▁rushed	-10.4239
▁rope	-10.4251
ab	-10.4261
ster	-10.4265
▁fail	-10.4266
▁sex	-10.4267
▁shining	-10.4271
▁hearts	-10.4271
▁People	-10.4272
▁Un	-10.428
ize	-10.4282
lin	-10.4292
▁Mac	-10.4299
▁assure	-10.4301
▁refuse	-10.4301
▁addressed	-10.4301
▁weapon	-10.4304
▁startled	-10.4304
▁female	-10.4304
▁brow	-10.4309
▁Dan	-10.4312
▁dining	-10.4313
ise	-10.4315
▁Rose	-10.4317
▁assistance	-10.4318
▁smooth	-10.432
▁naked	-10.4321
▁pictures	-10.4325
▁animals	-10.4326
▁cigarette	-10.4327
ned	-10.4328
▁plate	-10.4334
▁reads	-10.435
▁utterly	-10.435
▁rid	-10.4356
▁X	-10.4359
▁starting	-10.4366
▁Rachel	-10.4368
▁rolled	-10.437
▁glory	-10.4377
▁science	-10.4385
▁witness	-10.4395
▁guilty	-10.4397
ot	-10.4404
▁trial	-10.4406
▁buried	-10.4412
▁More	-10.4414
▁BLACK	-10.4422
NA	-10.4427
▁stern	-10.4427
▁tomorrow	-10.443
▁star	-10.4435
▁pointing	-10.4439
▁pack	-10.4445
▁add	-10.4445
▁roll	-10.4462
▁tail	-10.4462
▁accustomed	-10.4463
▁remarkable	-10.4468
bo	-10.4475
▁estate	-10.4479
▁anywhere	-10.4492
▁swear	-10.4493
▁happens	-10.4498
EE	-10.4503
▁vessel	-10.4503
▁glasses	-10.4504
▁setting	-10.4505
▁bearing	-10.4507
▁milk	-10.4512
▁list	-10.4518
ius	-10.4523
tle	-10.4528
▁gesture	-10.4528
▁12	-10.453
ver	-10.4531
▁thoroughly	-10.4533
▁reflection	-10.4538
▁wretched	-10.4539
▁boots	-10.454
▁affected	-10.4545
▁removed	-10.4546
▁valley	-10.4547
▁tale	-10.455
▁Park	-10.4552
▁proposed	-10.4557
UR	-10.4561
SON	-10.4568
▁fairly	-10.4574
▁facts	-10.4578
▁flung	-10.4586
▁breathing	-10.4587
▁wave	-10.4587
▁chain	-10.4589
"--	-10.4593
▁waste	-10.4594
▁member	-10.4599
▁hollow	-10.4599
line	-10.46
▁wedding	-10.4604
▁feels	-10.4607
▁mystery	-10.4613
da	-10.4618
▁daily	-10.4623
▁informed	-10.4639
▁nodded	-10.4639
▁area	-10.4639
▁knock	-10.464
▁sprang	-10.4641
ST	-10.4641
▁bill	-10.4648
▁newspaper	-10.4649
▁30	-10.4649
▁GEORGE	-10.4661
place	-10.4667
▁companions	-10.4672
▁enormous	-10.4674
▁widow	-10.4684
▁lap	-10.4687
▁explanation	-10.4687
▁remark	-10.4689
▁patient	-10.4692
http	-10.4692
▁clerk	-10.4699
▁pool	-10.4714
▁raise	-10.472
▁gradually	-10.4725
king	-10.473
▁hero	-10.4731
▁immediate	-10.4734
▁members	-10.4736
▁figures	-10.4743
▁throwing	-10.4745
▁Very	-10.4746
▁th	-10.4747
▁individual	-10.4752
▁precious	-10.4752
can	-10.4755
▁wisdom	-10.4757
▁consciousness	-10.4766
▁inclined	-10.4768
▁Over	-10.4775
ni	-10.4784
▁bowed	-10.4792
pa	-10.4798
IS	-10.4798
▁managed	-10.4807
▁bold	-10.4811
▁Everyone	-10.4819
▁dared	-10.4827
▁intelligence	-10.4827
▁Li	-10.4828
▁crosses	-10.4828
ow	-10.4837
▁tower	-10.4838
ens	-10.4841
▁enemies	-10.4846
▁unfortunate	-10.4848
▁furniture	-10.4856
▁pistol	-10.4857
▁regular	-10.486
▁superior	-10.4869
▁AS	-10.487
▁afford	-10.4872
▁cars	-10.4882
▁je	-10.4884
▁dreams	-10.4892
▁decision	-10.4893
▁resumed	-10.4906
▁lake	-10.4917
▁rifle	-10.492
▁hated	-10.492
ence	-10.4923
▁savage	-10.4924
ten	-10.4925
▁ruin	-10.4925
▁que	-10.4925
UN	-10.4932
▁whilst	-10.4936
▁funny	-10.4941
▁beach	-10.495
▁extreme	-10.4975
▁bid	-10.4975
▁cave	-10.4976
▁security	-10.4987
om	-10.4989
▁joke	-10.4998
▁anyway	-10.5009
▁beer	-10.5011
▁hears	-10.5014
▁gazed	-10.5017
▁port	-10.5026
▁IT	-10.503
Tis	-10.5039
▁lest	-10.5054
▁flew	-10.5056
▁rolls	-10.5062
▁murmured	-10.5062
▁begged	-10.5063
▁brilliant	-10.5066
▁lonely	-10.5067
▁mile	-10.5068
By	-10.5073
▁lighted	-10.5074
fe	-10.5075
▁Car	-10.5078
▁Ed	-10.5079
▁earnest	-10.5079
▁larger	-10.5081
▁mood	-10.5094
▁cloth	-10.5097
▁nevertheless	-10.5104
▁wondering	-10.511
▁type	-10.5111
▁forever	-10.5111
▁chin	-10.5114
▁scarce	-10.5115
ized	-10.5116
ble	-10.5124
▁vague	-10.5127
▁palace	-10.5129
▁candle	-10.5139
▁guide	-10.514
▁desperate	-10.5141
▁barely	-10.5152
▁event	-10.5152
▁generous	-10.5154
▁blows	-10.5155
ging	-10.5156
ue	-10.5167
▁stones	-10.5167
▁silently	-10.5171
▁author	-10.5174
▁million	-10.5174
▁hills	-10.5174
▁Having	-10.5178
▁lo	-10.5181
▁Could	-10.5182
off	-10.5189
▁hospital	-10.5195
▁damn	-10.5197
will	-10.5199
Did	-10.5201
ix	-10.5205
▁signal	-10.5232
▁Database	-10.5235
▁drives	-10.5236
▁guest	-10.5237
▁Everything	-10.524
▁Bishop	-10.524
▁acquainted	-10.5242
▁sold	-10.5244
▁RE	-10.5246
light	-10.5252
▁darling	-10.5255
▁market	-10.5258
▁silk	-10.5258
▁tied	-10.526
▁conditions	-10.5271
▁jump	-10.5272
▁fence	-10.528
▁troubled	-10.5283
▁smoking	-10.5285
▁elevator	-10.5289
▁wake	-10.5291
▁rare	-10.5292
▁giant	-10.5293
▁lands	-10.5294
▁Love	-10.5296
▁amongst	-10.5299
▁Jacob	-10.5304
▁famous	-10.5307
▁minds	-10.5308
▁torn	-10.5313
▁highest	-10.5325
▁gas	-10.5332
SE	-10.5336
▁solid	-10.5339
▁fields	-10.5341
▁heavily	-10.5344
▁shade	-10.5359
▁scared	-10.5361
▁arose	-10.5361
▁Sometimes	-10.5362
▁team	-10.5363
▁hesitated	-10.5364
work	-10.5367
▁DE	-10.5369
▁notes	-10.5373
TO	-10.5374
▁teach	-10.5377
▁Ray	-10.5377
▁plans	-10.5383
▁sacrifice	-10.5383
▁accompanied	-10.5384
▁attached	-10.5401
TER	-10.5401
▁dirty	-10.5404
▁painful	-10.5404
▁solemn	-10.5414
▁Thanks	-10.5415
▁ME	-10.5417
▁manners	-10.542
▁advance	-10.5424
▁folks	-10.5428
▁computer	-10.5428
▁concerning	-10.5429
▁hungry	-10.543
▁manage	-10.5433
▁dressing	-10.5436
▁agreeable	-10.544
▁centre	-10.5448
▁aloud	-10.5451
▁Hal	-10.5452
li	-10.5452
▁queer	-10.5457
sh	-10.546
▁god	-10.5461
▁title	-10.5464
▁partly	-10.5467
▁seconds	-10.547
red	-10.5474
▁cart	-10.5475
▁Pierre	-10.5477
▁smell	-10.5481
▁Listen	-10.5482
▁Sure	-10.5485
▁steady	-10.549
▁fruit	-10.5493
▁previous	-10.5495
▁Bo	-10.55
▁lately	-10.5501
ka	-10.5503
▁admiration	-10.5504
▁finish	-10.5505
▁wi	-10.5508
ET	-10.551
▁highly	-10.5517
▁Clara	-10.5539
▁breaks	-10.5542
▁Out	-10.5547
▁fatal	-10.5558
▁Val	-10.5562
▁gift	-10.5564
▁aren	-10.5571
though	-10.5572
ex	-10.5572
▁Louis	-10.5574
▁Saint	-10.5575
▁prince	-10.5585
RO	-10.5594
▁patience	-10.5595
▁button	-10.5599
va	-10.5612
▁squire	-10.5614
ez	-10.5621
LO	-10.5625
▁useless	-10.5627
▁recovered	-10.563
▁During	-10.5631
▁Without	-10.5631
▁imagined	-10.5633
▁smart	-10.5637
▁violence	-10.564
styled	-10.5642
▁leaned	-10.5643
▁keen	-10.5645
▁wit	-10.5645
▁catches	-10.5648
▁current	-10.5652
▁queen	-10.5654
▁attend	-10.5655
▁stuck	-10.5656
▁INTO	-10.5658
▁splendid	-10.5662
MA	-10.5663
▁conviction	-10.5664
▁Christmas	-10.5671
ina	-10.5675
▁sentence	-10.5676
▁dread	-10.568
▁brings	-10.568
▁host	-10.5684
LA	-10.5688
bed	-10.5692
au	-10.5693
▁remote	-10.5697
▁destroy	-10.5697
▁household	-10.5699
nd	-10.5701
bye	-10.5701
(	-10.5704
▁travel	-10.5704
▁Through	-10.571
▁Richard	-10.5715
▁charm	-10.5723
▁15	-10.5725
▁State	-10.5726
▁stories	-10.5733
▁sacred	-10.5733
▁hastily	-10.5733
▁raises	-10.5743
▁abruptly	-10.5751
▁etc	-10.5754
▁abroad	-10.5759
▁astonishment	-10.5759
▁cloak	-10.5759
▁connection	-10.5763
▁niece	-10.5764
▁observe	-10.5766
RY	-10.5769
▁loving	-10.5779
▁hasn	-10.578
▁coach	-10.5781
▁Mar	-10.5786
▁sheet	-10.5786
▁reveal	-10.5789
▁11	-10.5793
▁ugly	-10.5795
▁Sarah	-10.5796
▁atmosphere	-10.58
▁riding	-10.58
▁Italian	-10.5805
▁rolling	-10.5805
▁farm	-10.5813
▁?!	-10.5818
▁seriously	-10.5823
▁ends	-10.5825
ries	-10.5832
▁dawn	-10.5832
▁reality	-10.5836
▁delay	-10.5837
▁faithful	-10.5845
▁imp	-10.5846
▁laws	-10.5847
▁bathroom	-10.5853
▁cook	-10.5854
ba	-10.5863
▁date	-10.5864
five	-10.5864
▁knocked	-10.5865
▁chosen	-10.5867
▁oil	-10.588
▁powers	-10.5881
”	-10.5882
▁park	-10.5883
▁Emmeline	-10.5888
▁francs	-10.5894
had	-10.5901
▁skill	-10.5904
▁reference	-10.591
▁NO	-10.5911
po	-10.5912
▁distress	-10.5914
▁weapons	-10.5916
▁slipped	-10.5921
▁contact	-10.5931
▁hast	-10.5931
▁west	-10.5931
▁17	-10.594
▁mamma	-10.5941
▁Thy	-10.5943
▁brothers	-10.5945
▁earlier	-10.5947
table	-10.5951
▁appeal	-10.5963
▁MARY	-10.5968
▁sink	-10.5969
▁holy	-10.5969
▁eagerly	-10.5973
▁SAME	-10.5981
Look	-10.5984
▁venture	-10.5986
▁slightest	-10.5991
▁Kate	-10.5999
▁utmost	-10.6004
side	-10.6005
▁plays	-10.6007
▁Fanny	-10.601
▁prospect	-10.6015
▁cases	-10.6021
▁increased	-10.6022
▁treat	-10.6023
▁humble	-10.6023
iv	-10.6024
▁City	-10.6032
▁seldom	-10.6036
▁ere	-10.6038
▁gain	-10.6041
▁divine	-10.6044
▁lift	-10.6046
ERS	-10.6057
▁cared	-10.6057
▁notices	-10.6059
io	-10.6067
NE	-10.607
▁exchange	-10.6071
▁background	-10.6071
▁nation	-10.6076
▁sending	-10.608
▁se	-10.6083
▁belt	-10.6088
*	-10.6089
os	-10.609
▁meal	-10.6092
▁stayed	-10.6092
▁quality	-10.6094
▁swept	-10.6095
mon	-10.6096
pp	-10.6109
▁Green	-10.6113
▁armed	-10.6113
▁Phil	-10.6118
▁sail	-10.6119
▁tenderness	-10.6121
▁poet	-10.6121
IL	-10.6124
▁qui	-10.6129
▁realize	-10.6135
▁Since	-10.6135
▁Day	-10.6142
▁mistaken	-10.6146
▁portion	-10.6148
▁Baron	-10.6149
▁handed	-10.6157
▁Indian	-10.6159
▁Oscar	-10.6159
our	-10.6161
▁van	-10.6161
▁knee	-10.6162
head	-10.6162
▁foreign	-10.6167
▁plants	-10.617
▁purse	-10.617
▁gained	-10.6171
▁flies	-10.6171
▁slip	-10.6177
▁discovery	-10.6178
▁deserted	-10.618
▁waist	-10.6187
▁Finn	-10.6187
▁rings	-10.6187
▁painted	-10.6189
▁LA	-10.6191
▁platform	-10.6197
▁retired	-10.6198
▁using	-10.6199
ger	-10.6202
▁changes	-10.6202
▁separate	-10.6207
▁parted	-10.6209
▁Nobody	-10.621
▁religious	-10.6213
▁fires	-10.6221
▁ignorant	-10.6224
▁genius	-10.6224
▁lack	-10.6226
▁Poor	-10.6231
▁record	-10.6239
▁beard	-10.624
▁build	-10.6244
▁physical	-10.6248
▁San	-10.6252
▁exits	-10.6258
▁JOE	-10.6262
▁DOOR	-10.6264
▁Ursula	-10.6267
▁efforts	-10.6269
▁library	-10.6272
▁branches	-10.6275
▁dragged	-10.6278
▁Luke	-10.6295
▁disturbed	-10.6301
ip	-10.6304
▁learning	-10.6313
▁senses	-10.6314
hearted	-10.6315
▁enjoyed	-10.6318
▁lifts	-10.6319
▁fought	-10.6333
▁Van	-10.6335
▁mid	-10.6336
▁trip	-10.6339
▁exact	-10.6339
▁Land	-10.6344
▁Emma	-10.6346
ep	-10.6347
▁mental	-10.6349
▁described	-10.6354
▁worried	-10.6354
▁pink	-10.6357
ig	-10.6359
▁similar	-10.6361
▁landing	-10.6363
▁stomach	-10.6365
▁Eve	-10.6367
▁minister	-10.6367
▁Lee	-10.6368
▁continuing	-10.6374
▁climb	-10.6374
▁useful	-10.6375
wood	-10.6381
▁folk	-10.6387
▁east	-10.6388
ca	-10.6388
▁FROM	-10.6392
▁hiding	-10.6393
▁immense	-10.6395
▁horizon	-10.6398
▁frequently	-10.6398
▁Chris	-10.6399
▁Uh	-10.6399
▁reflected	-10.64
min	-10.6401
▁OVER	-10.6404
▁whenever	-10.6414
▁pit	-10.6414
▁crowded	-10.6421
ping	-10.6424
▁stronger	-10.6432
▁waters	-10.6433
▁pile	-10.6445
▁ocean	-10.6448
▁Europe	-10.6448
▁papa	-10.6453
▁sofa	-10.6457
▁gratitude	-10.647
▁Long	-10.6481
di	-10.6487
▁test	-10.6494
▁pages	-10.6497
▁WHITE	-10.6499
old	-10.6507
▁lunch	-10.6509
▁realized	-10.6513
▁loves	-10.652
▁West	-10.6521
▁Ch	-10.6521
▁belong	-10.6534
▁treasure	-10.6535
▁provided	-10.654
▁Ho	-10.6542
▁motionless	-10.6546
▁British	-10.6548
ti	-10.6549
▁settle	-10.655
▁sank	-10.6552
▁design	-10.6559
▁shelter	-10.6559
▁fury	-10.656
▁royal	-10.6564
▁Joseph	-10.6569
▁push	-10.657
▁disposition	-10.657
▁domestic	-10.6571
▁Elizabeth	-10.6574
▁interests	-10.6581
▁firmly	-10.6584
▁keys	-10.6585
field	-10.659
▁perceive	-10.6593
▁trick	-10.6595
Perhaps	-10.6597
▁contempt	-10.6598
▁entering	-10.6608
▁striking	-10.6615
▁rushes	-10.662
▁tunnel	-10.6621
▁tent	-10.6628
▁grateful	-10.663
▁produce	-10.663
▁argument	-10.6631
▁weakness	-10.6633
gu	-10.6633
▁burn	-10.6633
▁sub	-10.6636
▁bull	-10.6638
▁recognized	-10.6638
▁chairs	-10.6639
▁evident	-10.6646
ure	-10.6649
▁duties	-10.6649
▁profession	-10.6659
▁25	-10.6659
▁belonged	-10.6661
▁pockets	-10.6661
Be	-10.6662
AR	-10.6664
▁Ar	-10.6671
▁Gerard	-10.6672
▁absolute	-10.6674
▁magic	-10.6674
▁badly	-10.6676
▁lightly	-10.6677
▁Behind	-10.6677
▁Each	-10.6684
▁sufficiently	-10.6685
▁repeat	-10.6686
▁Steve	-10.6688
▁Sidney	-10.6694
▁astonished	-10.6696
▁par	-10.6699
▁knight	-10.67
▁fur	-10.6706
▁Life	-10.6709
AT	-10.671
IT	-10.6712
▁Earth	-10.6712
▁hunting	-10.6723
▁process	-10.6724
▁capital	-10.6733
▁handkerchief	-10.6733
▁HALLWAY	-10.6738
▁pace	-10.6742
▁adventure	-10.6743
▁burden	-10.6745
uck	-10.6752
▁career	-10.6754
▁secure	-10.6758
▁tape	-10.676
▁remaining	-10.6762
▁plane	-10.6772
▁intimate	-10.6781
SAM	-10.6791
▁uniform	-10.6799
▁fled	-10.6804
▁favor	-10.6807
ical	-10.681
▁tie	-10.682
▁block	-10.6824
▁Scripts	-10.6831
▁Charlotte	-10.6839
▁silly	-10.6842
▁BEN	-10.6843
▁About	-10.6847
▁crown	-10.6848
▁wrapped	-10.6848
▁sharply	-10.6849
▁disappointment	-10.6849
▁puzzled	-10.6849
▁sighed	-10.6854
▁inner	-10.6854
▁screaming	-10.6855
fully	-10.6856
▁hallway	-10.6857
▁swings	-10.6858
▁stiff	-10.686
▁Am	-10.6861
▁exercise	-10.6867
▁curtain	-10.6868
▁losing	-10.6872
▁collar	-10.6873
▁throughout	-10.6875
▁helpless	-10.6877
▁Dad	-10.6878
▁pot	-10.6878
ite	-10.6879
▁fired	-10.6879
▁exhausted	-10.688
▁constantly	-10.6886
▁sisters	-10.689
▁details	-10.6891
▁hitherto	-10.6896
▁connected	-10.6899
▁touching	-10.69
▁conclusion	-10.6904
▁strangers	-10.6909
▁Allan	-10.6913
▁wholly	-10.6917
▁pro	-10.6918
▁copy	-10.6921
▁calmly	-10.6922
▁DOWN	-10.6922
▁relations	-10.6925
▁DISSOLVE	-10.6931
▁insisted	-10.6931
tor	-10.6935
▁Jerry	-10.6935
▁HENRY	-10.6936
▁Ted	-10.6937
▁Dis	-10.694
ade	-10.6941
▁extent	-10.6941
▁bloody	-10.6942
▁constant	-10.6943
▁ones	-10.6944
▁sounded	-10.6945
▁nearest	-10.6947
car	-10.6951
▁High	-10.6951
hand	-10.6952
▁est	-10.6952
▁engine	-10.6953
▁custom	-10.696
▁thine	-10.6962
▁Up	-10.6964
ac	-10.6965
JACK	-10.6966
▁vanished	-10.6967
▁Amelia	-10.697
▁muttered	-10.6973
▁Amy	-10.6976
▁owe	-10.6976
▁pursued	-10.6978
▁leather	-10.6982
▁Lucien	-10.6982
▁reward	-10.6986
▁scattered	-10.6991
▁cage	-10.6993
▁haste	-10.6994
▁whence	-10.6997
▁exit	-10.7001
▁Rome	-10.7001
mer	-10.7007
▁parish	-10.7018
▁South	-10.7019
▁descended	-10.7024
▁announced	-10.7033
▁21	-10.7034
▁Therefore	-10.7036
▁mess	-10.7037
▁objects	-10.7047
▁Under	-10.7048
▁supply	-10.7049
▁intense	-10.705
▁gazing	-10.7052
▁suspect	-10.7056
▁PAT	-10.706
▁KITCHEN	-10.7064
▁chose	-10.7065
ped	-10.7068
▁circumstance	-10.7069
At	-10.7076
▁trace	-10.7077
TE	-10.708
▁magnificent	-10.7088
▁LIVING	-10.7088
ham	-10.7088
▁relation	-10.7093
TED	-10.7103
▁score	-10.7103
▁El	-10.7106
▁bench	-10.7114
Will	-10.7114
▁Sorry	-10.7115
▁16	-10.7116
html	-10.7123
▁engagement	-10.713
▁fever	-10.7135
▁24	-10.7136
▁gods	-10.7136
then	-10.714
▁unconscious	-10.7148
▁mounted	-10.7152
▁deeper	-10.7155
▁screams	-10.7156
▁gloom	-10.7158
▁des	-10.7164
Can	-10.7164
▁glimpse	-10.7171
▁Ba	-10.7175
ons	-10.7176
▁missed	-10.7178
Nay	-10.7183
▁14	-10.7195
▁Du	-10.7199
▁Say	-10.72
ick	-10.7202
▁di	-10.7204
▁Kirk	-10.7206
▁Larry	-10.7206
▁behold	-10.7209
▁shone	-10.7213
▁Ruth	-10.7213
ious	-10.7215
▁lion	-10.7216
▁staircase	-10.7218
ps	-10.722
▁writer	-10.7222
▁mud	-10.7223
▁missing	-10.7223
▁employed	-10.7223
▁directed	-10.7225
▁SEE	-10.7225
WILL	-10.7229
end	-10.723
▁swift	-10.7231
▁demand	-10.7243
▁delightful	-10.7244
▁Ali	-10.7247
▁cards	-10.7249
▁rested	-10.725
▁visitor	-10.7256
▁obtained	-10.7259
▁practical	-10.7259
▁distinguished	-10.7262
▁cheerful	-10.7262
▁committed	-10.7266
▁concluded	-10.7271
▁scheme	-10.7274
▁shooting	-10.7275
▁climbs	-10.7289
▁military	-10.729
▁hint	-10.7294
▁ridiculous	-10.7296
▁Carl	-10.7298
▁DAVID	-10.7298
▁destroyed	-10.7304
▁correct	-10.7305
cont	-10.7307
▁Major	-10.7326
▁invited	-10.7327
▁BAR	-10.7329
gate	-10.7334
▁aspect	-10.7335
▁victim	-10.7335
▁Levin	-10.7336
▁Many	-10.7337
▁sets	-10.7338
▁mortal	-10.7338
▁uneasy	-10.7339
▁Roman	-10.7339
ay	-10.7347
▁amused	-10.7347
ub	-10.7352
▁porch	-10.7357
▁film	-10.7357
▁protect	-10.7357
▁grim	-10.7363
ering	-10.7367
▁century	-10.7371
▁bless	-10.7376
▁sensible	-10.7381
▁Claude	-10.7381
▁idle	-10.7386
▁grasp	-10.7386
▁lucky	-10.7392
▁Next	-10.7394
▁glorious	-10.7394
▁counsel	-10.7404
▁deny	-10.7406
▁mist	-10.7409
▁ho	-10.7413
▁disposed	-10.7423
▁jealous	-10.7423
▁breeze	-10.7423
▁heels	-10.7426
▁com	-10.7438
▁NEW	-10.7441
▁slams	-10.7448
▁yeah	-10.745
▁slides	-10.7453
gen	-10.7453
▁22	-10.7453
▁discussion	-10.7456
ium	-10.746
ho	-10.7464
▁ladder	-10.7466
▁FRANK	-10.7468
▁Stephen	-10.7472
▁Scott	-10.7474
An	-10.7474
▁Nell	-10.7477
stone	-10.7482
▁humour	-10.7483
▁smaller	-10.7484
why	-10.7487
▁response	-10.7491
▁Russian	-10.7492
▁Back	-10.7493
▁War	-10.7497
▁Anthony	-10.7497
▁nonsense	-10.7497
just	-10.7498
▁En	-10.7502
▁devoted	-10.7503
▁difficulties	-10.7505
UL	-10.7506
▁doubtless	-10.7508
▁worship	-10.751
▁inches	-10.7514
▁contained	-10.7519
▁bowl	-10.7523
▁spots	-10.7527
▁Mademoiselle	-10.7527
▁letting	-10.7527
ap	-10.7528
▁prefer	-10.7532
▁eleven	-10.7532
▁decide	-10.7532
▁studies	-10.7534
▁tide	-10.7534
▁trail	-10.7537
▁burned	-10.7547
▁sheep	-10.755
▁Alex	-10.7554
▁strongly	-10.7556
▁relieved	-10.7559
▁Mme	-10.7565
▁Majesty	-10.7565
▁mis	-10.7566
▁dirt	-10.7571
▁college	-10.7571
▁closing	-10.7571
▁HIM	-10.7573
▁Annie	-10.7579
▁rapid	-10.7581
▁agony	-10.7584
▁Young	-10.7585
beat	-10.7588
▁severe	-10.7588
▁failure	-10.759
▁protection	-10.7597
▁pressure	-10.7597
▁Professor	-10.7598
▁rang	-10.7599
▁monster	-10.7602
▁checks	-10.7606
▁HOTEL	-10.7612
▁cutting	-10.7612
▁delivered	-10.7618
▁blessed	-10.762
▁obey	-10.762
▁ANOTHER	-10.7625
ns	-10.7629
▁ambition	-10.7639
▁occasions	-10.7641
▁introduced	-10.7642
▁endure	-10.7644
oh	-10.7671
▁Ro	-10.7672
▁observation	-10.7678
▁GIRL	-10.7685
▁13	-10.7686
;"	-10.7686
▁mankind	-10.7693
▁paint	-10.7695
where	-10.7695
▁fist	-10.7696
▁Whatever	-10.7697
▁Walter	-10.7701
▁beating	-10.7706
▁goodness	-10.7714
▁profound	-10.7718
IA	-10.7719
▁outer	-10.772
▁plant	-10.7721
▁Mom	-10.7722
▁AN	-10.7726
▁trunk	-10.7729
▁intend	-10.7738
dy	-10.7738
▁ignorance	-10.7739
ors	-10.7741
▁praise	-10.7741
▁waits	-10.7746
▁bus	-10.7747
tro	-10.7753
ron	-10.7756
▁Tarzan	-10.7758
▁inter	-10.7758
▁series	-10.7764
even	-10.7765
▁swiftly	-10.7767
▁amid	-10.7771
▁disappointed	-10.7773
▁suggestion	-10.7774
▁parties	-10.7775
▁civil	-10.7775
▁frozen	-10.7784
▁thunder	-10.7793
▁huh	-10.7793
▁facing	-10.7793
▁terrified	-10.7796
▁Fa	-10.7797
▁prayer	-10.7798
box	-10.7799
▁species	-10.7803
▁article	-10.7805
▁active	-10.7807
▁trap	-10.7807
▁Linda	-10.7809
tin	-10.781
▁ships	-10.7811
▁returns	-10.7812
▁quit	-10.7815
port	-10.7821
▁lets	-10.7821
▁reaching	-10.7823
KE	-10.7824
▁source	-10.7825
▁bullet	-10.7825
▁occasionally	-10.7829
▁arrive	-10.7831
▁misfortune	-10.7831
▁conceal	-10.7832
▁successful	-10.7834
▁forces	-10.7836
PAUL	-10.7839
▁telephone	-10.7841
▁impulse	-10.7851
▁JACKIE	-10.786
ments	-10.786
▁panic	-10.7862
▁unusual	-10.7864
▁scream	-10.7866
▁Stop	-10.7867
▁throne	-10.7867
▁bo	-10.7872
▁drank	-10.7879
▁mask	-10.7879
▁daughters	-10.7884
▁BILLY	-10.7885
▁dumb	-10.7888
▁Most	-10.7892
▁elder	-10.7894
▁Blood	-10.7898
▁"_	-10.7898
▁happening	-10.79
▁SARAH	-10.7902
▁compelled	-10.7905
▁non	-10.7907
▁bones	-10.7909
▁description	-10.7911
▁angel	-10.7913
▁Put	-10.7918
▁envelope	-10.7922
▁ACE	-10.7926
▁instinct	-10.7927
▁Toby	-10.7941
▁kingdom	-10.795
▁abandoned	-10.795
▁IS	-10.795
▁invitation	-10.7956
▁LOUIS	-10.7957
▁searching	-10.7957
▁bade	-10.7963
▁Parliament	-10.7969
▁grandfather	-10.7969
▁balance	-10.7975
▁blank	-10.7981
ke	-10.7984
._]	-10.7985
▁singular	-10.7986
▁June	-10.7988
TON	-10.7989
▁stir	-10.7993
ding	-10.7998
▁SOUND	-10.8
▁Countess	-10.8001
One	-10.8001
▁branch	-10.8003
▁succeed	-10.8008
▁Internet	-10.8009
▁STATION	-10.8014
▁fetch	-10.8015
▁sweat	-10.8019
▁guards	-10.8029
▁attended	-10.8035
▁veil	-10.8042
▁Nature	-10.8046
▁flames	-10.8052
▁declare	-10.8053
▁marble	-10.8053
▁lawn	-10.8056
▁RACHEL	-10.8057
▁lieutenant	-10.8057
lic	-10.8059
▁VI	-10.8065
▁planet	-10.8066
rate	-10.8067
▁Clare	-10.8067
ight	-10.8073
ists	-10.808
ov	-10.8082
▁den	-10.8085
▁vous	-10.8086
▁wanna	-10.8086
▁Tommy	-10.8095
▁Helen	-10.8096
ile	-10.8105
▁downstairs	-10.8107
▁numbers	-10.8116
▁assumed	-10.8116
▁struggling	-10.8118
▁wandering	-10.8119
▁humanity	-10.8124
▁Blue	-10.813
more	-10.813
▁established	-10.8131
▁totally	-10.8133
▁sadly	-10.8137
▁Minister	-10.8138
▁march	-10.8142
▁Se	-10.8147
AD	-10.8149
▁possibility	-10.8151
▁violently	-10.8151
▁hid	-10.8154
▁indifferent	-10.8155
▁shocked	-10.816
▁reputation	-10.8164
▁Any	-10.8164
▁gates	-10.8168
▁suspected	-10.817
▁slips	-10.8171
▁palm	-10.8173
▁h	-10.8173
▁tells	-10.8176
ties	-10.8188
▁permitted	-10.8191
▁composed	-10.8194
▁28	-10.8194
▁rent	-10.82
▁sailor	-10.8207
▁flood	-10.8208
▁doth	-10.821
▁awkward	-10.8212
▁acted	-10.8213
▁male	-10.8218
▁obviously	-10.8218
INE	-10.8222
iness	-10.8228
▁Sea	-10.823
▁spell	-10.8231
▁obtain	-10.8231
▁quarters	-10.8237
▁stopping	-10.8238
▁rejoined	-10.8238
cy	-10.8239
▁rendered	-10.8239
▁prize	-10.8241
▁shower	-10.8242
▁stole	-10.8251
▁strangely	-10.8253
▁Nevertheless	-10.8253
▁sons	-10.8254
▁nephew	-10.8256
▁Lo	-10.8262
▁straw	-10.8263
▁lordship	-10.8265
▁wheels	-10.8269
▁directions	-10.8272
▁shouting	-10.8276
CO	-10.8277
▁wanting	-10.8282
▁local	-10.8282
▁touches	-10.8282
▁Think	-10.829
▁statement	-10.829
▁SHE	-10.8292
▁inn	-10.8293
▁overcome	-10.8297
▁tin	-10.8299
▁Down	-10.8301
▁souls	-10.8309
▁Chief	-10.8309
▁ghost	-10.831
▁Mason	-10.8313
▁steal	-10.8314
▁FOR	-10.8319
▁revealing	-10.8321
▁saddle	-10.8323
MP	-10.8326
▁volume	-10.8326
▁scorn	-10.8328
▁Patrick	-10.8329
▁upward	-10.8333
▁hideous	-10.8333
▁partner	-10.8337
▁income	-10.8338
▁protest	-10.8342
▁Lizzie	-10.8343
▁Meanwhile	-10.8349
▁paying	-10.8351
▁punishment	-10.8357
▁departed	-10.8358
▁Fi	-10.8358
▁resist	-10.8363
book	-10.8365
▁basket	-10.8365
che	-10.8373
▁attempted	-10.8375
Thank	-10.8379
▁Four	-10.8379
▁honey	-10.8385
▁CO	-10.8388
▁fix	-10.8389
▁degrees	-10.8389
▁pour	-10.8392
▁stunned	-10.8394
▁Holy	-10.8404
▁theatre	-10.8406
▁sunshine	-10.8417
za	-10.8419
▁folly	-10.8423
▁Julia	-10.8427
▁limbs	-10.843
▁permit	-10.8436
▁Louise	-10.8439
▁wire	-10.8443
▁uncomfortable	-10.845
ions	-10.8455
▁infinite	-10.8455
▁midnight	-10.8458
▁Ten	-10.8458
▁mate	-10.846
▁ceremony	-10.8464
▁enthusiasm	-10.8464
▁MATT	-10.8465
▁respectable	-10.8467
▁mill	-10.8468
▁pursuit	-10.8469
▁concealed	-10.8476
▁RED	-10.8479
▁merry	-10.8486
▁23	-10.8488
CA	-10.85
▁grip	-10.8502
ations	-10.8503
▁drag	-10.8504
▁section	-10.8507
▁official	-10.8508
▁benefit	-10.8511
▁deed	-10.8517
▁Rob	-10.8518
▁dearest	-10.8523
▁uh	-10.8524
▁thousands	-10.8531
▁Spanish	-10.8532
▁revenge	-10.8532
▁Hector	-10.8532
▁THAT	-10.8539
▁range	-10.8541
▁")	-10.8545
▁roar	-10.8547
▁chap	-10.855
▁jumped	-10.8555
▁spiritual	-10.8555
▁Oliver	-10.8556
ai	-10.8565
▁Alan	-10.8571
▁embrace	-10.8573
▁answers	-10.8577
▁HALL	-10.8577
▁moreover	-10.8578
▁Time	-10.858
▁acting	-10.8583
▁movie	-10.8586
Footnote	-10.8586
▁resting	-10.8587
▁Ex	-10.8588
▁elbow	-10.8593
▁Saturday	-10.8593
▁carpet	-10.8594
▁agent	-10.8595
▁salt	-10.8603
▁States	-10.8606
▁behaviour	-10.8607
▁Pro	-10.8608
ran	-10.8612
▁Pecksniff	-10.8614
▁Greek	-10.8619
▁depths	-10.8626
▁CORRIDOR	-10.8628
▁Malcolm	-10.8628
▁describe	-10.8629
ened	-10.8634
▁unexpected	-10.864
▁TIME	-10.8645
▁40	-10.8645
▁hatred	-10.865
▁upset	-10.8651
▁principle	-10.8651
▁indifference	-10.8655
▁MAX	-10.866
▁apparent	-10.8661
▁Big	-10.8671
▁proceed	-10.8672
TY	-10.8673
▁Government	-10.8676
tre	-10.8677
▁Ra	-10.8682
▁nearby	-10.8684
ANGLE	-10.8685
▁pretend	-10.8687
▁fears	-10.8694
ery	-10.8694
▁likewise	-10.8697
▁favourite	-10.8698
▁cash	-10.8699
▁theory	-10.8701
▁wagon	-10.8704
▁offence	-10.8707
▁slaves	-10.8708
ple	-10.8715
▁chase	-10.872
▁retreat	-10.8723
nt	-10.8724
Because	-10.8725
▁cigar	-10.8726
▁26	-10.8726
▁w	-10.8726
▁activity	-10.8729
▁kick	-10.8729
▁Fawn	-10.8732
▁lesson	-10.8734
▁trembled	-10.8734
▁marks	-10.8735
▁sticks	-10.8735
▁actual	-10.8737
IC	-10.8742
▁display	-10.8743
▁Shall	-10.8745
ION	-10.8754
Never	-10.8754
▁exist	-10.8755
▁lip	-10.8756
▁absent	-10.8758
▁Robin	-10.8763
▁maiden	-10.8765
▁Tin	-10.8769
▁massive	-10.8771
ator	-10.8772
▁backward	-10.8773
▁Carol	-10.8775
▁properly	-10.8779
▁bride	-10.878
▁pauses	-10.8781
ther	-10.8782
▁beasts	-10.8784
▁50	-10.8787
▁blade	-10.8789
▁wrist	-10.879
▁wrath	-10.879
cul	-10.8792
▁Ne	-10.8793
▁killing	-10.8793
▁boxes	-10.8794
mar	-10.8799
▁subjects	-10.88
▁HOME	-10.88
▁recover	-10.8805
God	-10.8807
▁popular	-10.8814
lu	-10.8814
▁Martha	-10.8815
▁Gregory	-10.8816
▁staying	-10.8818
▁Kipps	-10.8822
▁closet	-10.8826
▁owner	-10.8827
▁Ramona	-10.8829
▁gown	-10.8833
▁Bar	-10.8834
▁August	-10.8836
▁fourth	-10.8838
mm	-10.8848
▁Really	-10.885
▁urged	-10.8857
▁freely	-10.8859
▁issue	-10.8863
bb	-10.887
▁borne	-10.8871
val	-10.8872
DE	-10.8872
▁leader	-10.8873
▁movements	-10.8874
▁raising	-10.8878
▁laying	-10.888
▁amazement	-10.8885
▁afterward	-10.8886
▁PAUL	-10.8886
▁revealed	-10.8887
▁pushing	-10.8889
▁Does	-10.889
▁poured	-10.8891
▁furious	-10.8891
▁Norman	-10.8891
▁gloomy	-10.8893
▁method	-10.8896
med	-10.8897
TV	-10.8899
▁bishop	-10.89
▁examined	-10.8903
▁cliff	-10.8906
▁steadily	-10.8907
▁probable	-10.8907
▁prisoners	-10.891
▁cuts	-10.8912
▁faster	-10.8917
▁folded	-10.8918
▁impressed	-10.8919
▁Castle	-10.8919
▁defend	-10.8921
tion	-10.8922
▁phrase	-10.8931
▁separated	-10.8931
▁qu	-10.8937
▁threatened	-10.8961
▁Kim	-10.8962
▁notion	-10.8968
▁Cobb	-10.8971
▁cheap	-10.8972
▁Boy	-10.8973
very	-10.8974
▁sixty	-10.8975
▁III	-10.8975
▁labour	-10.898
▁inch	-10.8983
kin	-10.8985
▁principal	-10.899
▁PA	-10.8995
▁crack	-10.8996
▁obvious	-10.8998
▁BUILDING	-10.8999
▁ruined	-10.9002
▁artist	-10.9008
▁gather	-10.9015
ette	-10.9018
▁mild	-10.9018
▁angrily	-10.902
▁sorts	-10.902
▁Betty	-10.9021
▁tu	-10.9026
▁Grand	-10.9033
▁Presently	-10.9036
▁seeking	-10.9038
▁considering	-10.9041
izing	-10.9042
▁views	-10.9044
▁steep	-10.9045
bu	-10.9049
▁anymore	-10.9053
▁nations	-10.9061
▁farewell	-10.9064
from	-10.9069
▁term	-10.9072
PO	-10.9076
ches	-10.9081
Ma	-10.9083
▁Madam	-10.9086
▁victory	-10.9086
▁prey	-10.9089
▁struggles	-10.9089
▁Jo	-10.9095
▁habits	-10.9098
▁chapter	-10.9102
▁gathering	-10.9103
ag	-10.9105
▁betrayed	-10.9116
UM	-10.9121
[	-10.9128
▁indignation	-10.9128
▁IMSDb	-10.913
▁Ka	-10.9139
▁alarmed	-10.9142
▁Virginia	-10.9143
▁mon	-10.9144
▁(-	-10.915
▁Far	-10.9151
▁shield	-10.9151
▁perform	-10.9154
tri	-10.9158
▁Everybody	-10.916
rd	-10.9161
▁j	-10.9164
▁footsteps	-10.9164
▁hesitation	-10.9165
▁Brown	-10.9165
▁behalf	-10.917
▁families	-10.9172
▁aim	-10.9174
ible	-10.918
▁arrangement	-10.918
▁leaps	-10.9183
ye	-10.9186
▁CH	-10.9187
▁Neither	-10.9193
▁Grant	-10.9194
▁wildly	-10.9197
▁nervously	-10.9205
Nothing	-10.9207
▁Per	-10.9207
now	-10.9209
▁rules	-10.9213
▁impatient	-10.9214
▁normal	-10.9215
▁purple	-10.9216
▁faded	-10.9221
▁Danny	-10.9231
▁stout	-10.9236
over	-10.9238
▁strain	-10.9239
▁ventured	-10.9241
ax	-10.9242
▁BE	-10.9244
▁jungle	-10.9245
▁yield	-10.9248
▁leaped	-10.9249
▁acknowledge	-10.9254
▁LARRY	-10.9263
▁heavens	-10.9264
▁trusted	-10.9265
▁cop	-10.9267
▁crept	-10.9267
▁27	-10.9273
▁Peregrine	-10.9274
▁pillow	-10.9276
▁appointed	-10.9276
▁eh	-10.928
▁easier	-10.9281
▁beheld	-10.9289
▁craft	-10.93
▁noon	-10.9309
▁represented	-10.931
▁staff	-10.9316
uff	-10.9323
▁stirred	-10.9324
▁tune	-10.9325
▁temple	-10.9328
▁neighbourhood	-10.934
▁waving	-10.9341
▁propose	-10.9343
▁file	-10.9343
▁loudly	-10.9344
▁OFF	-10.9346
▁proposal	-10.9348
▁vanity	-10.9349
▁photo	-10.9353
▁map	-10.9365
▁divided	-10.9368
Just	-10.937
▁disagreeable	-10.937
uite	-10.9371
▁string	-10.9372
▁engineer	-10.9375
▁swung	-10.9377
▁warrant	-10.9378
ered	-10.9382
▁beloved	-10.9384
▁piano	-10.9385
ric	-10.9386
▁bay	-10.9388
ide	-10.9392
▁invisible	-10.9392
▁solitary	-10.9392
▁decent	-10.94
▁mode	-10.9406
▁gracious	-10.9406
▁pressing	-10.9406
JOHN	-10.9407
▁EVENING	-10.9407
▁Molly	-10.9407
▁OLD	-10.9408
board	-10.9411
▁warmth	-10.9412
eyed	-10.9414
▁dine	-10.9422
▁Joan	-10.9423
▁feed	-10.9426
▁anguish	-10.9429
▁Call	-10.943
▁corn	-10.9434
▁bushes	-10.9442
▁weird	-10.9454
▁upright	-10.9455
▁wash	-10.9455
▁changing	-10.9459
▁r	-10.9461
▁expense	-10.9463
▁assurance	-10.9464
▁deliver	-10.9465
▁traffic	-10.9467
▁Da	-10.9467
▁distinct	-10.947
mi	-10.9471
▁created	-10.9476
▁meantime	-10.948
▁bargain	-10.9482
▁assume	-10.9484
▁rushing	-10.9487
▁heap	-10.9487
ze	-10.9494
▁daylight	-10.9499
▁Angel	-10.9501
▁communication	-10.9502
▁inquiry	-10.9504
▁Should	-10.951
▁wandered	-10.9511
▁quoth	-10.9512
▁Englishman	-10.9513
rum	-10.9516
▁shed	-10.9518
▁performance	-10.952
▁dropping	-10.952
▁Keep	-10.9523
▁cops	-10.9524
pot	-10.9525
only	-10.9525
▁lightning	-10.9526
▁unpleasant	-10.9527
▁steam	-10.9528
▁encounter	-10.953
▁gravely	-10.9531
▁amusement	-10.9533
▁cow	-10.9533
▁results	-10.9534
▁Mars	-10.9534
▁alike	-10.9535
▁legal	-10.9538
ARD	-10.9538
▁vi	-10.9539
▁detail	-10.9544
▁wears	-10.9544
ever	-10.9548
▁eternal	-10.9548
▁Five	-10.955
▁railway	-10.955
▁moonlight	-10.9558
ny	-10.956
▁pet	-10.9561
▁cleared	-10.9562
▁recognize	-10.9564
▁Too	-10.9565
▁extended	-10.9569
▁possess	-10.9571
▁angle	-10.9574
▁load	-10.9577
▁professional	-10.958
▁clergyman	-10.958
▁shaken	-10.9583
▁leap	-10.9586
▁embarrassed	-10.9588
ris	-10.9592
gif	-10.9596
▁involved	-10.9599
▁hoping	-10.96
▁BY	-10.9604
▁Herbert	-10.9611
▁knocking	-10.9617
▁covering	-10.9618
▁nowhere	-10.9621
▁rude	-10.9625
▁alley	-10.9629
yes	-10.9636
▁deserve	-10.9637
▁pin	-10.964
your	-10.964
▁sighs	-10.9642
▁Alessandro	-10.9644
ative	-10.9645
▁visited	-10.9646
tel	-10.9647
▁Sal	-10.9649
▁glowing	-10.9651
▁motive	-10.9655
▁PHONE	-10.9657
▁torture	-10.9658
▁carries	-10.9659
▁bunch	-10.9662
▁solitude	-10.9663
▁Harriet	-10.9667
ball	-10.9667
▁mingled	-10.9674
▁HEAD	-10.9679
Sir	-10.9681
▁permission	-10.9686
▁expecting	-10.9687
?!	-10.9689
▁damp	-10.969
▁absorbed	-10.9691
▁Wilson	-10.9694
▁swing	-10.9697
▁Booth	-10.9703
▁Rick	-10.9704
▁CHRIS	-10.9707
▁experienced	-10.9709
▁poverty	-10.9709
▁nay	-10.971
▁seats	-10.9717
▁voyage	-10.9724
▁Stanbury	-10.9725
▁MED	-10.9727
▁exposed	-10.973
▁STEPHEN	-10.9731
tu	-10.9732
▁feast	-10.9733
Indeed	-10.9735
▁bars	-10.9741
▁require	-10.9743
▁wreck	-10.9751
▁destruction	-10.9755
▁Cor	-10.9757
▁flag	-10.9757
▁parting	-10.9761
▁thither	-10.9763
▁soil	-10.9764
▁fog	-10.9771
images	-10.9774
▁absurd	-10.9776
▁sole	-10.9777
▁poetry	-10.978
▁merit	-10.9782
▁heir	-10.9783
▁tray	-10.9788
▁Delamere	-10.9794
▁feeble	-10.9794
▁y	-10.9794
▁!!	-10.98
aw	-10.98
▁readily	-10.9805
▁BOY	-10.9809
▁citizen	-10.9811
▁funeral	-10.9825
▁Night	-10.9826
▁Son	-10.9828
▁weeping	-10.9829
▁29	-10.983
▁Square	-10.9833
▁nerves	-10.9837
▁Bell	-10.9841
▁Ca	-10.9855
ening	-10.9857
▁fastened	-10.986
▁Wolf	-10.9864
▁Cat	-10.9864
▁longing	-10.9871
▁pavement	-10.9871
ENT	-10.9872
▁passionate	-10.9873
▁lean	-10.9876
▁spins	-10.9881
▁sunlight	-10.9882
▁awe	-10.9885
▁halt	-10.9886
tes	-10.9889
▁retorted	-10.989
▁flow	-10.9891
▁buildings	-10.9893
▁troubles	-10.9894
▁harder	-10.9895
▁East	-10.9896
▁contents	-10.9897
▁vulgar	-10.991
▁interior	-10.9911
▁bills	-10.9913
▁fa	-10.9915
ber	-10.9919
10	-10.992
▁powder	-10.9923
▁mischief	-10.9926
UE	-10.9927
▁goin	-10.9927
▁stolen	-10.9932
▁acknowledged	-10.9932
▁flushed	-10.9934
▁risen	-10.9934
▁Sylvia	-10.9934
▁fro	-10.9934
00	-10.9937
▁fearful	-10.9937
▁weren	-10.9938
▁major	-10.9941
▁crossing	-10.9946
▁offering	-10.9947
▁hunt	-10.9948
▁Make	-10.9948
▁Fuck	-10.9949
▁coal	-10.9949
▁medical	-10.995
▁gestures	-10.9954
▁applied	-10.9958
▁draws	-10.9958
▁depend	-10.9959
▁tones	-10.996
▁races	-10.9961
▁hither	-10.9965
▁earnestly	-10.9972
▁Rev	-10.9972
▁World	-10.9981
▁TOM	-10.9985
▁picking	-10.9986
▁opinions	-10.9989
▁ONE	-10.9993
▁mixed	-10.9995
▁Judge	-10.9997
▁related	-10.9998
▁commanded	-11.0001
▁trifle	-11.0001
▁incident	-11.0006
▁accordingly	-11.0011
▁anxiously	-11.0012
GE	-11.0012
▁refuge	-11.0013
od	-11.0014
▁Leonard	-11.0021
▁MUSIC	-11.0029
ung	-11.0029
▁CAPTAIN	-11.0036
Ay	-11.0042
▁Lu	-11.0043
tan	-11.0044
AGE	-11.0044
dis	-11.0046
▁Latin	-11.0047
▁Hold	-11.005
▁Daddy	-11.0053
▁guessed	-11.0056
▁curtains	-11.0057
▁faced	-11.0059
▁floating	-11.0059
▁Isabel	-11.006
▁Andy	-11.0062
▁Although	-11.0069
▁intent	-11.0073
▁oath	-11.0074
▁teacher	-11.0075
▁render	-11.0078
TS	-11.0079
▁Susan	-11.0083
▁Eric	-11.0085
MRS	-11.0093
▁fuckin	-11.0093
▁deadly	-11.0093
LING	-11.0094
▁accomplished	-11.0099
Tell	-11.0099
▁Several	-11.01
▁beaten	-11.01
▁heartily	-11.0108
▁responsibility	-11.0108
▁objection	-11.0108
▁Remember	-11.0112
▁happily	-11.0113
▁Je	-11.0113
▁tough	-11.0115
HARRY	-11.0115
▁landlord	-11.0116
▁labor	-11.0118
▁answering	-11.0119
born	-11.012
gan	-11.0126
▁louder	-11.0129
▁safely	-11.0129
Certainly	-11.0131
PE	-11.0137
ang	-11.0139
▁stroke	-11.0145
▁roused	-11.0145
▁altered	-11.0148
▁neighborhood	-11.0148
▁endeavoured	-11.0148
▁troops	-11.0152
▁Di	-11.0157
▁numerous	-11.0164
▁paces	-11.0164
▁KING	-11.0168
▁Moon	-11.017
ob	-11.0171
▁gang	-11.0171
▁romantic	-11.0172
▁Lisa	-11.0173
gy	-11.0185
▁Has	-11.0186
▁extra	-11.0192
▁devotion	-11.0196
▁pas	-11.0197
und	-11.0198
▁mansion	-11.0199
AS	-11.02
▁Oz	-11.0201
▁formerly	-11.0202
▁including	-11.0204
headed	-11.0204
▁sore	-11.0206
▁suggest	-11.0206
▁sober	-11.0209
▁Tim	-11.0209
▁twisted	-11.0209
▁Death	-11.0214
▁assist	-11.0215
▁qualities	-11.022
▁reception	-11.0221
▁whip	-11.0223
▁bath	-11.0227
ja	-11.0228
▁reasonable	-11.023
ign	-11.0235
▁pitch	-11.0237
▁completed	-11.0244
ug	-11.0245
▁scenes	-11.0245
▁MORE	-11.0249
▁maintain	-11.0252
▁preparing	-11.0253
▁eggs	-11.0254
▁politics	-11.0257
▁intelligent	-11.0261
▁prevented	-11.0263
▁characters	-11.0266
▁Harding	-11.0268
▁emotions	-11.0269
▁corpse	-11.027
▁Sue	-11.027
▁hastened	-11.0274
▁addressing	-11.0274
▁disgust	-11.0281
▁Victor	-11.0284
▁shout	-11.0284
▁reminded	-11.0284
wa	-11.0285
▁United	-11.0287
▁YOUNG	-11.0287
▁tables	-11.029
▁glancing	-11.029
Dear	-11.0291
▁blowing	-11.0298
set	-11.0301
▁remarks	-11.0303
▁Miller	-11.0305
▁confession	-11.0305
▁Cap	-11.0307
▁Carter	-11.0318
▁Kitty	-11.0326
▁recall	-11.0327
▁affectionate	-11.0327
qui	-11.0329
▁parlour	-11.0331
▁Hugh	-11.0334
▁princess	-11.0338
▁OK	-11.034
▁eaten	-11.0341
▁Em	-11.0346
▁impatience	-11.035
▁prepare	-11.0359
▁talks	-11.036
lar	-11.0361
▁Alwynne	-11.0362
▁mission	-11.0365
▁grin	-11.0365
▁grows	-11.0369
▁Pete	-11.0369
▁intellectual	-11.0369
▁THROUGH	-11.0371
▁model	-11.0373
▁amazed	-11.0375
▁ages	-11.0377
Take	-11.0378
ess	-11.038
▁shrugs	-11.0383
▁fancied	-11.0383
pin	-11.0384
▁LISA	-11.0385
down	-11.0386
▁Bond	-11.0389
▁foul	-11.0394
▁Magdalen	-11.0399
▁elsewhere	-11.0402
▁Nay	-11.0402
▁remind	-11.0404
▁cease	-11.0406
▁monstrous	-11.0408
▁total	-11.0409
▁heading	-11.0411
▁intervals	-11.0416
▁lodgings	-11.0417
▁Hill	-11.0422
▁IV	-11.0425
▁disgrace	-11.0428
▁leaf	-11.0429
▁dreamed	-11.0431
ach	-11.0434
▁brick	-11.0434
▁Pe	-11.0434
BILLY	-11.0435
Miss	-11.0435
▁dwelling	-11.0437
▁admire	-11.0439
▁coarse	-11.0449
AM	-11.0451
HA	-11.0451
▁wing	-11.0453
▁grant	-11.0457
▁fortnight	-11.0458
▁covers	-11.0461
▁consequences	-11.0463
water	-11.0465
▁disappears	-11.0466
▁Vi	-11.0472
top	-11.0474
NER	-11.0474
▁yielded	-11.0478
▁presses	-11.0482
▁Ross	-11.0485
ec	-11.0487
▁positive	-11.049
▁wilt	-11.049
▁Duchess	-11.0498
▁discourse	-11.0499
▁distinctly	-11.05
▁WILL	-11.05
▁checked	-11.0503
▁residence	-11.0507
▁jealousy	-11.0507
With	-11.0509
▁ate	-11.0512
▁MEN	-11.0512
▁sack	-11.0514
▁tremendous	-11.0515
▁messenger	-11.0515
would	-11.0515
▁Ad	-11.0516
▁instructions	-11.0519
▁wives	-11.0523
▁net	-11.0524
tter	-11.0526
ATION	-11.0528
▁FADE	-11.0529
▁Mon	-11.0531
▁contrast	-11.0537
▁flashed	-11.0538
▁horn	-11.0539
▁inform	-11.0548
▁Also	-11.055
▁ideal	-11.0551
▁Were	-11.0555
▁community	-11.0557
▁inhabitants	-11.0558
▁hunger	-11.0559
▁Sandy	-11.056
▁contented	-11.0563
▁skull	-11.0565
▁Daniel	-11.0565
lit	-11.0566
▁slender	-11.0566
▁bitch	-11.0567
▁Ashe	-11.0573
▁split	-11.0581
▁Ken	-11.0589
▁nest	-11.0598
▁Jordan	-11.0599
▁Johnny	-11.06
▁sunk	-11.0606
▁submit	-11.0607
▁blew	-11.0607
▁parked	-11.0609
▁Fairy	-11.0611
▁furnished	-11.0612
▁compared	-11.0614
▁velvet	-11.0615
▁illness	-11.0616
▁HAND	-11.0619
▁CON	-11.0623
▁secretary	-11.0626
▁articles	-11.0629
▁faintly	-11.0633
▁reduced	-11.0636
▁performed	-11.0637
▁dwell	-11.064
▁rescue	-11.0644
▁arrest	-11.0646
▁Jennie	-11.0649
vis	-11.0651
ld	-11.0655
▁romance	-11.0657
▁gallery	-11.0657
▁POLICE	-11.0661
▁portrait	-11.0662
iest	-11.0663
▁enjoyment	-11.0663
lt	-11.0672
▁altar	-11.0674
gue	-11.0678
▁policy	-11.0683
▁FACE	-11.0685
▁granted	-11.0686
▁Close	-11.0688
▁kicks	-11.0689
▁favorite	-11.0692
▁whereas	-11.0692
gg	-11.0693
▁sentiment	-11.0694
▁interfere	-11.0695
▁principles	-11.0699
▁warriors	-11.07
yard	-11.0707
ew	-11.0709
ko	-11.0709
tra	-11.071
here	-11.0711
▁profit	-11.0718
▁gloves	-11.072
▁electric	-11.0724
▁ce	-11.0726
▁subtle	-11.0733
▁duke	-11.0736
ford	-11.0738
ction	-11.0738
bi	-11.0742
▁Emperor	-11.0742
▁tip	-11.0744
MR	-11.0748
DER	-11.0748
▁scent	-11.0748
▁actions	-11.075
▁breathe	-11.0751
▁tobacco	-11.0759
Ha	-11.0759
▁blast	-11.0761
▁fan	-11.0761
▁Looks	-11.0762
ray	-11.0763
▁ROB	-11.0763
▁nod	-11.0766
▁curse	-11.0769
▁rival	-11.0773
▁crushed	-11.0774
▁AFTERNOON	-11.0776
four	-11.0783
▁autumn	-11.0784
▁RICK	-11.0785
▁scale	-11.0788
▁practically	-11.0788
▁Other	-11.0789
▁defence	-11.079
▁outward	-11.0791
▁Island	-11.0795
lie	-11.0799
▁Got	-11.0801
▁uns	-11.0801
▁cheer	-11.0802
▁Arabella	-11.0802
▁lace	-11.0802
▁climbed	-11.0803
▁whispers	-11.0805
LER	-11.0805
▁tosses	-11.0807
▁reserve	-11.0807
▁Dorothea	-11.081
▁FLOOR	-11.081
hi	-11.0812
▁cure	-11.0817
▁Leo	-11.0819
▁Sophia	-11.0819
BA	-11.0821
▁Betsy	-11.0827
▁meanwhile	-11.0829
▁blown	-11.0829
▁oak	-11.083
▁painting	-11.083
▁Soon	-11.083
istic	-11.0831
▁catching	-11.0834
▁swinging	-11.0834
▁po	-11.0835
▁positively	-11.0836
▁Logan	-11.0836
▁instrument	-11.0837
▁fame	-11.0838
▁ladyship	-11.0841
▁apt	-11.0843
▁drinks	-11.0847
▁nights	-11.085
▁polite	-11.0851
▁Rebecca	-11.0853
▁pal	-11.0855
▁lofty	-11.0856
piece	-11.0858
▁recalled	-11.0859
▁bite	-11.0862
▁jest	-11.0864
▁banks	-11.087
▁GUARD	-11.0872
▁hundreds	-11.0873
ture	-11.0878
▁Kennedy	-11.0879
▁multitude	-11.0879
▁35	-11.088
▁Doc	-11.088
▁MARK	-11.0881
IR	-11.0883
▁frequent	-11.0883
▁murmur	-11.0887
▁proportion	-11.0887
▁Nigel	-11.0887
▁arch	-11.0888
▁fed	-11.0888
cho	-11.0891
▁hence	-11.0891
▁Gerald	-11.0896
▁passenger	-11.0904
▁innocence	-11.0905
▁alien	-11.0905
▁revolver	-11.0907
▁WILLIAM	-11.0909
▁Wood	-11.0913
▁appointment	-11.0914
▁training	-11.0916
▁shoots	-11.0919
▁receiving	-11.0922
cha	-11.0926
▁Jude	-11.0928
▁services	-11.0931
▁shoe	-11.0931
LI	-11.0936
▁cautiously	-11.0936
ICE	-11.0938
▁preferred	-11.094
▁super	-11.0941
▁Th	-11.0943
fin	-11.0943
ville	-11.0943
▁]	-11.0945
▁brains	-11.0947
▁Na	-11.0948
par	-11.0948
▁conceived	-11.0949
▁Italy	-11.0949
▁shan	-11.095
▁mail	-11.0952
▁novel	-11.0956
▁BEAT	-11.0959
CE	-11.0964
two	-11.0964
▁ST	-11.0965
▁fortunate	-11.0965
▁sugar	-11.0965
▁offended	-11.0966
▁spear	-11.0966
▁Benny	-11.0966
ft	-11.0967
ALL	-11.0969
▁Excuse	-11.097
▁weep	-11.0973
▁Sun	-11.0982
▁Violet	-11.0983
▁enjoying	-11.0983
▁anchor	-11.0989
▁studied	-11.0992
▁genuine	-11.0992
▁wa	-11.1
▁Jackie	-11.1
▁purchase	-11.1004
▁beam	-11.1004
▁modest	-11.1006
▁rights	-11.1012
▁cur	-11.1012
▁pants	-11.1014
▁images	-11.1015
LL	-11.1017
wi	-11.1021
▁wolf	-11.103
▁OFFICER	-11.103
bar	-11.1032
▁Dale	-11.1033
▁uncertain	-11.1035
▁SCREEN	-11.1035
▁Pope	-11.1038
▁harsh	-11.1044
▁video	-11.1044
ified	-11.1044
▁FIRE	-11.1047
▁continually	-11.1048
▁loaded	-11.1049
▁Marian	-11.105
cr	-11.105
▁Mount	-11.1051
▁backwards	-11.1055
▁firing	-11.1057
▁Ga	-11.1057
▁Pre	-11.1063
▁bigger	-11.1064
▁district	-11.107
▁sport	-11.1077
▁ca	-11.1078
▁Palliser	-11.1079
▁substance	-11.1079
ude	-11.108
▁persuaded	-11.1082
▁manager	-11.1082
▁Ja	-11.1085
▁Monday	-11.1089
nes	-11.1089
GER	-11.1092
▁MY	-11.1092
▁text	-11.1095
▁terrace	-11.1097
▁reaction	-11.1098
hu	-11.1099
dic	-11.1105
▁bush	-11.1109
pi	-11.1114
▁emerges	-11.1114
▁expedition	-11.1114
▁twilight	-11.1114
▁45	-11.1114
▁booth	-11.1115
▁operation	-11.1116
ru	-11.1117
▁MOTHER	-11.1118
▁switch	-11.1121
▁attracted	-11.1121
▁examine	-11.1121
▁valuable	-11.1123
▁philosophy	-11.1124
ff	-11.1127
▁whither	-11.1128
▁union	-11.1129
▁eighteen	-11.1131
▁leisure	-11.1132
▁landscape	-11.1132
▁jail	-11.1133
▁poison	-11.1137
▁examination	-11.114
▁Jimmy	-11.1142
▁rays	-11.1142
▁travelling	-11.1142
▁depth	-11.1143
▁Matthew	-11.1144
▁overhead	-11.1151
ANT	-11.1152
▁skirt	-11.1153
▁Shit	-11.1153
▁Adams	-11.1158
▁lovers	-11.1158
▁horrid	-11.1158
MARK	-11.1158
▁END	-11.1159
IAN	-11.116
▁filling	-11.1161
▁bags	-11.1164
▁chill	-11.1167
▁remove	-11.1167
▁linen	-11.1169
ear	-11.1169
▁Instead	-11.117
▁Meg	-11.1175
▁Catherine	-11.1176
▁attorney	-11.1176
▁winds	-11.1176
TING	-11.1176
▁prayers	-11.1178
▁county	-11.1183
▁DANNY	-11.1184
▁listens	-11.1186
▁impatiently	-11.1191
▁Ta	-11.1192
▁pours	-11.1199
▁DAWN	-11.1199
▁sensation	-11.1199
MO	-11.1203
▁wept	-11.1203
▁shouts	-11.1204
▁www	-11.1204
▁bitterly	-11.1206
▁tense	-11.1208
▁washed	-11.1219
▁inevitable	-11.1221
▁VIEW	-11.1221
▁canvas	-11.1221
▁bone	-11.1225
▁gear	-11.1229
▁acquired	-11.1236
cle	-11.1237
STER	-11.1237
▁medicine	-11.1239
▁madness	-11.1239
stairs	-11.1242
----------------	-11.1248
▁Glencora	-11.125
▁obeyed	-11.1264
▁boats	-11.1265
▁drawer	-11.1271
▁comp	-11.1272
▁Governor	-11.128
▁lively	-11.1281
▁charged	-11.1282
row	-11.1284
cut	-11.1284
natured	-11.129
▁colonel	-11.1292
▁millions	-11.13
▁pencil	-11.1301
▁satisfy	-11.1302
fa	-11.1313
▁insist	-11.1314
▁admired	-11.1315
▁marrying	-11.1321
▁sang	-11.1321
▁existed	-11.1325
▁Chia	-11.1327
▁Royal	-11.1328
▁vengeance	-11.1328
▁determination	-11.1328
▁UN	-11.1331
▁None	-11.1337
▁signed	-11.1337
▁DO	-11.1341
▁helping	-11.1342
▁tremble	-11.1342
▁shortly	-11.1353
▁supported	-11.1353
▁offers	-11.1355
▁LADY	-11.1356
▁SE	-11.1365
▁regarding	-11.1365
▁Squire	-11.1367
▁whispering	-11.1373
av	-11.1374
▁chiefly	-11.1375
tte	-11.1376
▁hesitates	-11.1376
▁injured	-11.1378
▁hut	-11.1379
▁commission	-11.1383
MI	-11.1386
▁desperately	-11.139
▁dislike	-11.139
▁grandmother	-11.1392
▁mob	-11.1392
1.	-11.1393
▁hook	-11.1393
▁Cross	-11.1396
▁hopeless	-11.1396
▁cake	-11.1396
▁robe	-11.1397
▁wishing	-11.1405
▁provide	-11.1406
▁reproach	-11.1408
▁crash	-11.1408
▁clothing	-11.1408
▁KIRK	-11.1408
▁visitors	-11.1409
▁knocks	-11.1412
▁hood	-11.1412
▁Half	-11.1413
lock	-11.1414
▁March	-11.1416
▁Wall	-11.1418
▁pronounced	-11.1419
▁MAC	-11.1419
▁agitation	-11.1419
▁gravity	-11.1419
▁motor	-11.142
▁restless	-11.1421
▁lowered	-11.1423
▁doubted	-11.1424
▁compliment	-11.1425
▁monsieur	-11.1428
▁0	-11.143
faced	-11.1431
▁pains	-11.1433
▁sleeve	-11.1434
▁awhile	-11.1435
gi	-11.1436
▁shy	-11.1442
▁bewildered	-11.1446
▁Barney	-11.1446
▁cunning	-11.1447
▁murdered	-11.1449
▁Beat	-11.145
▁plastic	-11.1455
▁cock	-11.1455
▁election	-11.1457
▁Lily	-11.1459
▁yo	-11.1461
▁accent	-11.1463
long	-11.1464
▁repose	-11.1464
▁remembrance	-11.1464
▁dock	-11.1465
py	-11.147
▁mustn	-11.1473
▁bomb	-11.1476
▁increase	-11.1477
▁cord	-11.1481
▁Eddie	-11.1483
▁attractive	-11.1484
war	-11.1486
▁waiter	-11.149
▁restored	-11.1492
▁exquisite	-11.1492
▁wounds	-11.1494
▁Hell	-11.1495
▁nigh	-11.1498
rie	-11.1503
▁JULIE	-11.1503
▁thumb	-11.1508
▁Trevelyan	-11.151
▁sidewalk	-11.1512
▁distinction	-11.1514
▁dish	-11.152
▁discuss	-11.1528
▁Veronica	-11.1529
▁100	-11.153
▁longed	-11.1531
air	-11.1539
▁panel	-11.154
▁pig	-11.1544
▁sunset	-11.1545
▁BRIDGE	-11.1547
▁childhood	-11.1548
▁brush	-11.155
nce	-11.1551
ker	-11.1554
▁Caesar	-11.1556
▁delicious	-11.1556
▁thread	-11.1561
▁advise	-11.1561
LARRY	-11.1561
▁cares	-11.1563
▁VAN	-11.1564
▁shalt	-11.1566
▁establishment	-11.1567
▁wherever	-11.1569
because	-11.157
▁ringing	-11.1573
▁ALL	-11.1574
▁disappear	-11.1575
▁blessing	-11.1576
▁tank	-11.1577
▁Among	-11.1578
▁pan	-11.1578
▁precisely	-11.1579
VE	-11.1582
▁terribly	-11.1584
▁Dorrit	-11.1584
▁FRONT	-11.1586
ched	-11.1587
Mrs	-11.1589
▁Scotland	-11.1593
▁containing	-11.1595
▁pilot	-11.1601
▁kissing	-11.1601
▁criminal	-11.1602
ks	-11.1602
▁cattle	-11.1603
▁exception	-11.1606
after	-11.1612
▁Lester	-11.1613
▁Lieutenant	-11.1616
ng	-11.1617
▁appreciate	-11.1617
▁reflect	-11.1617
▁clearing	-11.1617
▁passions	-11.1618
▁curiously	-11.1621
▁gossip	-11.1621
▁betray	-11.1621
lly	-11.1622
▁Being	-11.1625
▁packed	-11.1626
▁distinguish	-11.1626
▁MALCOLM	-11.1627
▁threatening	-11.1629
▁warrior	-11.163
▁interval	-11.1639
▁DUSK	-11.1639
▁infant	-11.1658
▁Lapham	-11.1658
▁restaurant	-11.1658
▁injury	-11.1658
▁release	-11.1661
LES	-11.1661
▁annoyed	-11.1661
▁frightful	-11.1661
](	-11.1662
past	-11.1664
▁Bi	-11.1665
▁caution	-11.1665
▁vaguely	-11.1665
▁Eustace	-11.1667
▁thief	-11.1667
▁COP	-11.1669
▁debt	-11.1672
▁Gresham	-11.1677
▁fountain	-11.1677
▁regiment	-11.1677
▁inward	-11.1677
▁talent	-11.1678
▁unlike	-11.1679
▁Coningsby	-11.1686
▁Pencroft	-11.1686
▁complain	-11.1686
▁jaw	-11.1687
▁ERIC	-11.1687
most	-11.1693
▁Blanche	-11.1695
▁helmet	-11.1696
▁resolve	-11.1701
▁[![	-11.1702
▁BO	-11.1704
▁bend	-11.1705
▁shell	-11.171
TA	-11.1711
▁graceful	-11.1712
cal	-11.1713
▁plot	-11.1714
▁va	-11.1714
▁secrets	-11.1715
▁bonnet	-11.1717
▁recognised	-11.1721
▁capacity	-11.1724
▁responsible	-11.1724
▁treatment	-11.1725
▁Bobby	-11.1726
▁locks	-11.1727
▁waved	-11.1731
▁hammer	-11.1735
▁barrel	-11.1736
▁Miles	-11.174
▁si	-11.1741
▁fe	-11.1741
See	-11.1742
▁Mowbray	-11.1742
▁dad	-11.1743
▁lane	-11.1744
▁highway	-11.1745
▁arrested	-11.1746
▁rector	-11.1747
▁neat	-11.1748
▁Him	-11.175
▁BILL	-11.1752
▁farmer	-11.1753
▁motions	-11.1755
cing	-11.1756
▁effects	-11.1757
▁console	-11.1758
▁butter	-11.1762
cat	-11.1762
▁rail	-11.1762
▁orange	-11.1763
▁physician	-11.1771
▁seeming	-11.1772
DA	-11.1772
AU	-11.1774
La	-11.1774
▁31	-11.1777
mit	-11.178
ren	-11.1784
▁lifting	-11.1785
▁Bernard	-11.1789
▁Geoffrey	-11.1792
▁Looking	-11.1795
▁Cole	-11.1797
▁Hale	-11.1799
▁memories	-11.1799
▁scientific	-11.1799
▁Harold	-11.1799
▁deceived	-11.1799
ump	-11.1802
▁needle	-11.1802
▁belongs	-11.1803
▁balls	-11.1804
have	-11.1809
▁teaching	-11.1816
▁rat	-11.1819
▁Hu	-11.182
▁grounds	-11.1822
▁sinking	-11.1824
▁appetite	-11.1827
▁CHARLES	-11.1827
▁suspicious	-11.183
▁origin	-11.1834
▁endless	-11.1834
▁Art	-11.1837
▁jewels	-11.1838
▁doubtful	-11.1839
.'"	-11.1841
▁Israel	-11.1846
▁mostly	-11.1847
▁brass	-11.185
rid	-11.1851
▁Mal	-11.1852
▁insult	-11.1853
▁fitted	-11.1854
▁wont	-11.1858
tur	-11.1859
▁conceive	-11.1862
▁introduce	-11.1862
hole	-11.1864
▁MARGARET	-11.1866
▁kinds	-11.1871
back	-11.1874
▁landed	-11.1874
▁Head	-11.1874
▁Catholic	-11.1875
▁ROAD	-11.1875
▁surrounding	-11.1876
▁assembled	-11.1877
TOR	-11.1878
▁Charley	-11.1884
bag	-11.1887
▁wretch	-11.1888
▁affect	-11.1893
▁Ball	-11.1893
ets	-11.1894
▁bother	-11.1894
▁daring	-11.1894
▁Sid	-11.1895
▁bundle	-11.1898
▁coward	-11.1898
▁clasped	-11.19
▁pretended	-11.19
May	-11.1905
▁Grey	-11.1906
▁strip	-11.1907
▁SECOND	-11.1908
▁disease	-11.191
▁cabinet	-11.191
▁yonder	-11.1913
nor	-11.1914
mate	-11.1925
▁cent	-11.1926
HE	-11.1927
nch	-11.193
▁aboard	-11.1932
ates	-11.1932
▁Homer	-11.1932
▁attacked	-11.1932
▁MOMENTS	-11.1935
▁Sp	-11.1936
TR	-11.1936
▁pr	-11.1938
▁Wa	-11.1941
▁steward	-11.1941
▁Bra	-11.1944
▁Lufton	-11.1951
▁variety	-11.1951
▁pouring	-11.1951
▁slope	-11.1952
▁column	-11.1955
▁shaft	-11.1955
▁addition	-11.1958
WAY	-11.1958
▁grab	-11.1961
▁hurries	-11.1961
▁bottles	-11.1963
▁stretch	-11.1963
▁warned	-11.1964
▁Kelly	-11.197
▁agitated	-11.1971
▁fairy	-11.1977
▁MA	-11.1979
▁tracks	-11.1979
▁Roland	-11.1981
▁chances	-11.1981
▁joint	-11.1981
▁recollection	-11.1985
OW	-11.1985
▁blanket	-11.1985
OS	-11.1985
▁charity	-11.199
▁Friday	-11.199
▁diamonds	-11.1991
az	-11.1993
▁depart	-11.2002
▁Silence	-11.2003
▁reckon	-11.2003
▁Te	-11.2007
▁disturb	-11.2007
CK	-11.2008
12	-11.2015
▁acts	-11.2015
▁belonging	-11.2018
▁Washington	-11.2018
▁structure	-11.2018
▁cellar	-11.2022
▁deserved	-11.2025
▁inquiries	-11.2028
DR	-11.2032
▁aged	-11.2032
▁pursue	-11.2034
▁swore	-11.2038
▁Whether	-11.204
▁vent	-11.204
▁DOCTOR	-11.2043
▁independent	-11.2047
▁32	-11.2049
▁plunged	-11.2055
▁resentment	-11.2058
▁fright	-11.206
▁Strether	-11.2067
▁bleeding	-11.2073
master	-11.2074
▁ape	-11.2075
▁incredible	-11.2077
▁threshold	-11.2077
▁comment	-11.2081
▁vehicle	-11.2082
▁mutual	-11.2087
▁EL	-11.2089
▁wrought	-11.2092
▁thanked	-11.2097
▁Mel	-11.2098
▁tightly	-11.2099
▁murderer	-11.21
▁growth	-11.2101
His	-11.2101
▁k	-11.2103
▁aught	-11.2106
▁strikes	-11.2108
ress	-11.2116
▁collection	-11.2117
▁Mu	-11.2118
▁counted	-11.2119
▁MO	-11.2119
▁monitor	-11.2122
▁hatch	-11.2124
▁behaved	-11.2125
▁Pa	-11.2126
▁intellect	-11.2132
▁amiable	-11.2135
▁induced	-11.2136
tal	-11.2138
▁Kid	-11.2143
▁privilege	-11.2148
▁mute	-11.215
▁60	-11.2151
▁anyhow	-11.2151
▁fatigue	-11.2151
▁gallant	-11.2153
▁SO	-11.2155
▁preserve	-11.2156
▁observing	-11.2157
ology	-11.2157
▁trousers	-11.2159
BE	-11.2161
post	-11.2165
▁brook	-11.2167
▁Mor	-11.2172
▁error	-11.2172
qua	-11.2174
▁SP	-11.2174
▁selfish	-11.2177
▁certainty	-11.2183
zi	-11.2188
len	-11.2188
lay	-11.219
take	-11.2192
qu	-11.2192
▁balcony	-11.2194
▁Barbara	-11.2194
▁errand	-11.2196
▁combat	-11.2198
▁photograph	-11.2201
▁Clennam	-11.2204
ice	-11.2205
▁hedge	-11.2209
▁surgeon	-11.2215
▁cursed	-11.2219
ave	-11.2223
▁inspired	-11.2224
▁Chi	-11.2224
▁elegant	-11.2225
▁idiot	-11.2225
▁gleam	-11.2226
▁Scarecrow	-11.2233
▁liquid	-11.2233
▁Rosamond	-11.2233
▁childish	-11.2243
IST	-11.225
▁chimney	-11.2251
ians	-11.2252
ls	-11.2253
Star	-11.2253
pre	-11.2253
▁definite	-11.2254
▁sheets	-11.2257
▁pound	-11.2258
▁ALEX	-11.2261
▁peaceful	-11.2262
▁Lydgate	-11.2263
▁Jason	-11.2264
maker	-11.2264
▁development	-11.2264
cher	-11.2268
▁literature	-11.2273
▁notwithstanding	-11.2273
▁JIM	-11.2273
▁Julie	-11.2282
▁occasional	-11.2285
▁pe	-11.2285
▁sa	-11.2289
▁corners	-11.229
▁dashed	-11.2292
▁stable	-11.2293
▁dried	-11.2294
▁LONG	-11.2294
▁CAN	-11.2296
pro	-11.2299
ari	-11.2299
vi	-11.23
▁toilet	-11.2301
▁INTERIOR	-11.2303
▁penny	-11.2306
▁vile	-11.2308
▁esteem	-11.2311
▁lodging	-11.2311
▁Leave	-11.2313
▁policeman	-11.2319
▁!!!	-11.2319
▁element	-11.2321
▁opposition	-11.2322
▁sphere	-11.2323
▁conception	-11.2323
ked	-11.2327
▁bitterness	-11.233
▁boss	-11.2332
unt	-11.2333
▁ter	-11.2333
▁winding	-11.2333
▁inquire	-11.2333
CLOSE	-11.2335
▁secured	-11.2335
▁tossed	-11.2338
▁persuade	-11.2339
stand	-11.2339
▁flashing	-11.2346
▁trained	-11.2349
▁thoughtful	-11.2351
▁Pan	-11.2353
▁Room	-11.2353
▁professor	-11.2354
▁peers	-11.2355
▁charms	-11.2355
HAM	-11.2356
ised	-11.2358
▁Pao	-11.2362
act	-11.2363
▁HARRY	-11.2364
minded	-11.2366
gle	-11.2368
▁swell	-11.2372
▁Andrew	-11.2372
▁Gordon	-11.2372
▁revolution	-11.2372
▁HO	-11.2375
low	-11.2376
▁FIRST	-11.2376
▁dispute	-11.2379
▁Moreover	-11.2383
On	-11.2388
Re	-11.2389
▁Gray	-11.239
▁.)	-11.2392
▁universe	-11.2392
▁dig	-11.2394
ux	-11.2397
▁sentiments	-11.2397
MILES	-11.2399
ute	-11.2401
▁landlady	-11.2403
▁alert	-11.2405
fi	-11.2405
▁Dear	-11.2408
▁snap	-11.2409
▁holes	-11.241
▁personally	-11.2415
▁birthday	-11.2415
▁Nora	-11.2418
▁Fox	-11.2424
ME	-11.2427
▁barn	-11.2427
▁charges	-11.243
▁Council	-11.2433
▁breathed	-11.2435
▁sweep	-11.2437
▁pole	-11.244
did	-11.2441
ils	-11.2443
cus	-11.2444
▁pattern	-11.2447
▁displayed	-11.2449
ged	-11.2452
▁Work	-11.2454
▁realizes	-11.2456
▁MISS	-11.2459
▁RO	-11.2459
▁flips	-11.2459
▁eldest	-11.2463
▁boot	-11.2463
AP	-11.2464
ces	-11.2466
▁TOMMY	-11.2467
▁Jackson	-11.2468
▁foe	-11.247
▁comparison	-11.2473
▁thence	-11.2473
▁enabled	-11.2477
▁developed	-11.2479
▁********	-11.2482
▁arrangements	-11.2483
▁collected	-11.2483
▁Place	-11.2484
▁peasant	-11.2484
▁Gr	-11.2489
▁accompany	-11.249
▁FRED	-11.2492
▁mom	-11.2492
▁candles	-11.2492
▁intimacy	-11.2493
▁vivid	-11.2495
▁Chiltern	-11.2503
▁Graham	-11.2503
▁Nancy	-11.2504
▁humor	-11.2504
▁adventures	-11.2508
▁Ford	-11.251
▁Clavering	-11.2513
▁narrative	-11.2513
▁proposition	-11.2513
▁Jeff	-11.2514
▁shift	-11.2519
▁denied	-11.2524
▁withdrew	-11.253
▁contract	-11.2533
De	-11.2534
ND	-11.2538
▁statue	-11.2538
▁Cut	-11.2541
▁aisle	-11.2545
▁saving	-11.2546
▁costume	-11.2546
▁tomb	-11.2547
oon	-11.255
▁awoke	-11.2554
▁apprehension	-11.2556
▁alongside	-11.2558
PH	-11.2561
▁Law	-11.2567
▁exceedingly	-11.2568
▁obscure	-11.2572
▁national	-11.258
▁Maria	-11.2581
▁Gar	-11.2583
▁passengers	-11.2586
▁guilt	-11.2586
▁amidst	-11.2587
▁spectacle	-11.2587
▁perfection	-11.2589
30	-11.2589
▁fishing	-11.2589
▁cream	-11.259
▁Cr	-11.2591
ana	-11.2594
▁application	-11.2595
ju	-11.2597
▁commit	-11.2599
▁vote	-11.26
▁confined	-11.2601
▁Isn	-11.2607
▁Shut	-11.2607
▁project	-11.2615
▁descend	-11.2618
DY	-11.2623
▁intently	-11.2627
▁Africa	-11.2628
glass	-11.263
▁rows	-11.2631
rip	-11.2635
▁Vanstone	-11.2636
ya	-11.2642
▁CU	-11.2644
▁simplicity	-11.2646
▁reported	-11.265
net	-11.265
come	-11.2651
talk	-11.2653
▁snaps	-11.2653
▁shots	-11.2656
ire	-11.2658
eh	-11.2658
▁Rue	-11.2659
▁enable	-11.2662
▁MAIN	-11.2663
▁confirmed	-11.2664
▁avail	-11.2664
▁HIGH	-11.2666
▁literary	-11.2667
...."	-11.2672
20	-11.2672
wing	-11.2675
▁equipment	-11.2677
▁purposes	-11.2678
▁Armadale	-11.2687
▁rascal	-11.2687
ingly	-11.2691
▁bending	-11.2693
▁arrives	-11.2693
▁Watch	-11.2694
ui	-11.2701
▁fragments	-11.2702
▁entertained	-11.2709
▁compassion	-11.2711
▁bike	-11.2712
▁limp	-11.2713
▁Sha	-11.2714
▁rack	-11.2716
▁Su	-11.2717
▁centuries	-11.2718
▁Fl	-11.272
point	-11.272
▁arrange	-11.2725
ISH	-11.2726
▁toast	-11.2726
▁Harris	-11.2727
▁damned	-11.2733
▁Jean	-11.2738
▁mo	-11.2739
▁doll	-11.2742
▁careless	-11.2743
ong	-11.2745
▁flashes	-11.2747
▁greeted	-11.2751
▁newspapers	-11.2752
▁gifts	-11.2757
▁da	-11.2759
aries	-11.2762
▁procession	-11.2763
▁woke	-11.2764
▁temptation	-11.2765
▁renewed	-11.2766
▁***	-11.2766
▁te	-11.2773
▁bows	-11.2776
tree	-11.2778
▁entertain	-11.2781
▁pollen	-11.2781
▁bat	-11.2782
▁struggled	-11.2785
▁document	-11.2786
▁shelf	-11.2791
▁Arnold	-11.2791
▁Matt	-11.2792
cap	-11.2797
Me	-11.2797
▁consented	-11.2798
NO	-11.2799
▁average	-11.2802
▁spy	-11.2802
▁porter	-11.2803
▁Glass	-11.2803
ox	-11.2804
▁Thorne	-11.2805
▁greet	-11.2808
je	-11.2808
▁Doug	-11.281
▁studying	-11.2811
▁destiny	-11.2812
▁ASH	-11.2813
▁Sh	-11.2815
▁backs	-11.2815
▁Dave	-11.2816
▁confessed	-11.282
▁disguise	-11.282
▁Col	-11.282
▁pine	-11.2821
TION	-11.2822
▁38	-11.2823
▁warn	-11.2827
▁sensitive	-11.2829
▁desires	-11.2829
▁relative	-11.283
▁protested	-11.283
▁execution	-11.2833
▁entertainment	-11.2836
▁climbing	-11.2838
▁RAY	-11.2839
▁drowned	-11.284
▁patron	-11.2842
▁clung	-11.2844
▁spray	-11.2848
du	-11.2853
▁generation	-11.2853
▁Prime	-11.2854
▁stove	-11.2854
ising	-11.2855
▁crystal	-11.2856
▁STARK	-11.2856
▁awakened	-11.286
▁Mackenzie	-11.2864
▁Company	-11.2865
sp	-11.2865
fer	-11.2865
▁Gra	-11.2866
use	-11.2866
▁GUY	-11.2866
▁na	-11.2869
▁gap	-11.2871
▁ink	-11.2876
ification	-11.2878
▁Western	-11.2879
▁Bridge	-11.288
▁finest	-11.2881
▁tribe	-11.2881
▁lend	-11.2883
gin	-11.2883
▁Guy	-11.2884
▁manuscript	-11.2886
ugh	-11.2889
ney	-11.2889
--“	-11.2889
▁34	-11.2892
▁discussed	-11.2899
▁regards	-11.2902
▁swords	-11.2904
▁sobbing	-11.2909
▁Someone	-11.291
▁whistle	-11.2912
▁abandon	-11.2912
▁deeds	-11.2913
▁tools	-11.2916
▁underneath	-11.2917
▁BARBARA	-11.2918
▁MOM	-11.2921
▁luxury	-11.2928
har	-11.2929
▁recent	-11.2933
ven	-11.2935
▁brute	-11.2935
▁Cal	-11.2936
▁willingly	-11.2938
▁assault	-11.2939
▁patch	-11.294
▁Bible	-11.2941
▁EX	-11.2946
▁Woman	-11.2946
▁published	-11.2952
▁jet	-11.2956
▁Midwinter	-11.296
▁feminine	-11.296
▁complexion	-11.2961
▁lighter	-11.2966
LEY	-11.2967
▁presume	-11.2978
▁declined	-11.2979
▁BATHROOM	-11.2981
▁owing	-11.2983
▁Indians	-11.2984
▁Walt	-11.2985
▁India	-11.2988
▁fills	-11.2988
▁gardens	-11.2989
▁increasing	-11.2991
▁council	-11.2991
▁intercourse	-11.2991
▁robbed	-11.2992
▁scarlet	-11.2992
▁causes	-11.2995
▁preserved	-11.2995
▁Tu	-11.2999
▁rarely	-11.2999
▁woe	-11.3011
▁semi	-11.3012
▁slain	-11.3013
▁sale	-11.3013
▁summit	-11.3013
▁amazing	-11.3015
▁seventy	-11.3016
▁swim	-11.3018
▁dreaming	-11.3033
chair	-11.3033
▁tragedy	-11.3034
▁Florence	-11.3034
▁tend	-11.3042
IV	-11.3042
atory	-11.3049
▁challenge	-11.3053
hill	-11.3055
▁believing	-11.3055
▁obedience	-11.3055
▁printed	-11.3056
▁experiment	-11.3058
▁Nice	-11.3059
▁commenced	-11.3061
▁neighbours	-11.3063
▁remembering	-11.3063
▁respond	-11.3065
▁bursts	-11.3066
▁entitled	-11.3067
▁sincere	-11.3068
▁parking	-11.3073
▁danced	-11.3074
▁parent	-11.3074
▁student	-11.3075
▁damage	-11.3075
ki	-11.3076
▁explosion	-11.3077
▁avoided	-11.3078
▁Egyptian	-11.3078
▁AL	-11.308
▁consult	-11.3081
▁cannon	-11.3083
▁doctrine	-11.3086
▁GUN	-11.3088
▁cheese	-11.3088
▁Thee	-11.3088
▁briefly	-11.3089
▁conducted	-11.3102
▁eagerness	-11.3104
▁tenderly	-11.3107
▁strict	-11.311
▁Road	-11.311
door	-11.3115
▁motives	-11.3121
▁summoned	-11.3125
▁naught	-11.3125
▁Brother	-11.3125
▁brand	-11.3125
▁36	-11.3126
aff	-11.3128
▁Ozma	-11.3131
▁Dean	-11.3139
▁MICHAEL	-11.3139
▁OUTSIDE	-11.3142
▁hurriedly	-11.3142
▁parson	-11.3142
▁students	-11.3143
▁attempts	-11.315
▁vault	-11.3152
▁fantastic	-11.3152
▁CITY	-11.3154
UES	-11.3155
▁expectation	-11.3156
▁Holly	-11.3158
▁frankly	-11.3161
▁sixteen	-11.3162
▁escort	-11.3162
▁fiercely	-11.3163
▁Oxford	-11.3163
▁Justice	-11.3165
▁Stay	-11.3167
▁brows	-11.3172
▁stake	-11.3173
ters	-11.3176
▁Drew	-11.3176
▁unwilling	-11.3176
chi	-11.3178
▁openly	-11.318
▁tailor	-11.3181
▁indicated	-11.3182
woman	-11.3186
▁33	-11.3187
▁Hester	-11.3187
▁circles	-11.3192
ALI	-11.3193
▁removes	-11.3193
▁create	-11.3195
Poor	-11.3198
▁ANN	-11.3204
▁glare	-11.3205
▁chambers	-11.3207
▁unseen	-11.3207
ans	-11.3207
▁Gal	-11.3208
▁route	-11.3209
▁department	-11.3209
▁stool	-11.3212
sen	-11.3213
▁visits	-11.3214
▁Agent	-11.3218
▁uses	-11.3218
pit	-11.3219
▁universal	-11.322
▁neglect	-11.3228
▁questioned	-11.3231
▁Francis	-11.3239
▁lamb	-11.3239
▁Surely	-11.3241
▁Haven	-11.3241
▁towel	-11.3242
▁confident	-11.3242
▁formal	-11.3243
▁HI	-11.3244
▁retire	-11.3247
▁resistance	-11.3251
▁lessons	-11.3252
▁refer	-11.3254
▁fireplace	-11.3255
OLD	-11.3256
▁masters	-11.3259
▁RADIO	-11.3261
▁Jenny	-11.3261
▁code	-11.3267
▁TONY	-11.3267
▁boldly	-11.327
▁ashes	-11.3272
▁Montoni	-11.3272
▁dragging	-11.3272
▁Guard	-11.3273
▁miracle	-11.3273
▁inclination	-11.3273
▁DON	-11.3274
ky	-11.328
▁advancing	-11.3283
▁Agnes	-11.3283
pan	-11.3286
ration	-11.3289
▁TED	-11.329
▁Bur	-11.3291
▁endeavour	-11.3292
▁Six	-11.3293
▁OMITTED	-11.3294
▁supreme	-11.3296
▁fi	-11.3297
BY	-11.3303
▁lots	-11.3303
▁Ned	-11.3306
▁yer	-11.3309
▁crimson	-11.3316
▁dollar	-11.332
▁bullets	-11.3322
▁lined	-11.3323
▁examining	-11.3327
▁frank	-11.3327
▁blaze	-11.3329
ath	-11.3331
▁coldly	-11.3335
▁countries	-11.3339
maid	-11.3339
▁Help	-11.334
perhaps	-11.334
▁JO	-11.3341
▁GO	-11.3346
rn	-11.3347
▁April	-11.3349
▁combination	-11.3349
▁intensity	-11.3349
▁balloon	-11.335
ill	-11.335
▁ability	-11.3351
▁VAL	-11.3355
illa	-11.336
▁Lawrence	-11.336
▁Ripley	-11.336
fl	-11.3364
▁doubts	-11.3369
▁Percival	-11.3371
▁behave	-11.3372
▁lantern	-11.3373
yl	-11.3378
▁dies	-11.338
▁Part	-11.3381
▁neglected	-11.3383
▁copper	-11.3384
▁ARE	-11.3385
tru	-11.3386
▁withdraw	-11.3387
cur	-11.3388
▁Miguel	-11.3393
▁consolation	-11.3393
▁emergency	-11.3393
▁cities	-11.3394
▁seeds	-11.3394
▁employment	-11.3395
put	-11.3396
skin	-11.3396
ino	-11.3398
▁liquor	-11.3404
▁shrill	-11.3404
▁cruelty	-11.3407
▁fer	-11.3413
KO	-11.3414
▁Dora	-11.3417
nothing	-11.3419
▁dusk	-11.3421
▁writes	-11.3421
▁secretly	-11.3429
rick	-11.343
▁bored	-11.3437
▁Felix	-11.3438
▁housekeeper	-11.3441
▁log	-11.3442
▁ut	-11.3443
▁collect	-11.3445
▁conflict	-11.3446
▁snake	-11.3448
▁Girl	-11.3448
▁needn	-11.3452
▁owed	-11.3453
▁promptly	-11.3455
ient	-11.3455
▁manifest	-11.3455
▁DOLL	-11.3458
▁recognition	-11.346
▁jury	-11.3461
▁STEVE	-11.3461
▁LUCY	-11.3463
▁comments	-11.3466
ose	-11.3466
▁solemnly	-11.3468
iff	-11.3469
▁veins	-11.3469
▁pulse	-11.3471
▁LATE	-11.3471
▁neighbour	-11.3472
BO	-11.3472
▁governor	-11.3473
▁united	-11.3474
▁contest	-11.3476
▁Stan	-11.3476
▁Marilla	-11.3482
▁axe	-11.3485
▁honourable	-11.3489
▁Knight	-11.349
▁counting	-11.3492
leg	-11.3493
▁handful	-11.3493
▁courtyard	-11.3494
▁NOT	-11.3497
▁les	-11.3498
▁bolt	-11.35
▁eyebrows	-11.35
▁stated	-11.3501
▁argue	-11.3503
▁newly	-11.3503
ESS	-11.3505
boy	-11.3505
▁blush	-11.3506
▁client	-11.3509
▁KATE	-11.3509
▁beams	-11.3509
▁quantity	-11.3516
▁envy	-11.3516
bel	-11.352
▁pa	-11.3521
▁darkened	-11.3522
▁swallowed	-11.3525
gon	-11.3531
▁occupation	-11.3531
▁...?	-11.3534
▁Dead	-11.3536
town	-11.3536
▁SUSAN	-11.3538
▁embarrassment	-11.3539
▁HA	-11.3539
▁OR	-11.3547
▁pop	-11.3555
vin	-11.3555
under	-11.3558
▁burnt	-11.356
▁earn	-11.356
▁Chinese	-11.3561
▁HEAR	-11.3563
▁amusing	-11.3564
▁dishes	-11.3565
▁nerve	-11.3566
lant	-11.3567
▁uneasiness	-11.3572
▁convenient	-11.3575
▁channel	-11.3577
▁hi	-11.3581
ea	-11.3582
▁forbid	-11.3582
case	-11.3583
▁thoughtfully	-11.3583
GA	-11.3586
elle	-11.359
▁Evan	-11.3591
▁pleasures	-11.3591
▁Lopez	-11.3595
▁Fe	-11.3596
mor	-11.36
▁slide	-11.3601
▁persisted	-11.3601
▁slumber	-11.3603
▁Last	-11.3605
▁Tower	-11.3608
▁liking	-11.3608
rous	-11.3609
boat	-11.361
gar	-11.3612
▁Gu	-11.3612
▁natives	-11.3614
▁apron	-11.3618
▁WALL	-11.3622
▁brandy	-11.3624
tain	-11.3626
▁JAKE	-11.3629
AK	-11.3634
foot	-11.3634
▁Chicago	-11.3636
▁advised	-11.364
cu	-11.3641
▁Ri	-11.3647
▁wasted	-11.3652
▁lodge	-11.3656
ston	-11.366
▁Lupin	-11.3663
rr	-11.3663
▁Inside	-11.3664
▁apple	-11.3668
▁Temple	-11.3674
▁Clark	-11.3674
▁37	-11.3681
▁access	-11.3683
▁despise	-11.3684
▁roses	-11.3687
▁pupil	-11.3692
▁hired	-11.3693
▁undertake	-11.3694
▁hurrying	-11.3695
▁Clay	-11.3702
sk	-11.3706
▁prudent	-11.3708
▁JORDAN	-11.3708
made	-11.3708
ATE	-11.3717
▁Alaric	-11.372
▁nails	-11.372
▁bends	-11.372
▁suspended	-11.3723
lip	-11.3725
▁apply	-11.3725
▁forgetting	-11.3728
▁trans	-11.373
▁delicacy	-11.3731
▁garage	-11.3732
▁shine	-11.3733
▁nodding	-11.3735
▁Bear	-11.3736
▁writers	-11.3737
▁condemned	-11.3739
▁accused	-11.3739
▁applause	-11.3743
▁harbour	-11.3743
▁Water	-11.3744
yn	-11.3746
tell	-11.3746
▁Ke	-11.3748
▁Marguerite	-11.3749
▁comrade	-11.375
▁expensive	-11.3754
Was	-11.3755
▁Denry	-11.3755
▁im	-11.3759
▁majesty	-11.3766
▁jolly	-11.3766
▁healthy	-11.3767
▁liberal	-11.3772
▁Kit	-11.3773
▁contain	-11.3776
hour	-11.3781
▁Slowly	-11.3781
▁lawyers	-11.3782
rist	-11.3785
▁region	-11.3785
▁soup	-11.3799
▁Gertrude	-11.38
▁print	-11.3801
jo	-11.3807
rit	-11.3808
▁belly	-11.3809
▁mouths	-11.3811
▁FBI	-11.3812
▁Port	-11.3815
▁LITTLE	-11.3816
▁polished	-11.3816
▁arrow	-11.3816
CHE	-11.3822
▁Mistress	-11.3822
▁Trevor	-11.3823
▁dismay	-11.3824
▁speaker	-11.3825
▁PETER	-11.3827
▁vice	-11.3827
▁chicken	-11.3831
▁wits	-11.3832
▁despite	-11.3836
▁Open	-11.3837
▁Chad	-11.384
▁European	-11.3841
▁grain	-11.3842
▁occur	-11.3843
CAROL	-11.3844
▁Johnson	-11.3844
▁bastard	-11.3847
▁End	-11.3848
▁dense	-11.3852
▁dismissed	-11.3854
▁defeat	-11.3856
▁compass	-11.3858
has	-11.3858
▁literally	-11.386
▁plates	-11.386
▁deliberately	-11.3864
▁downward	-11.3864
▁thirst	-11.3866
▁dame	-11.3868
▁enterprise	-11.387
▁flashlight	-11.3872
Or	-11.3874
▁garments	-11.3876
▁merchant	-11.3878
▁roaring	-11.3881
▁Vavasor	-11.3881
▁television	-11.3881
▁colored	-11.3882
▁mould	-11.3882
OT	-11.3886
▁Han	-11.389
▁adopted	-11.389
br	-11.3895
bit	-11.3897
▁classes	-11.3897
▁SAL	-11.39
PETER	-11.3902
bra	-11.3902
▁bloom	-11.3903
ik	-11.3903
▁ledge	-11.3906
▁erect	-11.3906
▁Troy	-11.3911
▁travellers	-11.3914
▁MOVING	-11.3915
▁Vronsky	-11.3916
▁allusion	-11.3916
▁EDWARD	-11.392
ev	-11.3923
see	-11.3924
han	-11.3928
▁suitcase	-11.3929
▁hearth	-11.3934
▁thankful	-11.3939
▁Mer	-11.3939
▁dat	-11.3943
▁ta	-11.3944
▁encouraged	-11.3951
▁deaf	-11.3951
OL	-11.3953
▁fork	-11.3955
▁diamond	-11.3961
▁Spirit	-11.3963
▁tidings	-11.3963
ere	-11.3968
▁gotten	-11.3969
▁tempted	-11.3969
▁suited	-11.3971
tus	-11.3972
▁breathless	-11.3972
▁inferior	-11.3974
▁Jeffrey	-11.3975
▁Raffles	-11.3975
▁disaster	-11.3975
▁rigid	-11.3977
GG	-11.3977
▁standard	-11.3979
▁token	-11.3979
▁ge	-11.3983
such	-11.3985
ied	-11.3986
▁reverence	-11.3987
self	-11.399
▁released	-11.3994
▁owned	-11.3995
▁Snow	-11.3997
▁travelled	-11.4
▁SCHOOL	-11.4002
▁ju	-11.4004
▁priests	-11.4004
▁Myles	-11.4007
▁TRUCK	-11.4007
▁Sara	-11.4008
▁lobby	-11.401
▁coffin	-11.401
ual	-11.4012
▁raw	-11.4015
▁muscles	-11.4018
▁settlement	-11.402
▁yourselves	-11.4024
▁infinitely	-11.4025
▁Things	-11.4027
▁tube	-11.403
▁studio	-11.4033
▁necessarily	-11.4034
▁pretence	-11.4034
▁proceedings	-11.4034
▁constitution	-11.4034
▁blocks	-11.4042
▁limit	-11.4046
RON	-11.4048
****************	-11.4048
▁ETHAN	-11.4048
▁consisted	-11.405
▁agreement	-11.405
▁maintained	-11.4051
▁peril	-11.4052
▁dragon	-11.4053
PS	-11.4056
▁Micawber	-11.4057
▁Murray	-11.4057
▁swimming	-11.4057
▁39	-11.406
▁tearing	-11.4062
▁ruins	-11.4063
▁Ever	-11.4063
▁Ver	-11.4065
Only	-11.4066
▁guardian	-11.4068
▁convince	-11.4068
▁holiday	-11.4069
▁commercial	-11.4069
▁Ye	-11.407
▁traitor	-11.4071
▁relationship	-11.4071
▁distracted	-11.4074
▁sovereign	-11.4075
▁learnt	-11.4076
▁LIGHT	-11.4076
▁witnesses	-11.4078
▁Wharton	-11.4081
▁generosity	-11.4081
▁rubber	-11.4082
▁responded	-11.4082
▁problems	-11.4084
▁greeting	-11.4085
▁sur	-11.4085
▁pad	-11.4087
▁lowers	-11.4091
fashioned	-11.4093
▁organ	-11.4095
▁PAN	-11.4095
dle	-11.41
▁recently	-11.4103
Enter	-11.4103
▁proceeding	-11.4104
▁Beth	-11.4109
▁youthful	-11.4109
gh	-11.411
▁rides	-11.4114
▁Almost	-11.4114
▁remorse	-11.4115
▁Chichikov	-11.4117
▁Undine	-11.4117
▁parlor	-11.4117
▁rap	-11.4119
▁essential	-11.412
▁root	-11.4122
▁reserved	-11.4123
▁earthly	-11.4124
▁torch	-11.4128
▁flock	-11.4131
▁fifth	-11.4132
▁Alas	-11.4137
▁LAURA	-11.4141
...?	-11.4141
▁Police	-11.4141
▁shuts	-11.4141
▁Pen	-11.4142
dor	-11.4145
▁Tony	-11.4146
▁July	-11.4146
▁alas	-11.4147
were	-11.415
▁referred	-11.4153
▁roads	-11.4154
▁PO	-11.416
nie	-11.4163
▁JAC	-11.4163
▁LE	-11.4164
▁desolate	-11.4165
▁abode	-11.4165
▁conference	-11.4165
▁respects	-11.4167
ett	-11.4168
▁Simon	-11.4169
▁fain	-11.4172
▁sadness	-11.4177
ois	-11.4179
▁sullen	-11.418
▁rug	-11.4184
ek	-11.4186
▁painter	-11.4189
▁script	-11.419
▁shallow	-11.419
▁LI	-11.4192
▁Twenty	-11.4192
him	-11.4192
▁elderly	-11.4193
▁hay	-11.4204
▁coin	-11.4206
▁drama	-11.4206
▁alter	-11.4208
rest	-11.4208
▁prevailed	-11.421
▁Wizard	-11.4213
▁nightmare	-11.4213
▁wax	-11.4214
▁ridge	-11.422
▁marched	-11.4222
▁reporter	-11.4224
▁Neil	-11.4224
▁rubbing	-11.4225
Thou	-11.4225
▁trigger	-11.4225
▁beings	-11.4229
▁panting	-11.4231
▁gladly	-11.4232
▁preparations	-11.4236
▁Cyrus	-11.4237
▁cavern	-11.4238
▁Home	-11.4241
▁sails	-11.4242
▁goddamn	-11.4245
▁och	-11.4246
▁HOSPITAL	-11.4249
▁tranquil	-11.4249
▁Easy	-11.4249
▁induce	-11.425
▁TA	-11.4251
▁placing	-11.4251
▁October	-11.4254
▁Ko	-11.4254
ded	-11.4255
▁fools	-11.4255
▁cor	-11.4258
▁ro	-11.4269
▁Hence	-11.4272
▁editor	-11.4273
▁discretion	-11.4273
▁gross	-11.4273
▁division	-11.4273
▁dash	-11.4273
▁Stone	-11.4274
▁BOBBY	-11.4274
▁Brooke	-11.4274
▁insane	-11.4274
▁instruments	-11.4276
get	-11.4277
▁finishes	-11.4281
▁kicked	-11.4281
▁ch	-11.4281
▁fitting	-11.4283
After	-11.4285
▁Lucilla	-11.4285
▁aroused	-11.4289
▁JERRY	-11.4292
▁warmly	-11.4295
▁http	-11.4296
▁approval	-11.4297
▁chains	-11.4298
▁checking	-11.4299
▁Forrest	-11.43
▁forming	-11.4304
▁bra	-11.4309
▁Hodder	-11.4309
▁carved	-11.4309
▁Magee	-11.431
▁washing	-11.431
▁sins	-11.431
▁perpetual	-11.4314
▁stepping	-11.4315
▁clutching	-11.4316
▁stillness	-11.432
▁sends	-11.4321
▁DEBBIE	-11.4321
▁supplied	-11.4321
▁gigantic	-11.4321
Does	-11.4323
▁discipline	-11.4326
▁folds	-11.4326
▁contrived	-11.4327
▁celebrated	-11.4327
▁reflections	-11.4328
▁65	-11.4331
any	-11.4333
Thriller	-11.4334
▁Thibault	-11.4334
▁avenue	-11.4334
▁dagger	-11.4334
▁Pauline	-11.4336
▁assistant	-11.4338
▁reign	-11.4339
▁bark	-11.4344
ane	-11.4344
▁tap	-11.4345
rant	-11.4345
▁River	-11.4347
wise	-11.4351
▁ego	-11.4352
▁accounts	-11.4354
▁justified	-11.4357
REN	-11.4357
▁Furnival	-11.4358
▁ragged	-11.4358
▁waking	-11.4358
▁cable	-11.4362
▁prayed	-11.4366
oc	-11.437
▁magazine	-11.4374
▁railing	-11.4376
ache	-11.4377
▁drift	-11.4382
▁Maya	-11.4385
▁succession	-11.4387
▁torment	-11.4388
▁encountered	-11.4389
▁roughly	-11.439
▁earl	-11.4391
▁ski	-11.4394
▁rubbed	-11.4395
▁cotton	-11.4395
▁comrades	-11.4399
▁suits	-11.44
▁prop	-11.44
▁characteristic	-11.4401
▁FULL	-11.4403
pers	-11.4404
▁declaration	-11.4407
▁incapable	-11.4407
▁clay	-11.4407
ement	-11.441
▁Pat	-11.4411
▁Fine	-11.4414
▁depends	-11.4414
▁egg	-11.4415
▁largest	-11.4417
▁definitely	-11.4418
▁convey	-11.4418
▁flush	-11.4419
▁Star	-11.4419
▁elements	-11.442
▁Mine	-11.4422
▁surprising	-11.4423
ddle	-11.4424
▁suitable	-11.4425
▁towns	-11.4428
▁intentions	-11.4429
▁fourteen	-11.4431
▁vital	-11.4431
▁spinning	-11.4432
11	-11.4432
▁throng	-11.4432
▁disorder	-11.4432
▁furiously	-11.4434
▁chapel	-11.4435
▁dusty	-11.4435
▁subdued	-11.4435
▁WIN	-11.4436
▁tread	-11.4437
▁hum	-11.4439
vy	-11.4439
▁focus	-11.4441
▁relieve	-11.4443
▁prudence	-11.4444
▁Nina	-11.4446
▁exchanged	-11.4449
▁clinging	-11.4451
▁Cousin	-11.4452
▁Yo	-11.4454
▁wherein	-11.4454
▁Chuck	-11.4456
▁Kazan	-11.4456
▁SECURITY	-11.4456
▁surrender	-11.4457
▁consequently	-11.4458
ID	-11.446
▁THEY	-11.446
tch	-11.4461
▁AREA	-11.4462
▁doctors	-11.4466
▁cliffs	-11.4467
▁kicking	-11.4468
▁happier	-11.4468
▁Ve	-11.4469
its	-11.4469
▁planned	-11.447
▁sweetheart	-11.4471
▁timid	-11.4471
▁irritated	-11.4471
▁spared	-11.4473
Would	-11.4478
ister	-11.4478
▁painfully	-11.4479
▁Fair	-11.448
never	-11.448
▁deceive	-11.448
▁courtesy	-11.4481
▁Holmes	-11.4481
▁central	-11.4481
Le	-11.4482
▁harness	-11.4484
▁Glen	-11.4484
▁feather	-11.4485
▁Sc	-11.4487
▁Ernest	-11.449
▁limited	-11.4493
▁sheer	-11.4493
▁Sit	-11.4495
▁punch	-11.4495
ory	-11.4498
▁tub	-11.4503
pl	-11.4504
▁lasted	-11.4506
▁Didn	-11.4511
▁hug	-11.4513
into	-11.4518
▁radiant	-11.4518
year	-11.4521
▁ribbon	-11.4524
GO	-11.4526
Mar	-11.4527
▁echo	-11.4527
ANNA	-11.4528
▁Dutch	-11.4529
▁Boston	-11.4531
▁wander	-11.4532
▁Newton	-11.4535
▁commands	-11.4537
ille	-11.4538
▁witch	-11.4538
▁beautifully	-11.4542
▁MAR	-11.4547
haired	-11.4548
▁cheerfully	-11.4548
▁BELLA	-11.4551
▁sworn	-11.4552
▁joins	-11.4553
▁champagne	-11.4555
▁KAFF	-11.4555
▁alright	-11.4555
▁il	-11.4555
gs	-11.4556
▁agents	-11.4556
▁Fire	-11.4556
▁Lion	-11.4557
▁shilling	-11.4561
▁previously	-11.4564
▁OPEN	-11.4567
▁Marquis	-11.4567
▁Feeds	-11.4568
igh	-11.4568
PP	-11.4572
▁ANNA	-11.4575
cor	-11.4575
▁recommend	-11.4577
▁punish	-11.4579
▁DOROTHY	-11.458
▁emphasis	-11.458
▁virgin	-11.458
▁dresses	-11.458
▁zeal	-11.4581
▁PRE	-11.4582
ition	-11.4585
af	-11.4586
▁bedside	-11.4586
ound	-11.4587
RSS	-11.4587
▁rob	-11.4592
▁Marmaduke	-11.4593
▁September	-11.4593
▁Ryan	-11.4593
▁perish	-11.4598
▁replaced	-11.46
▁seal	-11.4607
ros	-11.4608
making	-11.4609
▁kings	-11.4611
▁NICKY	-11.4611
▁ticket	-11.4612
▁Cha	-11.4613
▁player	-11.4614
▁bits	-11.4616
▁ROSE	-11.4616
▁Felipe	-11.4618
▁mixture	-11.4618
▁grins	-11.4618
▁shotgun	-11.4618
▁casting	-11.4624
▁fleet	-11.4625
▁Light	-11.4628
say	-11.4628
▁ray	-11.4629
▁Leopold	-11.463
▁Providence	-11.463
▁pathetic	-11.463
▁probability	-11.463
▁invite	-11.4631
▁scandal	-11.4636
▁clad	-11.4642
ras	-11.4642
▁roots	-11.4643
▁Fran	-11.4646
▁seed	-11.4647
▁haunted	-11.4647
ying	-11.4648
▁smallest	-11.465
▁Parker	-11.465
▁perfume	-11.4655
▁sealed	-11.4663
▁citizens	-11.4666
▁BB	-11.4666
▁PETE	-11.4666
▁tramp	-11.4667
▁Aylmer	-11.4668
▁irregular	-11.4668
▁Monica	-11.4668
▁debate	-11.4668
RS	-11.4669
▁ending	-11.4669
▁dimly	-11.467
▁boast	-11.467
Drama	-11.4672
ack	-11.4674
▁Shann	-11.4675
▁virtues	-11.4677
▁Ser	-11.4678
▁Gudrun	-11.468
▁44	-11.4682
angle	-11.4685
▁Ki	-11.4685
▁halted	-11.4687
▁groups	-11.4689
▁pleaded	-11.4689
▁42	-11.4689
▁Bruce	-11.4693
KA	-11.4693
▁Ti	-11.47
▁claims	-11.47
▁betwixt	-11.4701
▁link	-11.4702
▁knot	-11.4702
▁steamer	-11.4705
▁jaws	-11.4705
des	-11.4705
▁Crosbie	-11.4706
▁waistcoat	-11.4706
lan	-11.4706
▁dreaded	-11.4709
▁NA	-11.4716
▁poem	-11.4716
▁Second	-11.4716
▁Lincoln	-11.4718
▁sweetness	-11.4719
▁bucket	-11.472
▁SPACE	-11.4725
▁hesitate	-11.4727
▁guided	-11.4727
▁investigation	-11.4731
▁Alright	-11.4731
▁necklace	-11.4731
▁Bel	-11.4732
▁**************	-11.4733
▁restore	-11.4734
▁kin	-11.4734
▁Trot	-11.4737
▁helps	-11.4737
▁wipes	-11.4737
▁Into	-11.4742
▁admirable	-11.4744
▁license	-11.4744
▁breach	-11.4744
▁mar	-11.4744
▁Monk	-11.4746
▁Armand	-11.4747
▁measures	-11.475
▁sneak	-11.4754
▁flowing	-11.4755
▁Jennifer	-11.4756
▁Lenny	-11.4757
▁honestly	-11.4763
▁Ham	-11.4764
▁hasty	-11.4764
▁sobs	-11.4765
aged	-11.4767
▁crisis	-11.4769
▁twin	-11.4769
▁entry	-11.4769
▁Ay	-11.4774
▁wiped	-11.4775
▁ours	-11.4776
▁seize	-11.4779
▁reverse	-11.4783
▁shattered	-11.4784
▁Dar	-11.4784
▁quivering	-11.4791
▁expressions	-11.4792
Some	-11.4793
▁Crawford	-11.4794
▁encouragement	-11.4795
▁ducks	-11.4797
▁hitting	-11.4798
except	-11.48
unc	-11.48
EST	-11.4802
▁Show	-11.4804
▁buttons	-11.4806
▁umbrella	-11.4807
▁spoil	-11.481
▁colors	-11.4811
▁VII	-11.4812
▁pops	-11.4815
▁verse	-11.4815
hold	-11.4816
▁70	-11.4819
▁dwelt	-11.482
▁temporary	-11.482
▁snapped	-11.482
▁unworthy	-11.4821
▁affections	-11.4821
▁planted	-11.4821
▁brutal	-11.4823
▁fortunes	-11.4826
▁momentary	-11.4826
▁monk	-11.4831
▁BOX	-11.4833
▁bald	-11.4835
▁Pollyanna	-11.4838
END	-11.4841
▁opposed	-11.4841
DI	-11.4845
▁WINDOW	-11.4846
▁app	-11.485
▁headed	-11.4851
▁dined	-11.4852
ua	-11.4854
▁bells	-11.4856
▁protected	-11.4857
▁concert	-11.4858
▁serving	-11.4864
▁suspicions	-11.4864
berg	-11.4867
▁fox	-11.4869
▁GR	-11.4872
▁lump	-11.4872
▁arguments	-11.4873
▁Ash	-11.4875
▁framed	-11.4875
▁Peggotty	-11.4884
▁telegram	-11.4884
hy	-11.4886
▁shapes	-11.4889
▁afforded	-11.489
▁relatives	-11.489
▁appearing	-11.4891
▁selected	-11.4893
▁villain	-11.4893
▁JIMMY	-11.4894
▁bi	-11.4895
▁attendant	-11.4896
ain	-11.4896
▁function	-11.4897
▁lamps	-11.4897
▁Pop	-11.4897
▁shoves	-11.4899
▁drunken	-11.49
Shall	-11.4902
▁Gloria	-11.4903
horn	-11.4906
▁device	-11.4909
▁civilization	-11.491
UEEN	-11.4911
2.	-11.4911
▁Americans	-11.4912
van	-11.4915
▁hearty	-11.4918
▁Page	-11.4919
▁Bud	-11.4919
▁FRAME	-11.4923
▁Jonas	-11.4923
▁repeating	-11.4928
▁represent	-11.4931
▁peer	-11.4932
▁THEM	-11.4934
▁solution	-11.4936
▁awfully	-11.4942
▁Bull	-11.4946
▁Isaac	-11.4949
▁dreary	-11.495
ect	-11.495
▁critical	-11.4954
▁Er	-11.4954
▁Irish	-11.496
▁hostile	-11.4962
▁recollect	-11.4962
▁crest	-11.4963
form	-11.4966
hood	-11.4968
▁AD	-11.497
ically	-11.4972
▁concrete	-11.4974
think	-11.4975
▁Pull	-11.4975
DANTE	-11.4979
dies	-11.4979
▁unconsciously	-11.498
▁spoon	-11.4982
▁chat	-11.4984
▁conquered	-11.4986
▁saint	-11.4987
▁interposed	-11.499
iz	-11.4992
▁stretching	-11.4993
▁ward	-11.4996
▁Hans	-11.4996
▁passages	-11.4999
▁shawl	-11.5001
▁draught	-11.5001
▁stirring	-11.5001
▁GREE	-11.5004
▁react	-11.5005
▁morrow	-11.5007
▁conveyed	-11.5013
bre	-11.5013
▁](	-11.5013
▁resemblance	-11.5014
▁Senator	-11.5014
▁wilderness	-11.5014
▁Allison	-11.5015
▁moor	-11.5023
▁Beyond	-11.5027
Give	-11.5028
▁noted	-11.503
▁snatched	-11.5032
▁fists	-11.5038
▁shared	-11.5039
pr	-11.5039
▁satisfactory	-11.504
▁amuse	-11.5043
coloured	-11.505
BER	-11.5053
about	-11.5053
▁55	-11.5057
▁vacant	-11.5057
Has	-11.5057
▁THREE	-11.5059
▁selling	-11.5059
din	-11.5063
▁Char	-11.5066
▁judged	-11.5067
▁Barry	-11.5071
LAND	-11.5073
▁guarded	-11.5075
▁kneels	-11.5078
▁separation	-11.5079
▁Lecount	-11.5079
▁Hetty	-11.5079
ock	-11.508
▁majority	-11.508
▁dives	-11.5081
▁CAT	-11.5081
▁sailed	-11.5081
ake	-11.5083
▁Nico	-11.5083
▁employ	-11.5083
▁mast	-11.5084
▁limb	-11.5085
▁BOOK	-11.5086
▁honesty	-11.5087
liness	-11.5089
▁echoed	-11.5091
ERIN	-11.5091
▁Japanese	-11.5092
▁shrugged	-11.5092
▁fiery	-11.5092
▁Garth	-11.5094
▁symbol	-11.5095
▁advantages	-11.5098
▁strictly	-11.5103
▁unnecessary	-11.5105
LS	-11.5108
▁Del	-11.5111
▁harmless	-11.5114
▁Maid	-11.5114
▁eyed	-11.5114
▁floated	-11.5115
▁Ab	-11.5116
▁Verloc	-11.5118
▁winning	-11.512
▁mock	-11.5122
▁Dolly	-11.5124
▁ample	-11.5125
▁sailors	-11.5129
▁ver	-11.513
▁communicate	-11.5132
▁construction	-11.5132
▁hostess	-11.5132
▁Ethan	-11.5132
gram	-11.5133
▁tricks	-11.5135
spi	-11.5135
▁curb	-11.5135
▁lays	-11.5138
▁Bella	-11.514
▁kneeling	-11.514
▁justify	-11.514
▁frantically	-11.5145
▁creation	-11.5146
▁shillings	-11.5151
▁particulars	-11.5153
▁disdain	-11.5156
▁HANNA	-11.5162
▁thereby	-11.5163
▁conquer	-11.5164
taking	-11.5165
▁globe	-11.5171
▁racing	-11.5171
ani	-11.5172
TJ	-11.5172
▁JAR	-11.5173
▁springs	-11.5174
▁machinery	-11.5175
▁casual	-11.5176
▁sweeping	-11.5176
▁LT	-11.5177
▁figured	-11.519
▁47	-11.5191
ule	-11.5193
▁invention	-11.5201
MON	-11.5202
▁Ya	-11.5204
▁cracked	-11.5206
vil	-11.5208
▁frighten	-11.5209
ita	-11.5209
coming	-11.5212
▁attachment	-11.5212
▁OTHER	-11.5213
▁punches	-11.5215
50	-11.5215
ency	-11.5216
▁Till	-11.5218
▁emerged	-11.5223
ability	-11.5223
▁Percy	-11.5225
▁gorgeous	-11.5228
▁latest	-11.5229
].	-11.5229
▁hue	-11.5231
▁worm	-11.5236
coat	-11.5237
▁intolerable	-11.5238
▁pie	-11.5238
▁mount	-11.5241
▁claws	-11.5243
▁80	-11.5248
▁loyal	-11.525
▁Cameron	-11.5251
▁Senora	-11.5254
sta	-11.5254
UP	-11.5255
ANNIE	-11.5261
DISSOLVE	-11.5261
▁alternative	-11.5264
▁Priest	-11.5265
▁beggar	-11.5269
▁nothin	-11.5269
▁tribes	-11.527
▁VIII	-11.5272
▁prospects	-11.5272
fo	-11.5274
▁anti	-11.5275
▁grasped	-11.5276
▁ashore	-11.5277
▁scoundrel	-11.5278
▁Until	-11.5278
▁approve	-11.5278
▁Gould	-11.5278
▁accord	-11.5278
▁AIR	-11.5279
▁comfortably	-11.5279
▁der	-11.5281
▁stooped	-11.5286
▁western	-11.5287
▁adding	-11.5289
▁spake	-11.5291
▁quitted	-11.5292
ddy	-11.5293
▁nuts	-11.5297
▁opera	-11.5298
▁HELEN	-11.5299
sure	-11.5303
known	-11.5304
▁parallel	-11.5304
▁Kane	-11.531
▁mechanical	-11.531
▁43	-11.5317
▁sergeant	-11.5318
▁Elinor	-11.5318
IM	-11.5319
▁babe	-11.5319
▁dazed	-11.532
good	-11.5321
▁fashionable	-11.5323
bal	-11.5324
dog	-11.5326
▁STAR	-11.534
▁Michel	-11.5345
▁rattle	-11.5346
▁borrow	-11.5346
▁neighbors	-11.5349
▁deer	-11.5352
▁Patience	-11.5353
▁BUS	-11.5354
▁offices	-11.5355
▁towers	-11.5357
▁Br	-11.5358
▁Gandhi	-11.5358
▁dripping	-11.5358
▁dismal	-11.5359
▁41	-11.536
▁reports	-11.5361
pper	-11.5363
▁plus	-11.5367
▁complaint	-11.5369
die	-11.537
▁spin	-11.537
▁composure	-11.5372
▁rag	-11.5373
▁undoubtedly	-11.5373
▁colours	-11.5377
▁gleaming	-11.5377
▁apartments	-11.5382
ala	-11.5383
NING	-11.5383
▁Gabriel	-11.5383
▁Gervaise	-11.5385
ELLE	-11.5386
▁outline	-11.5386
▁players	-11.5388
▁presents	-11.5394
▁resigned	-11.5394
OUR	-11.5395
▁Rock	-11.5395
NS	-11.5396
▁timber	-11.5399
▁Kenny	-11.5399
AC	-11.5399
▁Comte	-11.5399
▁Spain	-11.54
▁Brian	-11.5401
▁Erik	-11.5402
Romance	-11.5403
▁tooth	-11.5404
▁Ge	-11.5404
arrow	-11.5407
uv	-11.5411
▁THIS	-11.5413
▁pleasantly	-11.5415
▁Vo	-11.5415
▁overwhelmed	-11.5416
▁marvel	-11.5416
▁bears	-11.5418
▁gasped	-11.5421
▁proudly	-11.5422
▁eagle	-11.5422
▁lingered	-11.5422
▁introduction	-11.5426
▁chorus	-11.5426
▁..."	-11.5431
mus	-11.5432
▁triumphant	-11.5433
▁sailing	-11.5433
▁PARK	-11.5436
▁demon	-11.5437
▁searched	-11.5437
▁yells	-11.5438
▁exciting	-11.5439
▁Craig	-11.5439
▁Karen	-11.544
▁attendance	-11.5441
▁heel	-11.5441
▁KAREN	-11.5442
▁ANNIE	-11.5443
▁shadowy	-11.5447
▁casually	-11.5448
▁cups	-11.5453
▁ranks	-11.5453
▁resources	-11.5454
▁SH	-11.5457
▁Des	-11.5458
▁methods	-11.5459
▁expressing	-11.5459
▁Bay	-11.5461
▁48	-11.5463
▁threat	-11.5464
▁Gi	-11.5465
ora	-11.5466
▁desirous	-11.5467
going	-11.5469
▁arts	-11.5471
▁Huh	-11.5471
▁glittering	-11.5473
▁bind	-11.5474
▁feathers	-11.5475
▁eighty	-11.5475
▁Sergeant	-11.548
▁correspondence	-11.548
▁drain	-11.5483
▁assisted	-11.5486
▁Jew	-11.5488
▁Fo	-11.5489
▁Dude	-11.5489
▁payment	-11.5489
▁JONES	-11.5494
▁Tulliver	-11.5494
▁testimony	-11.5494
▁Outside	-11.5495
▁pur	-11.5495
▁traces	-11.5496
▁Storm	-11.5497
▁specially	-11.5499
▁Run	-11.55
▁rips	-11.55
▁Germany	-11.5501
gger	-11.5501
int	-11.5502
▁stamped	-11.5503
▁creep	-11.5506
▁reacts	-11.5508
▁Virginian	-11.5509
▁trash	-11.551
▁******1	-11.5516
▁allowing	-11.5518
▁engage	-11.5521
▁STORE	-11.5521
▁dramatic	-11.5521
▁strides	-11.5522
UB	-11.5528
▁True	-11.5528
▁games	-11.5528
▁dealing	-11.5532
▁Mayor	-11.5532
▁distressed	-11.5538
▁lid	-11.5541
LT	-11.5543
▁transport	-11.5543
▁Damn	-11.5544
▁limits	-11.5549
▁pony	-11.5549
▁version	-11.555
▁await	-11.5552
▁Act	-11.5552
nis	-11.5554
away	-11.5554
lon	-11.5562
▁CHEV	-11.5563
ral	-11.5567
▁troop	-11.5568
INA	-11.5573
▁bestow	-11.5573
▁NANCY	-11.5573
▁Pray	-11.5574
▁dangers	-11.5574
▁screamed	-11.5574
▁pleasing	-11.5576
▁parcel	-11.5577
▁peering	-11.5578
▁Try	-11.5578
▁songs	-11.5578
pos	-11.5583
▁comprehend	-11.5584
▁glove	-11.5586
▁yelling	-11.5588
bble	-11.5588
";	-11.559
▁Above	-11.559
▁perception	-11.559
▁edition	-11.559
▁muffled	-11.559
▁Richie	-11.5591
▁bug	-11.5591
▁MS	-11.5593
▁compliments	-11.5594
▁forgiven	-11.5596
ulation	-11.5596
til	-11.5601
▁Wi	-11.5602
▁wad	-11.5603
twenty	-11.5604
▁perplexed	-11.5604
▁lads	-11.5606
▁hanged	-11.5606
▁thrill	-11.5615
KER	-11.5615
▁hereafter	-11.5616
▁Nicholas	-11.5618
▁pledge	-11.5619
FRANK	-11.5621
▁spur	-11.5622
▁depended	-11.5624
▁complicated	-11.5632
nic	-11.5638
six	-11.5639
▁worms	-11.5641
▁shrink	-11.5641
▁slay	-11.5643
non	-11.5644
▁masses	-11.5645
▁apology	-11.5645
▁awaiting	-11.5646
▁fu	-11.565
▁vexed	-11.565
ji	-11.5657
▁Miriam	-11.5659
▁ripe	-11.566
▁Seven	-11.566
▁jar	-11.5661
▁1.	-11.5662
▁JULIA	-11.5664
▁unnatural	-11.5665
▁Maud	-11.5666
▁col	-11.567
▁AGENT	-11.5671
▁shops	-11.5671
▁Par	-11.5671
▁jerk	-11.5671
▁president	-11.5673
▁knelt	-11.5673
▁torrent	-11.5673
▁relate	-11.5673
▁butcher	-11.5675
▁lu	-11.5679
▁frost	-11.5686
▁creeping	-11.5687
▁Eames	-11.5687
▁clue	-11.5687
▁Marie	-11.5687
▁kidding	-11.5688
▁Ni	-11.5692
▁exclamation	-11.5696
▁restrain	-11.5697
▁fuss	-11.5701
▁descent	-11.5702
▁armour	-11.5706
▁sal	-11.5707
▁urgent	-11.5707
▁Seeing	-11.5709
▁nasty	-11.5715
▁**13	-11.5715
BOND	-11.5716
▁accomplish	-11.5716
▁lords	-11.5717
▁CA	-11.5721
▁Sy	-11.5724
▁neighbor	-11.5725
SCOTT	-11.5728
▁BERLIN	-11.5729
nal	-11.573
▁valet	-11.5733
KING	-11.5733
▁angels	-11.5735
▁lighting	-11.5735
umb	-11.5736
▁tales	-11.5737
▁dost	-11.5739
▁Office	-11.5741
▁Davies	-11.5743
▁yacht	-11.5743
▁review	-11.5745
SH	-11.5746
▁additional	-11.5747
▁measured	-11.5748
Ho	-11.5749
ome	-11.575
▁packet	-11.5751
▁witnessed	-11.5751
▁DEAN	-11.5752
Say	-11.5753
▁lecture	-11.5753
▁Somebody	-11.5755
ELL	-11.5755
▁asks	-11.5755
▁elbows	-11.5758
▁abuse	-11.5761
▁Steven	-11.5763
▁crawl	-11.577
▁neatly	-11.577
▁AMELIA	-11.5771
▁Society	-11.5771
▁heroic	-11.5774
▁wiser	-11.5779
OVER	-11.5782
cloth	-11.5785
▁Tappitt	-11.5785
▁desirable	-11.5785
▁formidable	-11.5785
▁Raymond	-11.5785
▁consulted	-11.5786
--_	-11.5787
▁DIS	-11.5789
▁Claire	-11.579
▁beds	-11.579
▁gravel	-11.5794
▁beef	-11.5796
▁jumping	-11.5796
▁barrier	-11.5796
wed	-11.5798
▁sketch	-11.5798
▁swallow	-11.5798
▁marvellous	-11.5799
▁senior	-11.5799
▁spreading	-11.58
Wait	-11.5801
▁combined	-11.5804
▁Milton	-11.5806
BEN	-11.5807
▁hip	-11.5808
▁softened	-11.5808
uch	-11.5809
▁frown	-11.581
lessly	-11.5812
▁luggage	-11.5813
▁thieves	-11.5813
▁ba	-11.5815
▁revelation	-11.5817
▁elaborate	-11.5819
ib	-11.5819
▁Honor	-11.5822
▁spectacles	-11.5824
DO	-11.5825
▁goose	-11.5826
▁MARTIN	-11.5827
lop	-11.5827
▁communicated	-11.5827
▁Austin	-11.5828
▁encourage	-11.5828
▁sparkling	-11.5828
▁faults	-11.5829
ech	-11.5832
mes	-11.5832
▁mat	-11.5832
▁whips	-11.5833
▁SMITH	-11.5837
still	-11.5839
▁Priscilla	-11.5842
▁destined	-11.5842
▁mirth	-11.5842
▁causing	-11.5842
▁criticism	-11.5842
▁package	-11.5843
▁dug	-11.5844
▁Kale	-11.5845
▁African	-11.5853
▁Rupert	-11.5856
▁democratic	-11.5856
▁Leslie	-11.5856
▁Julian	-11.5858
cer	-11.5861
▁Todd	-11.5862
▁Abbot	-11.5864
▁cooking	-11.5865
▁46	-11.5866
fish	-11.5869
▁Tuesday	-11.587
▁industry	-11.587
▁Birkin	-11.587
▁madame	-11.587
▁ties	-11.5873
Am	-11.5874
▁indignant	-11.5876
CARL	-11.5878
▁attempting	-11.5879
▁NURSE	-11.5883
▁FIELD	-11.5884
▁annoyance	-11.5884
▁Diana	-11.5884
▁Annette	-11.5886
3.	-11.589
ching	-11.5893
▁islands	-11.5896
Ch	-11.5897
▁drill	-11.59
▁allowance	-11.5901
▁freezes	-11.5906
▁assertion	-11.591
18	-11.591
▁Weston	-11.5912
three	-11.5917
urs	-11.5922
▁prevail	-11.5926
ify	-11.5928
▁frock	-11.5928
ANN	-11.5931
▁JACOB	-11.5931
▁instinctively	-11.5932
ried	-11.5933
▁toil	-11.5934
▁Suppose	-11.5935
▁oblige	-11.5937
▁Secretary	-11.5938
▁WATER	-11.5941
▁doin	-11.5942
▁VITT	-11.5942
▁considerably	-11.5943
SA	-11.5944
look	-11.5944
without	-11.5947
▁deemed	-11.595
shot	-11.5953
▁blackness	-11.5954
▁Lorna	-11.5956
▁Baby	-11.5957
▁hail	-11.5963
▁ascertain	-11.5966
▁bolts	-11.5966
nail	-11.5968
oy	-11.5968
▁magistrate	-11.5968
▁frantic	-11.5969
▁vol	-11.597
DAY	-11.5973
ROD	-11.5974
▁resource	-11.5975
▁expert	-11.5976
Our	-11.5979
▁unfortunately	-11.5982
▁Must	-11.5984
▁NEIL	-11.5984
▁Between	-11.5984
Exit	-11.5984
▁governess	-11.5985
▁Beast	-11.5986
▁deprived	-11.5993
▁FIRES	-11.5994
▁Bath	-11.5995
▁shuddered	-11.5995
rt	-11.5996
▁wonderfully	-11.5997
▁pretending	-11.5998
▁Force	-11.5999
▁pious	-11.5999
lier	-11.5999
twas	-11.5999
▁sentimental	-11.6002
▁Mills	-11.6004
▁Lovel	-11.6004
bell	-11.6005
▁wealthy	-11.6006
▁ramp	-11.6007
▁fo	-11.6008
MORE	-11.6008
▁complex	-11.601
▁Clement	-11.6013
▁dwarf	-11.6013
▁prejudice	-11.6013
▁LOT	-11.6014
▁brightly	-11.6015
VO	-11.6019
▁aims	-11.6023
!**	-11.6028
▁200	-11.6028
▁Bad	-11.6029
▁FRAN	-11.6031
ending	-11.6036
1**	-11.6041
▁blazing	-11.6042
▁Genji	-11.6042
▁Elsa	-11.6042
▁records	-11.6042
▁noticing	-11.6043
▁cupboard	-11.6043
▁foam	-11.6043
▁PRO	-11.6045
▁severely	-11.6048
▁attain	-11.605
▁Ivan	-11.6052
▁provisions	-11.6054
▁58	-11.6055
▁immortal	-11.6055
▁eloquence	-11.6056
▁Archie	-11.6057
▁buying	-11.6058
▁descending	-11.6061
▁personality	-11.6062
▁SIDE	-11.6065
▁manages	-11.6067
WA	-11.6068
▁Taylor	-11.6071
▁Lake	-11.6071
▁phase	-11.6071
▁interruption	-11.6073
▁killer	-11.6083
▁injustice	-11.6085
▁representative	-11.6085
▁Katie	-11.6086
▁utterance	-11.6087
▁reluctantly	-11.6091
▁streams	-11.6093
▁thicket	-11.6093
▁Enter	-11.6093
▁embraced	-11.6098
▁rod	-11.6102
▁urge	-11.6102
Her	-11.6103
▁GREEN	-11.6107
▁respected	-11.6109
unless	-11.6109
MER	-11.6111
▁musical	-11.6111
▁Club	-11.6112
▁educated	-11.6112
▁addresses	-11.6113
▁Anything	-11.6114
▁medium	-11.6114
log	-11.6115
▁stealing	-11.6115
▁emerge	-11.6116
▁border	-11.6119
voice	-11.612
▁taxi	-11.6122
PA	-11.6125
▁Later	-11.6125
▁weighed	-11.6126
▁Sharp	-11.6129
▁distrust	-11.6131
▁(2)	-11.6133
▁explaining	-11.6134
▁expenses	-11.6135
▁sticking	-11.6137
▁requested	-11.6139
MINI	-11.6139
▁negro	-11.614
unk	-11.6143
▁TIN	-11.6143
▁identity	-11.6143
UT	-11.6144
▁Officer	-11.6146
▁90	-11.6149
▁KIRSTY	-11.6151
▁ED	-11.6152
▁invented	-11.6153
▁Mc	-11.6154
▁Except	-11.6157
▁welfare	-11.6158
▁champion	-11.6158
▁harmony	-11.6158
▁preparation	-11.6159
▁monkey	-11.616
eau	-11.616
▁bond	-11.6167
▁sliding	-11.6169
▁FLASH	-11.6171
num	-11.6173
▁grinning	-11.6173
▁Christians	-11.6173
▁failing	-11.6174
▁nail	-11.6174
ola	-11.6178
▁Bon	-11.618
▁weigh	-11.6181
▁LEONARD	-11.6181
▁cradle	-11.6187
▁readers	-11.6188
▁Better	-11.619
php	-11.6194
▁speeches	-11.6196
▁bestowed	-11.62
▁guitar	-11.6202
▁Ty	-11.6203
MEN	-11.6204
▁REPORTER	-11.6205
▁cracks	-11.6206
▁endured	-11.6206
▁shades	-11.6206
▁Army	-11.6209
gging	-11.6209
pence	-11.6213
▁RITA	-11.6214
▁75	-11.6214
▁duck	-11.6215
▁drug	-11.6216
▁committee	-11.6217
▁suspense	-11.6217
MENT	-11.6217
▁Town	-11.6218
gie	-11.6219
▁vest	-11.6223
sky	-11.6233
▁clenched	-11.6235
▁favourable	-11.6236
ZE	-11.6238
mis	-11.6238
▁upwards	-11.624
keeper	-11.6242
▁Cape	-11.6243
▁leaping	-11.6244
▁visiting	-11.6245
▁SHEPHERD	-11.6246
▁sprung	-11.6246
▁Allworthy	-11.6247
▁cra	-11.6247
▁passionately	-11.6248
▁speedily	-11.6248
▁provision	-11.6248
▁feature	-11.6253
imp	-11.6255
rated	-11.6257
▁stockings	-11.6257
ass	-11.6259
▁packing	-11.6261
▁seemingly	-11.6261
▁Har	-11.6263
III	-11.6263
▁scar	-11.6266
▁LORD	-11.6271
▁web	-11.6272
▁heroes	-11.6273
▁sternly	-11.6274
▁trifling	-11.6276
▁RYAN	-11.6276
▁HOW	-11.628
▁mourning	-11.6282
From	-11.6283
▁Bernie	-11.6283
▁darted	-11.6284
logo	-11.6284
▁captured	-11.6287
▁patiently	-11.6288
ADAM	-11.6289
▁Marianne	-11.6291
▁moderate	-11.6292
▁JENNIFER	-11.6293
▁assent	-11.6293
▁depressed	-11.6293
▁philosopher	-11.6294
▁stumbles	-11.6296
▁Si	-11.6299
▁vow	-11.6301
▁57	-11.6301
▁Gun	-11.6303
▁Cont	-11.6313
▁Cyril	-11.632
▁Hammond	-11.632
▁mix	-11.632
ici	-11.6325
TOM	-11.6326
▁SCREAMS	-11.6326
▁asshole	-11.6326
▁rifles	-11.6327
▁questioning	-11.6327
4.	-11.6327
Fi	-11.6328
▁issued	-11.6333
▁CLYDE	-11.6335
▁attract	-11.6335
▁EVE	-11.6338
sol	-11.6341
Comedy	-11.6343
▁seas	-11.6344
▁dew	-11.6345
bas	-11.6348
▁disposal	-11.635
▁void	-11.635
▁decline	-11.6352
▁production	-11.6353
▁Link	-11.6353
▁China	-11.6354
▁rocky	-11.6354
▁Norah	-11.6357
▁arise	-11.6359
▁roared	-11.636
▁peasants	-11.6363
▁Gordy	-11.6365
▁stack	-11.6366
▁management	-11.6367
▁sermon	-11.6368
▁traveller	-11.6368
▁prime	-11.6372
▁rabbit	-11.6372
▁cro	-11.6379
▁defiance	-11.638
▁wondrous	-11.638
▁School	-11.638
▁pitiful	-11.638
▁population	-11.638
une	-11.6384
▁calculated	-11.6384
▁jack	-11.6385
▁Um	-11.6389
▁crush	-11.6394
▁gar	-11.6395
▁designed	-11.6396
▁Roper	-11.6396
▁gl	-11.6396
too	-11.6397
▁columns	-11.6404
▁melted	-11.6405
rry	-11.6406
▁assented	-11.6406
▁cargo	-11.6406
▁external	-11.641
▁helicopter	-11.641
▁doom	-11.6411
▁thyself	-11.6411
▁defense	-11.6416
▁SHA	-11.6417
hall	-11.642
▁Jan	-11.6421
▁Pi	-11.6423
▁significance	-11.6424
▁wh	-11.6425
▁shelves	-11.6425
▁followers	-11.6429
cl	-11.643
▁Probably	-11.643
▁IX	-11.6431
▁BIG	-11.6432
pass	-11.6434
CY	-11.6438
ace	-11.6438
▁Within	-11.6438
▁signature	-11.644
▁snuff	-11.644
BOB	-11.644
▁Hotel	-11.644
rai	-11.6452
▁carelessly	-11.6454
▁artificial	-11.6455
▁crow	-11.6455
▁BARRY	-11.6456
▁TH	-11.6457
ili	-11.6457
▁driveway	-11.6458
▁slaps	-11.6459
▁Tri	-11.6464
▁vessels	-11.6464
▁64	-11.6465
▁borrowed	-11.6468
een	-11.6468
▁sympathetic	-11.6469
▁audible	-11.647
▁drum	-11.6471
▁perceiving	-11.6471
▁hospitality	-11.6472
▁buck	-11.6473
▁sp	-11.6473
▁DOUG	-11.6476
▁Wind	-11.6479
▁52	-11.6484
▁BISHOP	-11.6485
▁California	-11.6485
▁campaign	-11.6485
▁serpent	-11.6485
▁Air	-11.6485
▁Peak	-11.6486
▁remainder	-11.6487
nine	-11.6489
GRAHAM	-11.6494
▁dealt	-11.6497
▁sincerity	-11.65
▁shrank	-11.65
▁stall	-11.65
▁blushed	-11.65
▁bidding	-11.6501
▁Stepan	-11.6501
▁customers	-11.6502
▁Certainly	-11.6505
▁Hard	-11.6508
FOR	-11.651
▁begging	-11.6512
▁stuffed	-11.6513
▁Somerset	-11.6515
rge	-11.6517
▁dearly	-11.6521
▁stately	-11.6526
▁dignified	-11.653
▁foliage	-11.653
▁chart	-11.6532
▁salute	-11.6532
▁Orme	-11.6537
!!	-11.6538
▁included	-11.6539
itch	-11.654
▁pleading	-11.6541
▁surroundings	-11.6541
trees	-11.6544
▁tumult	-11.6545
▁grotesque	-11.6545
▁harvest	-11.6545
▁SHIP	-11.6547
▁Wow	-11.6548
▁crouched	-11.6549
cis	-11.655
▁Va	-11.6552
▁bursting	-11.6552
know	-11.6552
▁tradition	-11.6552
▁groom	-11.6553
▁Shakespeare	-11.6555
▁Anthea	-11.656
▁tension	-11.6561
▁sinister	-11.6561
▁Terry	-11.6561
▁abide	-11.6563
stick	-11.6564
▁Lou	-11.6574
ALVY	-11.6576
▁Lesta	-11.6576
▁quest	-11.6577
▁exile	-11.6577
▁Book	-11.6578
ively	-11.658
▁confounded	-11.6581
▁onward	-11.6583
▁pump	-11.6584
▁stores	-11.6584
▁hats	-11.659
▁LUKE	-11.6591
▁Pip	-11.6591
▁Au	-11.6592
▁BOB	-11.6594
▁forgiveness	-11.6601
▁puzzle	-11.6605
▁Thursday	-11.6606
▁Number	-11.6606
▁Merrick	-11.6606
▁flee	-11.6606
▁strained	-11.6607
read	-11.6607
tie	-11.6607
▁reasoning	-11.6608
▁determine	-11.6608
▁lent	-11.6611
▁piled	-11.6612
▁meadow	-11.6613
▁resembled	-11.6613
▁attraction	-11.6614
▁victims	-11.6615
▁startling	-11.6616
▁flattered	-11.6617
ram	-11.6619
▁DU	-11.662
▁impressions	-11.6621
▁slipping	-11.6622
▁target	-11.6623
▁Anyway	-11.6623
ich	-11.6624
▁pluck	-11.6627
▁vigorous	-11.6628
▁curled	-11.6628
▁flowed	-11.6629
ONE	-11.663
▁wan	-11.6633
cri	-11.6633
▁Low	-11.6633
▁shaped	-11.6634
▁Frenchman	-11.6635
▁CLUB	-11.6637
▁despised	-11.6639
▁cousins	-11.6639
▁flutter	-11.6641
▁readiness	-11.6641
▁wench	-11.6643
▁verge	-11.6646
▁asserted	-11.6648
▁finishing	-11.6648
▁remedy	-11.6652
▁requires	-11.6652
▁occupy	-11.6654
▁divorce	-11.6654
▁basement	-11.6657
▁53	-11.6659
▁SA	-11.6659
▁rejected	-11.666
Lord	-11.6663
east	-11.6664
▁stained	-11.6665
nar	-11.6666
▁Indy	-11.6667
▁November	-11.6667
▁Robarts	-11.6667
▁unit	-11.6668
▁rosy	-11.6668
▁CABIN	-11.6669
▁chi	-11.6669
▁Burton	-11.6669
▁TRAIN	-11.6669
nation	-11.6669
▁staggered	-11.667
▁cautious	-11.6671
▁Sch	-11.6672
▁customs	-11.6673
▁forcing	-11.6674
▁wool	-11.6675
▁Word	-11.6676
▁founded	-11.6681
▁commonwealth	-11.6683
▁animated	-11.6683
▁ROSS	-11.6684
ological	-11.6684
▁stroll	-11.6688
nny	-11.6691
▁detective	-11.6691
▁receiver	-11.6692
▁workers	-11.6692
▁Casaubon	-11.6698
▁TIFFANY	-11.6698
▁conspicuous	-11.6698
▁horrified	-11.6698
▁biggest	-11.6698
▁affliction	-11.6699
▁confirm	-11.6701
▁Cur	-11.6701
mine	-11.6702
▁strokes	-11.6703
▁Inn	-11.6704
OCK	-11.6708
▁sufferings	-11.671
colored	-11.6712
▁BOWER	-11.6714
▁Watson	-11.6714
▁railroad	-11.6714
▁ZOE	-11.6714
▁forbidden	-11.6714
ddling	-11.6714
▁Christianity	-11.6718
▁sk	-11.6724
HOUSE	-11.6725
▁punished	-11.6728
▁Precious	-11.6729
▁terrific	-11.6729
▁TERRY	-11.6729
run	-11.673
ef	-11.6731
fire	-11.6731
▁interrupting	-11.6731
▁2.	-11.6731
vers	-11.6733
▁Hy	-11.6734
▁Hope	-11.6735
shire	-11.6735
▁Mis	-11.6739
▁choked	-11.6739
BU	-11.6742
▁Kurt	-11.6745
▁Alexander	-11.6745
▁barren	-11.6746
▁pipes	-11.6749
▁Para	-11.675
plo	-11.6753
och	-11.6756
▁ascended	-11.6756
SING	-11.6759
▁Women	-11.676
▁legend	-11.6761
▁eventually	-11.6762
iver	-11.6762
▁butler	-11.6762
▁wallet	-11.6765
▁prick	-11.6765
▁ALI	-11.6767
▁KA	-11.6768
▁muttering	-11.6769
▁CONTROL	-11.6773
▁hinted	-11.6775
▁seventeen	-11.6775
▁quaint	-11.6776
Get	-11.6776
▁deepest	-11.6782
▁footing	-11.6782
▁commander	-11.6785
▁spark	-11.6786
These	-11.6788
7.	-11.6788
▁individuals	-11.6788
▁preceding	-11.6791
▁primitive	-11.6791
▁Debbie	-11.6791
▁launch	-11.6792
▁outta	-11.6794
▁Devil	-11.6795
▁equality	-11.6796
IX	-11.6797
▁PULL	-11.6797
▁186	-11.6797
▁vicious	-11.6798
ou	-11.6802
▁sinks	-11.6803
▁Post	-11.6806
▁Tudor	-11.6807
▁northern	-11.6807
▁Bride	-11.6809
▁nut	-11.6812
▁ascend	-11.6813
berry	-11.6814
gged	-11.6814
▁worldly	-11.6817
▁moss	-11.6817
▁groaned	-11.6818
War	-11.682
▁recommended	-11.6821
▁adjoining	-11.6822
▁bachelor	-11.6822
▁negative	-11.6822
▁ridicule	-11.6822
▁von	-11.6823
▁pinch	-11.6825
cla	-11.6827
▁ob	-11.6829
▁bucks	-11.683
nder	-11.6831
▁WIDE	-11.6832
▁Russia	-11.6833
▁54	-11.6834
Internet	-11.6835
▁buzz	-11.6837
▁anticipation	-11.6838
▁Harman	-11.684
▁armor	-11.684
▁Tai	-11.684
uick	-11.684
▁Wade	-11.6841
▁privately	-11.6842
▁STAN	-11.6842
▁improvement	-11.6842
▁generations	-11.6845
rag	-11.6846
▁sting	-11.6847
IMSDb	-11.6851
▁Highness	-11.6853
▁College	-11.6854
▁bodily	-11.6854
▁empire	-11.6854
▁supplies	-11.6854
▁Ongar	-11.6856
▁Brad	-11.6857
▁crooked	-11.6859
Sci	-11.6859
▁disgusted	-11.686
▁admiring	-11.6861
▁obligation	-11.6864
MAX	-11.6867
q	-11.6868
▁tour	-11.6869
▁Biddy	-11.687
▁Barton	-11.6872
▁earned	-11.6872
▁Luc	-11.6876
girl	-11.6876
worth	-11.6876
ust	-11.6876
▁Inter	-11.6881
▁Bring	-11.6883
▁arriving	-11.6885
rin	-11.6885
▁falsehood	-11.6886
▁BOOM	-11.6886
▁MAGGIE	-11.6887
▁retain	-11.6887
▁Top	-11.6887
▁Tor	-11.6894
▁jo	-11.6894
ias	-11.6894
▁wages	-11.6897
▁59	-11.6897
▁awaited	-11.6898
▁JEAN	-11.69
)](	-11.6901
▁PARKING	-11.6903
▁curls	-11.6906
▁pupils	-11.6908
▁foundation	-11.6909
▁Dame	-11.691
bri	-11.6911
right	-11.6912
▁linger	-11.6912
UI	-11.6916
▁receipt	-11.6917
▁strove	-11.6917
▁Peggy	-11.6917
▁stubborn	-11.6917
▁Palace	-11.6917
▁Corey	-11.6918
▁br	-11.6924
horse	-11.6931
ais	-11.6932
dvd	-11.6932
▁Jeanne	-11.6933
▁culture	-11.6935
10/10	-11.6936
kins	-11.6937
▁import	-11.6947
vie	-11.6947
▁accusation	-11.6948
▁49	-11.6948
▁privacy	-11.6949
pen	-11.695
▁51	-11.695
▁tastes	-11.6952
umble	-11.6953
▁engines	-11.6955
▁resolute	-11.6955
ook	-11.6959
ancy	-11.6961
als	-11.6961
▁plunge	-11.6963
▁Helium	-11.6964
▁southern	-11.6964
rat	-11.6965
▁scripts	-11.6966
▁Want	-11.6967
▁sorrows	-11.6974
abo	-11.6974
▁Fate	-11.6976
▁Off	-11.6977
▁Spooner	-11.698
▁Holland	-11.698
▁cons	-11.6982
quite	-11.6987
fu	-11.6988
▁supposing	-11.6989
▁plea	-11.6991
▁shudder	-11.6995
▁irresistible	-11.6996
▁propriety	-11.6996
▁Lewis	-11.6996
▁rapture	-11.6996
▁nostrils	-11.7001
▁lab	-11.7008
▁shepherd	-11.7008
sur	-11.7008
▁heavenly	-11.7011
▁bliss	-11.7011
▁MIN	-11.7015
▁purely	-11.702
▁tragic	-11.7021
▁goat	-11.7022
path	-11.7023
▁tire	-11.7025
▁SC	-11.7027
▁stray	-11.7027
▁Georgiana	-11.7028
▁RA	-11.7031
▁mare	-11.7032
▁sports	-11.7032
▁nu	-11.7032
▁Eli	-11.7033
▁switches	-11.7033
▁lowest	-11.7034
▁moist	-11.7035
▁92	-11.7037
▁joyous	-11.7038
▁stair	-11.7039
▁bonds	-11.7042
▁Bu	-11.7043
DEAN	-11.7043
▁Valancourt	-11.7043
▁sublime	-11.7043
▁WALTER	-11.7047
bury	-11.7052
▁rev	-11.7053
▁Hand	-11.7053
▁improved	-11.7054
▁PI	-11.7056
rus	-11.7057
▁crawling	-11.7059
▁situated	-11.7059
▁conquest	-11.706
▁disturbance	-11.706
▁repair	-11.7064
tat	-11.7064
▁furnish	-11.7066
ica	-11.7075
something	-11.7075
▁Rita	-11.7077
tz	-11.7078
▁Sur	-11.7078
▁repent	-11.7079
▁prophet	-11.7082
▁confidential	-11.7083
▁drags	-11.7086
▁demands	-11.7088
▁jewel	-11.7089
▁politely	-11.7091
▁Tyler	-11.7092
while	-11.7092
▁customary	-11.7093
▁Alexey	-11.7093
▁judges	-11.7094
▁appropriate	-11.7094
▁adopt	-11.7095
▁Whit	-11.7097
roll	-11.7097
word	-11.7098
▁hurled	-11.7098
▁breeches	-11.71
▁Fu	-11.7101
▁Gideon	-11.7107
▁assembly	-11.7107
▁wolves	-11.7107
▁Sykes	-11.7108
▁weariness	-11.7109
ore	-11.7109
▁emotional	-11.711
▁compare	-11.7111
▁Fang	-11.7111
pon	-11.7112
sie	-11.7116
▁stays	-11.712
▁sour	-11.712
bling	-11.7121
▁extract	-11.7121
▁refusal	-11.7124
▁Snake	-11.7124
▁Comments	-11.7124
▁Ren	-11.7124
▁reckless	-11.7129
▁99	-11.7132
▁disciples	-11.7133
str	-11.7133
▁opponent	-11.714
▁Raoul	-11.714
▁Vincent	-11.714
▁temperament	-11.714
▁respectful	-11.714
print	-11.714
▁Anti	-11.7141
OUT	-11.7141
▁announcement	-11.7142
rap	-11.7143
ula	-11.7144
▁anticipated	-11.7146
▁obstinate	-11.7147
▁hugs	-11.7148
▁modesty	-11.7151
▁bust	-11.7152
ati	-11.7153
lies	-11.7153
aught	-11.7153
▁lions	-11.7155
▁REBECCA	-11.7156
▁babies	-11.7156
▁noisy	-11.7156
▁66	-11.7159
lia	-11.716
▁groan	-11.7161
las	-11.7161
▁regions	-11.7161
vit	-11.7166
▁mi	-11.7168
▁Horn	-11.7171
▁INSIDE	-11.7172
▁vicar	-11.7172
▁HEDDA	-11.7172
▁inspiration	-11.7172
▁eloquent	-11.7172
▁hull	-11.7172
▁liar	-11.7175
rier	-11.7177
▁strongest	-11.7177
ured	-11.7177
▁impressive	-11.718
lat	-11.7181
▁horns	-11.7187
lim	-11.7188
▁Wednesday	-11.7188
▁Gilbert	-11.7188
ibility	-11.7188
▁whistling	-11.7188
▁discharge	-11.7191
ENNY	-11.7192
▁AM	-11.7192
lig	-11.7193
▁3.	-11.7195
▁56	-11.7197
▁banker	-11.7201
ished	-11.7203
▁composition	-11.7204
▁tendency	-11.7204
▁occasioned	-11.7207
▁storms	-11.7207
part	-11.7208
▁BA	-11.7208
▁fare	-11.721
▁pond	-11.7212
▁documents	-11.7212
▁Joey	-11.7214
▁keeper	-11.722
star	-11.722
▁Bat	-11.722
▁Sub	-11.722
▁skeleton	-11.7221
▁authorities	-11.7222
▁Curtis	-11.7222
could	-11.7222
▁freak	-11.7222
▁SHOP	-11.7223
▁capture	-11.7225
▁Rocky	-11.7227
iva	-11.7227
▁Peters	-11.7231
ICK	-11.7232
▁lever	-11.7233
▁dances	-11.7234
17	-11.7235
▁):	-11.7235
▁elect	-11.7236
▁hazard	-11.7236
▁virtuous	-11.7237
▁Senate	-11.7237
▁Already	-11.7237
▁lazy	-11.7237
▁COLUMB	-11.7237
▁blonde	-11.7237
▁resignation	-11.7238
▁arrows	-11.7238
▁Bird	-11.724
▁bien	-11.7242
▁attentive	-11.7244
▁Much	-11.7246
▁rejoiced	-11.725
▁promises	-11.7253
▁nobility	-11.7253
▁machines	-11.7254
MARTIN	-11.7255
▁heed	-11.7255
▁locker	-11.726
▁riot	-11.726
▁concerns	-11.726
▁Ly	-11.7262
NY	-11.7263
▁Dark	-11.7263
▁youngest	-11.7265
▁canoe	-11.7266
▁drifted	-11.7269
▁swamp	-11.7269
▁debts	-11.7269
▁Lisbeth	-11.7269
▁flaming	-11.7269
▁malice	-11.727
▁briefcase	-11.727
▁Sally	-11.7271
▁minor	-11.7272
▁Country	-11.7273
▁sings	-11.7273
cent	-11.7276
give	-11.7276
▁shrewd	-11.7277
▁reins	-11.7281
▁Godolphin	-11.7286
▁National	-11.7286
▁Goesler	-11.7286
▁62	-11.7289
play	-11.729
▁assert	-11.729
▁coachman	-11.7291
▁lame	-11.7292
eight	-11.7293
▁deliberate	-11.7293
▁hunted	-11.7294
▁tongues	-11.73
▁threaten	-11.7301
▁jug	-11.7302
oli	-11.7303
▁wiping	-11.7303
▁han	-11.7305
ene	-11.7305
bor	-11.7306
▁bounds	-11.7307
▁derived	-11.7308
dom	-11.7308
▁PK	-11.7309
EX	-11.731
▁wig	-11.731
▁types	-11.7311
▁temples	-11.7313
▁Speed	-11.7317
▁Dog	-11.7318
eur	-11.7319
burn	-11.7323
▁Lin	-11.7324
▁ropes	-11.7324
▁bravely	-11.7327
▁float	-11.7328
▁litter	-11.7329
▁tossing	-11.7332
▁Egypt	-11.7333
▁PANS	-11.7333
▁git	-11.7334
▁extravagant	-11.7335
▁Hannah	-11.7336
▁Bow	-11.7336
▁loses	-11.7336
▁rejoice	-11.7338
uz	-11.7338
▁ni	-11.734
mother	-11.7346
▁ANAKIN	-11.7349
VIOLET	-11.7351
▁gulf	-11.7351
▁captive	-11.7353
▁tiger	-11.7353
▁BANK	-11.7354
▁Celia	-11.7354
▁survive	-11.7355
MONT	-11.7355
ero	-11.7356
▁RINGS	-11.7357
▁forthwith	-11.7358
▁grimly	-11.7358
15	-11.7359
▁taps	-11.736
▁cane	-11.736
rig	-11.7361
▁relaxed	-11.7361
▁hush	-11.7362
tant	-11.7363
IES	-11.7366
▁approved	-11.7367
▁rotten	-11.7368
▁PRESIDENT	-11.7371
▁lungs	-11.7371
▁bas	-11.7372
▁comparatively	-11.7372
MS	-11.7374
▁program	-11.7375
▁hoarse	-11.7376
▁beforehand	-11.7376
▁shriek	-11.7377
art	-11.7379
▁claimed	-11.7381
KIN	-11.7382
▁tame	-11.7382
▁gust	-11.7384
mel	-11.7384
▁Racksole	-11.7384
▁occurrence	-11.7384
▁lounge	-11.7385
▁Evil	-11.7386
▁surround	-11.7392
▁Stafford	-11.7394
▁**15	-11.7394
▁sc	-11.7394
▁curve	-11.7398
▁Oak	-11.7398
▁raft	-11.7398
▁CHAMBER	-11.7401
▁cathedral	-11.7401
▁Sheriff	-11.7401
▁EMILY	-11.7402
▁forests	-11.7402
▁Always	-11.7402
▁vainly	-11.7403
▁argued	-11.7404
▁TOP	-11.7404
▁Mister	-11.7405
▁unexpectedly	-11.7405
pause	-11.7406
▁Mag	-11.7406
▁transformed	-11.7408
▁sunny	-11.7408
shed	-11.7409
▁streaming	-11.741
▁shew	-11.741
Action	-11.7411
▁mechanically	-11.7412
▁retained	-11.7413
CU	-11.7415
▁feeding	-11.7415
▁indicates	-11.7416
▁Speak	-11.7417
▁invariably	-11.7417
▁moustache	-11.7417
▁chalk	-11.7418
▁chaos	-11.7418
HELEN	-11.742
▁chim	-11.7421
▁establish	-11.7422
▁gr	-11.7422
Al	-11.7423
RAY	-11.743
tum	-11.7432
▁sickness	-11.7433
bie	-11.7434
▁Neefit	-11.7434
▁eternity	-11.7434
RING	-11.7435
▁**14	-11.7435
▁countess	-11.7435
▁petty	-11.7436
_;	-11.7436
▁stress	-11.7439
▁whale	-11.744
▁ardent	-11.7442
▁misfortunes	-11.7443
▁fucked	-11.7444
▁Arm	-11.7446
▁rub	-11.7447
▁bred	-11.7449
▁Harvey	-11.7451
▁LOBBY	-11.7451
▁YURI	-11.7451
▁haughty	-11.7451
Fantasy	-11.7451
▁Wendy	-11.7451
▁Diego	-11.7451
▁rational	-11.7451
▁TABLE	-11.7452
▁lain	-11.7453
Nor	-11.7453
▁indulge	-11.7454
▁US	-11.7454
▁attacks	-11.7455
▁clothed	-11.7457
▁Jews	-11.746
▁XI	-11.7466
▁Penelope	-11.7467
▁dazzling	-11.7467
▁SMALL	-11.7467
▁GRACE	-11.7467
▁routine	-11.7468
▁frail	-11.7468
▁province	-11.747
▁devote	-11.7471
ito	-11.7472
▁spending	-11.7473
▁din	-11.7473
▁based	-11.7475
▁flatter	-11.7475
▁crap	-11.7476
MM	-11.7477
ern	-11.7478
dar	-11.748
▁unjust	-11.7481
▁prompt	-11.7483
▁pacing	-11.7484
▁DEAD	-11.7485
▁digging	-11.7485
▁marching	-11.7486
▁Others	-11.749
▁dome	-11.7494
▁growled	-11.7496
▁Move	-11.7497
▁Che	-11.7497
▁Bathsheba	-11.7501
▁momentarily	-11.7501
▁geese	-11.7501
▁Corso	-11.7502
▁scrap	-11.7502
▁bl	-11.7504
▁abyss	-11.7505
ants	-11.7505
▁grove	-11.7505
▁paths	-11.7508
▁sleepy	-11.7508
AND	-11.7511
▁rags	-11.7514
▁ghastly	-11.7517
▁gratified	-11.7517
▁flicker	-11.7518
▁varied	-11.7518
▁chanced	-11.7518
▁Rowan	-11.7518
▁Buddy	-11.752
▁battered	-11.7521
▁condemn	-11.7521
▁ANDY	-11.7521
▁tips	-11.7526
acy	-11.7527
LIN	-11.7528
▁63	-11.7528
ura	-11.753
ban	-11.753
▁Need	-11.7532
▁convenience	-11.7534
▁gaiety	-11.7534
▁chop	-11.7535
▁whoever	-11.7535
▁clap	-11.7536
cies	-11.7536
▁jerks	-11.7537
arch	-11.7538
▁impress	-11.7538
cit	-11.7539
▁Conan	-11.7544
▁displeasure	-11.7551
▁Penny	-11.7551
▁Neville	-11.7551
▁restraint	-11.7552
▁WHAT	-11.7554
▁idol	-11.7555
▁stumbled	-11.7557
▁91	-11.7558
▁exhibited	-11.756
▁blankets	-11.7561
▁doomed	-11.7564
▁sha	-11.7565
bus	-11.7565
▁YORK	-11.7568
▁bullshit	-11.7568
▁bronze	-11.7568
▁grabbing	-11.7568
▁relish	-11.757
▁Pinch	-11.7571
▁yell	-11.7573
▁tri	-11.7575
▁tho	-11.7575
▁outfit	-11.7575
ini	-11.7576
▁baron	-11.7577
MY	-11.7578
▁pla	-11.7579
▁noises	-11.7579
ena	-11.758
▁gale	-11.7583
▁DRIVER	-11.7583
▁spoiled	-11.7583
▁notions	-11.7585
RIES	-11.7586
▁coloured	-11.7586
▁forlorn	-11.7592
▁nobleman	-11.7596
aire	-11.7597
▁FATHER	-11.7597
):	-11.7599
▁NOW	-11.7601
▁extremity	-11.7601
▁outstretched	-11.7601
▁stump	-11.7602
▁prosperity	-11.7602
▁Yu	-11.7605
rk	-11.7607
▁Button	-11.761
▁su	-11.761
▁signals	-11.7611
▁Pie	-11.7614
aving	-11.7616
▁Dinah	-11.7618
▁drifting	-11.762
▁staggers	-11.7621
▁superiority	-11.7621
▁scholar	-11.7622
▁afore	-11.7624
▁Gold	-11.7624
▁Jesse	-11.7624
▁briskly	-11.7626
used	-11.7627
!’	-11.7632
▁spectators	-11.7634
▁shabby	-11.7635
▁sob	-11.7635
ole	-11.7636
▁announce	-11.7637
white	-11.764
▁smoked	-11.7642
▁comb	-11.7644
▁Milo	-11.7646
▁attained	-11.7649
▁opportunities	-11.7652
▁realizing	-11.7655
▁Leon	-11.7655
▁discern	-11.7657
▁muscle	-11.7657
▁melt	-11.7658
▁breasts	-11.7659
class	-11.7667
rite	-11.7667
shop	-11.7669
▁Know	-11.7669
▁Avenue	-11.7669
▁suicide	-11.7669
▁severity	-11.7669
▁stem	-11.7671
▁Said	-11.7672
▁Toward	-11.7672
▁negroes	-11.7673
▁mantle	-11.7675
▁Papa	-11.7678
▁volumes	-11.7678
▁suppressed	-11.7679
INDY	-11.7682
BLE	-11.7683
▁declaring	-11.7686
▁sombre	-11.7686
▁plead	-11.7688
▁director	-11.7688
▁duel	-11.7688
corn	-11.7691
▁bulk	-11.7696
▁traveling	-11.7697
45	-11.7698
▁restrained	-11.77
▁Signor	-11.7703
VIKTOR	-11.7703
▁rocking	-11.7705
▁aristocratic	-11.7706
▁echoes	-11.7708
CHARLIE	-11.7709
▁obstacle	-11.7709
▁menace	-11.7714
▁PE	-11.7715
▁adult	-11.772
▁Kennicott	-11.772
▁circular	-11.772
▁goddess	-11.772
▁Jules	-11.7721
aunt	-11.7721
..."	-11.7723
▁awkwardly	-11.7725
▁peek	-11.7726
▁Tre	-11.7727
▁thorough	-11.7729
▁mug	-11.773
▁reform	-11.7731
▁plantation	-11.7733
▁peep	-11.7734
pol	-11.7734
▁GLASS	-11.7737
▁piercing	-11.7737
▁conclude	-11.7741
▁brushed	-11.7742
▁revolt	-11.7743
bin	-11.7743
MELA	-11.7743
▁prolonged	-11.7743
▁wakes	-11.7747
▁interrupt	-11.775
nut	-11.7752
▁shark	-11.7755
5.	-11.7755
▁genial	-11.7755
▁Vicar	-11.7755
▁picturesque	-11.7756
vant	-11.7758
▁mound	-11.776
PING	-11.776
▁contains	-11.776
▁partially	-11.776
Listen	-11.776
Please	-11.776
▁pillar	-11.7761
▁Erin	-11.7762
▁shiver	-11.7763
▁stamp	-11.7764
xi	-11.7769
▁69	-11.777
▁Den	-11.7772
▁circuit	-11.7772
▁telegraph	-11.7772
▁chateau	-11.7772
dding	-11.7774
DING	-11.7774
▁traced	-11.7775
▁Liz	-11.7779
▁pi	-11.7779
▁Sta	-11.7779
NEY	-11.7779
IER	-11.778
▁purchased	-11.778
▁dialogue	-11.7789
▁baseball	-11.779
▁divide	-11.7793
▁Grimm	-11.7794
▁shovel	-11.7796
ving	-11.7801
▁pat	-11.7801
▁Theo	-11.7805
▁KNOCK	-11.7806
▁Patsy	-11.7806
▁gal	-11.7807
▁copies	-11.7808
dale	-11.7809
▁Kill	-11.7811
KELLY	-11.7812
▁permanent	-11.7815
▁executed	-11.7817
▁Jay	-11.7821
▁compartment	-11.7823
▁Jessica	-11.7823
▁promising	-11.7823
▁available	-11.7825
▁AR	-11.7829
▁Forget	-11.783
lum	-11.7831
▁Elle	-11.7832
▁min	-11.7833
late	-11.7835
▁overcoat	-11.7838
▁theater	-11.784
▁possibilities	-11.7841
▁invalid	-11.7841
▁gaily	-11.7841
▁spider	-11.7841
▁MOVE	-11.7846
mic	-11.7846
▁Start	-11.7846
▁Cop	-11.785
load	-11.785
chabod	-11.7858
▁independence	-11.7858
▁windshield	-11.7858
▁Belton	-11.7859
▁Bank	-11.7859
▁fuel	-11.7859
uk	-11.786
▁materials	-11.7861
▁ban	-11.7861
▁lingering	-11.7861
▁EYES	-11.7863
▁ZED	-11.7864
Adventure	-11.7865
FADE	-11.7866
▁67	-11.7871
hap	-11.7871
▁Morris	-11.7874
▁STUDIO	-11.7875
▁Zoe	-11.7876
▁dangling	-11.7876
▁hounds	-11.7881
▁gallop	-11.7883
▁trot	-11.7884
▁effective	-11.7889
▁summons	-11.7891
▁Grief	-11.7893
▁catastrophe	-11.7893
▁Helmut	-11.7893
▁saloon	-11.7893
ular	-11.7894
▁Dodge	-11.7894
▁bury	-11.79
▁achieved	-11.7901
▁realm	-11.7905
▁greatness	-11.7906
▁recovery	-11.7908
▁continent	-11.791
▁banquet	-11.791
▁Kathy	-11.791
40	-11.7913
▁94	-11.7913
▁phrases	-11.7916
▁fr	-11.7917
▁ancestors	-11.7918
▁intensely	-11.7918
these	-11.7918
▁discussing	-11.7918
aver	-11.7919
▁Ram	-11.7919
▁61	-11.7921
▁site	-11.7923
sken	-11.7923
▁signify	-11.7925
▁knives	-11.7926
▁faculties	-11.7927
▁Baroness	-11.7928
▁BEAN	-11.7928
▁Chance	-11.7929
than	-11.7929
▁sweetly	-11.7931
▁sideways	-11.7931
▁recognise	-11.7932
▁DA	-11.7932
▁ditch	-11.7934
▁pierced	-11.7936
▁instruction	-11.7937
▁rogue	-11.7937
▁attending	-11.7939
▁Bal	-11.7941
▁WAS	-11.7943
▁clo	-11.7944
▁Wragge	-11.7945
▁eyelids	-11.7945
▁orphan	-11.7945
▁choking	-11.7945
▁Ladies	-11.7946
▁Sand	-11.7946
▁revel	-11.7947
CAL	-11.7947
scribe	-11.7948
WE	-11.795
▁cleaning	-11.795
dress	-11.795
▁wipe	-11.7951
▁Ask	-11.7952
COBB	-11.7953
▁brightness	-11.7953
wit	-11.7954
▁Archer	-11.7954
office	-11.7954
since	-11.7955
▁irony	-11.7957
▁Virgin	-11.796
era	-11.7961
▁Alexandrovitch	-11.7962
▁mysteries	-11.7962
▁Hon	-11.7966
▁95	-11.7966
▁converse	-11.7967
▁indicating	-11.7969
▁resign	-11.7971
ITY	-11.7971
▁MOVES	-11.7973
▁para	-11.7976
▁claw	-11.7978
▁identical	-11.798
▁fiction	-11.798
▁saints	-11.798
▁roars	-11.7981
▁stretches	-11.7987
▁revived	-11.7987
fold	-11.7991
▁Jove	-11.7991
till	-11.7992
▁expressive	-11.7992
▁surf	-11.7992
▁Whose	-11.7992
!...	-11.7992
▁offend	-11.7993
▁Bulstrode	-11.7997
▁CECIL	-11.7997
▁ELEVATOR	-11.7997
▁clumsy	-11.7997
▁January	-11.7997
▁visibly	-11.7997
▁remarkably	-11.7999
▁advances	-11.7999
▁politeness	-11.8002
SY	-11.8007
▁astonishing	-11.8008
▁mocking	-11.801
▁Et	-11.8011
IVE	-11.8013
▁Welcome	-11.8014
▁Algren	-11.8015
▁Jasper	-11.8015
▁loaf	-11.8015
▁survey	-11.8018
hol	-11.8018
mont	-11.802
▁Hawk	-11.8025
▁shines	-11.8028
▁select	-11.8029
▁shifts	-11.803
▁REVEAL	-11.8031
▁originally	-11.8032
▁splendour	-11.8032
▁edges	-11.8033
▁stripped	-11.8033
▁Irene	-11.8033
▁potatoes	-11.8034
▁SLAMS	-11.8036
rating	-11.804
▁fits	-11.804
▁Mont	-11.8041
▁stab	-11.8041
bound	-11.8043
▁crude	-11.8043
rot	-11.8044
▁Scotch	-11.805
▁dainty	-11.805
▁blur	-11.8052
▁Mill	-11.8053
▁twist	-11.8053
BR	-11.8053
▁Cho	-11.8057
▁Ace	-11.8061
writer	-11.8066
▁Milt	-11.8067
▁register	-11.8067
▁venerable	-11.8068
▁Edith	-11.8068
▁Phillip	-11.8068
▁BELL	-11.8074
dan	-11.8074
char	-11.8078
▁rash	-11.8079
▁crawled	-11.8082
▁villa	-11.8085
▁debris	-11.8086
▁differ	-11.8086
▁purity	-11.8087
MED	-11.8087
▁Faith	-11.8089
must	-11.8089
bert	-11.8091
▁illuminated	-11.8093
lands	-11.8093
ara	-11.8095
▁pistols	-11.8096
▁spit	-11.8098
▁fertilised	-11.8098
▁scare	-11.8101
hoo	-11.8102
▁Alfred	-11.8103
▁Hilliard	-11.8103
▁submission	-11.8103
▁juice	-11.8103
▁DAN	-11.8104
▁Gate	-11.8104
▁slim	-11.8105
Ca	-11.8106
▁wraps	-11.8109
▁grunt	-11.8109
▁tool	-11.811
▁disappearing	-11.8112
duct	-11.8112
▁sh	-11.8113
▁Ap	-11.8114
▁dismiss	-11.8116
seven	-11.8117
▁shores	-11.8117
▁objected	-11.8117
▁Chauvelin	-11.8121
▁buddy	-11.8121
▁compact	-11.8121
▁Valley	-11.8122
6.	-11.8123
▁comforted	-11.8124
▁oppressed	-11.8124
▁pounding	-11.8128
▁grieved	-11.8133
test	-11.8135
▁historical	-11.8135
▁fruits	-11.8136
▁resume	-11.8138
▁Racine	-11.8139
▁Hicks	-11.8139
▁GINGER	-11.8139
▁Roll	-11.8141
▁foes	-11.8141
▁didst	-11.8141
▁LEE	-11.8145
continuing	-11.8149
▁borough	-11.8149
ria	-11.815
▁illusion	-11.8151
▁fearing	-11.8151
▁gasping	-11.8154
▁oars	-11.8156
▁Stephanie	-11.8157
▁ferocious	-11.8157
▁accordance	-11.8157
▁CLAY	-11.8158
▁heathen	-11.8158
▁thereof	-11.816
▁headache	-11.8166
▁reflecting	-11.8166
▁hinder	-11.8166
▁actor	-11.8169
▁Gro	-11.8172
▁Nu	-11.8172
▁rubs	-11.8172
▁74	-11.8172
▁BEHIND	-11.8174
▁ecstasy	-11.8174
▁innumerable	-11.8174
▁MEDIUM	-11.8175
▁patrol	-11.8175
walk	-11.818
poli	-11.818
BREAN	-11.8181
Rip	-11.8182
▁Laurent	-11.8183
▁significant	-11.8184
▁loan	-11.8184
▁detected	-11.8184
▁employer	-11.8185
emp	-11.8186
▁sung	-11.8186
▁rightly	-11.8186
▁mule	-11.8192
▁Jerome	-11.8192
▁contemplation	-11.8192
Surely	-11.8193
▁loyalty	-11.8193
▁fascinated	-11.8194
▁horseback	-11.8195
▁hack	-11.8195
▁darker	-11.8196
got	-11.8198
▁Union	-11.8198
▁connect	-11.8198
ADE	-11.82
▁LINDA	-11.8205
▁conjecture	-11.8206
love	-11.8207
OO	-11.8209
▁frenzy	-11.821
▁tyrant	-11.821
▁hose	-11.8216
▁Ellen	-11.8216
▁personage	-11.8216
tta	-11.8217
▁blushing	-11.822
▁THEIR	-11.8221
25	-11.8221
▁scrape	-11.8221
dra	-11.8222
OUGH	-11.8222
▁strings	-11.8222
road	-11.8223
▁une	-11.8224
Pray	-11.8224
VER	-11.8225
▁thirteen	-11.8227
sum	-11.8227
ella	-11.8228
▁salary	-11.8229
▁raging	-11.823
▁dealer	-11.823
▁Godwin	-11.823
▁farmers	-11.8233
▁AWAY	-11.8233
gone	-11.8234
▁Marty	-11.8236
John	-11.8239
AB	-11.8241
cas	-11.8243
▁Fitz	-11.8247
▁slippers	-11.8247
▁!...	-11.8248
UD	-11.8248
▁x	-11.8249
▁nursery	-11.825
▁Claus	-11.8251
▁poets	-11.8252
▁perched	-11.8254
▁villages	-11.8255
19	-11.8262
▁enthusiastic	-11.8262
▁Modeste	-11.8264
ALLISON	-11.8264
▁Brumley	-11.8264
ante	-11.8265
▁XIV	-11.8266
▁Jake	-11.8267
▁drawers	-11.8268
▁shutting	-11.8271
▁smashed	-11.8272
houses	-11.8274
▁manly	-11.8274
!!!	-11.8275
gro	-11.8276
handed	-11.8277
▁files	-11.8277
▁fades	-11.8277
BACK	-11.8278
▁FL	-11.8281
▁stamens	-11.8282
▁recovering	-11.8282
▁plague	-11.8282
▁Ardan	-11.8282
▁77	-11.8284
▁clutches	-11.8285
▁experiences	-11.8286
CON	-11.8287
▁Com	-11.8287
ree	-11.8288
▁Cy	-11.8289
▁disliked	-11.829
▁cordial	-11.8291
▁COBB	-11.8292
DAVID	-11.8294
▁jokes	-11.8295
ground	-11.8297
said	-11.8298
▁loneliness	-11.83
▁trapped	-11.8301
▁speechless	-11.8303
▁abrupt	-11.8308
ush	-11.8309
▁precise	-11.831
▁tasted	-11.8312
▁68	-11.8313
▁CL	-11.8314
ison	-11.8316
▁whatsoever	-11.8316
▁existing	-11.8318
▁HONEY	-11.8319
▁BEACH	-11.8319
▁Woodward	-11.832
▁71	-11.832
burg	-11.8322
▁internal	-11.8324
▁clutched	-11.8326
lee	-11.8328
ACH	-11.833
▁86	-11.833
▁TOWN	-11.8331
▁Bart	-11.8331
Lady	-11.8331
ggle	-11.8332
ager	-11.8334
▁tumbled	-11.8334
▁irritation	-11.8337
▁humming	-11.8337
▁lust	-11.8337
▁petition	-11.8338
▁indicate	-11.8338
oe	-11.8339
▁sneer	-11.834
▁girlfriend	-11.834
▁latch	-11.8341
▁plains	-11.8344
▁comedy	-11.8345
▁loop	-11.8347
▁BR	-11.8351
14	-11.8351
friend	-11.8352
▁palms	-11.8352
▁Hol	-11.8353
▁Barbican	-11.8355
▁ivory	-11.8355
▁uneasily	-11.8355
▁Denys	-11.8355
▁sobbed	-11.8355
▁Free	-11.8356
▁basis	-11.8356
▁wheat	-11.8362
▁grade	-11.8363
▁slid	-11.8364
▁72	-11.8364
▁Full	-11.8365
▁uncommon	-11.8365
JOE	-11.8366
▁Eh	-11.8366
▁lass	-11.8366
▁headlong	-11.8367
▁brighter	-11.8368
▁Katy	-11.8369
▁cha	-11.8369
▁lied	-11.8371
▁knights	-11.8372
▁escaping	-11.8373
▁turf	-11.8373
▁interference	-11.8373
mbo	-11.8374
▁Yuri	-11.8374
▁Round	-11.8375
▁workmen	-11.8376
▁complained	-11.8377
▁acquire	-11.8378
▁courteous	-11.8383
JACOB	-11.8386
▁satin	-11.8389
▁Ambrose	-11.8391
▁Arkadyevitch	-11.8391
▁unreasonable	-11.8391
▁Rod	-11.8393
▁73	-11.8393
▁neighbouring	-11.8395
▁gardener	-11.8395
▁NELL	-11.8395
▁Arch	-11.8401
▁Farm	-11.8401
▁attentively	-11.8401
▁clasp	-11.8403
del	-11.8404
Crime	-11.8404
▁portal	-11.8405
▁observations	-11.8407
▁Zed	-11.8407
▁Music	-11.8408
HOLLY	-11.841
▁Wayne	-11.841
▁grinned	-11.841
▁earliest	-11.841
▁submitted	-11.8411
▁recorded	-11.8412
▁leak	-11.8412
▁WHO	-11.8413
▁treasures	-11.8415
▁wires	-11.8416
▁rim	-11.8416
▁bands	-11.8417
▁fights	-11.8417
16	-11.8417
▁respecting	-11.8421
▁IRA	-11.8421
chan	-11.8422
ith	-11.8424
ought	-11.8428
▁ambitious	-11.8428
▁striving	-11.8428
▁soothing	-11.8429
▁defy	-11.843
▁BARON	-11.8431
▁ELAINE	-11.8432
▁photos	-11.8433
bro	-11.8434
▁sleeves	-11.8434
▁Seth	-11.8435
▁bon	-11.844
▁PULLS	-11.844
aud	-11.8441
▁trunks	-11.8442
▁pose	-11.8442
▁Petr	-11.8442
▁sincerely	-11.8443
ROOM	-11.8443
▁ingenious	-11.8447
mu	-11.8448
▁procure	-11.8452
▁dire	-11.8452
▁CARL	-11.8461
▁sway	-11.8462
ique	-11.8463
▁Bonteen	-11.8465
▁soap	-11.8465
▁clip	-11.8465
▁Josh	-11.8466
▁underground	-11.8469
▁Walk	-11.8472
soever	-11.8472
Film	-11.8472
▁footman	-11.8474
▁dreadfully	-11.8474
▁indulgence	-11.8475
arm	-11.8477
lian	-11.8478
▁homeward	-11.8481
▁tempest	-11.8483
▁Hang	-11.8483
▁Cardinal	-11.8483
▁proprietor	-11.8483
▁stigma	-11.8483
▁insolent	-11.8483
▁Khalid	-11.8483
BOD	-11.8484
▁snatches	-11.8486
▁candidate	-11.8486
▁appealed	-11.8487
▁stammered	-11.8487
▁overwhelming	-11.8491
▁lifetime	-11.8492
▁sustained	-11.8494
▁00	-11.8495
▁drown	-11.8495
▁convent	-11.8495
▁wonders	-11.8496
▁keenly	-11.8496
▁maze	-11.8498
aux	-11.8501
▁rats	-11.8502
▁Spock	-11.8502
▁inspection	-11.8502
▁Magic	-11.8503
▁Grandet	-11.8503
▁CARTER	-11.8504
▁institution	-11.8504
▁riches	-11.8508
▁Tara	-11.8508
FF	-11.8509
▁stoop	-11.8513
▁bunk	-11.8518
▁Empire	-11.852
▁Rosmer	-11.852
▁Jamal	-11.8521
▁cigarettes	-11.8522
▁churchyard	-11.8522
▁basin	-11.8523
▁gu	-11.8523
▁Play	-11.8523
▁SIDNEY	-11.8524
▁DAD	-11.8524
ites	-11.8527
▁hopeful	-11.8527
hal	-11.8528
▁invent	-11.8528
tical	-11.8531
▁transfer	-11.8533
▁journal	-11.8534
▁henceforth	-11.8538
▁humiliation	-11.8538
▁Actually	-11.8539
▁DECK	-11.854
rose	-11.854
▁advertisement	-11.854
ines	-11.8542
matic	-11.8544
uous	-11.8546
▁howling	-11.8547
acle	-11.855
▁cough	-11.855
▁accuse	-11.8555
▁odds	-11.8555
face	-11.8556
other	-11.8557
▁nought	-11.8558
sse	-11.8558
▁PR	-11.8559
▁acid	-11.856
▁stricken	-11.8561
▁hon	-11.8561
▁maids	-11.8563
▁accepting	-11.8565
▁rec	-11.8568
?...	-11.8568
VOICE	-11.8572
▁shivering	-11.8572
▁Trust	-11.8573
PHIL	-11.8573
TIM	-11.8574
▁prairie	-11.8576
▁Turn	-11.8576
▁simultaneously	-11.8578
▁exalted	-11.8578
▁planning	-11.8579
▁rusty	-11.8579
▁posture	-11.858
▁meets	-11.8581
▁earnestness	-11.8584
▁gaining	-11.8586
▁Tra	-11.8588
▁Unless	-11.8591
▁merits	-11.8592
▁humility	-11.8594
▁pausing	-11.8594
▁Yellow	-11.8594
▁Russell	-11.8595
▁trapper	-11.8598
▁topic	-11.86
▁Eyes	-11.86
uri	-11.86
▁96	-11.8603
▁BI	-11.8603
▁HAN	-11.8606
▁Sweet	-11.8609
roy	-11.861
▁dials	-11.861
▁Ju	-11.8611
▁appreciation	-11.8613
▁encouraging	-11.8613
▁settling	-11.8613
jpg	-11.8613
▁icy	-11.8615
tim	-11.8615
▁Friend	-11.8616
▁commonplace	-11.8616
ami	-11.862
sher	-11.862
▁professed	-11.8621
▁ominous	-11.8623
▁ultimate	-11.8623
fall	-11.8623
▁?...	-11.8627
vid	-11.8629
ware	-11.8629
▁knob	-11.8629
▁screw	-11.863
cup	-11.863
▁corporal	-11.8632
▁glares	-11.8632
▁Tartar	-11.8632
▁compound	-11.8632
avi	-11.8632
▁XII	-11.8634
pose	-11.8637
▁Real	-11.864
▁alliance	-11.8642
sar	-11.8644
▁savages	-11.8645
▁MOON	-11.8646
BEAT	-11.8649
▁December	-11.865
▁Fan	-11.865
▁odious	-11.865
SOL	-11.8652
▁Wheeler	-11.8654
▁crawls	-11.8656
▁familiarity	-11.8656
cum	-11.8656
▁hovering	-11.8656
arian	-11.8658
▁skirts	-11.8662
▁monarch	-11.8663
▁aimed	-11.8663
▁Sk	-11.8664
▁Mad	-11.8665
▁realised	-11.8666
▁Cause	-11.8666
▁Comp	-11.8666
▁Lor	-11.8666
▁actress	-11.8667
tail	-11.8668
▁destination	-11.8669
▁prominent	-11.8669
▁superstition	-11.8669
▁BONNIE	-11.8669
▁considers	-11.8669
▁DUDE	-11.8669
▁Gibson	-11.8669
▁gulp	-11.8669
▁cot	-11.867
▁mournful	-11.8671
▁Eight	-11.8672
▁monument	-11.8673
▁undertaking	-11.8675
▁decay	-11.8676
LAN	-11.8683
▁blossom	-11.8684
BILL	-11.8684
Mother	-11.8686
▁sweetest	-11.8687
PEGGY	-11.8688
▁Phoenix	-11.8688
▁archdeacon	-11.8688
▁bridle	-11.8688
▁wreath	-11.8688
▁shaggy	-11.8688
▁afar	-11.8692
▁endeavouring	-11.8692
▁clatter	-11.8693
▁decidedly	-11.8693
▁ribs	-11.8695
▁CUP	-11.8698
▁bustle	-11.8699
▁JESSE	-11.8704
▁GENERAL	-11.8704
▁attic	-11.8705
thou	-11.8706
ANTHONY	-11.8707
▁imaginary	-11.8707
▁temperature	-11.8707
▁Copperfield	-11.8707
▁bailiff	-11.8707
▁Duncan	-11.8707
▁hateful	-11.8709
90	-11.871
▁photographs	-11.8712
▁huddled	-11.8714
▁acquaintances	-11.8714
▁travels	-11.8715
eb	-11.8716
▁crashing	-11.8717
KS	-11.8721
▁deserves	-11.8723
▁Admiral	-11.8725
▁THOMAS	-11.8725
▁Department	-11.8726
▁brethren	-11.8726
▁refined	-11.8726
▁STORM	-11.8726
▁Silent	-11.8726
▁Beauty	-11.8726
zo	-11.8726
▁mature	-11.8727
▁praised	-11.8727
▁Win	-11.8728
▁GET	-11.873
▁reef	-11.8731
wash	-11.8731
gre	-11.8734
▁legitimate	-11.8736
▁controls	-11.8739
▁JOEY	-11.8741
TIC	-11.8742
▁coolly	-11.8742
▁trumpet	-11.8742
▁disturbing	-11.8744
▁pursuing	-11.8744
▁treachery	-11.8744
▁strode	-11.8744
▁churches	-11.8746
▁HAVEN	-11.8746
▁Power	-11.8747
▁Willow	-11.8748
▁plump	-11.875
▁Reed	-11.875
tip	-11.8751
teen	-11.8751
MAR	-11.8752
Co	-11.8754
▁robes	-11.8757
▁involuntarily	-11.8759
▁yanks	-11.8759
▁symptoms	-11.8759
▁Rand	-11.8761
▁swarm	-11.8762
▁sweeps	-11.8763
▁Detective	-11.8763
▁ENID	-11.8763
▁Tracy	-11.8764
▁TIGHT	-11.8765
▁85	-11.8766
ale	-11.8768
▁threats	-11.8775
▁sacrificed	-11.8775
▁swaying	-11.8778
duce	-11.8781
eck	-11.8782
▁Hilary	-11.8782
▁luncheon	-11.8782
▁essay	-11.8782
ides	-11.8783
▁stain	-11.8783
▁produces	-11.8783
▁88	-11.8783
▁fiddle	-11.8784
▁Arab	-11.8785
green	-11.8788
Pa	-11.8789
▁amiss	-11.8789
sses	-11.879
RANDAL	-11.8793
▁goodbye	-11.8795
▁coats	-11.8796
▁indulged	-11.8797
▁BL	-11.88
▁Phyllis	-11.8801
▁Reverend	-11.8801
▁Truman	-11.8801
▁horribly	-11.8801
▁ungrateful	-11.8801
▁Mickey	-11.8802
▁Bloom	-11.8802
▁pinned	-11.8802
far	-11.8802
▁omitted	-11.8802
▁Plis	-11.8803
▁bowing	-11.8805
▁mini	-11.8806
▁COM	-11.8806
▁Santa	-11.8808
▁refrain	-11.8809
▁boom	-11.8809
▁practised	-11.881
rod	-11.8812
▁dial	-11.8812
▁realise	-11.8813
▁Republic	-11.8816
ops	-11.8818
▁98	-11.882
ost	-11.882
▁Courcy	-11.882
▁Baker	-11.8821
▁gasp	-11.8821
▁improve	-11.8821
▁uncertainty	-11.8822
▁Believe	-11.8823
▁enclosed	-11.8824
▁Rain	-11.8828
ended	-11.8828
▁Pass	-11.8829
▁slit	-11.883
ste	-11.883
▁Across	-11.883
▁Hay	-11.8834
Stop	-11.8834
itor	-11.8836
▁operations	-11.8836
▁Dun	-11.8839
▁RESTAURANT	-11.884
▁Ronnie	-11.884
▁tutor	-11.884
IGHT	-11.8841
▁Brion	-11.8842
▁STAGE	-11.8844
legged	-11.8844
▁preacher	-11.8849
8.	-11.8849
▁cute	-11.885
may	-11.8852
▁4.	-11.8854
▁Sol	-11.8854
Horror	-11.8857
ization	-11.8858
▁ACROSS	-11.8859
▁NEVILLE	-11.8859
▁Small	-11.8859
▁reverie	-11.886
▁charmed	-11.8864
▁Herr	-11.8864
▁helplessly	-11.8871
▁twisting	-11.8874
▁au	-11.8876
HILDY	-11.8878
▁Benjamin	-11.8878
▁Servadac	-11.8878
count	-11.888
▁chopper	-11.888
▁explodes	-11.8881
▁customer	-11.8882
▁controlled	-11.8883
▁inhabited	-11.8883
Aye	-11.8884
▁RAIN	-11.8885
▁WALT	-11.889
▁MOLLY	-11.8891
▁honoured	-11.8892
bred	-11.8894
open	-11.8895
▁peak	-11.8895
▁toys	-11.8896
▁crust	-11.8898
▁BRIAN	-11.8898
▁decorated	-11.8899
▁Min	-11.8899
▁Gentlemen	-11.8901
Alas	-11.8903
▁skies	-11.8903
each	-11.8904
▁gra	-11.8905
▁factory	-11.8905
▁BUT	-11.8913
▁frowned	-11.8913
▁Happy	-11.8914
▁EVAN	-11.8917
▁pearl	-11.892
▁oppose	-11.8922
▁leaders	-11.8924
▁convert	-11.8924
▁flank	-11.8924
▁shifting	-11.8924
ced	-11.8925
▁bathed	-11.8931
▁vein	-11.8933
ink	-11.8934
Father	-11.8935
▁Murphy	-11.8935
▁merciful	-11.8935
▁GROUP	-11.8936
▁admission	-11.8936
▁Saul	-11.8936
▁Teddy	-11.8936
mal	-11.8937
ease	-11.8938
ific	-11.894
▁bruised	-11.894
▁crimes	-11.8942
▁positions	-11.8942
▁flare	-11.8942
▁FA	-11.8942
▁TI	-11.8943
▁gi	-11.8944
▁logical	-11.8946
▁THERE	-11.8948
▁83	-11.8951
▁collapses	-11.8953
▁shells	-11.8953
▁CHURCH	-11.8955
▁Glascock	-11.8955
▁Strickland	-11.8955
▁Crystal	-11.8955
▁Glendinning	-11.8955
▁draft	-11.8955
▁fluid	-11.8955
▁GON	-11.8955
▁Jeffard	-11.8956
▁ruled	-11.8956
key	-11.896
URE	-11.8964
▁Colin	-11.8964
▁boiling	-11.8965
▁Crown	-11.8967
▁cheat	-11.897
▁gasps	-11.8972
▁Amadis	-11.8974
▁sheriff	-11.8974
▁Nathan	-11.8974
JIM	-11.8975
▁Douglas	-11.8975
▁ROCKY	-11.8975
▁manhood	-11.8976
▁duly	-11.8976
▁helm	-11.8976
lines	-11.8979
▁breed	-11.898
▁canal	-11.8981
▁devils	-11.8983
▁Il	-11.8983
▁pissed	-11.8983
▁tangled	-11.8983
▁tucked	-11.8984
mas	-11.8984
▁starve	-11.8985
▁serene	-11.8985
▁caps	-11.8986
rud	-11.8986
▁Near	-11.8987
ull	-11.8988
▁Parr	-11.8989
▁78	-11.899
eal	-11.8991
▁Ru	-11.8992
bon	-11.8993
▁glaring	-11.8994
▁Curdie	-11.8994
▁muddy	-11.8994
▁Francisco	-11.8994
▁isolated	-11.8995
▁smashes	-11.8996
▁rot	-11.8997
roul	-11.8997
▁Barris	-11.9
_--	-11.9003
▁scratch	-11.9003
lers	-11.9005
▁ignore	-11.9005
GAN	-11.9008
much	-11.9009
▁withdrawn	-11.9013
▁Pause	-11.9013
▁Syme	-11.9014
▁**16	-11.9014
▁LOGAN	-11.9014
▁shopping	-11.9015
lus	-11.9016
▁McC	-11.9016
uit	-11.9018
▁Jen	-11.9018
▁thir	-11.9024
▁hawk	-11.9024
▁withered	-11.903
▁Noel	-11.9031
ington	-11.9031
NICK	-11.9032
▁Brangwen	-11.9032
▁University	-11.9032
▁furnace	-11.9032
▁microphone	-11.9032
▁artistic	-11.9033
▁knave	-11.9033
▁CLICK	-11.9033
▁baffled	-11.9036
ada	-11.9037
▁glimmer	-11.9038
▁penetrate	-11.9039
▁imposed	-11.9041
▁brisk	-11.9043
▁bud	-11.9045
▁backed	-11.9047
prov	-11.9048
▁dump	-11.9051
▁Glaucus	-11.9052
▁syllable	-11.9052
▁CRACK	-11.9052
▁deem	-11.9053
▁regretted	-11.9055
▁differently	-11.9056
▁Za	-11.9057
▁grieve	-11.9058
▁pays	-11.906
being	-11.9061
▁schools	-11.9064
hard	-11.9065
▁retreated	-11.9066
▁Scene	-11.9067
▁Third	-11.9067
▁beats	-11.9067
▁barrels	-11.907
▁Peace	-11.907
▁hunter	-11.9071
▁Dunstable	-11.9071
▁Ellinor	-11.9071
▁refusing	-11.9071
▁infernal	-11.9071
▁ELLIE	-11.9072
▁govern	-11.9074
▁deposit	-11.9075
▁Nan	-11.9083
▁loft	-11.9085
etic	-11.9087
▁Talk	-11.9087
▁regularly	-11.9088
▁pri	-11.9089
▁imposing	-11.9091
▁profile	-11.9091
▁vexation	-11.9092
▁Neb	-11.9093
▁fade	-11.9093
▁peculiarly	-11.9095
▁SALLY	-11.9096
▁elephant	-11.9097
▁suffice	-11.9098
▁sustain	-11.9099
▁fake	-11.91
link	-11.9107
▁cluster	-11.9107
OV	-11.9108
▁namely	-11.911
▁demonstration	-11.9111
▁organization	-11.9111
ettle	-11.9111
▁finer	-11.9111
▁tact	-11.9112
▁wearily	-11.9113
▁repeatedly	-11.9113
▁CELL	-11.9113
▁removing	-11.9113
▁robbery	-11.9115
▁Ph	-11.9116
▁association	-11.9117
▁preach	-11.9118
▁confront	-11.9119
▁stiffly	-11.912
▁CHUCK	-11.9121
lk	-11.9122
ident	-11.9122
▁visions	-11.9123
▁JUST	-11.9124
▁CLAIRE	-11.9125
vor	-11.9125
▁largely	-11.9127
▁79	-11.9128
▁ROBERT	-11.9128
▁sequence	-11.913
▁eastern	-11.9131
▁scope	-11.9131
▁Brock	-11.9132
▁acute	-11.9133
▁attendants	-11.9133
▁array	-11.9138
▁DOC	-11.9139
▁MASTER	-11.9139
▁FIGURE	-11.9139
▁resort	-11.914
ZA	-11.9144
▁strive	-11.9145
▁pearls	-11.9147
▁EM	-11.9147
▁pensive	-11.9148
▁parade	-11.9149
▁Service	-11.915
lights	-11.915
▁Rat	-11.915
pus	-11.915
▁LAND	-11.9151
▁welcomed	-11.9151
rink	-11.9151
▁oldest	-11.9154
▁Find	-11.9155
▁Heav	-11.9155
▁hides	-11.9158
ski	-11.9159
▁tick	-11.916
quin	-11.916
▁associated	-11.9161
▁squeeze	-11.9164
▁assassin	-11.9167
▁fra	-11.9167
ECKER	-11.9168
▁league	-11.917
▁Dockwrath	-11.917
▁picnic	-11.917
▁Pacific	-11.917
▁Knightley	-11.917
▁Honey	-11.9171
▁09	-11.9179
▁verses	-11.918
▁steering	-11.9181
▁treating	-11.9181
▁therein	-11.9182
▁avoiding	-11.9182
uli	-11.9182
ASH	-11.9184
▁accounted	-11.9184
▁kettle	-11.919
yet	-11.919
▁musket	-11.9191
▁CROWD	-11.9191
▁suite	-11.9191
ART	-11.9192
WAN	-11.9193
▁odor	-11.9194
tting	-11.9194
▁sparks	-11.9198
▁owl	-11.92
Sure	-11.9201
▁gazes	-11.9201
▁Terran	-11.9202
▁hasten	-11.9204
▁Montreville	-11.9209
▁Reardon	-11.9209
▁mattress	-11.9209
▁speck	-11.9209
▁Hanaud	-11.921
▁rumble	-11.921
▁courts	-11.9211
▁wickedness	-11.9212
▁inconvenience	-11.9214
▁congratulate	-11.9216
▁Nine	-11.9221
▁Cri	-11.9221
▁wrists	-11.9221
▁HU	-11.9225
▁insects	-11.9225
▁excess	-11.9225
9.	-11.9228
▁Southern	-11.9229
French	-11.9231
EM	-11.9232
ONS	-11.9235
▁excitedly	-11.9236
▁ERICA	-11.9237
▁carriages	-11.9238
hur	-11.9239
▁folding	-11.9242
SIDE	-11.9243
▁rubbish	-11.9249
▁verdict	-11.9249
▁chariot	-11.9249
▁Bunny	-11.925
sail	-11.925
▁crowned	-11.925
Mystery	-11.9251
▁wrinkled	-11.9252
▁ninety	-11.9253
shaped	-11.9255
▁patches	-11.9255
▁dans	-11.9256
▁confronted	-11.9261
LED	-11.9261
▁************	-11.9261
▁76	-11.9261
▁tops	-11.9268
▁nineteen	-11.9268
▁Lloyd	-11.9269
▁environment	-11.9269
▁harbor	-11.9269
ITE	-11.9269
▁87	-11.9269
▁constable	-11.9269
▁Ku	-11.9274
▁uttering	-11.9275
rou	-11.9277
▁sewing	-11.9278
▁garment	-11.9279
▁chatter	-11.9286
▁WIFE	-11.9286
▁Mid	-11.9289
▁ALLMERS	-11.9289
▁Dashwood	-11.9289
▁expedient	-11.9289
▁imitation	-11.9289
▁transparent	-11.9289
▁foremost	-11.9289
▁baggage	-11.9289
▁Calvin	-11.9289
▁wider	-11.9289
NEFF	-11.929
▁gum	-11.929
▁coo	-11.9292
▁pasture	-11.9293
▁shorter	-11.9298
▁BANG	-11.9299
▁LOVE	-11.93
try	-11.93
▁slice	-11.9301
▁jam	-11.9302
▁procured	-11.9303
ulated	-11.9303
▁regain	-11.9304
▁Tan	-11.9305
▁discharged	-11.9305
▁Mind	-11.9307
▁straining	-11.9307
▁PRISON	-11.9307
ava	-11.9307
▁Instantly	-11.9309
▁Traddles	-11.9309
▁fabric	-11.9309
▁secrecy	-11.9309
▁creek	-11.9309
▁worthless	-11.9309
▁Ce	-11.931
▁hesitating	-11.931
▁impact	-11.931
▁expose	-11.9316
▁SIR	-11.9317
▁commonly	-11.9317
▁rests	-11.9318
▁relax	-11.9319
▁wrestle	-11.9324
_]	-11.9324
ean	-11.9325
▁prior	-11.9328
▁Ellida	-11.9329
▁outburst	-11.9329
▁BARRIS	-11.9329
▁violet	-11.9329
▁fancies	-11.9329
▁junk	-11.9329
▁grandeur	-11.933
▁considerations	-11.9333
▁93	-11.9335
▁consumed	-11.9336
▁dove	-11.9341
▁dam	-11.9341
▁penetrated	-11.9342
mark	-11.9345
stra	-11.9346
▁Mexican	-11.9349
▁Poyser	-11.9349
▁admiral	-11.9349
▁DESERT	-11.9349
▁Picard	-11.9349
▁Fear	-11.9349
▁Mackel	-11.9349
▁preference	-11.935
▁filthy	-11.9352
▁contracted	-11.9352
▁GROUND	-11.9354
▁abstract	-11.9354
▁praying	-11.9355
▁ornaments	-11.9356
ona	-11.9358
ARY	-11.9359
▁tortured	-11.9363
▁exists	-11.9364
▁examines	-11.9365
▁Inspector	-11.9369
▁MILLER	-11.937
▁tax	-11.9372
sign	-11.9373
▁successfully	-11.9378
▁ROSENFELD	-11.9379
▁dart	-11.9379
arms	-11.9379
▁84	-11.9379
power	-11.9385
▁matches	-11.9389
▁enchanted	-11.9389
▁schooner	-11.9389
▁Immediately	-11.9389
▁Julius	-11.9389
▁Darcy	-11.939
Po	-11.939
▁81	-11.9391
▁FOUR	-11.9392
▁shifted	-11.9392
ila	-11.9393
▁Wars	-11.9393
▁vase	-11.9393
Which	-11.9394
▁likeness	-11.9395
▁instincts	-11.9396
▁adorned	-11.9396
mmer	-11.9396
▁Vig	-11.9399
▁HARVEY	-11.9401
▁schemes	-11.9403
▁choke	-11.9403
▁ignores	-11.9404
▁Commons	-11.9406
▁commanding	-11.9406
gel	-11.9408
▁Venice	-11.9409
▁warehouse	-11.9409
▁baronet	-11.9411
▁Lane	-11.9412
▁exhibition	-11.9412
▁indication	-11.9414
▁comic	-11.9419
ASS	-11.9422
▁elected	-11.9424
▁tackle	-11.9428
▁Alleyne	-11.943
▁perplexity	-11.943
▁Partridge	-11.943
▁refreshment	-11.9431
▁slack	-11.9432
▁companionship	-11.9433
deck	-11.9436
TES	-11.9437
▁persist	-11.9438
Yea	-11.9438
▁Finch	-11.9439
▁LORI	-11.944
KIT	-11.9442
CHER	-11.9446
▁82	-11.9446
▁cured	-11.9448
▁genre	-11.9448
▁Gilliatt	-11.945
▁session	-11.945
▁kinda	-11.945
▁robot	-11.9451
▁CRASH	-11.9451
▁acceptance	-11.9453
▁solemnity	-11.9454
▁hire	-11.9454
▁Willie	-11.9457
▁moi	-11.9458
▁bla	-11.9458
HER	-11.9459
▁dive	-11.9459
▁JA	-11.9462
var	-11.9464
▁perilous	-11.9468
▁Godfrey	-11.947
▁Swift	-11.947
▁joking	-11.9471
▁liable	-11.9471
▁WOODS	-11.9471
▁Psmith	-11.9471
lated	-11.9472
▁effectually	-11.9474
GH	-11.9477
▁ranch	-11.9478
▁hermit	-11.9481
▁Ber	-11.9482
▁Hills	-11.9486
ACK	-11.949
▁sage	-11.949
▁February	-11.9491
▁implied	-11.9491
▁razor	-11.9491
▁assuming	-11.9491
▁UNDER	-11.9491
Nonsense	-11.9491
▁Ireland	-11.9491
▁Spring	-11.9492
▁drugs	-11.9493
▁rein	-11.9494
▁scarf	-11.9494
▁clicks	-11.9494
▁data	-11.9495
▁fulfilled	-11.9495
nin	-11.9496
pie	-11.9496
35	-11.9497
▁extends	-11.9497
▁sentences	-11.9498
Un	-11.9498
Twas	-11.95
▁states	-11.9501
OK	-11.9502
▁hates	-11.9503
▁goal	-11.9504
▁Strange	-11.9504
tar	-11.9508
rg	-11.9509
▁talents	-11.9509
▁lance	-11.951
▁Derek	-11.9511
▁malicious	-11.9511
▁offensive	-11.9511
▁HIGHWAY	-11.9511
▁halfway	-11.9513
▁football	-11.9514
▁History	-11.9515
▁morality	-11.9516
▁laden	-11.9517
Yet	-11.9517
ALEX	-11.9518
wall	-11.9518
▁Tree	-11.9521
▁pitched	-11.9522
▁specimen	-11.9524
▁unaware	-11.9524
▁detain	-11.9525
▁madman	-11.9526
▁CAMP	-11.9526
body	-11.9529
▁EN	-11.9531
▁Rudolf	-11.9531
▁Hush	-11.9532
▁consistent	-11.9532
▁wisely	-11.9532
▁lodged	-11.9535
▁handing	-11.9536
▁Mercy	-11.9537
KURT	-11.9538
▁assigned	-11.9539
ges	-11.9539
▁dick	-11.9542
lings	-11.9544
RIE	-11.9547
▁dependent	-11.9549
▁whim	-11.9551
nge	-11.9552
▁Ur	-11.9552
▁valiant	-11.9552
CONRAD	-11.9552
▁AROUND	-11.9552
▁Sowerby	-11.9552
▁wardrobe	-11.9552
▁aloft	-11.9552
▁violin	-11.9552
▁daresay	-11.9553
▁boards	-11.9554
sti	-11.9554
▁Bri	-11.9555
Two	-11.9556
WALT	-11.9557
General	-11.9558
cause	-11.9562
▁FORE	-11.9564
▁wholesome	-11.9566
▁ankle	-11.9567
gra	-11.9567
▁producing	-11.9568
ways	-11.9569
sent	-11.9571
ACT	-11.9574
▁PEOPLE	-11.9579
▁discovering	-11.9579
BURNS	-11.9582
AH	-11.9582
wer	-11.9584
▁converted	-11.9585
imi	-11.959
▁Maguire	-11.9593
▁climate	-11.9593
▁tremulous	-11.9593
▁trivial	-11.9593
▁TYLER	-11.9593
▁Jody	-11.9594
▁random	-11.9595
▁treason	-11.9596
▁Buck	-11.9599
▁Check	-11.96
▁freed	-11.9601
▁extend	-11.9602
▁Paradise	-11.9602
▁exertion	-11.9608
mat	-11.9609
INO	-11.9609
hoe	-11.9614
▁Cindy	-11.9614
▁abundance	-11.9614
▁happiest	-11.9614
▁pregnant	-11.9614
▁provincial	-11.9614
▁XIII	-11.9614
▁pretext	-11.9614
▁Germans	-11.9614
2**	-11.9616
▁mayor	-11.9617
▁lone	-11.9617
▁ale	-11.962
whether	-11.962
▁pronounce	-11.9622
▁Hart	-11.9623
lid	-11.9625
38	-11.9625
▁ghosts	-11.9625
fulness	-11.9626
▁Morning	-11.9626
▁precaution	-11.9628
▁heights	-11.9628
▁prompted	-11.9628
▁shocking	-11.963
▁DOG	-11.9632
▁Angela	-11.9634
▁Lorraine	-11.9634
▁Vivian	-11.9634
▁acknowledgment	-11.9634
▁apparatus	-11.9634
▁clump	-11.9634
▁fascination	-11.9634
▁treacherous	-11.9634
▁arc	-11.9636
▁Peterkin	-11.9636
▁Year	-11.9638
▁COLE	-11.9638
▁upside	-11.9638
▁sham	-11.9638
▁detached	-11.9639
▁fold	-11.9639
▁classic	-11.9641
▁adore	-11.9646
▁Mini	-11.9646
GRA	-11.9647
▁brooding	-11.9647
UIN	-11.9648
▁sensations	-11.9648
vol	-11.9648
▁SR	-11.9651
▁sounding	-11.9653
▁fluttering	-11.9654
▁Twinkle	-11.9655
▁phantom	-11.9655
▁reluctance	-11.9655
▁essence	-11.9655
ANNE	-11.9655
▁Ban	-11.9655
▁Rowley	-11.9655
▁Scripture	-11.9656
▁Jacques	-11.9656
▁Price	-11.9657
▁elapsed	-11.9658
▁quiver	-11.9658
▁brushes	-11.9662
▁WIND	-11.9663
▁vehicles	-11.9664
▁wrap	-11.9667
▁hound	-11.967
▁flourish	-11.9671
▁suck	-11.9673
▁deuce	-11.9676
▁lumber	-11.9676
▁Wild	-11.9678
▁civility	-11.9679
▁GUARDS	-11.9681
uld	-11.9685
▁incidents	-11.9687
▁Won	-11.9687
▁discreet	-11.9688
▁Englishmen	-11.9688
▁sites	-11.9689
▁feverish	-11.969
tered	-11.9694
▁pigs	-11.9695
▁Eleanor	-11.9697
▁behavior	-11.9697
▁recruit	-11.9697
▁nowadays	-11.9697
▁ravine	-11.9697
▁humbly	-11.9697
▁laboratory	-11.9697
▁eats	-11.9697
▁meals	-11.97
▁justly	-11.9704
13	-11.9704
▁pills	-11.9705
34	-11.9706
▁concentrated	-11.9707
▁contemplated	-11.9708
▁actors	-11.9708
▁continual	-11.971
mma	-11.9712
iers	-11.9713
▁flickering	-11.9714
▁trench	-11.9714
▁BRAD	-11.9714
▁HAVE	-11.9716
▁ENTRANCE	-11.9717
▁Gerhardt	-11.9717
▁Katharine	-11.9717
▁MOTEL	-11.9717
▁INTERCUT	-11.9722
pur	-11.9725
▁apologize	-11.9725
ele	-11.9729
▁Dor	-11.9729
uf	-11.973
pic	-11.973
▁Aw	-11.9731
called	-11.9732
▁messages	-11.9734
▁thrilled	-11.9735
▁Ter	-11.9736
▁remonstrance	-11.9738
▁swollen	-11.9738
▁vigour	-11.9738
▁carpenter	-11.9738
▁RIVER	-11.9738
▁CENTER	-11.9739
▁POOL	-11.9739
▁seizing	-11.9739
▁wheeled	-11.9739
▁joining	-11.974
▁crumpled	-11.974
▁sweating	-11.9741
▁evenings	-11.9742
lv	-11.9742
▁mouse	-11.9745
▁STREETS	-11.9746
MELANIE	-11.9746
▁tickets	-11.9748
▁excuses	-11.9748
mond	-11.9748
▁unkind	-11.9749
▁rouse	-11.9749
▁deposited	-11.9751
▁hop	-11.9752
nda	-11.9752
▁rider	-11.9752
▁entreat	-11.9756
▁episode	-11.9759
▁extensive	-11.9759
▁junior	-11.9759
▁salvation	-11.9759
▁Dragon	-11.9759
▁bicycle	-11.9759
▁Monmouth	-11.9759
▁snapping	-11.976
▁SNOW	-11.9761
▁disc	-11.9762
▁Burg	-11.9764
▁mystic	-11.9766
▁execute	-11.9767
servant	-11.9768
HU	-11.9768
ope	-11.9769
apping	-11.9771
▁Clear	-11.9772
▁Job	-11.9772
▁outrage	-11.9772
▁tag	-11.9773
▁scans	-11.9777
▁orderly	-11.9777
▁percent	-11.978
ata	-11.978
▁Napoleon	-11.978
▁whiskey	-11.9781
▁Davis	-11.9781
▁EARLY	-11.9782
70	-11.9784
▁tar	-11.9785
▁ACT	-11.9785
▁gaping	-11.9787
▁Point	-11.9788
▁PHIL	-11.9789
▁observer	-11.9789
ETTE	-11.9789
▁fling	-11.9789
▁instructed	-11.9789
▁slaughter	-11.979
Lost	-11.9791
nigh	-11.9793
lets	-11.9794
▁logic	-11.9794
AIR	-11.9795
▁needful	-11.9798
ouse	-11.9801
▁Elenor	-11.9801
▁Laurie	-11.9801
▁rugged	-11.9801
aut	-11.9802
▁rip	-11.9805
ENZO	-11.9806
▁delayed	-11.9806
▁suppress	-11.9808
▁XV	-11.981
▁aft	-11.9811
▁Standing	-11.9813
▁placid	-11.9814
▁Citizen	-11.9817
BARTON	-11.982
▁pavilion	-11.9822
▁plunder	-11.9822
▁Samms	-11.9823
▁layer	-11.9824
▁crushing	-11.9824
▁Witch	-11.9824
▁prosperous	-11.9824
▁wail	-11.9824
▁conventional	-11.9825
▁languages	-11.9826
▁hy	-11.9827
▁nicely	-11.9828
▁HOLD	-11.9833
liest	-11.9833
▁SHOTS	-11.9833
rill	-11.9835
▁Kat	-11.9837
▁unfit	-11.9838
▁faithfully	-11.9838
Any	-11.9842
▁Cecil	-11.9843
▁guarantee	-11.9843
▁crisp	-11.9843
▁margin	-11.9844
▁FOREST	-11.9844
▁nun	-11.9844
▁tumbling	-11.9845
▁Perry	-11.9846
▁insulted	-11.9848
▁grandson	-11.9848
▁SEA	-11.9849
▁raid	-11.985
▁warmed	-11.985
▁187	-11.9851
▁donkey	-11.9853
▁paddle	-11.9855
▁bait	-11.9856
▁Sean	-11.9856
▁click	-11.9857
▁compose	-11.9858
shi	-11.9858
▁ALLEY	-11.9859
▁ev	-11.9862
▁Cro	-11.9863
▁Chandler	-11.9865
▁Shrek	-11.9865
▁mademoiselle	-11.9865
▁supernatural	-11.9865
▁ripped	-11.9865
▁handwriting	-11.9867
▁Judy	-11.9867
60	-11.9868
▁LU	-11.9871
oth	-11.9872
▁compromise	-11.9873
▁supporting	-11.9874
▁var	-11.9874
▁PAST	-11.9875
▁Med	-11.9876
▁Against	-11.9877
▁grind	-11.9879
▁rig	-11.9879
▁referring	-11.9879
▁hushed	-11.988
wind	-11.9883
▁adequate	-11.9886
▁Hulot	-11.9886
▁TOWER	-11.9886
▁disappearance	-11.9887
▁obtaining	-11.9887
▁designs	-11.9889
vent	-11.9892
▁troublesome	-11.9892
33	-11.9893
▁estimate	-11.9894
stead	-11.9895
Short	-11.9895
▁chant	-11.9896
▁undertaken	-11.9897
▁JE	-11.9897
▁sip	-11.9898
▁frog	-11.9898
▁canst	-11.9899
cta	-11.9903
nel	-11.9903
HUB	-11.9903
▁somethin	-11.9904
eries	-11.9905
▁smoothly	-11.9905
▁cheering	-11.9905
cast	-11.9906
▁joys	-11.9906
▁AMY	-11.9907
▁Congress	-11.9907
▁Junior	-11.9907
▁substantial	-11.9907
▁Wessex	-11.9907
▁uproar	-11.9907
▁Rudy	-11.9907
▁garbage	-11.9907
▁Taking	-11.9908
▁Board	-11.9909
▁depression	-11.9909
thought	-11.9909
▁slavery	-11.9911
▁formation	-11.9911
▁**17	-11.9912
Li	-11.9912
LINE	-11.9919
▁BROWN	-11.992
▁NEWS	-11.9922
mie	-11.9924
▁shrug	-11.9925
▁nigger	-11.9925
▁THEN	-11.9927
▁Cabinet	-11.9928
▁EXTERIOR	-11.9928
▁HOLMES	-11.9928
▁Truth	-11.9928
▁mechanism	-11.9928
▁oblivious	-11.9928
▁Nurse	-11.9928
▁wars	-11.9928
▁Silas	-11.9928
▁fathom	-11.9929
▁novels	-11.9929
▁meetings	-11.9929
rice	-11.993
▁ham	-11.993
▁displeased	-11.9932
▁Raf	-11.9934
▁Sammy	-11.9934
ifying	-11.9934
▁bro	-11.9937
▁Sister	-11.994
▁numb	-11.9943
▁scatter	-11.9944
LIE	-11.9947
gun	-11.9947
▁futile	-11.995
▁Beatrice	-11.995
▁Feng	-11.9951
Mo	-11.9952
▁Beau	-11.9956
▁inherited	-11.9957
▁PART	-11.9957
▁hops	-11.9958
▁inspire	-11.9958
▁Opera	-11.9959
▁ultimately	-11.9959
▁heaps	-11.9963
▁Either	-11.9963
▁pleases	-11.9966
▁che	-11.9968
▁yielding	-11.9969
▁Wo	-11.9969
▁morsel	-11.9971
▁muzzle	-11.9971
▁Greystock	-11.9971
▁BOAT	-11.9972
▁HARD	-11.9972
▁frowning	-11.9974
WOMAN	-11.9975
▁journalist	-11.9976
▁BLUE	-11.9977
▁overheard	-11.9977
chamber	-11.9981
▁rescued	-11.9983
▁dodge	-11.9983
mill	-11.9984
hen	-11.9986
▁Shelly	-11.9986
▁Carbuncle	-11.9992
▁Dudley	-11.9992
▁congregation	-11.9992
▁insolence	-11.9992
▁prostrate	-11.9992
▁FORREST	-11.9992
▁civilized	-11.9993
▁ERIK	-11.9995
▁Persian	-11.9995
▁skate	-11.9995
covered	-11.9996
ken	-11.9997
▁...**	-11.9997
▁policemen	-11.9999
▁glided	-12.0001
▁Abe	-12.0001
▁COR	-12.0001
▁plough	-12.0002
▁applaud	-12.0002
▁mistakes	-12.0004
uge	-12.0005
▁singer	-12.0006
▁108	-12.0011
▁bin	-12.0011
▁flattering	-12.0012
▁monsters	-12.0013
DIGNAN	-12.0014
▁Committee	-12.0014
▁Spilett	-12.0014
▁damsel	-12.0014
▁nursing	-12.0014
▁submarine	-12.0014
▁Milroy	-12.0014
▁spies	-12.0015
▁Cla	-12.0016
▁solely	-12.0017
▁ELIZABETH	-12.0017
▁OMIT	-12.0023
▁prim	-12.0024
▁Pink	-12.0025
▁shameful	-12.0028
▁cruelly	-12.0029
▁automatic	-12.0035
▁MARTHA	-12.0035
▁faculty	-12.0035
▁investigate	-12.0035
▁Shaggy	-12.0035
▁Georges	-12.0035
▁Voice	-12.0035
▁thrice	-12.0036
▁swam	-12.0036
▁SCOTTY	-12.0037
▁Gary	-12.0037
▁Warden	-12.0038
▁awaken	-12.0038
▁Christine	-12.0039
▁cruise	-12.0041
▁SLOW	-12.0041
hem	-12.0042
▁exasperated	-12.0043
▁formula	-12.0048
▁XL	-12.0048
▁FORD	-12.0049
▁entertaining	-12.005
ROBIN	-12.005
▁bounded	-12.0052
▁cats	-12.0052
▁biting	-12.0052
▁120	-12.0052
hot	-12.0052
prise	-12.0054
▁Elsbeth	-12.0057
▁beauties	-12.0057
▁riddle	-12.0058
▁Carteret	-12.0058
round	-12.0059
NG	-12.006
▁According	-12.0061
mile	-12.0061
RED	-12.0062
cart	-12.0063
▁streak	-12.0066
▁endeavor	-12.0067
▁wrench	-12.0067
IAL	-12.0068
True	-12.0068
▁hints	-12.0069
▁piles	-12.0069
▁blades	-12.0071
▁Chat	-12.0074
WARD	-12.0077
▁stride	-12.0078
▁luminous	-12.0078
▁Lambert	-12.0078
▁PATRICK	-12.0079
▁zone	-12.008
nger	-12.0082
uzz	-12.0085
▁torches	-12.0085
▁silhouette	-12.0087
rac	-12.0087
▁dispose	-12.0088
Monsieur	-12.009
onic	-12.0091
▁senseless	-12.0096
▁renew	-12.0097
oid	-12.0099
▁FERGUS	-12.01
▁luxurious	-12.01
▁university	-12.01
▁LAB	-12.01
▁napkin	-12.0102
▁lunges	-12.0102
▁detect	-12.0103
OUS	-12.0112
▁lifeless	-12.0113
▁respectfully	-12.0114
KALE	-12.0117
▁growl	-12.0118
▁mainly	-12.0121
▁puff	-12.0122
▁Avenel	-12.0122
▁arguing	-12.0122
Animation	-12.0122
▁Hear	-12.0122
▁Station	-12.0122
▁roofs	-12.0123
▁pans	-12.0124
ller	-12.0127
▁lowering	-12.013
▁patients	-12.013
wick	-12.0131
▁overboard	-12.0133
▁roast	-12.0133
bridge	-12.0137
▁perpetually	-12.0137
▁telescope	-12.0143
▁fixing	-12.0144
▁Yule	-12.0146
▁frowns	-12.0149
▁cultivated	-12.0151
▁clubs	-12.0153
Par	-12.0154
UNG	-12.0155
LARGE	-12.0156
fore	-12.0158
▁Jill	-12.0159
▁miniature	-12.0165
▁repetition	-12.0165
▁Burke	-12.0166
▁cruiser	-12.0166
▁WADE	-12.0166
▁GIN	-12.0169
▁exaggerated	-12.0169
▁pirate	-12.0169
▁DEAR	-12.0171
▁orchard	-12.0172
▁attire	-12.0175
▁GRI	-12.0177
ordinat	-12.0177
▁excessive	-12.0179
▁passive	-12.0182
Musical	-12.0183
▁hind	-12.0184
▁Crevel	-12.0187
▁Lundie	-12.0187
▁flap	-12.0187
▁inheritance	-12.0187
▁speculation	-12.0188
▁galley	-12.0188
▁representing	-12.0188
ok	-12.0191
▁_[	-12.0192
▁prone	-12.0196
▁Gus	-12.0198
Edward	-12.02
▁alarming	-12.02
before	-12.02
▁quicker	-12.0203
pond	-12.0204
▁rum	-12.0208
▁barge	-12.0208
▁Gwilt	-12.0209
▁PICARD	-12.0209
▁explosive	-12.0209
▁insignificant	-12.0209
▁prodigious	-12.0209
▁AIRPORT	-12.0209
▁commotion	-12.0209
▁aloof	-12.0209
▁barred	-12.0212
▁partition	-12.0214
ago	-12.0215
▁RAND	-12.0216
▁Accordingly	-12.0218
▁reject	-12.0218
▁excite	-12.0218
▁replace	-12.0219
▁plaster	-12.022
nna	-12.022
▁Mlle	-12.0222
trap	-12.0223
▁CLOSER	-12.0224
▁Doesn	-12.0225
▁span	-12.0226
almost	-12.0226
ame	-12.023
▁97	-12.0231
▁Central	-12.0231
▁Ferdinand	-12.0231
▁relating	-12.0231
▁Halbert	-12.0231
turning	-12.0232
▁Enid	-12.0232
wards	-12.0238
▁wot	-12.0238
cop	-12.0238
▁boarding	-12.0241
South	-12.0244
▁posted	-12.0246
▁Pet	-12.0248
▁mothers	-12.0249
▁Moscow	-12.0253
▁Aubert	-12.0253
▁Docchi	-12.0253
▁foresee	-12.0256
!_	-12.0262
▁101	-12.0265
▁whirling	-12.0266
▁PER	-12.0267
▁110	-12.0267
▁Solomon	-12.0275
▁arranging	-12.0275
▁substitute	-12.0275
▁fading	-12.0276
▁scruple	-12.0277
PAULINE	-12.0277
▁smack	-12.0278
lot	-12.0279
▁beak	-12.028
CABLE	-12.0282
▁Times	-12.0286
▁fortress	-12.0286
itz	-12.0286
Family	-12.0288
▁subsequent	-12.0288
▁leagues	-12.0289
▁tents	-12.0291
▁INDY	-12.0293
▁Secret	-12.0297
▁Dawson	-12.0297
▁Ratcliffe	-12.0297
▁economy	-12.0297
▁GARAGE	-12.0297
▁Elaine	-12.0297
▁Merdle	-12.0297
▁clerks	-12.0298
cial	-12.0299
WAYNE	-12.0303
▁effected	-12.0305
▁COMPUTER	-12.0306
▁antagonist	-12.0307
▁Bush	-12.0307
▁scenery	-12.0309
▁180	-12.031
▁murmuring	-12.0312
▁surveyed	-12.0312
▁Fre	-12.0316
▁Neo	-12.0318
▁JEFF	-12.0319
▁spears	-12.0319
▁tedious	-12.032
▁realization	-12.0321
▁Elton	-12.0322
▁doings	-12.0323
▁lui	-12.0325
▁mal	-12.0327
▁crashes	-12.0327
▁cows	-12.0328
▁oddly	-12.0331
lam	-12.0333
zz	-12.0337
DALE	-12.0339
▁critic	-12.0339
tend	-12.034
▁Security	-12.0341
▁obstinacy	-12.0341
▁sanction	-12.0341
bat	-12.0341
▁discomfort	-12.0341
▁zero	-12.0342
rom	-12.0342
▁affectionately	-12.0343
▁wink	-12.0343
dam	-12.0345
▁ridden	-12.0346
▁diversion	-12.0346
▁Commander	-12.0347
▁Scar	-12.0353
EMMA	-12.0353
Western	-12.0355
▁hysterical	-12.0356
!)	-12.0357
▁premises	-12.0358
▁HALLE	-12.0358
▁glowed	-12.0358
▁fetched	-12.0359
▁ABOVE	-12.0364
▁monotonous	-12.0364
▁tissue	-12.0364
▁pang	-12.0364
▁som	-12.0364
▁reluctant	-12.0365
▁strait	-12.0367
▁SU	-12.0367
▁constructed	-12.0371
▁lime	-12.0373
▁ADAM	-12.0376
EIGH	-12.0378
▁ignored	-12.0378
▁slows	-12.0381
▁89	-12.0382
▁Tam	-12.0382
▁research	-12.0383
iously	-12.0383
▁floats	-12.0385
▁electrical	-12.0385
▁sill	-12.0385
▁disbelief	-12.0386
▁expanse	-12.0386
▁technical	-12.0386
▁endowed	-12.0386
▁Coraline	-12.0386
▁fiend	-12.0387
▁stairway	-12.0387
▁shiny	-12.0389
▁dr	-12.0389
vous	-12.0389
▁bang	-12.039
▁intending	-12.039
▁poised	-12.0391
tention	-12.0391
▁rounded	-12.0392
▁settles	-12.0393
▁monitors	-12.0393
▁resolutely	-12.0398
▁pillars	-12.04
▁contradict	-12.04
liv	-12.0405
▁undo	-12.0406
NBECK	-12.0408
▁neutral	-12.0408
▁Bassett	-12.0408
▁defeated	-12.0408
▁vapor	-12.0408
▁starving	-12.0409
▁dem	-12.0409
▁Away	-12.041
UNK	-12.041
▁Rhoda	-12.0411
▁quarrelled	-12.0411
▁poker	-12.0412
▁delicately	-12.0412
▁banner	-12.0412
▁systems	-12.0414
bil	-12.0414
▁NE	-12.0415
▁curses	-12.0415
▁hello	-12.0415
▁scr	-12.0416
▁intrigue	-12.0417
▁NED	-12.0421
enne	-12.0421
_,"	-12.0423
MOORE	-12.0423
Really	-12.0424
▁stooping	-12.0425
▁horrors	-12.0427
seeing	-12.0428
▁Honour	-12.043
▁Edmee	-12.043
▁Ghost	-12.043
▁Meriem	-12.043
▁ambulance	-12.043
▁financial	-12.043
▁imagining	-12.043
▁Pancks	-12.0431
▁TESMAN	-12.0431
▁sample	-12.0431
▁Korak	-12.0431
▁inviting	-12.0431
▁gentleness	-12.0433
▁faltered	-12.0435
▁weaker	-12.0436
▁consultation	-12.0436
▁CALL	-12.0436
ior	-12.0438
▁feat	-12.0438
▁fella	-12.0439
AMES	-12.0439
▁blinded	-12.0441
pet	-12.0443
watch	-12.0444
▁shivered	-12.0446
▁MURPHY	-12.0446
dressed	-12.0447
▁Kent	-12.0449
▁peered	-12.0451
iron	-12.0452
▁specific	-12.0453
rudatta	-12.0453
▁Dunstan	-12.0453
▁Pyramid	-12.0453
▁gratification	-12.0453
▁Scarlet	-12.0453
▁BRIDE	-12.0453
▁Main	-12.0456
▁frontier	-12.0456
▁Might	-12.0457
▁bubble	-12.0457
▁swallows	-12.0459
empt	-12.0459
ibly	-12.0459
Noir	-12.046
books	-12.0462
▁angles	-12.0462
▁objections	-12.0463
▁bout	-12.0466
Con	-12.0467
quest	-12.0468
dozen	-12.0469
ume	-12.0471
ese	-12.0471
▁Gent	-12.0474
▁dungeon	-12.0475
▁inevitably	-12.0475
▁twinkling	-12.0475
▁hymn	-12.0475
▁stumbling	-12.0475
▁translation	-12.0475
▁yu	-12.0476
▁Haw	-12.0476
▁Mabel	-12.0476
▁sunrise	-12.0476
▁watchful	-12.0487
▁reconciled	-12.0488
▁handled	-12.0488
▁excused	-12.0488
▁SIGN	-12.0489
▁include	-12.0489
▁STONE	-12.0494
▁shirts	-12.0497
▁Fortune	-12.0498
▁haggard	-12.0498
▁Camilla	-12.0498
▁transferred	-12.0498
▁canyon	-12.0498
▁slab	-12.0498
band	-12.0499
▁XVI	-12.0499
▁SOLDIER	-12.0501
▁blunder	-12.0503
▁howl	-12.0504
▁acres	-12.0505
▁fathers	-12.0506
▁explore	-12.0507
▁Mountains	-12.0507
▁ash	-12.0508
STA	-12.0508
▁proofs	-12.0509
▁Dom	-12.0509
▁sly	-12.0512
▁habitual	-12.0513
▁exhibit	-12.0514
▁develop	-12.0515
KIM	-12.0516
▁BUCK	-12.0519
aging	-12.052
▁merrily	-12.052
▁Bentley	-12.052
▁feebly	-12.0521
▁Maurice	-12.0521
▁delusion	-12.0521
▁colony	-12.0522
▁Below	-12.0522
▁wo	-12.0523
▁rapidity	-12.0524
SHI	-12.0525
▁stables	-12.0526
▁monks	-12.0526
▁Valentine	-12.0526
▁unusually	-12.0528
▁proclaimed	-12.0529
▁exert	-12.0531
iev	-12.0531
▁sped	-12.0532
▁YOUR	-12.0533
▁detained	-12.0533
▁Allen	-12.0536
PAUSE	-12.0537
EDWARD	-12.0538
▁minded	-12.0539
paper	-12.0539
▁towering	-12.0542
▁Lili	-12.0542
▁Parisian	-12.0542
▁rewarded	-12.0543
▁enclosure	-12.0543
▁unlucky	-12.0543
▁Cup	-12.0543
ku	-12.0544
▁tumble	-12.0545
imb	-12.0547
uin	-12.0548
▁barking	-12.0549
▁cherished	-12.0552
▁Jupiter	-12.0554
▁rebel	-12.0559
▁Emil	-12.0563
tract	-12.0565
▁squad	-12.0566
MIGUEL	-12.0566
▁benevolent	-12.0566
▁desperation	-12.0566
▁insensible	-12.0566
▁tribute	-12.0566
▁Weldon	-12.0566
▁dominion	-12.0566
▁correspondent	-12.0566
spect	-12.0567
▁Juno	-12.0568
▁Person	-12.0568
▁Donnie	-12.0569
▁Mus	-12.0569
87	-12.0571
▁fee	-12.0576
▁appearances	-12.0584
▁Stu	-12.0584
▁SPEED	-12.0585
wel	-12.0586
▁CLOSEUP	-12.0586
VICTOR	-12.0587
seat	-12.0587
▁gracefully	-12.0588
▁MONTAGE	-12.0589
▁phenomenon	-12.0589
▁DARCY	-12.0589
nay	-12.0589
▁RIPLEY	-12.059
▁Deep	-12.0591
▁weeds	-12.0593
▁crane	-12.0593
▁pu	-12.0596
miss	-12.0598
▁muff	-12.06
▁inspect	-12.0601
bone	-12.0601
▁Los	-12.0601
▁cents	-12.0603
▁buckle	-12.0607
▁madly	-12.0607
▁saluted	-12.0608
▁SYDNEY	-12.0609
▁blossoms	-12.061
▁Bla	-12.0611
▁Greshamsbury	-12.0611
▁hustle	-12.0611
▁refinement	-12.0611
▁clapped	-12.0612
▁Hellboy	-12.0612
▁boyish	-12.0612
own	-12.0612
▁marine	-12.0613
▁LEADER	-12.0614
▁PETERS	-12.0614
▁guineas	-12.0615
▁Pick	-12.0615
▁candid	-12.0616
▁Babe	-12.0616
▁reap	-12.0616
▁exercised	-12.0617
ecker	-12.0618
▁TRA	-12.0619
tory	-12.062
▁haze	-12.0622
▁EVIL	-12.0624
▁WAR	-12.0625
▁authors	-12.0625
▁scratched	-12.0625
▁HILL	-12.0626
serve	-12.0627
Claud	-12.0627
▁whereby	-12.0629
▁AGAIN	-12.0634
▁Daisy	-12.0634
▁Nugent	-12.0634
▁exterior	-12.0634
▁flask	-12.0634
▁tavern	-12.0634
▁Fairlie	-12.0634
▁Greenow	-12.0635
▁groans	-12.0636
▁Therese	-12.0637
▁Victoria	-12.0639
▁REV	-12.0641
▁lesser	-12.0641
loo	-12.0644
▁aching	-12.0644
▁rumor	-12.0644
▁embroidered	-12.0644
▁Eva	-12.0644
WILLARD	-12.0645
▁Thought	-12.0647
▁capsules	-12.0648
▁gig	-12.0649
▁estates	-12.0649
▁111	-12.0652
DOUG	-12.0652
▁Nash	-12.0652
mir	-12.0654
▁smells	-12.0655
▁automobile	-12.0657
▁freight	-12.0657
▁Halcombe	-12.0657
▁Babylon	-12.0657
▁steed	-12.0657
▁dingy	-12.0658
▁MAJ	-12.0658
Link	-12.0659
▁searches	-12.0659
rog	-12.066
▁cushion	-12.066
▁glistening	-12.0661
▁SW	-12.0663
▁Tears	-12.0663
▁cheers	-12.0664
met	-12.0666
▁twists	-12.0666
▁huts	-12.0666
▁mused	-12.0668
ancing	-12.067
▁naughty	-12.067
▁blindly	-12.067
▁ram	-12.0671
▁Marsh	-12.0671
▁subjected	-12.0672
▁Flor	-12.0673
▁Meet	-12.0674
▁hare	-12.0674
▁vanish	-12.0676
▁Commissioner	-12.0676
▁performing	-12.0677
▁vers	-12.0678
yne	-12.0679
▁Mozart	-12.068
▁Sholmes	-12.068
▁TUNNEL	-12.068
▁Jennings	-12.068
▁garb	-12.068
▁daddy	-12.0681
jur	-12.0681
▁frustrated	-12.0682
▁weakly	-12.0683
▁gleamed	-12.0684
▁armchair	-12.0684
▁clearer	-12.0685
▁presumed	-12.0685
▁Child	-12.0685
▁fainted	-12.0685
▁Chase	-12.0686
▁widely	-12.0686
▁Than	-12.069
Eh	-12.0693
▁ci	-12.0694
▁strand	-12.0695
MILO	-12.0695
▁survived	-12.0698
worn	-12.0698
Ba	-12.07
▁hunters	-12.0702
▁obscurity	-12.0703
▁Jonson	-12.0703
▁deference	-12.0704
half	-12.0705
OFF	-12.0706
▁factor	-12.0707
▁powerless	-12.0708
▁compel	-12.071
▁glee	-12.0711
ima	-12.0715
▁ignoring	-12.0717
▁burns	-12.0718
▁sed	-12.0719
▁Early	-12.072
▁Own	-12.0722
▁rivers	-12.0723
stained	-12.0723
▁trusting	-12.0724
EDUARDO	-12.0726
▁Desnoyers	-12.0726
▁censure	-12.0726
▁everlasting	-12.0726
▁insurance	-12.0726
step	-12.0726
▁JEFFR	-12.0726
▁brink	-12.0727
▁annual	-12.0728
▁Fancy	-12.0728
▁undone	-12.0728
▁Flora	-12.0729
▁joyful	-12.0729
36	-12.0729
▁Lila	-12.0732
▁errors	-12.0733
▁CHIP	-12.0734
Ye	-12.0734
▁springing	-12.0734
▁gorge	-12.0736
▁RICHARD	-12.0736
▁breadth	-12.0737
▁Lori	-12.0738
▁hardened	-12.0739
bber	-12.074
▁blunt	-12.0741
STEVEN	-12.0742
▁quo	-12.0743
▁strolled	-12.0743
lis	-12.0744
▁Coming	-12.0744
stricken	-12.0745
▁Barr	-12.0747
▁soften	-12.0747
ash	-12.0748
▁energetic	-12.0749
▁majestic	-12.0749
▁102	-12.0749
▁Coupeau	-12.0749
▁undertook	-12.0749
▁Lydia	-12.0749
▁chasing	-12.0749
▁whipped	-12.075
found	-12.0751
▁Lionel	-12.0751
▁rake	-12.0753
▁contradiction	-12.0754
▁rustic	-12.0754
Mi	-12.0754
▁cre	-12.0757
▁banished	-12.0757
▁blinking	-12.076
▁lawful	-12.076
stones	-12.076
MOSS	-12.0762
▁immensely	-12.0762
▁timidly	-12.0765
▁Enough	-12.0767
KY	-12.0768
▁tempt	-12.077
▁armies	-12.0771
▁Marjory	-12.0772
▁calamity	-12.0772
▁Pearl	-12.0772
▁Mart	-12.0772
▁ANDREW	-12.0772
▁matron	-12.0773
▁lashes	-12.0776
▁Ok	-12.0776
▁salon	-12.0779
▁alluded	-12.0781
▁LARGE	-12.0783
▁dice	-12.0783
▁moaning	-12.0785
▁snug	-12.0785
▁JET	-12.0785
▁loading	-12.0791
Exactly	-12.0791
▁misses	-12.0793
▁superb	-12.0794
About	-12.0795
▁chocolate	-12.0795
▁activities	-12.0795
▁paradise	-12.0795
▁rattling	-12.0795
▁rebellion	-12.0795
▁Public	-12.0795
▁BIRD	-12.0795
▁blouse	-12.0796
▁Gamp	-12.0796
ama	-12.0797
fr	-12.0797
DONNIE	-12.0798
SAMMY	-12.0798
▁Edna	-12.0799
▁Trans	-12.08
▁era	-12.0803
▁representation	-12.0805
nc	-12.0805
▁princes	-12.0809
▁Janet	-12.0813
▁despairing	-12.0813
▁ANNOUNCER	-12.0814
▁Joel	-12.0816
37	-12.0817
▁tenant	-12.0818
does	-12.0818
▁Ricardo	-12.0819
▁oxygen	-12.0819
▁coincidence	-12.0819
▁Ain	-12.0819
▁Satan	-12.0819
▁inscription	-12.0819
Th	-12.082
nies	-12.0822
▁expectations	-12.0823
▁speeds	-12.0825
▁meditation	-12.0828
▁ty	-12.083
▁morals	-12.0831
▁Walker	-12.0832
▁reappear	-12.0833
▁repaired	-12.0836
▁BASE	-12.0839
▁softness	-12.0839
▁Aye	-12.0841
▁tuck	-12.0842
▁Sebastian	-12.0842
▁Wilkins	-12.0842
▁sheltered	-12.0844
▁inhuman	-12.0848
▁bleed	-12.0852
▁107	-12.0852
▁DARK	-12.0853
▁solve	-12.0855
▁Gods	-12.0855
uci	-12.0857
▁shutters	-12.0857
Submit	-12.0862
▁core	-12.0864
via	-12.0864
fil	-12.0865
▁Vitti	-12.0865
▁preliminary	-12.0865
▁Harley	-12.0866
STEW	-12.0866
▁antique	-12.0866
▁Bag	-12.0868
▁Herrick	-12.087
▁screens	-12.0871
▁whit	-12.0871
▁comforts	-12.0873
▁singularly	-12.0873
▁Cam	-12.0874
▁swelling	-12.0874
ECT	-12.0875
▁Camera	-12.0877
▁resent	-12.0877
▁MARGE	-12.0877
29	-12.0878
▁NEXT	-12.0878
▁sorrowful	-12.088
turn	-12.088
▁JOSH	-12.0885
software	-12.0885
▁barber	-12.0886
▁SHADOW	-12.0889
▁assumption	-12.0889
▁emperor	-12.0889
▁BLOOD	-12.0889
▁KANE	-12.0889
beam	-12.089
▁paw	-12.0891
▁Aren	-12.0892
▁Winter	-12.0893
▁fans	-12.0893
▁SKY	-12.0894
▁sixth	-12.0895
▁idly	-12.0896
▁whirl	-12.0897
▁Roche	-12.0898
▁yearning	-12.0899
▁widen	-12.09
Such	-12.0902
▁entreated	-12.0902
gown	-12.0906
▁coldness	-12.0907
▁Sophie	-12.0912
▁Pedro	-12.0912
▁WILSON	-12.0912
▁repentance	-12.0913
▁fin	-12.0913
▁elevated	-12.0915
▁Giles	-12.0915
▁Mater	-12.0918
▁blasts	-12.092
▁associate	-12.092
LIGHT	-12.092
▁JOHNNY	-12.0921
▁accidentally	-12.0923
suit	-12.0925
▁nap	-12.0925
Hold	-12.0926
▁tr	-12.0926
Com	-12.0927
▁lama	-12.0928
▁crab	-12.0929
DON	-12.093
]:	-12.0934
▁**19	-12.0936
▁Official	-12.0936
▁commerce	-12.0936
▁divers	-12.0937
▁snare	-12.0938
▁Seaton	-12.0938
▁beads	-12.0939
UFF	-12.094
laid	-12.0942
▁grate	-12.0943
▁whereof	-12.0944
▁handy	-12.0947
▁creed	-12.0948
▁pins	-12.0949
▁husbands	-12.0954
ANDER	-12.0954
ank	-12.0957
▁brim	-12.0959
▁Fletcher	-12.0959
▁Mexico	-12.0959
▁spiral	-12.0959
▁swoon	-12.0959
▁Fortunately	-12.0959
Seinfeld	-12.0959
▁granite	-12.0959
▁Juliet	-12.096
pid	-12.096
▁DANIEL	-12.0961
tempered	-12.0962
▁decides	-12.0962
isse	-12.0963
▁COUNT	-12.0965
▁Lost	-12.0968
▁confine	-12.0969
▁steer	-12.097
▁wrecked	-12.0971
MB	-12.0972
▁Face	-12.0973
);	-12.0974
▁Sky	-12.0974
▁coil	-12.0976
▁Follow	-12.0977
▁fluttered	-12.0977
guard	-12.0978
▁strains	-12.0979
▁sandwich	-12.098
▁deliberation	-12.0983
▁vacation	-12.0983
▁heavier	-12.0983
▁saith	-12.0983
▁perverse	-12.0983
▁Save	-12.0984
▁mounting	-12.0984
▁olive	-12.0984
▁pouch	-12.0986
80	-12.0988
ask	-12.099
▁190	-12.0991
▁decree	-12.0994
Man	-12.0994
▁blinding	-12.0994
▁possessions	-12.0997
▁appealing	-12.0999
▁MC	-12.0999
▁rounds	-12.0999
▁STOP	-12.1001
▁savagely	-12.1002
call	-12.1006
▁martyr	-12.1007
▁CASTLE	-12.1007
▁DIRK	-12.1007
Futurama	-12.1007
▁Gilmore	-12.1007
▁soaked	-12.1007
▁4400	-12.1007
▁FRANCIS	-12.1008
▁SG	-12.1008
▁TURNS	-12.1014
▁freeze	-12.1014
bur	-12.1014
▁safer	-12.1017
gn	-12.1018
▁ripper	-12.102
▁Around	-12.102
▁rhythm	-12.1022
▁veiled	-12.1026
▁plank	-12.1027
▁glimpses	-12.1028
Think	-12.1029
▁habitation	-12.1029
▁MAL	-12.103
▁LONDON	-12.103
▁ROPER	-12.103
▁Sydney	-12.103
▁consternation	-12.103
▁guidance	-12.103
▁DUKE	-12.1031
▁cursing	-12.1031
▁RACIN	-12.1031
▁whiskers	-12.1032
▁Hor	-12.1033
▁distorted	-12.1034
screen	-12.1034
▁Trim	-12.1034
rich	-12.1035
▁Eastern	-12.104
▁pier	-12.1041
▁marshal	-12.1041
▁hurts	-12.1054
ologist	-12.1054
LLOYD	-12.1054
▁Exeter	-12.1054
▁Gascoigne	-12.1054
▁Thwaite	-12.1054
▁emptied	-12.1054
▁coup	-12.1056
ssa	-12.1057
▁cling	-12.1058
▁SET	-12.1058
PK	-12.1058
▁fails	-12.106
▁crouching	-12.1061
▁sometime	-12.1062
▁imply	-12.1066
▁mentally	-12.1068
23	-12.1069
▁inquiring	-12.1069
mann	-12.107
▁Mul	-12.1072
UCH	-12.1074
▁SMASH	-12.1075
▁Pretty	-12.1076
▁Lea	-12.1077
▁exceeding	-12.1078
LONGFELLOW	-12.1078
UARTERS	-12.1078
▁HELICOPTER	-12.1078
▁Vanderpoel	-12.1078
▁parchment	-12.1078
▁persuasion	-12.1078
▁swoop	-12.1078
quis	-12.1079
TAN	-12.1079
▁stature	-12.108
▁reveals	-12.1081
▁boyfriend	-12.1081
▁EXPLODES	-12.1081
▁weekend	-12.1082
▁harp	-12.1084
zon	-12.1085
▁defensive	-12.1086
LESS	-12.1086
▁indistinct	-12.1088
▁Chancellor	-12.1088
▁broom	-12.109
▁badge	-12.1092
▁150	-12.1095
▁trim	-12.1096
▁bee	-12.1098
bout	-12.1099
▁Lavretsky	-12.1102
▁apparition	-12.1102
▁Comm	-12.1102
▁poster	-12.1102
▁grasping	-12.1108
▁spurs	-12.1109
▁divert	-12.111
▁cal	-12.1111
▁SIX	-12.1112
pha	-12.1113
TAR	-12.1114
▁fragment	-12.1115
OF	-12.1115
▁scout	-12.1116
▁Wink	-12.1118
naka	-12.1119
▁listener	-12.1122
▁JESSICA	-12.1123
Captain	-12.1125
▁muscular	-12.1126
▁Darwin	-12.1126
▁solicitude	-12.1126
▁Horse	-12.1126
Lo	-12.1126
ibi	-12.1127
▁scores	-12.1128
▁corridors	-12.1128
▁Toto	-12.113
ESTAT	-12.1131
▁mort	-12.1132
▁honorable	-12.1133
▁anew	-12.1134
▁Laz	-12.1135
ild	-12.1136
▁CAROL	-12.1138
▁statues	-12.1138
HEAD	-12.1139
Isn	-12.1141
OM	-12.1146
▁HAR	-12.1147
▁Bert	-12.1148
HECTOR	-12.1149
▁Abraham	-12.115
▁Clotilde	-12.115
▁Coombe	-12.115
▁Stangerson	-12.115
▁barbarous	-12.115
▁exploit	-12.115
▁squeak	-12.115
▁sturdy	-12.115
▁territory	-12.115
▁spacious	-12.115
▁Revolution	-12.115
▁crank	-12.115
▁architecture	-12.115
▁movies	-12.1151
▁Lynn	-12.1151
▁Jewish	-12.1151
▁Lamb	-12.1153
SPEC	-12.1155
▁incessantly	-12.1157
▁yon	-12.1157
▁PILOT	-12.1158
gla	-12.1167
▁Mountain	-12.1169
eng	-12.1171
▁Us	-12.1171
▁inwardly	-12.1173
mad	-12.1173
KATHLEEN	-12.1174
▁Benedict	-12.1174
▁Rouletabille	-12.1174
▁radiance	-12.1174
▁Director	-12.1174
▁NORMAN	-12.1175
▁scramble	-12.1175
▁bail	-12.1177
▁Damon	-12.1177
▁reel	-12.118
▁err	-12.1181
atur	-12.1182
akr	-12.1182
▁blinks	-12.1183
47	-12.1183
▁ankles	-12.1183
izz	-12.1184
kar	-12.1185
▁contributed	-12.1185
TCH	-12.1188
▁Beach	-12.1189
dia	-12.119
▁contemptuous	-12.119
▁shrieked	-12.1191
▁foreigner	-12.1192
▁ascertained	-12.1194
▁SARA	-12.1196
ORE	-12.1198
▁SUMMER	-12.1198
▁DINING	-12.1198
▁Chamber	-12.1198
▁Search	-12.1199
▁Barfoot	-12.1199
▁org	-12.1199
▁Wangel	-12.1199
▁rend	-12.12
▁plateau	-12.12
▁Bye	-12.1201
sized	-12.1202
▁hillside	-12.1204
▁obligations	-12.1206
▁exp	-12.1207
▁pew	-12.1208
▁reconcile	-12.1209
▁involve	-12.121
▁meadows	-12.1211
▁quivered	-12.1212
▁gen	-12.1213
▁INSERT	-12.1213
tho	-12.1213
▁Frances	-12.1214
▁extending	-12.1214
▁lapse	-12.1214
▁tended	-12.1215
▁REVERSE	-12.1215
."--"	-12.1215
▁resisted	-12.1216
▁guides	-12.1219
▁gait	-12.1221
JEFF	-12.1222
▁Beautrelet	-12.1223
▁Imperial	-12.1223
▁Penguin	-12.1223
▁inexplicable	-12.1223
▁Valiant	-12.1223
▁Middleton	-12.1223
▁rustling	-12.1223
▁Ike	-12.1224
▁109	-12.1224
ood	-12.1226
▁diminished	-12.1228
▁wherefore	-12.123
▁countless	-12.1231
▁orator	-12.1232
▁atop	-12.1232
uid	-12.1233
▁believes	-12.1233
▁whirled	-12.1235
▁ROCK	-12.1236
EEDY	-12.1236
cross	-12.1236
MATER	-12.1236
▁publicly	-12.1237
▁Garden	-12.1238
▁JOAN	-12.124
▁sexual	-12.1243
DF	-12.1244
▁Banks	-12.1246
▁MANAGER	-12.1247
▁companies	-12.1247
▁MILK	-12.1247
▁kitten	-12.1247
CALVIN	-12.1247
▁network	-12.1249
▁Mitch	-12.1249
▁Prew	-12.1253
▁gull	-12.1257
▁Whoa	-12.1258
▁benches	-12.126
▁rocket	-12.1264
▁plucked	-12.1265
ROW	-12.1268
▁Barb	-12.1268
_."	-12.1272
▁gripped	-12.1272
posed	-12.1272
▁dit	-12.1276
▁terrifying	-12.1277
▁merchants	-12.1277
poor	-12.1277
▁devoured	-12.128
▁Camp	-12.128
▁Spaniard	-12.1287
▁triumphantly	-12.1287
MARTY	-12.1288
▁container	-12.1288
▁terrors	-12.1291
▁trout	-12.1292
Bo	-12.1293
▁HAMMOND	-12.1296
▁Smiley	-12.1296
▁desolation	-12.1296
▁illustrious	-12.1296
▁involuntary	-12.1296
▁rejoicing	-12.1296
▁Sleep	-12.1296
▁organs	-12.1296
▁perchance	-12.1296
▁Freddie	-12.1296
GIRL	-12.1296
▁tiptoe	-12.1296
FIELD	-12.1296
▁Cleves	-12.1298
▁repay	-12.1298
ROKO	-12.13
▁Nat	-12.1307
▁al	-12.1309
▁KELLY	-12.1311
▁continuous	-12.1311
▁cho	-12.1313
▁Henri	-12.1315
▁ornament	-12.1316
▁Going	-12.1316
▁marches	-12.1318
▁stony	-12.132
uh	-12.1321
front	-12.1321
▁Pay	-12.1321
▁alight	-12.1323
▁Pole	-12.1323
▁afflicted	-12.1324
▁Exactly	-12.1324
▁caressing	-12.1328
▁bully	-12.133
▁slap	-12.1331
▁contemplate	-12.1331
blu	-12.1334
▁112	-12.1335
▁rumour	-12.1337
▁Turning	-12.1338
▁beaming	-12.1339
[...]
