<unk>	0
<s>	0
</s>	0
,	-3.05923
▁the	-3.27064
.	-3.36779
▁and	-3.89918
▁to	-3.8998
▁of	-3.93543
▁a	-4.13448
▁I	-4.45742
▁**	-4.45979
▁.	-4.50073
▁in	-4.50183
'	-4.52373
▁	-4.73109
▁that	-4.74302
▁"	-4.79937
▁was	-4.82054
▁he	-4.87279
s	-4.88474
▁his	-4.89178
▁it	-4.89494
▁you	-4.92831
▁her	-5.05615
▁with	-5.14212
▁had	-5.20484
▁'	-5.2095
▁as	-5.26024
▁is	-5.26468
▁for	-5.26887
;	-5.30372
▁,	-5.34585
▁on	-5.38519
▁at	-5.40335
▁not	-5.42726
-	-5.46866
▁be	-5.48838
▁him	-5.5063
▁she	-5.51384
**	-5.61753
▁have	-5.6568
▁The	-5.66168
▁me	-5.71052
▁my	-5.77266
--	-5.8147
▁but	-5.83425
."	-5.84454
▁from	-5.84737
▁He	-5.8535
▁this	-5.87709
t	-5.88326
▁all	-5.89384
▁by	-5.8968
▁which	-5.95427
▁said	-5.97577
▁they	-6.05099
▁so	-6.05203
?	-6.06062
▁out	-6.1026
▁up	-6.10798
▁were	-6.10836
,"	-6.12916
▁one	-6.13105
▁-	-6.14757
▁would	-6.16636
!	-6.17933
▁are	-6.18699
▁(	-6.1964
▁an	-6.20788
▁we	-6.24459
▁been	-6.27393
▁them	-6.27906
▁no	-6.29906
▁there	-6.34637
▁or	-6.35942
▁into	-6.37539
▁what	-6.37774
I	-6.38249
▁do	-6.41866
▁your	-6.4207
▁who	-6.42245
▁their	-6.42439
▁if	-6.43722
▁s	-6.45051
▁It	-6.45467
▁She	-6.46364
▁will	-6.49336
▁when	-6.50764
▁could	-6.50778
▁man	-6.55849
▁And	-6.56996
▁know	-6.57362
▁like	-6.58184
▁more	-6.58406
▁can	-6.58975
:	-6.60429
?"	-6.60875
▁now	-6.61296
▁about	-6.62951
▁But	-6.63072
▁down	-6.69459
▁very	-6.70477
▁?	-6.71435
▁then	-6.72218
▁back	-6.73983
▁...	-6.74776
▁You	-6.7529
▁see	-6.75483
▁time	-6.76172
▁some	-6.76623
▁did	-6.7794
▁over	-6.78276
▁little	-6.80104
▁A	-6.80632
▁has	-6.83457
▁Mr	-6.86067
▁than	-6.86311
▁any	-6.88879
▁other	-6.90732
)	-6.91043
▁should	-6.9347
▁go	-6.94758
▁upon	-6.9801
▁only	-6.98695
▁_	-6.98947
▁before	-7.01445
▁come	-7.0384
▁think	-7.04525
▁don	-7.05243
!"	-7.05621
▁--	-7.05639
▁good	-7.06148
▁two	-7.06889
▁way	-7.07668
▁made	-7.07891
▁us	-7.0871
▁never	-7.09331
▁much	-7.09565
▁here	-7.09699
▁just	-7.10568
▁again	-7.1065
▁himself	-7.11468
▁say	-7.11547
▁****	-7.12305
▁must	-7.13933
▁They	-7.14187
▁own	-7.14317
▁such	-7.14326
▁our	-7.15223
▁t	-7.16076
▁through	-7.18299
▁away	-7.18382
▁eyes	-7.19764
▁off	-7.20374
▁old	-7.21996
▁too	-7.221
▁get	-7.22667
▁hand	-7.23251
▁might	-7.23782
▁after	-7.25425
▁)	-7.2586
▁first	-7.26188
▁well	-7.26773
▁great	-7.28092
▁am	-7.28617
▁came	-7.2897
▁What	-7.29134
▁make	-7.29316
▁!	-7.29526
▁We	-7.30107
▁face	-7.30342
▁long	-7.30879
▁thought	-7.32194
d	-7.33011
▁door	-7.33401
▁still	-7.34387
▁where	-7.34875
▁how	-7.35031
▁right	-7.35678
ll	-7.37489
▁head	-7.37714
▁its	-7.37784
▁day	-7.38627
m	-7.40149
▁life	-7.40164
▁even	-7.42148
▁There	-7.43203
▁these	-7.43435
▁take	-7.43471
▁look	-7.44291
▁went	-7.44413
▁may	-7.4511
▁men	-7.45465
▁going	-7.46012
▁got	-7.46611
’	-7.46641
▁last	-7.46684
▁room	-7.47207
▁shall	-7.49989
▁Mrs	-7.49993
▁In	-7.50639
▁without	-7.51112
▁being	-7.52286
▁nothing	-7.53166
▁tell	-7.54017
S	-7.54061
▁:	-7.55882
_	-7.57127
▁something	-7.57793
▁THE	-7.58531
re	-7.59019
▁house	-7.59062
▁those	-7.59914
▁ever	-7.60589
▁want	-7.61382
▁moment	-7.61674
▁That	-7.62265
▁looks	-7.62355
...	-7.63081
▁INT	-7.63608
▁another	-7.6374
▁This	-7.63938
▁young	-7.64217
▁people	-7.6466
▁thing	-7.64887
▁Then	-7.65372
▁“	-7.65841
▁yet	-7.66
▁love	-7.66657
▁though	-7.66659
▁place	-7.67038
▁while	-7.68709
▁left	-7.68941
▁mind	-7.69047
▁[	-7.70302
▁As	-7.70441
▁saw	-7.70455
▁most	-7.70614
▁No	-7.7103
▁once	-7.71055
a	-7.71405
▁every	-7.72398
and	-7.72547
▁things	-7.73248
▁night	-7.73766
▁found	-7.73994
▁woman	-7.74008
▁knew	-7.74864
▁put	-7.75265
▁same	-7.75375
▁looked	-7.75943
▁father	-7.76136
▁hands	-7.7669
▁S	-7.77133
▁under	-7.77472
▁around	-7.79372
▁give	-7.79536
▁against	-7.79659
▁always	-7.80438
▁world	-7.80502
▁let	-7.80628
You	-7.80724
▁many	-7.81429
e	-7.81503
▁seemed	-7.82207
▁herself	-7.82556
▁side	-7.8266
▁If	-7.83021
▁told	-7.83204
▁******	-7.8448
▁took	-7.84496
▁heart	-7.85658
▁better	-7.85751
▁heard	-7.85994
▁done	-7.86541
▁His	-7.86814
▁DAY	-7.88133
▁asked	-7.88246
ve	-7.88943
▁mother	-7.89861
▁three	-7.90334
▁enough	-7.90362
▁find	-7.91557
▁course	-7.9215
▁re	-7.92387
▁When	-7.94479
▁because	-7.94493
▁home	-7.94811
▁work	-7.94832
▁seen	-7.95902
▁quite	-7.96793
▁looking	-7.96866
▁few	-7.97241
▁far	-7.97508
▁behind	-7.9856
▁between	-7.9876
ing	-7.9887
▁light	-7.98964
▁half	-8.00677
▁each	-8.00881
▁girl	-8.0094
▁myself	-8.01538
▁So	-8.02506
▁new	-8.02616
▁anything	-8.02649
▁felt	-8.03289
▁open	-8.03406
▁almost	-8.03417
▁years	-8.03422
▁voice	-8.03425
▁m	-8.03754
)**	-8.04611
▁friend	-8.06224
▁name	-8.07934
▁end	-8.07974
▁both	-8.08485
▁TO	-8.08806
,--	-8.09869
▁sure	-8.09889
▁words	-8.10204
▁word	-8.10263
▁NIGHT	-8.1053
▁turned	-8.1063
▁next	-8.10854
▁having	-8.11568
▁Miss	-8.12071
▁At	-8.12197
▁EXT	-8.12199
▁part	-8.13493
▁mean	-8.13528
▁whole	-8.13638
It	-8.13668
▁)**	-8.13955
▁hear	-8.14733
▁For	-8.14935
▁money	-8.17024
▁soon	-8.17264
▁whom	-8.17594
▁wife	-8.17932
▁morning	-8.18049
▁gone	-8.18068
▁really	-8.18253
▁matter	-8.18265
n	-8.18496
▁dear	-8.19567
▁water	-8.20349
▁also	-8.20875
▁God	-8.21825
▁Oh	-8.22803
▁believe	-8.23316
▁together	-8.23538
"	-8.23625
The	-8.24033
▁began	-8.24227
▁set	-8.24429
▁gave	-8.24581
▁stood	-8.24647
▁does	-8.25257
▁small	-8.2527
▁round	-8.25397
▁Now	-8.25848
▁O	-8.25985
the	-8.26093
▁To	-8.26441
/	-8.26641
▁days	-8.27182
▁How	-8.27719
▁kind	-8.278
▁feet	-8.28471
▁leave	-8.28602
▁called	-8.2865
▁why	-8.28698
▁didn	-8.28708
▁poor	-8.28764
▁keep	-8.29088
▁sir	-8.29091
A	-8.29622
▁turns	-8.2964
▁air	-8.29733
▁since	-8.30058
What	-8.30601
▁white	-8.31187
▁alone	-8.31467
▁table	-8.31575
▁Lady	-8.32346
▁best	-8.32486
▁coming	-8.32518
▁help	-8.33004
▁brought	-8.33311
But	-8.34276
▁full	-8.34358
And	-8.34436
▁rather	-8.34599
▁across	-8.34728
▁My	-8.34958
▁Sir	-8.3522
▁window	-8.35581
▁call	-8.35894
▁taken	-8.36275
▁**(	-8.36686
▁along	-8.36731
▁toward	-8.37214
▁boy	-8.37337
▁need	-8.37894
▁bed	-8.38017
▁speak	-8.38542
▁till	-8.38803
y	-8.38942
▁.**	-8.3953
▁talk	-8.39598
▁feel	-8.39661
▁All	-8.39719
▁until	-8.39935
](/	-8.39987
▁hope	-8.40415
Oh	-8.40561
▁front	-8.40921
▁D	-8.4095
▁cried	-8.41325
▁towards	-8.41615
▁comes	-8.41778
▁lady	-8.42347
Yes	-8.42427
▁black	-8.42681
▁dead	-8.42863
▁Well	-8.4295
▁sat	-8.43054
▁child	-8.43077
▁already	-8.4406
▁nor	-8.44105
▁Why	-8.44118
▁Her	-8.445
▁car	-8.44765
▁hard	-8.45128
▁among	-8.45624
▁perhaps	-8.45801
▁won	-8.45902
that	-8.46115
▁indeed	-8.46177
▁answered	-8.46376
▁high	-8.46384
▁replied	-8.46446
▁de	-8.47173
No	-8.47555
▁present	-8.48232
▁understand	-8.48337
▁fire	-8.48413
▁Lord	-8.48698
▁less	-8.49278
▁body	-8.49697
in	-8.49786
▁others	-8.50279
▁least	-8.50563
▁passed	-8.50663
▁dark	-8.51169
▁takes	-8.51213
▁above	-8.51335
▁near	-8.51641
▁cannot	-8.51685
▁else	-8.51828
▁letter	-8.52019
▁turn	-8.52026
▁On	-8.52091
▁son	-8.52162
▁ask	-8.52699
▁doing	-8.52866
▁everything	-8.53378
▁wish	-8.54124
▁care	-8.54343
▁close	-8.54437
but	-8.55118
▁answer	-8.55137
▁ground	-8.55401
▁suddenly	-8.55575
▁whose	-8.55635
▁arm	-8.55676
▁death	-8.5575
▁true	-8.5659
▁hour	-8.56711
▁One	-8.56911
▁given	-8.56939
Well	-8.57213
▁thou	-8.57479
▁question	-8.57516
▁large	-8.57761
▁country	-8.58408
▁case	-8.58522
▁however	-8.58558
▁goes	-8.58583
▁family	-8.58661
▁arms	-8.58834
▁rest	-8.59059
▁point	-8.59084
▁friends	-8.59524
▁big	-8.59548
▁floor	-8.59602
▁With	-8.60176
▁children	-8.60259
▁brother	-8.60508
▁lost	-8.60531
?'	-8.60632
▁ll	-8.60679
▁second	-8.60713
▁John	-8.61318
▁live	-8.61525
▁business	-8.61556
▁read	-8.61959
▁themselves	-8.61964
▁sound	-8.6254
▁past	-8.62577
▁making	-8.62703
▁certain	-8.62811
▁lay	-8.62915
▁ON	-8.63025
▁d	-8.63886
▁short	-8.6397
He	-8.64025
▁Yes	-8.64046
▁known	-8.64346
▁used	-8.64542
▁women	-8.64732
▁*	-8.6477
r	-8.64843
▁hair	-8.6506
▁husband	-8.65239
▁OF	-8.65265
▁evening	-8.6578
▁fact	-8.65913
▁use	-8.66257
▁says	-8.66451
.”	-8.66683
▁sort	-8.66709
▁wall	-8.66928
▁power	-8.67083
▁doubt	-8.67247
--"	-8.67513
▁idea	-8.68583
▁wanted	-8.68693
▁ready	-8.68872
to	-8.68888
▁four	-8.68892
o	-8.68944
▁o	-8.69154
▁truth	-8.69721
ed	-8.69729
▁fear	-8.69896
▁within	-8.70169
▁eye	-8.70235
▁hundred	-8.70235
._	-8.7031
▁manner	-8.7121
▁whether	-8.71253
INT	-8.71594
▁Don	-8.721
▁means	-8.72544
D	-8.72808
▁held	-8.73071
▁doesn	-8.73796
▁hold	-8.73841
▁either	-8.73925
▁person	-8.7394
▁yourself	-8.73943
▁reason	-8.74448
▁forward	-8.74453
▁taking	-8.74583
▁smile	-8.74599
▁become	-8.74618
▁happy	-8.74649
▁sight	-8.74861
▁itself	-8.74897
▁times	-8.7521
▁often	-8.75211
▁show	-8.75408
▁returned	-8.75658
O	-8.75707
▁run	-8.76149
▁spoke	-8.76605
▁slowly	-8.76693
▁kept	-8.7685
▁order	-8.76886
▁town	-8.77111
▁year	-8.77167
▁standing	-8.77489
▁possible	-8.77667
▁five	-8.77672
▁bad	-8.77735
▁silence	-8.7777
▁suppose	-8.7827
▁steps	-8.78783
▁feeling	-8.78852
▁walk	-8.78985
▁walks	-8.79066
▁Not	-8.79308
▁stand	-8.7951
▁sent	-8.79524
▁strange	-8.79617
▁pretty	-8.79865
▁Do	-8.80201
▁saying	-8.8021
▁able	-8.8025
▁blood	-8.809
▁return	-8.81003
▁Let	-8.81028
▁Of	-8.81679
▁fell	-8.81877
▁sense	-8.81906
▁red	-8.81911
▁longer	-8.81977
▁remember	-8.8213
▁trying	-8.82436
That	-8.8249
▁CONTINUED	-8.82526
▁fellow	-8.82556
▁fine	-8.82559
▁happened	-8.82716
▁street	-8.82999
▁sitting	-8.83594
▁sister	-8.83814
▁daughter	-8.83943
▁sea	-8.84032
▁thinking	-8.8427
,”	-8.84342
▁thee	-8.84387
▁bring	-8.84448
▁After	-8.85035
▁ten	-8.85082
▁beautiful	-8.85337
▁chair	-8.85496
▁mine	-8.85992
▁getting	-8.861
▁followed	-8.86351
▁thy	-8.86534
▁mouth	-8.86765
▁became	-8.87086
▁wrong	-8.87872
i	-8.88163
it	-8.88211
▁thus	-8.88378
▁AND	-8.88529
▁deep	-8.88628
▁thousand	-8.88906
▁gentleman	-8.88998
you	-8.89403
▁CONT	-8.89423
▁talking	-8.89544
▁nature	-8.89585
▁low	-8.89656
▁M	-8.90054
▁stands	-8.90139
▁cold	-8.90359
▁soul	-8.90366
▁story	-8.90384
▁seems	-8.90556
▁strong	-8.90562
▁meet	-8.91266
▁late	-8.92019
▁Tom	-8.9217
▁road	-8.92255
▁pulls	-8.92308
er	-8.92438
▁clear	-8.92443
▁ve	-8.92462
▁earth	-8.92477
▁living	-8.92617
▁real	-8.92714
▁sits	-8.92789
▁appeared	-8.93287
▁makes	-8.93382
▁gets	-8.94123
▁ought	-8.94201
▁different	-8.9453
▁hours	-8.94543
▁try	-8.9468
▁afraid	-8.94751
▁line	-8.95104
▁several	-8.95663
▁watch	-8.95835
▁human	-8.95845
▁ROOM	-8.95854
▁inside	-8.95916
▁continued	-8.96199
▁/	-8.9626
▁waiting	-8.96353
▁met	-8.96875
▁tried	-8.96985
Why	-8.97123
We	-8.97185
▁V	-8.97307
▁sorry	-8.97318
▁free	-8.97931
▁rose	-8.97962
▁position	-8.97988
▁move	-8.98089
▁starts	-8.98125
▁play	-8.98442
▁stop	-8.98506
▁chance	-8.98726
▁subject	-8.98901
▁sit	-8.99107
▁sun	-8.99151
▁master	-8.99227
▁lips	-8.99424
▁beat	-8.99669
▁sees	-8.99859
▁opened	-9.00012
▁Here	-9.00024
!'	-9.00057
▁quickly	-9.00106
▁Who	-9.0021
▁minutes	-9.00263
▁stay	-9.00318
h	-9.00456
▁twenty	-9.00629
▁cut	-9.00655
▁beyond	-9.00765
▁therefore	-9.0114
▁change	-9.01227
▁Yeah	-9.01432
▁trouble	-9.01623
▁corner	-9.01692
▁Where	-9.02232
▁outside	-9.02373
▁tears	-9.02744
▁CUT	-9.02756
▁seem	-9.028
▁Just	-9.02832
▁horse	-9.02993
▁glass	-9.03015
▁state	-9.0305
▁walked	-9.03417
▁doctor	-9.03443
▁form	-9.03814
he	-9.0409
▁phone	-9.04109
▁glad	-9.04109
▁foot	-9.04305
▁isn	-9.04407
▁please	-9.04564
▁Captain	-9.04674
▁added	-9.04905
▁top	-9.04997
▁view	-9.05037
▁knows	-9.05723
▁book	-9.05761
▁sleep	-9.06158
▁further	-9.06674
▁paper	-9.06915
▁during	-9.06935
▁Jack	-9.07188
If	-9.07346
▁IN	-9.07436
▁seeing	-9.07702
▁Mary	-9.07834
]	-9.07978
▁bit	-9.08093
▁ran	-9.08444
▁lot	-9.08461
▁interest	-9.08682
▁wind	-9.08723
▁London	-9.08784
▁office	-9.08974
▁CHAPTER	-9.09224
▁self	-9.09237
▁deal	-9.09339
▁land	-9.09478
▁dinner	-9.09482
▁none	-9.09665
▁ago	-9.09797
▁distance	-9.10031
▁certainly	-9.1011
▁hardly	-9.10376
▁beside	-9.10742
▁pass	-9.10885
as	-9.11102
▁wait	-9.11157
▁King	-9.11368
▁reached	-9.1149
▁ship	-9.11888
▁six	-9.12044
▁company	-9.12329
▁quiet	-9.12542
;--	-9.12587
▁figure	-9.12743
ly	-9.12787
▁received	-9.12937
▁From	-9.13068
▁Come	-9.13172
▁sometimes	-9.13196
▁silent	-9.13215
▁fall	-9.1337
▁gun	-9.13371
▁party	-9.13389
▁wouldn	-9.13448
▁pay	-9.13461
▁married	-9.13704
▁ill	-9.13719
▁entered	-9.13902
▁gonna	-9.14412
l	-9.14473
▁shoulder	-9.14831
▁moves	-9.14905
▁shot	-9.1492
▁attention	-9.1526
▁later	-9.15298
for	-9.15373
▁stopped	-9.15448
▁neither	-9.15709
▁die	-9.16033
▁pleasure	-9.16059
▁forth	-9.16274
▁loved	-9.16443
▁running	-9.16518
There	-9.16623
▁opens	-9.16916
▁immediately	-9.17203
▁caught	-9.17373
▁easy	-9.17453
▁seat	-9.17497
▁holding	-9.17838
▁heavy	-9.17973
▁step	-9.17982
▁carried	-9.18249
EXT	-9.18503
▁led	-9.18657
▁week	-9.18861
▁start	-9.19101
▁watching	-9.19208
▁blue	-9.19763
My	-9.19772
▁broken	-9.20501
▁fair	-9.20645
▁English	-9.20674
▁By	-9.20756
▁city	-9.20765
▁thoughts	-9.20879
▁account	-9.20979
▁school	-9.20982
▁bear	-9.21009
▁tone	-9.21376
▁Dr	-9.21503
▁below	-9.21776
▁smiles	-9.21974
▁except	-9.22078
▁breath	-9.22108
▁number	-9.22387
room	-9.22474
▁follow	-9.22487
She	-9.2252
▁conversation	-9.22717
▁cause	-9.2286
▁early	-9.23323
▁girls	-9.23324
▁An	-9.23397
▁necessary	-9.23522
▁lived	-9.2362
▁Your	-9.23901
▁couldn	-9.23942
▁straight	-9.24059
▁wonder	-9.24089
▁age	-9.24089
▁remained	-9.24266
▁wild	-9.24428
▁moved	-9.25012
▁spirit	-9.25043
▁character	-9.25107
▁save	-9.25294
▁secret	-9.25543
▁laugh	-9.25892
▁crowd	-9.25947
▁leaving	-9.26659
E	-9.26701
▁yes	-9.26785
▁ye	-9.26814
▁minute	-9.26928
▁turning	-9.27464
▁trees	-9.2761
▁marriage	-9.27768
▁stops	-9.27869
▁general	-9.28254
▁probably	-9.2841
How	-9.28411
▁laid	-9.28611
▁purpose	-9.28666
▁boat	-9.28756
▁fast	-9.28774
▁walking	-9.28832
▁presence	-9.28835
▁following	-9.28892
▁length	-9.29067
▁George	-9.29396
▁sweet	-9.29579
▁neck	-9.30027
▁T	-9.30269
▁started	-9.30575
▁heads	-9.30627
▁C	-9.30687
_,	-9.30755
▁sudden	-9.31239
▁drew	-9.3124
▁months	-9.31411
▁meant	-9.31552
▁future	-9.31557
▁sign	-9.31836
▁war	-9.32085
▁nearly	-9.32167
▁duty	-9.32235
▁speaking	-9.32406
▁fight	-9.32447
▁force	-9.32712
▁piece	-9.3279
▁send	-9.33038
▁struck	-9.33092
▁write	-9.33099
▁drink	-9.33115
▁gold	-9.33384
▁expression	-9.33496
▁green	-9.33584
▁scene	-9.3374
▁opinion	-9.33768
▁filled	-9.33907
▁dog	-9.34202
▁closed	-9.34426
▁darkness	-9.34614
▁whatever	-9.34724
▁desire	-9.34749
▁hall	-9.34933
▁public	-9.34984
▁pocket	-9.35015
▁B	-9.35042
▁impossible	-9.35225
▁kill	-9.35258
▁king	-9.35289
▁moving	-9.35496
▁These	-9.35756
▁HOUSE	-9.36066
▁strength	-9.36328
▁natural	-9.3635
▁effect	-9.36572
▁empty	-9.36659
▁hat	-9.36664
▁laughed	-9.36784
▁exclaimed	-9.3725
▁Will	-9.37315
▁SHOT	-9.37719
day	-9.37742
▁England	-9.37759
▁giving	-9.37794
▁dress	-9.38123
▁beginning	-9.38154
▁occasion	-9.38295
▁church	-9.38325
▁knowledge	-9.38358
if	-9.38439
▁direction	-9.3845
▁clothes	-9.38775
CONT	-9.38862
▁wasn	-9.3936
▁break	-9.39421
▁Good	-9.39452
▁middle	-9.39692
▁begin	-9.39694
▁act	-9.39721
▁service	-9.39944
▁garden	-9.39981
▁puts	-9.40077
▁art	-9.40129
▁common	-9.40268
▁usual	-9.40452
▁sky	-9.40717
▁music	-9.40753
▁pain	-9.40775
▁onto	-9.4079
▁cry	-9.40835
em	-9.40852
▁law	-9.4088
▁wide	-9.40961
▁gives	-9.41041
▁marry	-9.41052
▁eat	-9.41104
▁box	-9.41162
▁runs	-9.414
▁bright	-9.414
▁Some	-9.41411
▁beauty	-9.41485
▁beneath	-9.41605
▁nice	-9.41708
▁begins	-9.41785
▁note	-9.42135
▁Are	-9.42142
▁terrible	-9.42196
Y	-9.42441
▁fingers	-9.42647
or	-9.42648
▁single	-9.42986
Do	-9.43065
▁stares	-9.43234
▁Hey	-9.43262
▁shut	-9.43592
▁afternoon	-9.43668
▁died	-9.43963
▁lord	-9.44111
▁St	-9.4412
▁hot	-9.44285
▁instant	-9.44621
▁wished	-9.44778
▁tree	-9.45044
▁visit	-9.45195
▁river	-9.45202
alphabetical	-9.45204
▁news	-9.45226
▁2	-9.45287
▁circumstances	-9.45312
▁Harry	-9.45391
▁object	-9.45485
▁desk	-9.45554
▁captain	-9.45677
▁joy	-9.45742
▁grabs	-9.45853
▁stone	-9.45959
▁uncle	-9.46024
▁holds	-9.46134
▁creature	-9.46187
▁expected	-9.46332
▁worse	-9.46462
▁touch	-9.46541
▁carry	-9.46542
▁escape	-9.46571
▁reach	-9.46579
▁honour	-9.46626
▁ladies	-9.46635
▁kitchen	-9.46742
▁grew	-9.47057
▁Joe	-9.47231
▁picture	-9.47239
▁raised	-9.47319
▁stairs	-9.47345
▁written	-9.47517
▁learned	-9.47526
▁watches	-9.47732
▁lying	-9.47839
▁Can	-9.47929
▁fortune	-9.48126
▁boys	-9.48566
▁showed	-9.48817
Then	-9.48856
▁soft	-9.48886
▁space	-9.49068
▁covered	-9.49112
▁perfect	-9.49127
▁angry	-9.49134
▁legs	-9.49195
▁guy	-9.49257
▁food	-9.49279
▁exactly	-9.49285
▁youth	-9.49296
▁forget	-9.49308
▁Look	-9.49439
▁lie	-9.495
▁broke	-9.49562
▁quick	-9.49597
▁instead	-9.49682
▁worth	-9.49684
▁guess	-9.49743
▁P	-9.49836
▁leaves	-9.49938
▁surprise	-9.49987
▁walls	-9.50259
▁miles	-9.50422
▁edge	-9.50441
▁sake	-9.50482
▁working	-9.50514
▁building	-9.50816
▁David	-9.50867
is	-9.50894
▁spoken	-9.51243
▁Yet	-9.51292
▁books	-9.51318
▁appearance	-9.51342
▁couple	-9.5166
▁promise	-9.51763
▁ain	-9.51787
▁changed	-9.51965
▁safe	-9.52008
?”	-9.52043
▁nods	-9.52071
▁trust	-9.5249
▁simply	-9.52633
▁New	-9.52748
▁understood	-9.52754
▁reaches	-9.52855
▁ears	-9.52871
ING	-9.52964
▁rich	-9.5298
▁placed	-9.53332
▁danger	-9.53377
T	-9.53762
Ah	-9.53829
▁Did	-9.54021
▁dressed	-9.54025
_.	-9.54054
▁shoulders	-9.54176
▁Two	-9.54191
They	-9.54331
▁serious	-9.54589
▁Madame	-9.54598
▁notice	-9.54723
▁hath	-9.54776
▁aunt	-9.54864
▁finally	-9.54914
▁1	-9.54941
▁happiness	-9.55116
▁game	-9.55373
▁baby	-9.5538
▁surprised	-9.55839
morrow	-9.55847
!--	-9.55857
▁train	-9.55977
▁reading	-9.56352
▁supposed	-9.56395
▁shook	-9.56499
▁allowed	-9.56706
▁pale	-9.56835
▁plain	-9.56855
▁places	-9.57402
not	-9.57476
▁enters	-9.57516
▁rock	-9.5758
▁spot	-9.576
▁peace	-9.57628
▁pleased	-9.57643
▁ear	-9.57746
▁lights	-9.5792
▁French	-9.57921
▁doors	-9.57933
▁easily	-9.57936
▁glance	-9.57947
▁hurt	-9.58368
▁haven	-9.58601
▁huge	-9.58603
▁knowing	-9.58703
▁Even	-9.58911
▁killed	-9.5902
clock	-9.59212
▁quietly	-9.59297
▁reply	-9.59357
▁observed	-9.59496
▁remain	-9.59511
u	-9.5954
▁drawing	-9.59569
▁wants	-9.59751
▁telling	-9.5978
▁third	-9.60024
▁particular	-9.60196
c	-9.60689
▁liked	-9.60707
▁journey	-9.60754
▁L	-9.60819
▁arrived	-9.60876
▁nose	-9.60896
▁evil	-9.6094
▁simple	-9.61224
.]	-9.6124
▁paid	-9.61332
▁lives	-9.61433
▁bound	-9.61456
▁situation	-9.61534
▁ahead	-9.61585
▁tea	-9.61591
),	-9.61694
▁enter	-9.61739
▁Suddenly	-9.61742
▁gate	-9.61832
▁Martin	-9.61913
▁talked	-9.61921
▁private	-9.61954
▁expect	-9.62039
▁altogether	-9.62069
▁hell	-9.62123
▁listen	-9.62125
▁MAN	-9.62178
▁tries	-9.62279
▁dream	-9.62409
▁fresh	-9.62416
▁smiled	-9.62639
▁flowers	-9.62729
▁bag	-9.62761
▁Man	-9.62829
▁smiling	-9.63156
▁servant	-9.63166
▁Peter	-9.63167
Not	-9.63401
▁repeated	-9.63525
▁Frank	-9.63585
▁respect	-9.63752
▁pleasant	-9.6378
▁Dorothy	-9.63816
▁staring	-9.63991
▁rate	-9.64061
▁speech	-9.64082
▁aware	-9.64084
▁laughing	-9.64191
▁appear	-9.64278
▁wood	-9.64406
▁sword	-9.6446
▁lead	-9.64777
▁coat	-9.6479
▁cousin	-9.65025
▁cast	-9.6504
▁offer	-9.65108
▁fixed	-9.65125
▁meeting	-9.65138
▁Paris	-9.65233
▁bottom	-9.6528
▁believed	-9.65297
▁letters	-9.65329
▁somewhat	-9.65415
▁although	-9.65453
▁horses	-9.65559
▁faces	-9.65598
▁Sam	-9.65646
▁threw	-9.66033
▁Nothing	-9.66115
▁important	-9.66235
▁perfectly	-9.66677
▁ANGLE	-9.66824
▁points	-9.67057
▁happen	-9.67113
▁blow	-9.67124
▁declared	-9.67288
▁VOICE	-9.67306
▁passion	-9.67451
▁alive	-9.67455
▁board	-9.67527
▁lose	-9.67539
▁smoke	-9.67704
▁condition	-9.67901
▁entirely	-9.67975
▁action	-9.68067
▁unless	-9.68117
▁knees	-9.68223
▁passing	-9.68274
▁experience	-9.68335
ueen	-9.68367
▁playing	-9.68382
▁village	-9.6847
▁wine	-9.6864
she	-9.68661
▁learn	-9.68694
▁Or	-9.68704
V	-9.68705
▁CLOSE	-9.68896
▁dropped	-9.68938
▁watched	-9.69014
▁pause	-9.69104
▁spite	-9.69361
▁proper	-9.69366
▁path	-9.69582
▁cross	-9.69613
▁Okay	-9.69658
▁stranger	-9.69758
▁heaven	-9.69816
of	-9.69884
▁windows	-9.69912
▁aside	-9.69918
▁opportunity	-9.70047
▁society	-9.70095
▁determined	-9.70139
▁fit	-9.70181
C	-9.7024
▁anxious	-9.70312
▁seven	-9.70425
▁Go	-9.70538
▁afterwards	-9.70606
▁fallen	-9.70694
▁putting	-9.70736
▁drive	-9.70748
▁drawn	-9.70767
▁fool	-9.70779
▁memory	-9.7097
▁Get	-9.71003
▁lies	-9.71008
.)**	-9.71028
▁appears	-9.71103
Now	-9.71209
like	-9.71247
▁opening	-9.71313
es	-9.71407
▁grave	-9.71432
genre	-9.71541
▁hit	-9.71587
▁someone	-9.71633
▁greater	-9.71645
▁teeth	-9.71736
▁group	-9.71757
▁waited	-9.71958
▁thick	-9.71961
▁warm	-9.71994
▁carefully	-9.72208
▁gentlemen	-9.72274
▁born	-9.72299
▁merely	-9.72611
▁noise	-9.72659
▁writing	-9.7269
▁history	-9.72794
▁charge	-9.72843
▁dare	-9.7285
▁difficulty	-9.72886
▁opposite	-9.72887
▁sharp	-9.72974
▁court	-9.73024
an	-9.73071
what	-9.73313
th	-9.7338
This	-9.73677
▁likely	-9.73857
▁questions	-9.7386
g	-9.73896
▁wonderful	-9.73972
▁nobody	-9.74056
▁breakfast	-9.74057
▁kiss	-9.74258
▁l	-9.74282
▁field	-9.74394
▁regard	-9.74557
▁carrying	-9.74823
▁former	-9.7485
▁latter	-9.74856
▁Prince	-9.75042
▁guys	-9.75137
▁screen	-9.75204
▁tired	-9.75223
▁finished	-9.75242
▁personal	-9.75395
▁bar	-9.75427
▁wrote	-9.75459
▁tall	-9.75467
▁Their	-9.75502
▁difficult	-9.75551
▁hate	-9.75573
▁sad	-9.75598
▁LATER	-9.75607
▁companion	-9.75661
▁comfort	-9.75739
▁thank	-9.76026
▁rising	-9.7643
R	-9.76558
▁falls	-9.76567
▁mere	-9.76603
▁discovered	-9.76608
▁suit	-9.76687
▁Only	-9.76716
▁fifty	-9.76758
▁Duke	-9.7677
▁stage	-9.76776
▁actually	-9.77063
on	-9.77089
▁thrown	-9.7718
▁pair	-9.77307
▁sick	-9.77339
▁picks	-9.77402
▁obliged	-9.7752
▁spent	-9.77732
▁eight	-9.77739
▁House	-9.77761
▁feelings	-9.77798
▁allow	-9.77824
▁proud	-9.77832
▁pride	-9.77884
▁job	-9.77985
▁effort	-9.7801
▁settled	-9.78166
▁attempt	-9.78478
CUT	-9.78483
▁roof	-9.78505
▁carriage	-9.78522
▁summer	-9.78562
▁matters	-9.78697
▁promised	-9.78715
▁noble	-9.78784
▁considered	-9.78892
▁various	-9.78909
▁scarcely	-9.78929
Don	-9.78929
▁un	-9.78961
▁thirty	-9.79073
▁courage	-9.79169
▁honest	-9.79221
▁finger	-9.79249
▁battle	-9.79255
▁Jesus	-9.7933
▁weeks	-9.79368
▁hung	-9.79574
▁American	-9.79793
▁loud	-9.7981
▁Doctor	-9.79821
▁plan	-9.79836
▁seated	-9.79853
▁offered	-9.80026
▁remembered	-9.80037
▁especially	-9.8006
▁catch	-9.80108
ED	-9.8014
at	-9.80156
CONTINUED	-9.80159
▁shadow	-9.80191
▁Charles	-9.80194
▁police	-9.80269
▁Street	-9.80312
▁okay	-9.8038
▁calm	-9.80393
▁mad	-9.80504
To	-9.80593
!”	-9.80624
▁narrow	-9.80756
▁asleep	-9.80836
▁BACK	-9.80854
▁month	-9.80891
▁guard	-9.81113
▁tongue	-9.8115
N	-9.81361
▁shit	-9.81396
▁throat	-9.81476
▁touched	-9.81528
▁surface	-9.81557
▁pounds	-9.81614
▁control	-9.81719
▁burst	-9.81724
▁pity	-9.81844
▁gently	-9.8187
▁CAMERA	-9.82013
▁faith	-9.8202
▁apartment	-9.82158
▁wearing	-9.82211
▁Ralph	-9.82241
▁hill	-9.82313
▁forgotten	-9.82351
▁Ah	-9.82448
▁anybody	-9.82518
▁drop	-9.82532
▁race	-9.82846
night	-9.82863
en	-9.83001
▁ring	-9.83034
▁CONTINUOUS	-9.83146
▁rain	-9.8321
▁pull	-9.83367
▁throw	-9.83371
▁J	-9.83418
▁whispered	-9.83571
▁follows	-9.83584
▁forest	-9.83589
▁Master	-9.83619
▁terror	-9.83629
▁yours	-9.83684
▁mistress	-9.83789
▁prepared	-9.83965
▁presently	-9.84059
▁Our	-9.84135
▁everybody	-9.84161
▁ball	-9.84166
▁calling	-9.84174
▁explain	-9.8419
no	-9.84192
▁lines	-9.84288
▁station	-9.84447
▁judge	-9.84499
In	-9.84561
▁bank	-9.84662
so	-9.84702
▁Perhaps	-9.84704
▁drops	-9.84708
▁ways	-9.84932
So	-9.85077
▁Anne	-9.8519
▁slow	-9.85275
▁thin	-9.85317
▁continues	-9.85353
▁la	-9.85447
▁shop	-9.85493
▁moon	-9.85547
▁coffee	-9.85582
▁snow	-9.85601
▁fancy	-9.85624
▁rise	-9.8564
▁closer	-9.85776
▁Have	-9.85855
▁passage	-9.85866
▁While	-9.85876
▁difference	-9.86024
▁iron	-9.86062
▁stuff	-9.86129
▁breast	-9.86162
▁decided	-9.8622
▁enemy	-9.86389
▁resolved	-9.86458
▁property	-9.86496
▁success	-9.86532
▁Was	-9.86539
we	-9.86563
▁spring	-9.86806
▁completely	-9.87066
▁entrance	-9.87072
▁Maybe	-9.87082
▁Before	-9.87187
▁chest	-9.87193
▁brain	-9.87371
▁silver	-9.87412
▁keeping	-9.87508
▁bottle	-9.87577
▁Like	-9.87807
▁yellow	-9.8794
▁confidence	-9.87953
▁knife	-9.87975
▁anyone	-9.88053
▁chamber	-9.88074
▁unto	-9.88245
▁listening	-9.88307
▁shore	-9.88337
▁conduct	-9.88387
▁pulled	-9.88673
▁result	-9.88682
▁language	-9.88983
▁Father	-9.89074
▁anger	-9.89078
▁class	-9.8918
▁fly	-9.89203
▁Ben	-9.89488
▁share	-9.89612
▁lower	-9.89652
▁ancient	-9.89822
▁command	-9.89911
▁affair	-9.90009
▁distant	-9.90229
▁Emily	-9.90248
▁forced	-9.90252
▁meaning	-9.90347
▁ourselves	-9.90397
▁hearing	-9.90408
▁engaged	-9.90444
▁E	-9.90618
▁special	-9.90662
▁intended	-9.90685
")	-9.90868
▁Lucy	-9.90991
▁gentle	-9.91133
▁directly	-9.91207
?--	-9.91216
▁spread	-9.91444
▁key	-9.91545
▁listened	-9.91553
which	-9.91617
▁orders	-9.9163
▁sounds	-9.91948
▁maybe	-9.91963
▁complete	-9.92004
▁dance	-9.92131
▁grass	-9.92194
▁chief	-9.92211
▁papers	-9.92272
▁fault	-9.92277
▁thinks	-9.92284
▁clean	-9.92488
▁glances	-9.92541
▁asking	-9.92649
▁shakes	-9.9302
▁moments	-9.93065
▁vain	-9.9308
▁TV	-9.9311
▁CAR	-9.93114
▁broad	-9.93141
▁Henry	-9.93394
▁busy	-9.93446
▁study	-9.93462
▁horror	-9.93503
▁surely	-9.93507
▁twice	-9.93671
▁finding	-9.93844
▁growing	-9.93863
▁falling	-9.93916
▁bedroom	-9.94006
Come	-9.94204
▁camera	-9.94236
Of	-9.94392
▁dry	-9.94417
▁fucking	-9.94447
▁Had	-9.94635
▁bent	-9.9468
▁receive	-9.94868
▁Such	-9.94909
▁clearly	-9.94952
▁lover	-9.95062
▁worked	-9.95199
▁explained	-9.95399
▁Dick	-9.95403
▁Tell	-9.95409
▁See	-9.95441
▁3	-9.95464
▁deck	-9.95483
▁G	-9.95602
▁taste	-9.95603
▁Bill	-9.9566
▁handsome	-9.95918
▁influence	-9.9595
man	-9.9599
▁consider	-9.96053
▁weak	-9.96175
▁slight	-9.96235
▁Paul	-9.96515
▁curious	-9.96531
▁advice	-9.96539
▁wise	-9.96571
▁fate	-9.96741
▁hole	-9.96782
▁Jones	-9.96871
▁ride	-9.96873
▁weight	-9.96959
▁frightened	-9.97079
▁softly	-9.97114
B	-9.97169
▁pieces	-9.97246
▁buy	-9.97301
▁Laura	-9.97438
▁greatest	-9.97653
▁false	-9.9772
Let	-9.97727
▁devil	-9.97767
▁officer	-9.97779
▁servants	-9.97809
▁faint	-9.9792
▁familiar	-9.97931
▁imagine	-9.97931
▁noticed	-9.97961
▁island	-9.98125
▁movement	-9.9815
▁due	-9.98158
▁satisfied	-9.98511
▁affairs	-9.98627
▁hanging	-9.98759
▁persons	-9.98995
▁**********	-9.99092
▁failed	-9.99334
▁Thus	-9.99341
▁cover	-9.99358
▁Colonel	-9.99436
▁brown	-9.99503
▁streets	-9.99553
▁post	-9.99575
▁slightly	-9.997
▁twelve	-9.99723
▁quarter	-9.99898
▁somewhere	-9.99909
▁attack	-10.0002
▁dust	-10.0004
by	-10.0005
▁shirt	-10.0019
▁delight	-10.0021
▁mountain	-10.0024
▁Old	-10.0033
▁paused	-10.0034
▁affection	-10.0057
▁loss	-10.0057
▁skin	-10.0057
▁spirits	-10.0074
▁However	-10.0079
▁ideas	-10.0096
▁according	-10.011
with	-10.0111
▁UP	-10.0121
▁soldiers	-10.0133
▁Every	-10.015
▁speed	-10.0165
▁formed	-10.0166
▁mirror	-10.0171
▁fashion	-10.0197
▁somebody	-10.0199
▁social	-10.0203
▁advantage	-10.0208
▁lovely	-10.0208
▁search	-10.0217
▁Alice	-10.0222
▁justice	-10.0226
▁absolutely	-10.0227
▁draw	-10.0239
▁concerned	-10.0245
▁dozen	-10.0248
▁mistake	-10.0248
▁wore	-10.0268
▁countenance	-10.0279
▁satisfaction	-10.0279
▁pointed	-10.0285
▁OFFICE	-10.0292
▁Monsieur	-10.0293
▁main	-10.0308
▁health	-10.0312
▁interested	-10.0316
▁existence	-10.0322
▁message	-10.0323
▁POV	-10.0337
▁degree	-10.0345
▁occurred	-10.0355
▁Thank	-10.0361
▁grown	-10.0363
▁vast	-10.0369
▁Polly	-10.0369
▁sooner	-10.037
all	-10.0377
▁crying	-10.0385
▁instantly	-10.0392
▁yesterday	-10.0403
▁worst	-10.0404
▁entire	-10.0414
▁leading	-10.0414
▁STREET	-10.0416
▁doorway	-10.0425
▁Still	-10.0436
▁everyone	-10.0444
▁equal	-10.0448
▁flesh	-10.0448
▁stream	-10.0449
▁grow	-10.045
▁Anna	-10.0461
▁K	-10.0475
▁cool	-10.0477
▁APARTMENT	-10.0489
▁waves	-10.0492
▁suggested	-10.0492
▁throws	-10.0499
▁otherwise	-10.0501
▁prove	-10.0505
▁generally	-10.0513
▁truly	-10.0523
▁machine	-10.0524
▁stick	-10.0528
▁played	-10.0547
▁nearer	-10.0555
▁dangerous	-10.056
▁song	-10.0572
▁besides	-10.0577
▁Another	-10.0577
▁houses	-10.0584
▁bread	-10.0584
▁shame	-10.0585
▁remarked	-10.0588
K	-10.0599
▁forehead	-10.0604
M	-10.0617
▁evidence	-10.062
▁possession	-10.0621
▁Mark	-10.0624
▁ordinary	-10.0626
▁expressed	-10.0627
▁R	-10.0631
▁saved	-10.0637
▁shown	-10.0645
▁double	-10.0661
▁bare	-10.0665
▁mentioned	-10.0678
there	-10.0692
▁tiny	-10.07
▁weather	-10.0705
▁pick	-10.0706
▁Because	-10.0721
▁passes	-10.0726
f	-10.0732
▁higher	-10.0739
▁hidden	-10.0744
▁Christian	-10.0747
▁Would	-10.0748
house	-10.0767
▁lifted	-10.0782
▁hotel	-10.0784
▁animal	-10.0785
▁Uncle	-10.0786
▁tender	-10.0787
▁shaking	-10.0793
▁welcome	-10.0796
....	-10.0796
▁wear	-10.08
▁mention	-10.0802
▁works	-10.0803
▁conscious	-10.0815
▁frame	-10.0822
▁Great	-10.0828
Good	-10.0833
▁desired	-10.0834
▁Maggie	-10.0845
▁information	-10.0863
▁period	-10.0866
▁Billy	-10.0869
▁cruel	-10.0873
▁William	-10.0879
▁events	-10.0884
▁pressed	-10.0885
▁pray	-10.0885
▁approach	-10.0905
▁army	-10.0906
▁OUT	-10.0914
▁hoped	-10.0915
▁greatly	-10.0931
▁begun	-10.0935
L	-10.0936
▁worthy	-10.0938
▁acquaintance	-10.0947
▁problem	-10.0948
▁sorrow	-10.0949
▁possibly	-10.0951
▁rooms	-10.0954
▁needed	-10.0955
▁nervous	-10.0962
▁fond	-10.0963
▁relief	-10.0963
▁crossed	-10.0972
Is	-10.098
▁SCENE	-10.1
Who	-10.1007
▁produced	-10.101
▁accept	-10.1015
▁shape	-10.1026
▁cup	-10.1035
▁Sunday	-10.1038
▁France	-10.1041
://	-10.1049
▁winter	-10.1051
▁forty	-10.1052
▁ordered	-10.1054
▁sides	-10.1054
▁Script	-10.1055
▁fuck	-10.1066
▁kid	-10.1071
▁bridge	-10.1077
▁perceived	-10.1093
▁Church	-10.1099
▁White	-10.1109
▁York	-10.1109
▁cries	-10.1111
▁despair	-10.1115
▁ease	-10.1125
Mr	-10.1138
▁terms	-10.114
▁kids	-10.1144
▁Chapter	-10.1148
▁storm	-10.1149
▁le	-10.1149
▁nine	-10.115
▁grand	-10.1152
▁beg	-10.1155
▁pure	-10.1162
▁parts	-10.1165
▁dying	-10.1165
▁support	-10.1169
▁Please	-10.1177
▁unhappy	-10.1181
▁laughter	-10.1181
▁blind	-10.1184
w	-10.1186
▁Take	-10.1189
▁unable	-10.1195
▁caused	-10.1197
▁bore	-10.1209
▁grief	-10.121
▁Adam	-10.1215
looking	-10.1215
▁store	-10.122
▁leg	-10.1227
THE	-10.1231
est	-10.1231
▁bird	-10.1248
▁F	-10.1257
▁apart	-10.1264
▁motion	-10.1272
▁names	-10.1274
▁MRS	-10.1277
▁leans	-10.1278
▁Thomas	-10.128
▁shouldn	-10.1285
▁impression	-10.1296
▁possessed	-10.1302
▁burning	-10.1311
▁harm	-10.1311
▁gotta	-10.1316
▁truck	-10.1329
▁castle	-10.133
▁Once	-10.1335
▁golden	-10.135
▁join	-10.1355
▁kissed	-10.1355
▁gaze	-10.1357
▁friendship	-10.1371
▁loose	-10.1372
▁hits	-10.1373
▁suffered	-10.1374
p	-10.1383
▁rough	-10.139
▁excellent	-10.1407
▁visible	-10.1408
▁taught	-10.1408
▁today	-10.141
▁dreadful	-10.1417
▁showing	-10.1423
▁willing	-10.1425
▁gathered	-10.1433
▁excitement	-10.1436
▁speaks	-10.1439
▁calls	-10.1447
am	-10.1462
▁square	-10.1464
All	-10.1483
▁seized	-10.1486
▁keeps	-10.1506
▁flying	-10.1508
▁4	-10.1511
▁corridor	-10.1518
▁evidently	-10.1521
▁shadows	-10.1532
▁value	-10.1537
▁Christ	-10.1544
▁driven	-10.1547
▁birds	-10.1548
▁unknown	-10.1548
▁continue	-10.1554
▁rage	-10.1557
▁page	-10.1557
they	-10.1563
▁hide	-10.1567
▁HIS	-10.1571
▁regarded	-10.1572
▁ceased	-10.1578
▁final	-10.1584
▁circle	-10.1585
▁maid	-10.1589
▁wound	-10.1606
▁comfortable	-10.1608
▁wondered	-10.1623
▁Jim	-10.1626
▁awful	-10.1629
▁sand	-10.1632
▁level	-10.1642
▁metal	-10.1642
▁hurry	-10.1644
▁favour	-10.1648
▁camp	-10.1653
▁rocks	-10.1655
▁finds	-10.1658
▁flat	-10.1665
▁Thou	-10.1671
▁n	-10.1689
▁built	-10.1692
▁fighting	-10.17
▁pardon	-10.1701
▁choice	-10.1704
▁seek	-10.171
▁farther	-10.1711
▁parents	-10.1714
up	-10.1715
▁fully	-10.1719
▁ashamed	-10.1724
▁forgive	-10.1736
▁lawyer	-10.1744
▁JACK	-10.1745
▁mighty	-10.1746
▁[_	-10.1751
▁Never	-10.1756
▁bow	-10.1773
▁interesting	-10.1778
▁proved	-10.178
▁cheek	-10.1784
▁agreed	-10.1785
▁hadn	-10.1787
▁anxiety	-10.1794
▁dull	-10.1798
▁Heaven	-10.1809
▁Jane	-10.181
▁May	-10.1836
▁stare	-10.1845
▁supper	-10.1849
▁younger	-10.1852
▁miserable	-10.1853
my	-10.1854
▁apparently	-10.1858
▁serve	-10.1866
▁system	-10.1872
▁fish	-10.1879
▁shock	-10.1886
▁sufficient	-10.189
▁temper	-10.189
▁deeply	-10.1893
▁shake	-10.1895
▁disappeared	-10.1897
▁flight	-10.19
▁James	-10.1902
▁ha	-10.1905
▁check	-10.1907
▁ended	-10.1915
▁extraordinary	-10.1918
▁sought	-10.1923
▁approaches	-10.193
▁friendly	-10.1931
▁Little	-10.1936
▁innocent	-10.194
▁et	-10.1963
▁shoes	-10.1965
▁education	-10.1966
▁cheeks	-10.1969
▁excited	-10.1971
▁count	-10.1976
▁curiosity	-10.1995
▁excuse	-10.1996
Your	-10.2
▁marked	-10.2003
▁address	-10.2015
▁approaching	-10.2022
▁Nor	-10.2022
▁trembling	-10.2032
▁brave	-10.2055
▁Be	-10.206
▁image	-10.2064
▁Movie	-10.2069
▁gray	-10.2072
▁forgot	-10.2074
▁grey	-10.2075
▁interrupted	-10.2081
----"	-10.2087
▁5	-10.2103
H	-10.2103
P	-10.2105
▁heat	-10.2106
▁locked	-10.2106
▁report	-10.2107
▁lad	-10.2111
▁dollars	-10.2113
▁prison	-10.2118
▁task	-10.2118
▁remains	-10.2123
▁mountains	-10.2129
▁older	-10.213
▁ice	-10.213
▁imagination	-10.2135
▁refused	-10.2138
▁Princess	-10.214
▁hopes	-10.2146
tis	-10.2148
▁Bob	-10.2148
▁absence	-10.215
▁N	-10.215
▁Michael	-10.2153
▁rush	-10.2157
▁luck	-10.216
▁Three	-10.2172
▁rapidly	-10.2182
▁accident	-10.2187
▁BEDROOM	-10.2189
▁First	-10.2194
▁10	-10.2198
▁Aunt	-10.2203
▁intention	-10.2211
▁careful	-10.2219
▁picked	-10.2222
▁oh	-10.2225
▁stupid	-10.2228
▁America	-10.2231
▁bitter	-10.2235
▁honor	-10.2244
Illustration	-10.2244
▁match	-10.2257
▁strike	-10.2268
▁enjoy	-10.2271
▁yards	-10.2281
▁woods	-10.229
▁firm	-10.2291
Where	-10.23
▁ma	-10.23
▁occupied	-10.2311
▁struggle	-10.2312
▁required	-10.2313
▁somehow	-10.2317
▁assured	-10.232
▁inquired	-10.235
▁Right	-10.2351
▁served	-10.2363
.)	-10.2376
▁features	-10.2381
▁understanding	-10.2387
▁odd	-10.2394
▁kindly	-10.2402
law	-10.2407
▁Something	-10.2413
▁approached	-10.2415
▁crazy	-10.2433
▁fat	-10.2436
▁advanced	-10.2442
▁arrival	-10.2446
▁particularly	-10.2449
▁necessity	-10.2452
▁stars	-10.2452
▁JOHN	-10.2461
▁tonight	-10.247
▁worry	-10.2481
▁safety	-10.2483
▁bell	-10.2484
▁Mike	-10.2485
▁habit	-10.2486
▁driving	-10.2488
▁prevent	-10.2495
▁wet	-10.2495
▁mysterious	-10.2499
▁closes	-10.25
▁creatures	-10.2502
▁eating	-10.2502
▁freedom	-10.2508
▁Though	-10.2511
▁cat	-10.2514
▁surrounded	-10.2518
▁steel	-10.2533
▁voices	-10.2539
▁naturally	-10.2568
▁demanded	-10.2573
▁north	-10.2576
▁rises	-10.2581
▁confused	-10.2582
▁peculiar	-10.2583
▁admit	-10.2584
▁pushes	-10.2588
▁i	-10.2591
----	-10.2595
▁(_	-10.26
▁vision	-10.2606
imsdb	-10.2607
▁powerful	-10.261
▁H	-10.261
▁card	-10.2613
▁sleeping	-10.2616
▁grace	-10.2619
▁needs	-10.2619
▁succeeded	-10.262
▁club	-10.2627
▁convinced	-10.2645
one	-10.2646
▁Arthur	-10.2648
▁clever	-10.266
▁hang	-10.2662
When	-10.2665
▁everywhere	-10.2669
▁presented	-10.2681
▁drove	-10.27
▁cost	-10.2703
▁WITH	-10.2708
▁becoming	-10.2712
▁forms	-10.2716
▁stared	-10.2718
▁ones	-10.2718
▁feared	-10.2726
▁accepted	-10.2728
▁Robert	-10.2738
▁express	-10.2739
▁sympathy	-10.2742
▁pulling	-10.2745
▁wheel	-10.2747
▁soldier	-10.2748
▁named	-10.2748
ness	-10.2766
▁laughs	-10.2768
▁delicate	-10.2773
▁choose	-10.2773
▁Mother	-10.2776
Upon	-10.2781
▁wishes	-10.2784
▁leaning	-10.2785
▁miss	-10.2785
▁instance	-10.2794
▁Nick	-10.2794
▁9	-10.2795
▁cabin	-10.2804
▁mark	-10.2811
▁bought	-10.2821
▁energy	-10.2822
▁Charlie	-10.283
▁Which	-10.2834
k	-10.2843
▁singing	-10.2845
▁murder	-10.2853
▁HER	-10.2864
▁yard	-10.2879
▁lock	-10.2887
▁bosom	-10.2887
who	-10.2892
▁officers	-10.2902
▁joined	-10.2908
▁pipe	-10.2909
▁fun	-10.291
▁crime	-10.292
▁signs	-10.292
▁whisper	-10.2924
b	-10.2929
▁AT	-10.2931
▁usually	-10.2934
▁authority	-10.2947
▁base	-10.2947
▁Red	-10.2948
Very	-10.296
:--	-10.2962
▁beast	-10.2966
▁wooden	-10.2967
▁escaped	-10.2969
▁kindness	-10.2974
▁midst	-10.298
▁guns	-10.2982
▁cloud	-10.2988
▁lamp	-10.2996
▁sigh	-10.2997
▁row	-10.3006
▁slept	-10.3008
▁charming	-10.301
▁Phineas	-10.3012
▁emotion	-10.302
▁Edward	-10.3025
▁attitude	-10.3034
▁HE	-10.3043
▁bringing	-10.3043
▁conscience	-10.3046
▁religion	-10.3055
▁suffer	-10.3056
▁win	-10.3061
▁shows	-10.3062
▁eager	-10.3064
▁Those	-10.3066
▁bodies	-10.309
▁Earl	-10.3094
▁avoid	-10.3095
▁thanks	-10.3101
▁helped	-10.3102
▁Smith	-10.3109
▁style	-10.3113
▁suffering	-10.3115
▁Court	-10.3117
As	-10.3124
▁German	-10.3138
▁violent	-10.3143
▁pushed	-10.3145
▁hangs	-10.3149
▁consequence	-10.3151
For	-10.3165
▁liberty	-10.318
▁Grace	-10.3181
▁jumps	-10.3186
▁press	-10.319
▁Count	-10.3192
▁General	-10.3202
▁priest	-10.3202
▁President	-10.3203
▁interview	-10.3223
▁Indeed	-10.3224
▁tight	-10.3225
▁Again	-10.3238
▁hearts	-10.3238
▁wealth	-10.3241
▁dogs	-10.3245
▁rear	-10.3256
▁clouds	-10.3259
▁SAM	-10.3263
▁treated	-10.3265
▁Hello	-10.3268
▁size	-10.3278
▁worn	-10.3282
▁8	-10.3284
▁hurried	-10.3288
▁Philip	-10.33
▁horrible	-10.3315
▁band	-10.3316
do	-10.3317
▁mass	-10.3321
▁reasons	-10.3322
▁stepped	-10.3329
▁proceeded	-10.3332
▁shoot	-10.3334
▁weary	-10.3343
▁suspicion	-10.3347
▁considerable	-10.3348
▁madam	-10.3358
▁Margaret	-10.3363
▁measure	-10.3366
▁CHARLIE	-10.337
▁leads	-10.3372
▁contrary	-10.3374
▁returning	-10.3374
▁drunk	-10.3377
▁confusion	-10.3377
▁becomes	-10.3378
▁dignity	-10.3382
▁YOU	-10.3383
▁admitted	-10.339
▁cap	-10.3393
▁wounded	-10.3402
▁rode	-10.3414
▁wings	-10.3414
▁kisses	-10.3414
Are	-10.3419
▁capable	-10.3421
▁equally	-10.3422
G	-10.3441
▁MORNING	-10.3446
▁reader	-10.3447
▁counter	-10.345
▁nurse	-10.3459
▁content	-10.346
▁extremely	-10.346
▁sell	-10.3477
▁plainly	-10.3478
▁mercy	-10.3489
▁utter	-10.3509
▁example	-10.3511
▁proof	-10.3513
▁claim	-10.3515
▁uttered	-10.3533
▁plenty	-10.3537
▁fill	-10.3543
▁importance	-10.355
▁breaking	-10.355
▁rule	-10.3552
▁birth	-10.3553
▁dancing	-10.3554
▁delighted	-10.3559
com	-10.356
▁fellows	-10.3561
▁drinking	-10.3564
▁clock	-10.3565
▁aid	-10.3567
▁colour	-10.3574
▁crew	-10.3581
▁Max	-10.3582
▁Besides	-10.3583
▁blame	-10.3585
▁upper	-10.3586
▁upstairs	-10.3596
▁cottage	-10.3601
▁government	-10.3603
▁reads	-10.3604
▁misery	-10.3605
▁p	-10.3608
▁closely	-10.3616
▁consideration	-10.3621
▁Hall	-10.3624
▁political	-10.3631
▁direct	-10.364
▁shouted	-10.3641
▁pen	-10.3643
▁fifteen	-10.3654
▁judgment	-10.3656
▁TWO	-10.3658
▁cont	-10.3675
▁glanced	-10.3675
▁Give	-10.3681
▁Finally	-10.3693
▁spare	-10.3701
▁arranged	-10.3709
was	-10.3711
▁prisoner	-10.3711
▁guests	-10.372
Here	-10.3721
▁WE	-10.3747
▁WOMAN	-10.376
▁North	-10.376
▁brief	-10.3764
when	-10.377
▁alarm	-10.3774
▁spend	-10.3775
▁virtue	-10.3775
▁flower	-10.378
this	-10.3782
▁pictures	-10.3787
▁native	-10.3788
▁feels	-10.3791
▁departure	-10.3797
▁flame	-10.3802
▁dim	-10.3805
▁stretched	-10.3808
▁MIKE	-10.3819
▁height	-10.3822
▁rank	-10.3823
Have	-10.3826
▁rushed	-10.3826
▁foolish	-10.3827
▁price	-10.383
▁MR	-10.3831
▁melancholy	-10.3837
▁animals	-10.3848
▁facts	-10.3849
▁shining	-10.387
▁wicked	-10.3876
▁south	-10.3886
▁modern	-10.3886
▁addressed	-10.3889
▁assure	-10.3894
▁Roger	-10.3901
▁startled	-10.3902
▁lit	-10.3902
▁moral	-10.3915
▁assistance	-10.3917
▁tear	-10.3922
▁naked	-10.3925
▁starting	-10.3928
▁Ann	-10.3928
▁risk	-10.3929
▁utterly	-10.3942
▁concern	-10.3952
▁radio	-10.3954
▁dining	-10.3957
▁female	-10.3959
▁rolled	-10.396
▁refuse	-10.3961
▁sum	-10.3965
▁Rachel	-10.3968
▁pointing	-10.3972
▁progress	-10.3974
▁glory	-10.3976
▁happens	-10.3979
▁triumph	-10.398
▁cigarette	-10.3981
▁guilty	-10.3995
▁NICK	-10.4002
▁cars	-10.4003
▁buried	-10.4009
▁cell	-10.4012
www	-10.402
how	-10.4032
▁tomorrow	-10.404
▁original	-10.4045
▁minds	-10.4051
▁fail	-10.4051
▁trial	-10.4058
▁accustomed	-10.4062
▁remarkable	-10.4066
▁flash	-10.4073
▁Fred	-10.4077
▁glasses	-10.4089
▁anywhere	-10.409
▁thrust	-10.4092
▁audience	-10.4094
us	-10.4096
ON	-10.4099
▁boots	-10.4107
▁bearing	-10.412
▁hears	-10.4122
▁rope	-10.4127
▁thoroughly	-10.4131
▁beer	-10.4132
▁People	-10.4133
▁estate	-10.4133
▁figures	-10.4138
▁removed	-10.4143
▁fairly	-10.4147
▁proposed	-10.4152
▁breathing	-10.4153
▁vessel	-10.4156
▁companions	-10.4157
▁amount	-10.4163
▁slave	-10.4172
▁jacket	-10.4175
▁setting	-10.4181
▁flung	-10.4186
▁request	-10.4191
▁reflection	-10.4192
▁tale	-10.4198
▁ceiling	-10.4198
▁valley	-10.4201
▁mystery	-10.4212
▁daily	-10.4221
▁credit	-10.4223
▁informed	-10.4224
▁brow	-10.4231
▁nodded	-10.4236
▁affected	-10.424
▁sprang	-10.424
▁roll	-10.4241
▁driver	-10.4256
▁awake	-10.4261
▁regret	-10.4266
▁members	-10.4276
▁enormous	-10.4281
▁confess	-10.4283
▁sin	-10.4298
▁ya	-10.4298
http	-10.43
▁chain	-10.4304
▁Hi	-10.4315
▁gradually	-10.4324
▁throwing	-10.4327
▁Very	-10.4331
▁newspaper	-10.4336
▁handle	-10.4341
▁immediate	-10.4341
▁explanation	-10.4341
▁color	-10.4345
▁patient	-10.4349
▁agree	-10.4355
▁wisdom	-10.4356
▁dreams	-10.4358
▁consciousness	-10.4362
▁remark	-10.4364
▁inclined	-10.4366
▁gesture	-10.4367
▁meat	-10.4376
▁weapon	-10.4377
▁bowed	-10.4378
▁IT	-10.4392
▁managed	-10.4399
▁GEORGE	-10.44
▁More	-10.44
▁precious	-10.4403
▁fierce	-10.4404
▁notes	-10.4406
▁center	-10.4407
▁plate	-10.4407
▁dared	-10.4412
▁Everyone	-10.4419
▁crosses	-10.4419
▁pool	-10.4424
▁intelligence	-10.4427
▁wedding	-10.4431
▁6	-10.4434
▁raise	-10.4435
▁resolution	-10.4435
▁enemies	-10.4446
▁wave	-10.4452
▁sex	-10.4452
▁furniture	-10.4455
▁sing	-10.4468
▁tower	-10.4469
▁Both	-10.4471
▁hated	-10.4473
▁warning	-10.4479
▁area	-10.4484
▁Park	-10.45
▁resumed	-10.4504
▁season	-10.4512
▁coast	-10.4522
▁add	-10.4535
▁whilst	-10.4536
▁funny	-10.4541
▁20	-10.4543
▁lighted	-10.4545
▁practice	-10.4563
▁desert	-10.4577
▁track	-10.4577
▁clerk	-10.458
▁security	-10.4583
▁stones	-10.4586
▁consent	-10.4588
▁rolls	-10.4601
▁discover	-10.4603
▁gazed	-10.4606
▁unfortunate	-10.4611
▁swear	-10.4615
▁couch	-10.4618
▁blows	-10.462
▁belief	-10.4637
▁lest	-10.4638
▁ruin	-10.4647
▁begged	-10.4651
▁tail	-10.4653
▁flew	-10.4655
▁murmured	-10.4655
▁trade	-10.4657
▁witness	-10.4661
▁hills	-10.4662
▁larger	-10.4662
▁lonely	-10.4665
▁member	-10.4668
▁brilliant	-10.4673
de	-10.4675
▁wondering	-10.468
▁wretched	-10.4684
▁W	-10.4685
▁seconds	-10.4687
▁earnest	-10.4687
▁manners	-10.4692
▁pistol	-10.47
▁nevertheless	-10.4705
▁drives	-10.471
▁scarce	-10.4722
▁event	-10.4724
F	-10.4726
▁BLACK	-10.4729
▁conditions	-10.4735
"--	-10.4738
▁barely	-10.474
▁silently	-10.4741
By	-10.4746
▁desperate	-10.4747
▁forever	-10.476
▁generous	-10.476
▁hero	-10.4773
▁Having	-10.4776
▁ends	-10.4783
▁Could	-10.4783
▁palace	-10.4783
▁bold	-10.4789
▁anyway	-10.4798
Did	-10.4814
▁mood	-10.482
out	-10.4821
▁fields	-10.4825
▁regular	-10.4832
▁Database	-10.4834
▁Everything	-10.4837
▁acquainted	-10.484
▁troubled	-10.4854
▁tied	-10.4854
▁plans	-10.4862
▁Wait	-10.4876
▁torn	-10.4878
▁smoking	-10.4885
▁rifle	-10.4885
▁amongst	-10.4894
_)	-10.4908
▁material	-10.4916
▁highest	-10.4916
▁million	-10.4921
▁arose	-10.493
▁science	-10.4933
▁rid	-10.4937
▁Thanks	-10.4943
▁heavily	-10.4943
▁lands	-10.4951
▁guest	-10.4953
▁quarrel	-10.4956
▁scared	-10.4956
▁breaks	-10.496
▁hesitated	-10.4961
▁Sometimes	-10.4961
me	-10.4964
▁bill	-10.4971
▁vague	-10.4974
▁accompanied	-10.4983
▁brings	-10.4985
▁partly	-10.4986
way	-10.4996
▁attached	-10.4998
▁teach	-10.5
▁dirty	-10.5
▁aren	-10.5003
▁painful	-10.5008
▁7	-10.5011
▁shade	-10.5011
▁concerning	-10.5016
▁folks	-10.5019
▁hungry	-10.5028
▁aloud	-10.5034
▁sacrifice	-10.5043
▁wake	-10.5049
▁highly	-10.5056
▁knock	-10.5057
▁lately	-10.5063
▁gay	-10.5076
▁beach	-10.5076
▁giant	-10.5078
▁advance	-10.5086
▁famous	-10.5098
▁dressing	-10.5098
▁previous	-10.5101
▁admiration	-10.5103
▁sold	-10.5105
Tis	-10.5109
▁agreeable	-10.5113
▁powers	-10.512
▁finish	-10.5128
▁Pierre	-10.5131
▁mile	-10.5137
▁Clara	-10.5137
▁darling	-10.5138
▁Bishop	-10.5153
▁savage	-10.5157
▁brothers	-10.5159
▁Men	-10.5165
▁guide	-10.5182
▁cave	-10.5189
▁patience	-10.5194
▁smooth	-10.521
bye	-10.5212
▁imagined	-10.522
▁recovered	-10.5221
▁decision	-10.5225
▁INTO	-10.5227
▁Sure	-10.5228
▁Without	-10.5228
▁gift	-10.5232
▁During	-10.5233
▁cases	-10.5234
▁leaned	-10.5235
▁violence	-10.524
▁catches	-10.5241
▁Ray	-10.5248
▁list	-10.5249
▁stuck	-10.5256
▁prince	-10.5261
▁Rose	-10.5269
▁splendid	-10.527
▁hasn	-10.5274
▁ne	-10.5281
▁raises	-10.5281
▁laws	-10.5283
▁candle	-10.5291
▁manage	-10.5305
▁DR	-10.5305
▁Through	-10.5309
▁smell	-10.5312
▁plays	-10.5314
▁stern	-10.5315
▁conviction	-10.5318
▁Christmas	-10.5322
▁solemn	-10.5331
▁stories	-10.5333
▁hastily	-10.5333
▁12	-10.5336
his	-10.5345
▁chin	-10.5345
▁abruptly	-10.5348
▁joke	-10.5354
▁astonishment	-10.5357
▁abroad	-10.5359
▁etc	-10.5363
▁Louis	-10.5365
▁hast	-10.5378
▁loves	-10.5387
▁riding	-10.5391
▁ugly	-10.5394
▁rolling	-10.5395
▁Sarah	-10.5396
▁atmosphere	-10.5399
▁seriously	-10.5403
▁glow	-10.5406
▁rare	-10.5411
▁fires	-10.5416
▁waste	-10.5417
▁connection	-10.5417
▁pack	-10.5419
▁loving	-10.542
▁reality	-10.543
▁weapons	-10.5446
▁bathroom	-10.5451
▁using	-10.5453
▁knocked	-10.5453
▁travel	-10.5458
▁reveal	-10.5464
▁chosen	-10.5465
five	-10.5467
▁steady	-10.5469
▁Emmeline	-10.5488
▁francs	-10.5495
▁notices	-10.55
▁type	-10.5511
▁extreme	-10.5514
▁cared	-10.5514
▁waters	-10.5517
▁slipped	-10.5519
▁La	-10.5526
▁changes	-10.5526
▁superior	-10.5533
▁earlier	-10.5545
▁date	-10.5562
▁holy	-10.5563
▁eagerly	-10.5564
though	-10.5571
▁handed	-10.5572
▁cab	-10.5575
▁SAME	-10.5579
▁senses	-10.5584
▁slightest	-10.5588
▁west	-10.5591
▁Listen	-10.5597
▁title	-10.5597
▁stock	-10.5597
▁utmost	-10.5603
▁Fanny	-10.5611
st	-10.5613
▁individual	-10.5615
▁increased	-10.5618
▁City	-10.5626
▁dread	-10.5628
▁armed	-10.5629
▁Kate	-10.5631
▁seldom	-10.5635
▁sending	-10.5637
▁b	-10.5638
▁stayed	-10.5644
▁elevator	-10.565
▁jump	-10.5659
▁State	-10.5663
▁background	-10.567
▁sink	-10.5673
▁quality	-10.5689
▁parted	-10.5692
▁sacred	-10.5693
▁swept	-10.5698
▁rings	-10.57
▁plants	-10.5721
▁solid	-10.5727
▁efforts	-10.5737
▁meal	-10.5739
▁button	-10.574
▁ere	-10.574
▁gained	-10.576
▁farm	-10.5763
▁deserted	-10.5766
▁cloth	-10.5766
▁flies	-10.5766
▁nation	-10.5768
▁Richard	-10.5771
▁discovery	-10.5771
▁painted	-10.5774
▁hospital	-10.5785
▁park	-10.579
▁IS	-10.5793
▁retired	-10.5794
▁realize	-10.5794
▁star	-10.5796
▁en	-10.5798
▁exits	-10.58
▁sheet	-10.5802
▁distress	-10.5806
▁Nobody	-10.5806
▁mistaken	-10.581
▁tenderness	-10.5812
▁Indian	-10.5816
▁lift	-10.5822
▁mamma	-10.5823
▁faithful	-10.5823
▁Oscar	-10.5831
▁useless	-10.5839
▁JOE	-10.5858
▁foreign	-10.5859
▁MARY	-10.5859
▁wit	-10.586
▁lifts	-10.5861
▁Ursula	-10.5868
▁library	-10.5873
▁branches	-10.5873
▁dragged	-10.5877
▁Poor	-10.5878
▁Since	-10.5883
▁learning	-10.5887
▁disturbed	-10.5895
▁lake	-10.5895
▁dawn	-10.5895
▁physical	-10.5898
▁enjoyed	-10.5901
▁afford	-10.5911
▁Luke	-10.5917
▁fruit	-10.5921
▁chairs	-10.5923
▁record	-10.5926
▁interests	-10.5927
▁fought	-10.5932
▁described	-10.5948
▁portion	-10.5953
▁knee	-10.5955
▁keen	-10.5959
▁widow	-10.5966
▁continuing	-10.5969
▁crowded	-10.5982
▁hiding	-10.5985
▁poet	-10.5985
▁que	-10.5985
▁charm	-10.599
▁FROM	-10.5991
▁household	-10.5992
▁reflected	-10.5993
▁frequently	-10.5993
▁immense	-10.6002
▁stronger	-10.6005
▁pages	-10.6006
▁whenever	-10.6008
▁centre	-10.6033
▁landing	-10.6035
▁sentence	-10.6039
▁folk	-10.6044
▁Finn	-10.6046
▁Europe	-10.6048
▁similar	-10.6051
▁pockets	-10.6054
▁keys	-10.6066
▁Jacob	-10.6068
▁gratitude	-10.6069
▁genius	-10.6074
▁ignorant	-10.6079
her	-10.6089
▁computer	-10.6099
▁Emma	-10.61
▁pile	-10.6103
▁realized	-10.6104
▁?!	-10.6108
▁hollow	-10.6113
▁coach	-10.6121
▁30	-10.6123
▁useful	-10.6126
▁milk	-10.6129
▁provided	-10.6132
▁queer	-10.6134
▁motionless	-10.6144
▁sisters	-10.6147
▁sank	-10.6148
▁attend	-10.6151
▁fury	-10.6154
▁queen	-10.6162
▁lightly	-10.6168
▁firmly	-10.6172
▁X	-10.6177
▁entering	-10.6182
▁author	-10.6187
Perhaps	-10.6205
▁Love	-10.6208
▁damn	-10.6212
al	-10.6212
▁rushes	-10.6216
▁tent	-10.6221
▁niece	-10.6223
▁gain	-10.6225
▁badly	-10.6227
▁recognized	-10.6231
▁weakness	-10.6231
Go	-10.6237
▁slip	-10.6242
▁Eve	-10.6243
▁sail	-10.6243
▁contempt	-10.6243
▁duties	-10.6248
▁evident	-10.6249
▁lap	-10.6249
▁belonged	-10.625
▁horizon	-10.6251
▁prospect	-10.6252
▁worried	-10.6259
▁religious	-10.6259
▁British	-10.6264
▁market	-10.6265
▁Uh	-10.6266
▁belong	-10.6271
▁sufficiently	-10.6273
styled	-10.6273
▁Behind	-10.6277
▁east	-10.6278
▁contact	-10.6281
▁absolute	-10.6281
▁Each	-10.6285
▁Steve	-10.6291
▁Sidney	-10.6294
▁astonished	-10.6294
▁grateful	-10.6298
▁mental	-10.6299
▁platform	-10.6303
▁sets	-10.6311
▁hunting	-10.6314
▁inner	-10.6324
▁climb	-10.6326
▁Scripts	-10.6331
▁remaining	-10.6332
▁waist	-10.6339
▁Thy	-10.6341
▁strangers	-10.6362
▁Hal	-10.6378
▁magic	-10.6379
▁pace	-10.6384
▁Out	-10.6384
▁silk	-10.6388
▁Life	-10.6391
▁Italian	-10.6393
▁fired	-10.6414
▁push	-10.6415
▁swings	-10.6416
▁papa	-10.6418
▁fatal	-10.642
▁AS	-10.6422
▁Gerard	-10.6425
▁sharply	-10.6429
▁settle	-10.6434
▁th	-10.6436
▁lets	-10.6437
▁sighed	-10.6438
▁About	-10.6443
▁wrapped	-10.6444
▁details	-10.6447
▁puzzled	-10.6447
▁screaming	-10.6449
▁silly	-10.6449
▁exchange	-10.6452
▁objects	-10.6454
▁DOOR	-10.6459
▁gas	-10.6462
▁sounded	-10.6466
▁throughout	-10.6468
▁relations	-10.647
▁WHITE	-10.6471
▁losing	-10.6474
▁helpless	-10.6477
▁exhausted	-10.6477
▁constantly	-10.6478
▁hitherto	-10.6495
▁connected	-10.6495
▁tells	-10.6497
▁observe	-10.6497
▁sofa	-10.65
▁calmly	-10.6504
▁squire	-10.6505
▁Over	-10.6506
▁wholly	-10.6507
▁Ted	-10.6513
▁bloody	-10.6514
▁venture	-10.6516
▁delay	-10.6522
▁insisted	-10.6524
▁tape	-10.6528
▁exercise	-10.6529
▁HENRY	-10.6534
▁Lee	-10.6535
▁Jerry	-10.6535
▁nearest	-10.6538
▁HALLWAY	-10.6538
▁Baron	-10.654
▁extent	-10.654
▁Charlotte	-10.6542
▁tie	-10.6544
▁constant	-10.6545
▁Allan	-10.6547
▁pink	-10.6548
▁thine	-10.655
▁ocean	-10.6551
▁conclusion	-10.6558
▁Amy	-10.6562
▁vanished	-10.6564
▁Black	-10.6568
▁whence	-10.6568
▁muttered	-10.657
▁Amelia	-10.6571
▁Elizabeth	-10.6572
▁adventure	-10.6572
▁pursued	-10.6573
EY	-10.6581
▁Lucien	-10.6583
▁crown	-10.6585
▁reference	-10.6588
▁scattered	-10.6588
U	-10.6601
▁haste	-10.6606
▁appeal	-10.6612
▁descended	-10.6618
had	-10.6618
▁announced	-10.6629
▁engine	-10.6631
▁fled	-10.6631
▁Therefore	-10.6633
SAM	-10.6634
▁trip	-10.6647
▁gazing	-10.6652
▁KITCHEN	-10.6665
le	-10.6666
▁perceive	-10.6668
▁West	-10.6681
▁U	-10.6683
▁bench	-10.6696
▁lack	-10.6696
▁stomach	-10.6699
▁Earth	-10.6699
▁touching	-10.67
▁screams	-10.6702
▁secure	-10.6712
▁Sorry	-10.6712
▁Saint	-10.6716
▁divine	-10.672
▁god	-10.672
▁deeper	-10.6724
▁copy	-10.6739
▁host	-10.674
▁relation	-10.6748
▁LIVING	-10.6748
▁DOWN	-10.6749
▁mounted	-10.675
▁destroy	-10.6753
▁unconscious	-10.6757
▁missed	-10.676
▁humble	-10.676
v	-10.6761
▁cards	-10.6761
▁rested	-10.6766
▁cook	-10.6768
▁DISSOLVE	-10.6779
▁engagement	-10.6784
Nay	-10.6789
▁chose	-10.6791
▁Dad	-10.6793
▁minister	-10.6795
▁bid	-10.6802
▁missing	-10.6805
▁Larry	-10.6807
▁directed	-10.6809
▁team	-10.6814
▁shone	-10.6815
▁argument	-10.6816
▁employed	-10.6818
▁climbs	-10.6825
Look	-10.6835
▁hallway	-10.6844
▁intimate	-10.6848
▁obtained	-10.6849
▁distinguished	-10.6855
▁writer	-10.6858
▁De	-10.6858
▁lion	-10.6858
▁shooting	-10.6862
▁Rome	-10.6864
▁committed	-10.6865
▁Ed	-10.6866
▁concluded	-10.6867
▁beard	-10.6869
▁cheerful	-10.6871
▁15	-10.6873
▁Chris	-10.6876
▁career	-10.6879
▁military	-10.689
▁destroyed	-10.6891
▁delightful	-10.6906
▁visitor	-10.6907
▁invited	-10.6923
▁11	-10.6934
▁fence	-10.6938
▁uneasy	-10.6938
▁du	-10.6943
▁cloak	-10.6945
▁spots	-10.6947
▁DAVID	-10.6948
▁aspect	-10.6953
▁custom	-10.6955
▁process	-10.6955
▁separate	-10.6957
▁per	-10.6965
▁century	-10.6969
Will	-10.6971
▁practical	-10.6974
▁sensible	-10.698
▁treat	-10.6981
▁lucky	-10.6985
▁Next	-10.6992
▁heels	-10.6996
▁Levin	-10.7001
▁score	-10.7005
▁deny	-10.7009
▁disposed	-10.7009
▁signal	-10.701
▁Long	-10.7015
▁leather	-10.7016
▁striking	-10.7017
▁gods	-10.7017
▁Claude	-10.7018
▁slides	-10.7021
▁inches	-10.7024
▁smaller	-10.7026
▁occasions	-10.703
▁slams	-10.7034
▁est	-10.7037
▁returns	-10.7037
▁intense	-10.7045
▁owe	-10.7045
▁block	-10.7053
▁f	-10.7055
▁yeah	-10.7055
▁waits	-10.7058
▁disposition	-10.7063
▁knight	-10.7068
▁produce	-10.708
▁checks	-10.7089
why	-10.7094
▁current	-10.7094
▁amused	-10.7095
▁ships	-10.7097
▁nonsense	-10.7097
▁Anthony	-10.7098
▁outer	-10.7098
▁difficulties	-10.7102
▁doubtless	-10.7103
▁Me	-10.7106
▁victim	-10.7107
▁strongly	-10.7109
▁Major	-10.7111
▁contained	-10.7112
▁letting	-10.7119
▁daughters	-10.7119
▁Mademoiselle	-10.7125
▁studies	-10.7134
▁burned	-10.7136
▁OVER	-10.7137
▁Russian	-10.7146
▁eleven	-10.715
▁relieved	-10.7156
▁Mme	-10.7163
▁Majesty	-10.7164
▁forces	-10.7168
▁closing	-10.7172
men	-10.7176
▁Annie	-10.7178
▁agony	-10.7183
At	-10.7191
▁decide	-10.7193
▁Joseph	-10.7193
▁protection	-10.7196
▁bless	-10.7207
▁delivered	-10.7209
▁HOTEL	-10.721
▁belt	-10.7211
▁mud	-10.7215
▁HIM	-10.7215
▁ANOTHER	-10.7223
WILL	-10.7232
▁introduced	-10.7236
ER	-10.724
▁goodness	-10.7243
▁monster	-10.7258
▁disappointment	-10.7275
▁gloom	-10.7278
▁curtain	-10.7281
▁mankind	-10.7289
▁Whatever	-10.729
▁staircase	-10.7294
▁Many	-10.7298
▁pressure	-10.7301
▁circumstance	-10.7306
▁shelter	-10.7307
▁em	-10.731
▁tunnel	-10.7313
▁porch	-10.7314
▁cutting	-10.7323
▁purse	-10.7325
▁sheep	-10.7327
▁royal	-10.733
▁treasure	-10.733
▁observation	-10.7332
;"	-10.7332
▁ignorance	-10.7339
▁sons	-10.7341
▁beating	-10.7345
▁Scott	-10.7347
▁demand	-10.7348
▁cart	-10.735
▁series	-10.7358
▁Tarzan	-10.7359
▁swiftly	-10.7359
▁scheme	-10.7359
▁lunch	-10.7363
▁parties	-10.7367
▁trunk	-10.738
▁reaching	-10.7383
▁frozen	-10.7385
Can	-10.7386
▁SEE	-10.7389
▁huh	-10.739
▁terrified	-10.7397
▁active	-10.7402
▁species	-10.7404
▁glimpse	-10.7408
▁Linda	-10.7411
▁occasionally	-10.7422
▁suggestion	-10.7428
▁Professor	-10.7428
▁handkerchief	-10.743
▁successful	-10.7439
▁disappointed	-10.7446
▁bones	-10.7455
▁numbers	-10.7455
ers	-10.7456
▁JACKIE	-10.7456
▁Young	-10.7462
▁burn	-10.7467
▁mist	-10.7474
JACK	-10.7475
▁BILLY	-10.7476
▁drank	-10.7478
▁source	-10.7479
▁Stephen	-10.7479
▁capital	-10.7485
▁misfortune	-10.7486
▁magnificent	-10.749
▁FRANK	-10.7493
▁arrive	-10.7495
▁Ruth	-10.7499
▁Say	-10.7499
▁SARAH	-10.75
▁compelled	-10.7504
▁exit	-10.7505
▁impulse	-10.7505
▁facing	-10.7505
hearted	-10.7506
▁Back	-10.751
▁plant	-10.7518
▁unusual	-10.7522
▁van	-10.7524
▁bade	-10.7531
▁Toby	-10.7534
▁plane	-10.7538
▁abandoned	-10.7543
▁Nell	-10.7544
▁BEN	-10.7544
▁Walter	-10.7544
▁souls	-10.7547
▁prayer	-10.7547
▁supply	-10.7553
▁elder	-10.7556
▁"_	-10.7557
▁Day	-10.756
then	-10.7565
▁inn	-10.7567
▁flames	-10.7569
▁article	-10.7569
J	-10.7572
▁smart	-10.7575
._]	-10.7582
▁gates	-10.7589
▁profession	-10.7595
One	-10.76
▁ACE	-10.76
▁stiff	-10.7604
▁Internet	-10.7604
▁uniform	-10.7619
▁attended	-10.7622
▁dirt	-10.7624
▁instinct	-10.7631
▁Green	-10.7634
▁wanting	-10.7637
▁remote	-10.764
▁directions	-10.7647
▁Nature	-10.7649
▁RACHEL	-10.7654
▁answers	-10.7654
▁mid	-10.7655
▁suspect	-10.7656
▁skill	-10.7658
▁endure	-10.766
▁angel	-10.7662
▁vous	-10.7665
▁rapid	-10.7666
▁fever	-10.7672
▁swift	-10.7674
▁ridiculous	-10.7676
▁glorious	-10.7678
▁Countess	-10.7678
▁quarters	-10.7691
▁burden	-10.7694
▁Tommy	-10.7694
▁scream	-10.7699
▁slips	-10.77
▁repeat	-10.7703
▁downstairs	-10.7704
▁blessed	-10.7705
▁June	-10.7709
▁assumed	-10.771
▁declare	-10.7713
▁sadly	-10.7715
▁humanity	-10.7717
▁struggling	-10.7718
▁established	-10.7725
▁totally	-10.7725
time	-10.7728
▁doth	-10.7731
▁violently	-10.7739
▁shocked	-10.7743
▁possibility	-10.775
▁favor	-10.7751
▁thousands	-10.7757
▁suspected	-10.7758
▁GIRL	-10.7758
▁indifferent	-10.7759
▁South	-10.7762
▁trace	-10.7765
▁civil	-10.7769
▁acted	-10.7774
▁devoted	-10.7778
▁response	-10.7779
▁wheels	-10.778
▁protect	-10.778
▁praise	-10.778
▁oil	-10.7781
▁wanna	-10.7781
▁Under	-10.7784
▁permitted	-10.7789
▁strangely	-10.7798
▁mask	-10.7802
▁stir	-10.7804
▁domestic	-10.7807
▁amid	-10.7809
▁obviously	-10.7811
▁hint	-10.7814
▁awkward	-10.7821
▁Phil	-10.7824
▁rendered	-10.783
▁fist	-10.7832
▁fears	-10.7835
▁rejoined	-10.7835
▁stopping	-10.7839
▁college	-10.7839
▁severe	-10.7846
▁planet	-10.7849
▁Nevertheless	-10.7851
▁stole	-10.7853
▁Clare	-10.7859
▁rang	-10.786
▁lordship	-10.7862
▁shouting	-10.7865
well	-10.7869
▁degrees	-10.7869
▁touches	-10.7872
▁Dan	-10.788
▁reward	-10.7888
▁Alex	-10.7889
▁grandfather	-10.7891
▁paying	-10.7895
▁overcome	-10.7895
▁mortal	-10.7905
”	-10.7906
▁revealing	-10.7907
▁conceal	-10.7907
PAUL	-10.791
▁Mason	-10.7917
▁Kirk	-10.7924
▁Patrick	-10.7928
▁exact	-10.7934
▁Mom	-10.7937
▁statement	-10.7941
▁STATION	-10.7944
html	-10.7947
▁attempted	-10.7947
▁departed	-10.795
▁Meanwhile	-10.7951
▁breeze	-10.7955
▁guards	-10.7958
▁upward	-10.7959
▁trail	-10.7966
▁sailor	-10.7974
▁Lizzie	-10.7975
▁hid	-10.7976
▁volume	-10.7981
▁14	-10.7982
MAN	-10.7983
▁partner	-10.7989
▁stunned	-10.7993
▁throne	-10.7994
▁limbs	-10.7995
▁ladder	-10.8011
▁sunshine	-10.8016
▁folly	-10.8023
▁grasp	-10.8023
▁deed	-10.8026
▁obey	-10.803
▁Louise	-10.8034
▁reputation	-10.8047
▁subjects	-10.8048
▁uncomfortable	-10.805
▁Helen	-10.8053
▁Julia	-10.8055
▁midnight	-10.8056
▁concealed	-10.8062
▁balance	-10.8062
▁ceremony	-10.8063
▁infinite	-10.8064
▁respectable	-10.8064
▁profound	-10.8073
▁searching	-10.8078
▁test	-10.8079
▁Parliament	-10.8083
▁resting	-10.8089
▁march	-10.8095
▁Blood	-10.8097
▁sorts	-10.8109
▁dearest	-10.8111
▁pursuit	-10.8123
▁Hector	-10.8126
▁acting	-10.8128
▁Spanish	-10.8132
let	-10.8133
▁theory	-10.8134
▁merry	-10.8139
▁jumped	-10.814
▁lieutenant	-10.8141
▁cuts	-10.8143
W	-10.8148
▁Ali	-10.8153
▁basket	-10.8157
▁")	-10.816
▁tide	-10.8161
▁mess	-10.8165
▁obtain	-10.8165
▁Roman	-10.8168
▁moreover	-10.8171
▁SOUND	-10.8176
▁inch	-10.8179
▁depths	-10.8182
Thank	-10.8186
▁collar	-10.8188
▁sticks	-10.8201
▁wire	-10.8203
▁pauses	-10.8209
▁Time	-10.8211
▁slaves	-10.8212
▁happening	-10.8217
▁Most	-10.8217
▁behaviour	-10.8226
▁ghost	-10.8233
▁official	-10.8234
place	-10.8239
Footnote	-10.8239
▁Holy	-10.8242
will	-10.8245
▁singular	-10.8246
▁uh	-10.8248
▁agent	-10.8249
▁idle	-10.8251
▁jealous	-10.8251
▁indifference	-10.8254
▁income	-10.8257
▁behold	-10.8262
▁apparent	-10.8263
▁States	-10.8268
▁failure	-10.8269
are	-10.8271
▁views	-10.8272
▁Greek	-10.8273
▁movie	-10.8276
▁je	-10.8278
▁nearby	-10.8279
▁beasts	-10.8288
▁enthusiasm	-10.8288
▁owner	-10.8289
▁likewise	-10.8292
▁Oliver	-10.8297
▁humour	-10.8304
▁embrace	-10.8311
▁principle	-10.8311
▁roar	-10.8318
▁Carl	-10.832
▁activity	-10.8324
▁trembled	-10.8327
Because	-10.8332
▁movements	-10.8341
▁killing	-10.8347
▁proceed	-10.8348
▁parish	-10.835
▁staying	-10.8353
▁properly	-10.8355
▁paint	-10.8358
Never	-10.8361
▁nephew	-10.8361
▁Van	-10.8362
▁Robin	-10.8363
▁High	-10.8363
▁honey	-10.837
un	-10.8373
▁boxes	-10.8378
▁trick	-10.838
▁lesson	-10.838
▁laying	-10.8385
▁retreat	-10.8396
▁Any	-10.8405
▁lip	-10.8407
▁freely	-10.8407
▁Gregory	-10.8416
▁Martha	-10.8417
▁prisoners	-10.8417
▁display	-10.8418
▁discussion	-10.8423
▁Ramona	-10.843
▁borne	-10.8434
▁blade	-10.8435
▁notion	-10.8435
▁grim	-10.8441
▁Really	-10.8442
▁Government	-10.8443
▁telephone	-10.8444
▁Does	-10.8445
▁quit	-10.8446
▁bullet	-10.8449
▁exist	-10.8452
▁urged	-10.8453
▁PAT	-10.8454
▁hatred	-10.8465
▁design	-10.8465
▁wrath	-10.8466
table	-10.8468
▁Four	-10.8472
▁revealed	-10.8473
▁THAT	-10.8474
▁unexpected	-10.8476
▁pushing	-10.8476
▁poured	-10.8479
▁marble	-10.848
▁raising	-10.8482
▁Carol	-10.8485
▁amazement	-10.8485
▁gloomy	-10.8487
▁Think	-10.8489
▁faster	-10.8491
▁c	-10.8493
▁furious	-10.85
▁examined	-10.85
▁leader	-10.85
▁probable	-10.8506
▁steadily	-10.8506
▁punishment	-10.8508
▁folded	-10.8515
▁impressed	-10.8515
▁separated	-10.8521
▁ate	-10.8521
▁cigar	-10.8521
▁III	-10.8524
▁issue	-10.8524
▁revenge	-10.8528
▁afterward	-10.8531
▁Kipps	-10.8534
▁branch	-10.8545
▁Alan	-10.8551
▁threatened	-10.8556
▁blank	-10.8557
▁build	-10.8557
▁HALL	-10.8561
▁fourth	-10.8563
▁habits	-10.8573
▁straw	-10.8581
▁Saturday	-10.8581
▁struggles	-10.8583
▁nations	-10.8584
▁Malcolm	-10.8585
▁ruined	-10.8588
▁non	-10.8591
▁Pecksniff	-10.8594
▁backward	-10.8597
▁port	-10.8599
▁seeking	-10.8605
▁Mac	-10.8607
▁cliff	-10.861
▁gown	-10.8615
▁considering	-10.8618
▁angrily	-10.8618
▁palm	-10.862
▁Betty	-10.8621
▁description	-10.8623
▁Chief	-10.8624
▁sixty	-10.8629
▁pretend	-10.8631
▁13	-10.8632
▁Presently	-10.8636
▁NEW	-10.8639
▁anymore	-10.8647
te	-10.8657
▁wi	-10.8661
(	-10.8666
▁obvious	-10.8675
▁heavens	-10.8675
▁victory	-10.8684
▁massive	-10.869
▁17	-10.8696
▁RED	-10.8699
▁scorn	-10.8702
▁betrayed	-10.8707
▁benefit	-10.8708
▁MAX	-10.8709
▁16	-10.8711
▁upset	-10.8717
▁rules	-10.8717
▁Big	-10.8718
▁Shall	-10.872
▁alarmed	-10.8725
▁IMSDb	-10.8725
▁Put	-10.8725
▁g	-10.8726
▁leaps	-10.8727
▁indignation	-10.8727
▁LOUIS	-10.8729
▁labour	-10.8733
▁rights	-10.8735
ANGLE	-10.8744
▁Virginia	-10.8746
▁method	-10.8748
▁Madam	-10.8751
▁footsteps	-10.8754
▁wildly	-10.8756
▁Everybody	-10.8758
▁succeed	-10.8763
▁popular	-10.8763
▁hesitation	-10.8763
God	-10.8765
▁range	-10.8765
▁bride	-10.8768
▁behalf	-10.8768
▁Cobb	-10.8769
▁families	-10.8771
TV	-10.8773
▁composed	-10.8773
▁San	-10.8788
▁nervously	-10.879
▁kingdom	-10.879
▁Neither	-10.8791
▁fetch	-10.8795
▁drag	-10.8807
▁ambition	-10.8812
Nothing	-10.8814
▁Stop	-10.8815
▁faded	-10.8817
▁trusted	-10.8822
▁impatient	-10.8822
▁grip	-10.8825
▁Danny	-10.883
▁ventured	-10.883
▁fix	-10.883
▁eh	-10.8831
▁arrangement	-10.8835
▁gather	-10.8835
▁leaped	-10.8838
▁Fawn	-10.8849
▁pour	-10.8849
▁Blue	-10.8855
▁favourite	-10.8855
▁LARRY	-10.8855
▁(-	-10.8856
▁cage	-10.8865
▁crept	-10.8866
▁appointed	-10.8869
▁Norman	-10.8871
▁Peregrine	-10.8874
▁easier	-10.8881
▁veil	-10.8883
▁BUILDING	-10.8883
▁beheld	-10.8884
▁CORRIDOR	-10.8898
▁represented	-10.8904
▁purple	-10.8912
▁absent	-10.892
▁stirred	-10.8921
▁loudly	-10.8922
▁prefer	-10.8923
▁August	-10.8927
▁envelope	-10.8939
▁neighbourhood	-10.8939
▁elbow	-10.894
▁waving	-10.8942
el	-10.8944
▁vanity	-10.8947
▁Castle	-10.8951
just	-10.8953
▁results	-10.8961
▁divided	-10.8964
▁local	-10.8966
▁invitation	-10.8975
▁actual	-10.8976
▁swung	-10.8976
▁beloved	-10.8978
US	-10.8987
▁solitary	-10.8991
▁permit	-10.8991
▁invisible	-10.8993
▁seats	-10.8995
▁lawn	-10.8997
▁file	-10.9
▁HOME	-10.9002
▁EVENING	-10.9007
▁Molly	-10.9007
▁decent	-10.9007
▁wears	-10.9007
▁warmth	-10.9008
▁sweat	-10.9012
JOHN	-10.9015
▁marks	-10.9019
▁strain	-10.9021
▁normal	-10.9022
▁disagreeable	-10.9026
▁cash	-10.9029
▁intend	-10.9032
▁alike	-10.9033
▁bushes	-10.9036
▁dumb	-10.9046
▁bars	-10.9059
▁changing	-10.9063
▁crack	-10.9064
▁hideous	-10.9065
▁rushing	-10.9068
▁meantime	-10.9077
▁map	-10.9078
▁shed	-10.9081
▁cleared	-10.9086
less	-10.9089
▁e	-10.9089
▁wandering	-10.9091
▁daylight	-10.9092
▁distinct	-10.9095
▁gravely	-10.9101
▁inquiry	-10.9103
▁wandered	-10.9104
▁Englishman	-10.9106
▁cops	-10.9107
▁OLD	-10.9109
▁nights	-10.9109
▁tones	-10.911
▁temple	-10.9113
▁PAUL	-10.9115
▁artist	-10.9116
▁expense	-10.9118
▁assurance	-10.912
▁kick	-10.9121
▁dropping	-10.9121
▁troubles	-10.9123
▁tables	-10.9123
▁pressing	-10.9126
▁wrist	-10.9132
▁sighs	-10.914
▁Five	-10.914
▁Kim	-10.9154
▁eternal	-10.9156
▁communication	-10.9156
▁moonlight	-10.9156
▁aim	-10.9158
▁extended	-10.9165
▁farewell	-10.9172
▁shaken	-10.9178
▁clergyman	-10.9179
▁embarrassed	-10.9181
▁Z	-10.9183
▁created	-10.9184
▁gathering	-10.9186
▁qui	-10.9186
▁amusement	-10.9186
▁parting	-10.9188
▁involved	-10.9195
▁hoping	-10.9196
▁knocking	-10.92
▁visited	-10.9201
▁piano	-10.921
▁Herbert	-10.9211
▁resist	-10.9211
▁nowhere	-10.9212
▁correct	-10.9214
▁TIME	-10.9216
▁jungle	-10.9224
▁recognize	-10.9225
▁glowing	-10.9231
▁Land	-10.9232
▁talks	-10.9242
▁Alessandro	-10.9242
▁weren	-10.9243
▁PHONE	-10.9244
▁expecting	-10.9245
▁rent	-10.9246
▁soil	-10.9247
▁carries	-10.9255
Just	-10.9258
▁buildings	-10.9263
▁Harriet	-10.9265
▁panic	-10.9272
▁mingled	-10.9272
▁quoth	-10.9274
▁permission	-10.9285
▁experienced	-10.9286
▁worship	-10.9292
▁Wilson	-10.9294
▁thunder	-10.9294
▁OFF	-10.9298
▁male	-10.9298
▁Booth	-10.9301
▁Joan	-10.9301
▁poverty	-10.9309
▁Minister	-10.931
▁motive	-10.931
▁opinions	-10.9312
▁Up	-10.9315
▁leap	-10.9315
▁bus	-10.9317
▁Stanbury	-10.9324
▁exposed	-10.9326
▁spiritual	-10.9331
X	-10.9334
▁maiden	-10.9334
eyed	-10.9341
▁Andy	-10.9342
Indeed	-10.9343
▁Grant	-10.935
▁destruction	-10.9356
▁deserve	-10.9362
▁prey	-10.9363
▁races	-10.9376
▁principal	-10.9377
▁poetry	-10.9378
▁backs	-10.9382
images	-10.9382
▁absorbed	-10.9384
▁absurd	-10.9384
▁pillow	-10.9384
▁draws	-10.9389
▁contents	-10.939
▁nerves	-10.9391
▁dine	-10.9393
▁faced	-10.9393
▁Delamere	-10.9393
▁readily	-10.9401
don	-10.9406
oh	-10.941
▁bills	-10.9413
▁Y	-10.9416
▁defend	-10.9417
▁weeping	-10.942
▁goin	-10.942
▁shower	-10.9431
▁Square	-10.9432
▁harder	-10.9433
▁spins	-10.944
only	-10.9444
▁fastened	-10.9455
▁gestures	-10.9458
▁!!	-10.9461
▁nay	-10.9465
▁passionate	-10.9477
▁sunlight	-10.948
▁retorted	-10.9486
▁legal	-10.9495
▁rude	-10.9496
▁thither	-10.9517
▁staff	-10.952
▁detail	-10.9523
▁acknowledged	-10.9523
uite	-10.9524
▁flushed	-10.9527
▁risen	-10.9528
▁stolen	-10.9529
▁Sylvia	-10.9535
▁characters	-10.954
▁lightning	-10.9546
from	-10.9553
▁film	-10.9555
▁possess	-10.9558
▁applied	-10.9558
▁earnestly	-10.9559
▁swing	-10.956
▁traffic	-10.9567
▁commanded	-10.9569
▁ages	-10.9571
▁scenes	-10.9572
beat	-10.9575
▁curtains	-10.9575
▁counsel	-10.9578
▁anxiously	-10.9585
▁upright	-10.9587
ey	-10.9588
▁offence	-10.9589
▁mixed	-10.959
▁accordingly	-10.9591
▁related	-10.9592
▁deadly	-10.9594
▁describe	-10.9601
▁answering	-10.9602
▁fearful	-10.9604
▁flow	-10.9606
▁guessed	-10.9611
▁flood	-10.9612
▁heap	-10.9616
Sir	-10.962
▁bunch	-10.9625
▁CAPTAIN	-10.9632
▁Rob	-10.9644
▁gracious	-10.9651
▁crossing	-10.9653
▁floating	-10.9654
▁Daddy	-10.9655
▁incident	-10.9663
▁Val	-10.9668
▁Although	-10.9672
▁phrase	-10.9673
▁ONE	-10.9673
▁medical	-10.9675
Ay	-10.9677
▁Ha	-10.9683
▁Susan	-10.9684
▁paces	-10.9685
▁Eric	-10.9687
▁theatre	-10.9688
▁beaten	-10.9688
▁fuckin	-10.9689
▁accomplished	-10.9693
MRS	-10.9695
▁safely	-10.9696
LY	-10.9697
▁picking	-10.9698
▁salt	-10.97
▁Several	-10.97
▁heartily	-10.9701
▁troops	-10.9703
▁FOR	-10.9705
Tell	-10.9707
▁covering	-10.9707
▁responsibility	-10.9707
▁happily	-10.9708
▁louder	-10.9713
▁closet	-10.9718
▁mischief	-10.9718
▁teacher	-10.9719
▁load	-10.9721
▁hither	-10.9722
HARRY	-10.9722
▁oath	-10.9728
▁require	-10.9728
Certainly	-10.9739
▁endeavoured	-10.974
yes	-10.974
▁altered	-10.9741
▁roused	-10.9742
▁neighborhood	-10.9747
▁emotions	-10.9751
▁interior	-10.9751
▁objection	-10.976
▁anguish	-10.9769
▁heading	-10.9771
▁formerly	-10.9776
▁steal	-10.9776
▁lean	-10.9777
▁mate	-10.9789
▁Fuck	-10.9795
▁Isabel	-10.9797
▁stroke	-10.9799
▁solitude	-10.98
▁remarks	-10.9805
▁twisted	-10.9805
▁including	-10.9809
▁Death	-10.9811
▁grows	-10.9812
▁major	-10.9812
▁eggs	-10.9818
▁qualities	-10.982
▁completed	-10.9823
▁nod	-10.9825
▁pot	-10.9834
▁numerous	-10.9835
▁prevented	-10.9839
▁50	-10.9847
▁MORE	-10.9848
▁politics	-10.9849
▁feed	-10.985
▁addressing	-10.9852
▁preparing	-10.9852
▁blowing	-10.9857
▁Harding	-10.9861
▁hastened	-10.9869
▁reminded	-10.9872
▁recover	-10.9874
your	-10.988
▁section	-10.9884
▁United	-10.9884
▁glancing	-10.9888
▁funeral	-10.9889
▁noon	-10.989
▁IV	-10.9891
▁suggest	-10.9893
▁covers	-10.9895
▁Miller	-10.9901
▁stout	-10.9906
▁hundreds	-10.9906
▁disgust	-10.9912
▁yield	-10.9917
▁Carter	-10.9918
▁corpse	-10.9922
▁Kitty	-10.9927
▁eaten	-10.9929
▁affectionate	-10.9932
▁World	-10.9947
▁angle	-10.9948
▁impatience	-10.9949
▁consequences	-10.9951
Dear	-10.9958
▁Lisa	-10.9958
box	-10.9959
▁shrugs	-10.996
▁Alwynne	-10.996
▁Sue	-10.9963
▁intervals	-10.9966
▁lodgings	-10.997
▁Nay	-10.9981
▁LISA	-10.9981
▁fancied	-10.9982
▁dreamed	-10.9989
na	-10.999
now	-10.9992
▁ME	-10.9996
▁photo	-10.9996
▁wagon	-10.9998
▁elsewhere	-11
▁wash	-11.0003
▁bowl	-11.001
▁Leonard	-11.0013
▁KING	-11.0015
▁disappears	-11.0016
▁prepare	-11.0023
▁25	-11.003
▁railway	-11.003
▁propose	-11.0037
BILLY	-11.0042
il	-11.0046
▁NO	-11.0049
▁term	-11.0053
▁remind	-11.0055
▁fortnight	-11.0056
▁saddle	-11.0058
▁disgrace	-11.0058
▁Brown	-11.0062
▁yielded	-11.0066
▁presses	-11.0075
▁Pete	-11.0078
▁checked	-11.0079
▁shout	-11.0082
▁amazed	-11.009
▁distinctly	-11.0091
▁instructions	-11.0091
▁trap	-11.0093
▁chase	-11.0094
▁jealousy	-11.01
▁parlour	-11.0108
▁Looks	-11.0108
▁THROUGH	-11.011
▁assist	-11.0116
▁flashed	-11.0117
▁tremendous	-11.0122
▁drinks	-11.0123
▁wives	-11.0123
▁reasonable	-11.0125
▁cop	-11.0126
▁total	-11.0133
▁actions	-11.0134
▁pitch	-11.0139
▁inhabitants	-11.0149
▁contented	-11.015
▁Also	-11.0152
▁articles	-11.0154
▁community	-11.0156
▁steep	-11.0156
▁Sandy	-11.0157
▁Judge	-11.0161
▁pas	-11.017
▁protest	-11.0173
▁prize	-11.0174
▁awe	-11.0176
▁OK	-11.0178
▁y	-11.0179
▁East	-11.0183
▁]	-11.0187
▁landlord	-11.0188
▁parked	-11.0192
▁21	-11.0192
▁sunk	-11.0192
▁positive	-11.0197
▁Johnny	-11.02
▁MUSIC	-11.0201
▁furnished	-11.0203
▁blew	-11.0206
▁STEPHEN	-11.0208
▁faintly	-11.0209
▁compared	-11.021
▁Jordan	-11.0213
eth	-11.0216
▁performed	-11.0224
▁mon	-11.0229
▁principles	-11.023
▁reduced	-11.0233
▁citizen	-11.024
▁coal	-11.0242
▁services	-11.0244
AL	-11.0245
▁warriors	-11.0248
▁BOY	-11.0249
▁kicks	-11.0249
▁Jennie	-11.025
▁Latin	-11.0251
▁bishop	-11.0252
▁gallery	-11.0258
▁banks	-11.0259
▁whereas	-11.0271
▁TOM	-11.0272
▁BY	-11.0275
▁granted	-11.0275
▁feeble	-11.028
▁policy	-11.0282
▁gloves	-11.0285
▁whispers	-11.0291
▁Duchess	-11.0304
▁weird	-11.0313
off	-11.0316
▁tosses	-11.0322
▁Ch	-11.0323
1	-11.033
?!	-11.0333
▁18	-11.0336
▁Were	-11.0342
▁Emperor	-11.0343
▁secretary	-11.0343
MR	-11.0344
▁Rick	-11.035
▁YOUNG	-11.0356
▁string	-11.0358
▁24	-11.0359
▁40	-11.036
▁brains	-11.0366
▁bay	-11.0367
▁bull	-11.0368
▁crushed	-11.0368
▁sentiment	-11.0375
▁AFTERNOON	-11.0376
ne	-11.0378
▁practically	-11.0379
▁shoots	-11.0384
▁climbed	-11.0386
▁Bond	-11.0387
ie	-11.0389
▁Soon	-11.0398
▁catching	-11.04
▁chapter	-11.0402
▁Arabella	-11.0402
very	-11.0405
▁breathe	-11.0405
▁Dorothea	-11.0411
▁offering	-11.0413
▁corn	-11.0414
▁blown	-11.0416
▁powder	-11.0416
▁romantic	-11.0416
▁Sophia	-11.0418
▁19	-11.042
▁swinging	-11.0422
▁Betsy	-11.0428
▁meanwhile	-11.0428
▁positively	-11.0429
▁Other	-11.0431
▁curse	-11.0433
▁hence	-11.0434
▁ladyship	-11.0436
▁Logan	-11.0437
▁slender	-11.0442
▁pavement	-11.0445
▁recalled	-11.0446
▁recall	-11.0449
▁submit	-11.0452
▁Rebecca	-11.0452
▁cares	-11.0452
▁lofty	-11.0453
▁acknowledge	-11.0455
▁images	-11.0467
▁training	-11.0469
▁painting	-11.0471
▁Tin	-11.0474
▁shield	-11.0476
▁grin	-11.0476
▁Kennedy	-11.048
▁bite	-11.0485
▁Nigel	-11.0487
▁performance	-11.0489
▁boats	-11.0489
▁cheap	-11.049
▁winds	-11.0491
▁heir	-11.0495
▁illness	-11.0497
▁pit	-11.0497
▁Keep	-11.0501
▁innocence	-11.0504
▁sole	-11.0505
▁professional	-11.0506
▁FLOOR	-11.0506
▁bags	-11.0508
▁wing	-11.0514
▁princess	-11.0516
▁Night	-11.0517
▁receiving	-11.0522
▁craft	-11.0527
▁cautiously	-11.0531
▁proposal	-11.0532
▁conceived	-11.0537
▁engineer	-11.0537
▁merit	-11.0538
▁preferred	-11.0538
▁listens	-11.0545
▁Italy	-11.055
▁AN	-11.0551
▁Remember	-11.0555
Miss	-11.0556
▁tobacco	-11.0556
▁enjoying	-11.0556
▁offended	-11.0559
▁passenger	-11.0559
▁beam	-11.0561
▁intent	-11.0562
▁kinds	-11.0563
▁Excuse	-11.0566
▁lovers	-11.0572
▁spell	-11.0572
▁fortunate	-11.0572
▁backwards	-11.0579
▁Ashe	-11.0581
▁Benny	-11.0583
▁residence	-11.0584
▁POLICE	-11.0589
▁studied	-11.0591
With	-11.0591
▁Jackie	-11.0591
▁Hugh	-11.0593
▁Too	-11.0607
▁monstrous	-11.0607
▁portrait	-11.0612
▁intelligent	-11.0616
▁longing	-11.0622
▁modest	-11.0623
▁hunt	-11.0623
▁v	-11.0627
▁Fairy	-11.0627
▁wilt	-11.0628
▁Island	-11.0629
▁Ross	-11.0631
▁Violet	-11.0636
▁MATT	-11.0637
▁fro	-11.0638
▁loaded	-11.0638
▁instrument	-11.0641
▁continually	-11.0643
▁reception	-11.0645
▁Should	-11.0653
▁firing	-11.0654
▁offers	-11.0656
▁likes	-11.0656
▁bigger	-11.0661
▁mission	-11.0666
▁interfere	-11.0674
▁persuaded	-11.0676
▁emerges	-11.0677
▁pants	-11.0678
▁Monday	-11.0689
▁voyage	-11.0689
▁tray	-11.0692
▁prayers	-11.0694
▁longed	-11.0697
▁grounds	-11.0701
▁GUARD	-11.0706
cont	-11.0708
▁rays	-11.0712
▁Magdalen	-11.0712
▁twilight	-11.0714
▁attracted	-11.0716
▁philosophy	-11.0723
▁pours	-11.0724
▁murmur	-11.0726
▁polite	-11.073
▁vulgar	-11.0731
▁trifle	-11.0732
▁Adams	-11.0739
▁overhead	-11.0739
*	-11.074
▁filling	-11.074
▁travelling	-11.0741
▁alley	-11.0741
▁Jimmy	-11.0742
▁shouts	-11.0745
▁leisure	-11.0764
▁Instead	-11.0769
▁county	-11.0772
▁Shit	-11.0772
▁union	-11.0773
▁Catherine	-11.0777
▁helping	-11.0777
▁www	-11.078
▁DANNY	-11.078
▁impatiently	-11.078
▁assume	-11.0783
▁lively	-11.0788
▁linen	-11.0789
▁bitterly	-11.079
▁electric	-11.0793
▁rescue	-11.0794
▁millions	-11.0797
▁refuge	-11.0798
▁depth	-11.0798
▁Oz	-11.0801
▁sore	-11.0802
▁wept	-11.0804
▁DAWN	-11.0804
▁intellectual	-11.0811
▁washed	-11.0813
▁tin	-11.0816
two	-11.0822
book	-11.0822
▁Hill	-11.083
▁madness	-11.0832
▁acquired	-11.0833
▁fog	-11.0834
even	-11.0843
▁fed	-11.0843
▁mansion	-11.0843
▁mild	-11.0846
▁Glencora	-11.0849
▁obeyed	-11.085
▁sensation	-11.0854
▁maintain	-11.0855
▁charged	-11.0856
▁depend	-11.0857
▁shortly	-11.086
four	-11.0862
▁marrying	-11.0865
▁wishing	-11.0873
▁WILL	-11.0874
▁signed	-11.0876
▁devotion	-11.0877
▁Governor	-11.0878
▁BEAT	-11.0879
▁knocks	-11.0892
▁outward	-11.0902
▁admired	-11.0907
▁h	-11.0911
▁doubted	-11.0911
▁existed	-11.0911
▁drawer	-11.0911
▁warrant	-11.0913
ting	-11.0914
▁favorite	-11.0914
▁Ma	-11.0915
▁satisfy	-11.0915
▁mustn	-11.0918
▁wreck	-11.092
▁remove	-11.0921
▁visitors	-11.0923
▁regarding	-11.0923
▁supported	-11.0924
▁inevitable	-11.0927
▁determination	-11.0928
▁vengeance	-11.0928
Take	-11.0932
▁secrets	-11.0933
▁rival	-11.0933
▁hesitates	-11.0937
▁wounds	-11.094
▁SCREEN	-11.0943
▁eighteen	-11.0946
▁chiefly	-11.095
▁carpet	-11.0957
▁Down	-11.0957
▁LADY	-11.0958
▁hunger	-11.0965
▁MEN	-11.0971
▁injured	-11.0976
▁desperately	-11.0976
▁MED	-11.0977
▁passions	-11.0978
▁Leo	-11.0978
▁Dale	-11.0979
▁lowered	-11.0987
▁clothing	-11.0988
▁unpleasant	-11.0989
▁hopeless	-11.0992
▁Wolf	-11.0994
▁Pope	-11.0999
▁22	-11.1003
▁KIRK	-11.1005
▁sang	-11.1007
▁genuine	-11.1008
▁apt	-11.101
▁awhile	-11.1012
▁pronounced	-11.1013
▁horrid	-11.1018
▁gravity	-11.1018
▁restless	-11.1019
natured	-11.102
▁murdered	-11.1024
▁monsieur	-11.1028
▁effects	-11.1029
▁crash	-11.1031
ry	-11.1039
Mrs	-11.104
▁Barney	-11.1045
▁cunning	-11.1054
▁colonel	-11.1061
▁MOTHER	-11.1064
▁novel	-11.1067
▁blast	-11.1072
▁fame	-11.1077
▁Eddie	-11.1082
be	-11.1086
▁restored	-11.1087
▁chances	-11.1098
▁Tim	-11.1101
▁None	-11.1108
▁Trevelyan	-11.111
▁harsh	-11.1115
▁whip	-11.1116
▁uncertain	-11.1118
▁clearing	-11.1122
▁Palliser	-11.1125
▁Veronica	-11.1129
▁cure	-11.1129
▁ringing	-11.1134
▁increase	-11.1137
▁extra	-11.1139
▁bush	-11.114
▁valuable	-11.1144
▁Chia	-11.1145
▁childhood	-11.1146
▁Half	-11.1154
▁Caesar	-11.1156
▁mode	-11.1156
▁wherever	-11.1158
▁brush	-11.1159
▁FADE	-11.116
▁kissing	-11.1165
▁shalt	-11.1166
▁brick	-11.1167
LARRY	-11.1168
▁whither	-11.1168
▁precisely	-11.1175
because	-11.1178
▁balls	-11.1178
▁Being	-11.1179
▁enjoyment	-11.1181
▁exquisite	-11.1182
▁Dorrit	-11.1183
▁motions	-11.1183
▁terribly	-11.1184
▁containing	-11.1186
▁altar	-11.1191
▁Scotland	-11.1193
▁bewildered	-11.1193
▁locks	-11.1193
▁curiously	-11.1196
▁bitch	-11.1198
▁Gerald	-11.1201
▁Am	-11.1207
▁packed	-11.1208
▁operation	-11.121
▁Lester	-11.1212
▁bargain	-11.1213
▁blessing	-11.1214
▁Lieutenant	-11.1214
▁defence	-11.1215
▁mostly	-11.1218
▁cheer	-11.1219
▁tough	-11.1221
▁MALCOLM	-11.1224
▁wolf	-11.1226
▁Jude	-11.1226
▁des	-11.1228
▁SHE	-11.1228
▁Rev	-11.1228
▁plastic	-11.123
▁Close	-11.1231
ce	-11.1231
▁frequent	-11.124
▁DUSK	-11.1241
▁torture	-11.1249
▁disappear	-11.1251
▁vaguely	-11.1252
▁MARK	-11.1252
▁leaf	-11.1252
▁acts	-11.1255
▁injury	-11.1258
▁annoyed	-11.1261
▁Lily	-11.1261
▁agitation	-11.1264
gif	-11.1265
▁Eustace	-11.1266
▁frightful	-11.1267
▁thief	-11.1268
](	-11.1269
▁damp	-11.1278
▁render	-11.1281
▁Coningsby	-11.1285
▁Pencroft	-11.1286
▁warrior	-11.1286
▁seeming	-11.1288
▁interval	-11.1294
▁Ten	-11.1294
▁shy	-11.1294
▁Blanche	-11.1297
▁Squire	-11.1299
▁belongs	-11.1308
▁model	-11.131
▁sugar	-11.1311
▁duke	-11.1314
▁recognised	-11.1316
▁waved	-11.1317
um	-11.1318
▁release	-11.1319
▁responsible	-11.1323
▁capacity	-11.1323
▁Bobby	-11.1324
▁treatment	-11.1326
▁debt	-11.1332
▁arrested	-11.1334
▁Looking	-11.1337
▁sober	-11.1338
▁Mowbray	-11.1342
▁bottles	-11.1358
▁spear	-11.1358
----------------	-11.1359
▁lifting	-11.1368
▁dad	-11.1371
▁rector	-11.1375
▁jail	-11.1375
▁autumn	-11.1376
▁pains	-11.1381
▁lane	-11.1381
▁split	-11.1381
▁velvet	-11.1386
▁ours	-11.1386
▁wont	-11.1387
▁Geoffrey	-11.1391
▁examine	-11.1392
▁landed	-11.1393
▁farmer	-11.1393
▁jewels	-11.1393
▁deceived	-11.1394
▁tip	-11.1396
▁Harold	-11.1399
▁memories	-11.1399
▁unlike	-11.14
▁grandmother	-11.1401
▁noted	-11.1402
▁aboard	-11.1403
▁corners	-11.1405
▁sinking	-11.1407
able	-11.1408
▁aged	-11.1409
▁discuss	-11.1412
▁Doc	-11.1421
2	-11.1425
▁100	-11.1429
▁bone	-11.143
▁tracks	-11.1437
▁Moon	-11.1437
▁FRONT	-11.1439
▁doubtful	-11.144
▁RICK	-11.1441
MARK	-11.1443
▁fitted	-11.1444
▁landscape	-11.1446
▁contrast	-11.1448
ar	-11.1463
▁MARGARET	-11.1464
▁Miles	-11.1469
▁HEAD	-11.1473
▁robe	-11.1474
▁assembled	-11.1476
▁pretended	-11.1485
▁Charley	-11.1486
▁Hold	-11.1493
▁clasped	-11.1494
▁barrel	-11.1497
▁attacked	-11.1499
▁wretch	-11.15
▁sunset	-11.151
▁BAR	-11.151
▁graceful	-11.1512
▁CHARLES	-11.1513
▁yonder	-11.1513
▁com	-11.152
▁Lapham	-11.1521
▁confession	-11.1522
▁suspicious	-11.1522
▁surrounding	-11.1524
▁reserve	-11.1525
▁romance	-11.1526
▁cattle	-11.1531
▁Has	-11.1531
▁MOMENTS	-11.1533
▁chap	-11.1534
▁pouring	-11.1536
▁Boy	-11.1541
▁diamonds	-11.1544
▁perform	-11.1545
▁Make	-11.1545
▁ROB	-11.155
▁Lufton	-11.155
▁variety	-11.155
▁warned	-11.1552
▁scale	-11.1558
▁hurries	-11.156
▁strikes	-11.156
▁ape	-11.1568
.'"	-11.1569
▁Kelly	-11.157
▁Roland	-11.1583
▁discourse	-11.1583
▁charity	-11.1589
▁Him	-11.159
▁Among	-11.1594
▁whispering	-11.1598
▁Silence	-11.16
▁stretch	-11.1601
▁hut	-11.1603
▁ERIC	-11.1604
▁insult	-11.1608
▁foul	-11.1609
▁grab	-11.161
▁shaft	-11.1611
▁Sea	-11.1612
▁slope	-11.1615
▁Washington	-11.1618
▁admire	-11.1623
▁inquiries	-11.1627
▁encounter	-11.1633
▁Whether	-11.1637
▁Gresham	-11.1638
▁swore	-11.1638
▁recollection	-11.1639
headed	-11.1641
▁thanked	-11.1644
▁independent	-11.1648
▁plunged	-11.165
▁sleeve	-11.1651
▁aught	-11.1651
▁belonging	-11.1656
▁resentment	-11.1656
some	-11.1663
▁bleeding	-11.1668
▁Strether	-11.1668
▁advise	-11.1669
▁Bell	-11.1669
▁threshold	-11.1675
▁incredible	-11.1677
▁tightly	-11.1679
▁wrought	-11.168
▁attractive	-11.1684
▁grant	-11.1685
▁beings	-11.1685
▁counted	-11.169
▁Thee	-11.1693
▁mutual	-11.1694
▁video	-11.1697
▁examination	-11.1705
▁JULIE	-11.1713
▁sheets	-11.1713
▁behaved	-11.1716
▁fairy	-11.1718
▁conceive	-11.1719
▁dwelling	-11.1721
▁reproach	-11.1729
▁induced	-11.173
▁daring	-11.1734
▁amiable	-11.1735
▁vehicle	-11.1737
▁murderer	-11.1741
where	-11.1743
▁den	-11.1744
▁appointment	-11.1746
▁criminal	-11.1746
▁anyhow	-11.1749
▁trousers	-11.1751
▁inform	-11.1754
▁observing	-11.1754
▁deliver	-11.1758
▁helmet	-11.1766
▁Mount	-11.1771
▁charges	-11.1771
▁certainty	-11.1774
▁appreciate	-11.1779
▁revolver	-11.1786
▁Royal	-11.179
▁balcony	-11.1793
▁Barbara	-11.1794
▁Clennam	-11.1803
▁gang	-11.1806
▁holes	-11.1808
▁privilege	-11.1809
▁cursed	-11.1812
▁FACE	-11.1815
▁Homer	-11.1816
▁steam	-11.1817
▁inspired	-11.1818
▁error	-11.1826
▁cease	-11.1829
▁shots	-11.1831
▁elegant	-11.1832
▁Scarecrow	-11.1832
▁agitated	-11.1833
▁Rosamond	-11.1834
▁WILLIAM	-11.1837
▁ex	-11.184
▁charms	-11.184
▁28	-11.1841
▁nigh	-11.1844
can	-11.1847
▁reckon	-11.1859
▁Lydgate	-11.1862
▁sport	-11.1863
▁purposes	-11.1864
▁Jason	-11.1864
▁hook	-11.1866
▁mill	-11.1867
▁JIM	-11.1867
▁literature	-11.1873
▁notwithstanding	-11.1874
▁trained	-11.1878
See	-11.1882
▁occasional	-11.1882
▁dashed	-11.1884
▁tossed	-11.1888
▁inward	-11.1894
▁dried	-11.1896
▁halt	-11.1896
▁brass	-11.1896
▁messenger	-11.1896
▁dislike	-11.1899
▁gleam	-11.1901
▁INTERIOR	-11.1903
▁peers	-11.1905
▁qu	-11.1914
▁policeman	-11.1915
▁blanket	-11.1915
▁flashing	-11.192
▁opposition	-11.1921
▁secured	-11.1922
▁bitterness	-11.1924
▁sentiments	-11.193
▁Ford	-11.1941
▁chill	-11.1944
▁mail	-11.1948
▁OFFICER	-11.1948
▁DOCTOR	-11.1949
▁uses	-11.195
▁realizes	-11.1951
▁HARRY	-11.1952
▁breathed	-11.1952
▁labor	-11.1952
▁END	-11.1958
▁Son	-11.1959
▁subtle	-11.196
▁lodging	-11.1966
▁candles	-11.197
▁Gordon	-11.1972
▁FIRST	-11.1972
▁personally	-11.1978
▁Friday	-11.1979
▁Grand	-11.1984
▁Moreover	-11.1984
▁Marian	-11.1987
▁Daniel	-11.1988
▁profit	-11.1991
▁universe	-11.1991
▁jaw	-11.1995
▁column	-11.1995
▁landlady	-11.2001
▁adventures	-11.2003
▁shoe	-11.2004
▁arrangements	-11.2005
▁pound	-11.2008
▁********	-11.2012
▁substance	-11.2016
▁chimney	-11.2017
▁bath	-11.2018
▁ALL	-11.2019
▁tune	-11.2025
▁arrest	-11.2028
▁Andrew	-11.2029
▁neat	-11.2032
▁thence	-11.2033
▁displayed	-11.2034
▁multitude	-11.2037
▁VAN	-11.2038
▁sidewalk	-11.2047
hand	-11.2049
▁flips	-11.205
▁deserved	-11.2051
▁desires	-11.2058
▁rows	-11.206
▁eldest	-11.2062
▁TOMMY	-11.2065
▁developed	-11.2066
▁enabled	-11.2068
▁.)	-11.2074
▁scent	-11.2075
▁cake	-11.2078
▁Angel	-11.2081
▁attorney	-11.2088
▁intimacy	-11.2092
▁HAND	-11.2093
▁accompany	-11.2099
▁Chiltern	-11.2103
An	-11.2103
▁Nancy	-11.2106
▁gear	-11.2112
▁Clavering	-11.2112
▁26	-11.2113
▁establishment	-11.2119
▁Call	-11.2121
▁esteem	-11.2122
▁passengers	-11.2123
▁denied	-11.2123
▁withdrew	-11.2124
▁Jackson	-11.2125
▁Grey	-11.2128
▁MY	-11.2132
May	-11.2137
▁persuade	-11.2139
▁medicine	-11.2149
▁scientific	-11.2154
▁fishing	-11.2156
▁alongside	-11.2156
▁Pao	-11.2158
▁expedition	-11.2159
▁exceedingly	-11.2164
▁causes	-11.2165
▁definite	-11.2172
▁Isn	-11.2173
▁booth	-11.2173
faced	-11.2177
▁boss	-11.2179
▁purchase	-11.2183
▁peaceful	-11.2183
▁collected	-11.2185
▁skull	-11.2189
▁amidst	-11.219
▁delicious	-11.2193
▁confined	-11.2196
▁saving	-11.2196
▁arrives	-11.2202
▁apprehension	-11.2211
▁caution	-11.2213
▁intently	-11.2216
▁reported	-11.2219
▁fur	-11.2221
▁War	-11.2222
▁gardens	-11.2224
la	-11.2224
EE	-11.2225
▁newspapers	-11.2227
▁bows	-11.2227
past	-11.223
▁alien	-11.2232
▁yo	-11.2233
▁Africa	-11.2234
▁bend	-11.2234
▁rail	-11.2234
▁Vanstone	-11.2235
▁Dear	-11.2236
▁regards	-11.2237
▁guilt	-11.224
▁Victor	-11.224
▁gifts	-11.2244
▁simplicity	-11.2245
On	-11.2246
▁doubts	-11.2248
▁BRIDGE	-11.2248
▁remembrance	-11.2252
▁confirmed	-11.2257
▁enable	-11.2261
▁literary	-11.2267
▁Rue	-11.227
Star	-11.2274
▁awoke	-11.2275
▁thumb	-11.2275
▁equipment	-11.2276
▁fragments	-11.2277
▁bending	-11.2281
▁Mars	-11.2283
▁Bernard	-11.2288
▁Armadale	-11.2288
▁weep	-11.2295
▁selfish	-11.2296
▁entertained	-11.2298
▁project	-11.2299
ic	-11.2301
▁masters	-11.2306
▁45	-11.2307
▁Graham	-11.2314
▁centuries	-11.2318
▁coarse	-11.2324
Be	-11.2329
...."	-11.233
▁Maria	-11.2331
▁careless	-11.2339
▁greeted	-11.234
▁flashes	-11.2341
▁complain	-11.2341
▁thoughtful	-11.2343
▁reaction	-11.2346
▁dish	-11.2347
▁shan	-11.2353
▁Nora	-11.2356
▁Room	-11.2358
▁renewed	-11.236
▁VI	-11.2365
▁struggled	-11.2366
▁birthday	-11.2368
▁shelf	-11.2368
▁consented	-11.2373
▁studying	-11.2373
would	-11.2374
▁COP	-11.2379
▁pollen	-11.238
▁Harris	-11.2381
▁pencil	-11.2386
▁compassion	-11.2386
▁penny	-11.239
▁Arnold	-11.2391
▁lots	-11.2399
▁Thorne	-11.2402
▁destiny	-11.2411
▁protested	-11.2413
▁addition	-11.2415
▁temptation	-11.2419
▁climbing	-11.2419
▁descend	-11.242
▁console	-11.242
▁bother	-11.2423
▁Cross	-11.2424
▁greet	-11.2427
▁deeds	-11.2429
▁bursts	-11.2432
▁growth	-11.2433
▁Jeff	-11.2433
▁Prime	-11.2434
▁drowned	-11.2435
▁fills	-11.2438
▁RAY	-11.2439
▁clung	-11.2442
▁stable	-11.2447
▁STARK	-11.2447
▁awakened	-11.2456
▁sweep	-11.246
▁GUY	-11.2464
▁Company	-11.2465
▁threatening	-11.2466
▁visits	-11.2466
▁MAC	-11.2466
▁endless	-11.2466
▁tools	-11.2467
▁finest	-11.2469
▁Indians	-11.2474
▁damned	-11.2479
▁oak	-11.2485
▁shell	-11.2485
▁discussed	-11.2487
▁relative	-11.2493
▁generation	-11.2495
▁provide	-11.2496
▁Dave	-11.25
▁willingly	-11.25
▁Israel	-11.2504
▁SECOND	-11.2504
▁steward	-11.2505
▁attempts	-11.2506
▁Hale	-11.2507
▁needle	-11.2508
▁MAIN	-11.2509
▁snaps	-11.251
▁Someone	-11.2513
▁BARBARA	-11.2516
▁underneath	-11.2517
▁average	-11.252
have	-11.2523
▁collection	-11.2525
▁Doug	-11.2525
▁luxury	-11.2527
▁resolve	-11.2529
▁abandon	-11.2533
▁tribe	-11.2536
▁recent	-11.2537
▁FIRE	-11.2543
▁remembering	-11.2547
▁published	-11.2549
▁switch	-11.2552
▁bonnet	-11.2554
▁teaching	-11.2555
▁manager	-11.2559
▁feminine	-11.2559
▁Midwinter	-11.256
▁costume	-11.2562
▁declined	-11.2573
▁whistle	-11.2574
▁23	-11.2575
▁jest	-11.2576
▁poison	-11.2576
▁ROAD	-11.2576
side	-11.2577
▁dreaming	-11.2578
▁BATHROOM	-11.2581
▁rarely	-11.2582
here	-11.2582
▁chambers	-11.2583
▁owing	-11.2585
▁openly	-11.2586
▁preserved	-11.2588
▁toilet	-11.2588
▁pattern	-11.259
▁intercourse	-11.259
▁brute	-11.259
▁scarlet	-11.2591
▁robbed	-11.2591
▁sobbing	-11.2592
▁introduce	-11.2594
▁increasing	-11.2597
▁pre	-11.2602
▁sheer	-11.2604
▁neighbours	-11.2604
▁confessed	-11.2605
▁seventy	-11.2614
▁circles	-11.2616
▁Woman	-11.2618
▁amazing	-11.2624
▁sensitive	-11.2625
▁compliment	-11.2627
▁Meg	-11.2631
▁writes	-11.2633
▁tragedy	-11.2633
▁Florence	-11.2634
go	-11.2638
▁motives	-11.2642
▁butter	-11.2645
▁CHRIS	-11.2646
▁cow	-11.2647
▁danced	-11.2647
▁printed	-11.2648
▁avoided	-11.2648
▁ideal	-11.2648
▁joint	-11.2649
▁parking	-11.265
▁feast	-11.2652
▁VIEW	-11.2653
▁obedience	-11.2655
▁commenced	-11.2657
▁believing	-11.2658
▁LONG	-11.2662
▁0	-11.2664
▁conducted	-11.2665
▁entitled	-11.2666
▁briefly	-11.2669
▁Western	-11.2676
▁Matthew	-11.2679
▁bundle	-11.268
▁tenderly	-11.2681
▁questioned	-11.2681
▁waiter	-11.2681
ch	-11.2683
▁flag	-11.2686
▁students	-11.2688
x	-11.2698
▁statue	-11.2698
▁eagerness	-11.2699
▁repose	-11.2701
▁roses	-11.2705
▁talent	-11.2708
▁lighter	-11.2713
▁slain	-11.2716
▁summoned	-11.272
▁hurriedly	-11.2723
▁removes	-11.2723
▁spy	-11.2724
▁Hester	-11.2726
▁pleasures	-11.2728
▁depart	-11.273
▁student	-11.2732
▁Ozma	-11.2733
▁restaurant	-11.2741
▁doctrine	-11.2741
▁Nice	-11.2742
▁insist	-11.2742
▁fiercely	-11.2744
▁terrace	-11.2745
▁OUTSIDE	-11.2747
▁Place	-11.2751
▁Holly	-11.2752
▁frankly	-11.2753
▁sixteen	-11.2762
▁lessons	-11.2762
▁betray	-11.2765
▁inquire	-11.2766
▁mouths	-11.2768
▁district	-11.2774
▁Drew	-11.2774
▁ALEX	-11.2774
His	-11.2776
▁indicated	-11.2777
▁spectacle	-11.2777
▁fan	-11.2784
▁TED	-11.2786
▁Mackenzie	-11.2794
▁distinction	-11.2795
▁Sid	-11.2797
▁MOM	-11.2799
▁[![	-11.2802
Poor	-11.2804
▁unseen	-11.2806
▁expectation	-11.2806
▁orange	-11.2808
▁tank	-11.2809
▁Stay	-11.2811
▁sincere	-11.2812
▁bullets	-11.2814
▁Surely	-11.2818
▁FRED	-11.2819
▁tremble	-11.2822
▁BILL	-11.2824
▁Dean	-11.2824
▁Haven	-11.2828
▁India	-11.2836
▁Ned	-11.2841
▁ashes	-11.2841
▁lined	-11.2842
▁execution	-11.2848
▁disturb	-11.2848
▁resistance	-11.285
▁heed	-11.2851
▁boldly	-11.2852
▁coldly	-11.2852
▁LA	-11.2858
▁winding	-11.286
▁towel	-11.2861
▁TONY	-11.2862
▁Jenny	-11.2862
▁presume	-11.2864
▁glare	-11.2868
▁proportion	-11.287
▁Montoni	-11.2871
▁dragging	-11.2872
▁Julie	-11.2876
▁wasted	-11.288
▁Fox	-11.288
▁development	-11.2884
▁advancing	-11.2885
▁Agnes	-11.2885
▁Glass	-11.2885
▁national	-11.2886
▁ASH	-11.2886
▁stove	-11.2887
▁ability	-11.2888
▁Bible	-11.2894
▁CITY	-11.2895
▁OMITTED	-11.2898
▁Got	-11.2902
▁sale	-11.2915
▁intellect	-11.2916
▁narrative	-11.2916
▁accent	-11.2925
▁Oxford	-11.2927
▁inclination	-11.2928
▁miracle	-11.2928
▁examining	-11.2929
▁mob	-11.293
▁fright	-11.2933
▁seeds	-11.2934
▁RADIO	-11.2935
▁Beat	-11.2936
▁countries	-11.2937
ah	-11.2942
▁warn	-11.2943
▁intensity	-11.2948
perhaps	-11.2948
▁April	-11.2952
▁pole	-11.2955
▁owned	-11.2955
▁element	-11.2957
▁Ripley	-11.296
▁Lawrence	-11.2961
▁appetite	-11.2961
▁endeavour	-11.2967
▁secretly	-11.2968
▁Percival	-11.2971
▁neglected	-11.2973
▁dollar	-11.2973
▁election	-11.2975
▁needn	-11.2983
▁comments	-11.2986
▁emergency	-11.2993
▁HIGH	-11.2993
▁cities	-11.2994
▁ARE	-11.3002
▁cruelty	-11.3003
▁procession	-11.3007
▁surgeon	-11.3008
▁formal	-11.3008
▁bored	-11.3015
▁universal	-11.3025
nothing	-11.3026
▁veins	-11.3028
▁woke	-11.3034
▁stated	-11.3035
▁supreme	-11.3036
▁Felix	-11.3038
▁owed	-11.3039
▁beams	-11.3039
▁Justice	-11.3041
et	-11.3042
▁confident	-11.3044
▁promptly	-11.3049
▁swim	-11.305
▁solemnly	-11.3051
▁DOLL	-11.3055
▁fatigue	-11.3056
▁childish	-11.306
▁counting	-11.306
▁lace	-11.3061
▁LUCY	-11.3061
▁liquid	-11.3062
▁PA	-11.3066
▁monitor	-11.3068
▁LATE	-11.3071
▁Miguel	-11.3071
▁natives	-11.3071
▁text	-11.3072
▁proposition	-11.3072
▁Guard	-11.3075
▁Marilla	-11.3083
▁honourable	-11.3084
▁canvas	-11.3084
▁mom	-11.3085
▁eyebrows	-11.3087
▁!!!	-11.3092
▁27	-11.3099
▁arrange	-11.3101
▁KATE	-11.3101
▁March	-11.3106
▁quantity	-11.3115
▁swallowed	-11.3117
▁Council	-11.3117
▁darkened	-11.3117
▁panel	-11.3126
TED	-11.3127
▁MISS	-11.313
▁blush	-11.3132
▁SUSAN	-11.3137
▁PETER	-11.3139
▁hood	-11.3139
▁burnt	-11.3144
▁peasant	-11.3151
▁Chinese	-11.3161
▁dishes	-11.3162
▁thoughtfully	-11.3165
▁fireplace	-11.3165
▁uneasiness	-11.3171
▁exception	-11.3175
▁Hell	-11.3178
▁dies	-11.3178
▁convenient	-11.3182
▁occupation	-11.3187
▁helps	-11.3191
▁Shut	-11.3191
▁complexion	-11.3193
▁persisted	-11.3194
▁Lopez	-11.3195
▁skirt	-11.3196
▁united	-11.3198
CLOSE	-11.3201
after	-11.3202
▁lawyers	-11.3205
▁...?	-11.3206
▁hammer	-11.3209
▁shift	-11.321
▁snake	-11.3211
▁Last	-11.3211
▁newly	-11.3211
▁dwell	-11.3216
▁thread	-11.3217
▁brandy	-11.322
▁Matt	-11.322
▁roads	-11.3225
▁writers	-11.3226
▁JAKE	-11.3229
▁pine	-11.3229
▁gallant	-11.323
▁comparison	-11.3231
▁slide	-11.3232
▁Chicago	-11.3234
▁Leave	-11.3238
▁bends	-11.3244
▁physician	-11.3244
▁Le	-11.3251
▁STEVE	-11.3253
▁Inside	-11.3258
▁parent	-11.3259
▁hurrying	-11.3262
▁Lupin	-11.3263
▁lantern	-11.3266
▁perfection	-11.3266
down	-11.3271
▁origin	-11.3274
▁nails	-11.3278
TO	-11.3281
▁DE	-11.3283
▁hired	-11.3288
▁recognition	-11.3288
▁wits	-11.3295
▁Francis	-11.3299
▁brook	-11.3302
▁vote	-11.3304
▁apple	-11.3307
▁JORDAN	-11.3307
▁plates	-11.3313
▁suspended	-11.3319
▁Alaric	-11.332
▁MICHAEL	-11.332
▁nodding	-11.3321
▁forgetting	-11.3322
▁60	-11.3327
▁apply	-11.3327
▁vivid	-11.3329
▁garage	-11.333
▁delicacy	-11.3331
▁comment	-11.3331
▁condemned	-11.3332
▁net	-11.3332
▁accused	-11.3335
▁Knight	-11.3338
▁highway	-11.3339
▁applause	-11.3342
▁Temple	-11.3343
▁Marguerite	-11.3345
▁healthy	-11.3351
▁dusk	-11.3351
▁Denry	-11.3354
▁shuts	-11.3364
▁majesty	-11.3365
▁jolly	-11.3367
▁housekeeper	-11.3371
▁structure	-11.3371
▁Slowly	-11.3378
▁ink	-11.3393
▁yer	-11.3398
▁Gertrude	-11.3401
▁Wall	-11.3402
▁cellar	-11.3403
▁cream	-11.3409
▁***	-11.3412
▁polished	-11.3414
▁courtyard	-11.3415
▁FBI	-11.3416
▁Mistress	-11.342
▁Trevor	-11.3422
AN	-11.3425
▁Cole	-11.3426
▁fountain	-11.3428
▁advised	-11.3433
▁lowers	-11.3434
stairs	-11.3435
▁priests	-11.3436
▁Johnson	-11.3436
▁colored	-11.3437
▁horn	-11.344
▁Girl	-11.3442
▁garments	-11.3442
▁respects	-11.3445
▁dismissed	-11.3446
▁accounts	-11.3447
▁distinguish	-11.3449
▁disguise	-11.3457
▁deliberately	-11.3459
▁channel	-11.346
tree	-11.3461
▁pig	-11.3461
▁literally	-11.3462
▁Far	-11.3466
▁travellers	-11.3474
▁rides	-11.3475
minded	-11.3476
▁pupil	-11.3476
▁problems	-11.3477
▁Vavasor	-11.348
▁television	-11.348
▁adopted	-11.3481
▁classes	-11.3484
▁doctors	-11.3488
▁lend	-11.3491
such	-11.3491
▁sends	-11.3492
▁downward	-11.3492
▁errand	-11.3499
▁naught	-11.3503
▁anchor	-11.3507
▁MOVING	-11.3513
▁se	-11.3513
▁Vronsky	-11.3516
▁disease	-11.3516
▁tense	-11.3518
▁amusing	-11.3519
▁suited	-11.3519
▁blocks	-11.3523
▁ruins	-11.3524
gate	-11.3524
▁gotten	-11.3533
▁dismay	-11.3541
PETER	-11.3544
▁encouraged	-11.3545
▁application	-11.3545
▁conception	-11.3557
▁crimson	-11.3557
▁tidings	-11.3563
▁tempted	-11.3564
▁despite	-11.3565
▁co	-11.357
▁envy	-11.3571
▁belly	-11.3571
▁preserve	-11.3572
▁Brother	-11.3573
▁muscles	-11.3575
▁proceedings	-11.3578
▁chicken	-11.3582
▁Raffles	-11.3582
▁Clay	-11.3583
▁released	-11.3583
▁rigid	-11.3585
▁humor	-11.359
▁occur	-11.3591
▁employment	-11.3592
▁client	-11.3593
▁Road	-11.3596
▁travelled	-11.3598
▁Myles	-11.3599
▁Sun	-11.3599
▁Jean	-11.3603
▁cabinet	-11.3605
▁liking	-11.3606
▁Things	-11.3608
▁swords	-11.3608
▁lasted	-11.3609
▁infinitely	-11.3612
▁diamond	-11.3616
▁infant	-11.3616
▁yourselves	-11.3621
DR	-11.3621
▁Troy	-11.3625
▁tearing	-11.3633
▁earthly	-11.3633
▁LITTLE	-11.3634
▁necessarily	-11.3635
▁maintained	-11.3635
▁learnt	-11.364
▁alert	-11.3643
▁obscure	-11.3643
▁frank	-11.3644
▁ETHAN	-11.3645
▁consisted	-11.3645
▁alas	-11.3648
▁neighbour	-11.3649
▁document	-11.365
▁Micawber	-11.3657
▁bits	-11.3658
▁parson	-11.3664
Only	-11.3664
▁nest	-11.3667
▁responded	-11.367
▁witnesses	-11.3672
▁arrow	-11.3672
▁coward	-11.3675
▁idiot	-11.3676
▁erect	-11.368
▁generosity	-11.368
▁earn	-11.3687
▁recently	-11.3694
fashioned	-11.3699
▁suits	-11.3705
▁soup	-11.3711
▁Almost	-11.3712
▁sails	-11.3713
▁reserved	-11.3713
▁sins	-11.3714
▁Chichikov	-11.3716
▁Undine	-11.3718
****************	-11.3721
▁pin	-11.3723
▁Alas	-11.3723
work	-11.3725
▁behave	-11.3728
▁greeting	-11.3728
▁holiday	-11.3728
▁Six	-11.3729
▁roaring	-11.3729
▁Gray	-11.3729
▁breathless	-11.373
▁fifth	-11.3731
▁LAURA	-11.374
▁proceeding	-11.3741
▁reflect	-11.3742
▁Tony	-11.3742
▁July	-11.3744
▁gladly	-11.3751
▁referred	-11.3752
▁chains	-11.3753
▁gossip	-11.3757
▁snap	-11.376
▁fain	-11.376
▁speaker	-11.3762
▁kings	-11.3762
▁dispute	-11.3765
old	-11.3778
▁elderly	-11.3778
▁reflections	-11.3781
▁affect	-11.3783
▁expensive	-11.3787
▁preparations	-11.3789
▁Twenty	-11.3789
▁forming	-11.379
▁barn	-11.3791
▁instruments	-11.3796
▁29	-11.38
▁region	-11.38
▁prevailed	-11.3801
▁Guy	-11.3802
▁contain	-11.3802
▁marched	-11.3803
▁swimming	-11.3811
▁Wizard	-11.3812
▁dat	-11.3814
▁stillness	-11.3816
▁lays	-11.3817
▁entertainment	-11.382
▁bike	-11.382
▁sphere	-11.3823
▁Neil	-11.3826
▁rubbing	-11.3826
▁retire	-11.3827
MILES	-11.3834
▁standard	-11.3835
▁intentions	-11.3836
▁Cyrus	-11.3836
▁cord	-11.3837
▁pilot	-11.3842
▁peril	-11.3845
▁lobby	-11.3848
▁HOSPITAL	-11.3849
▁tube	-11.3849
▁placing	-11.385
chair	-11.3851
▁October	-11.3852
▁Ken	-11.3853
▁warmly	-11.3855
▁commands	-11.3856
▁consolation	-11.3856
▁cheese	-11.3859
▁reporter	-11.3862
▁avail	-11.3863
▁kicked	-11.3863
▁Dora	-11.3863
▁checking	-11.3864
▁headed	-11.3866
▁undertake	-11.3866
CAROL	-11.3868
▁BOBBY	-11.3872
▁http	-11.3872
▁jury	-11.3872
▁discretion	-11.3872
▁Brooke	-11.3873
▁finishes	-11.3874
▁combat	-11.3875
▁argue	-11.3875
▁Lucilla	-11.3886
▁aroused	-11.3889
▁JERRY	-11.389
▁folds	-11.3892
▁Jeffrey	-11.3893
▁cavern	-11.3893
▁washing	-11.3894
▁approval	-11.3898
▁Magee	-11.3908
▁sadness	-11.3909
▁Hodder	-11.391
▁carved	-11.391
▁clutching	-11.3912
▁depends	-11.3914
▁stepping	-11.3918
▁gigantic	-11.3921
▁supplied	-11.3921
▁perpetual	-11.3921
▁celebrated	-11.3923
▁wherein	-11.3924
▁DEBBIE	-11.3924
▁contrived	-11.3924
▁prayed	-11.3927
▁comrades	-11.3932
▁Catholic	-11.3932
▁Thibault	-11.3933
Thriller	-11.3934
▁Pauline	-11.3936
▁JAC	-11.3936
▁commission	-11.394
▁Murray	-11.3941
▁liquor	-11.3943
▁joins	-11.3943
▁presents	-11.3945
▁justified	-11.3945
▁elements	-11.3947
glass	-11.3949
▁vile	-11.3952
▁expressions	-11.3952
▁fools	-11.3952
▁sack	-11.3954
▁commit	-11.3954
▁Maya	-11.3955
▁Furnival	-11.3957
▁waking	-11.3961
▁Chad	-11.3961
▁roughly	-11.3961
▁Easy	-11.3962
▁si	-11.3964
▁panting	-11.3969
▁groups	-11.3971
▁encountered	-11.3971
▁SCHOOL	-11.3973
▁cliffs	-11.3976
▁parlor	-11.398
▁shine	-11.3981
door	-11.3981
▁succession	-11.3982
▁pursue	-11.3982
▁HEAR	-11.3986
▁EDWARD	-11.3987
Enter	-11.3988
▁embarrassment	-11.3991
▁assistant	-11.3992
▁rubbed	-11.3994
▁largest	-11.4001
▁incapable	-11.4008
▁definitely	-11.4009
▁entertain	-11.401
▁dusty	-11.4016
▁bolt	-11.4016
▁suitable	-11.4019
▁convince	-11.4021
▁furiously	-11.4021
▁vice	-11.4022
Thou	-11.4028
▁youthful	-11.4029
▁surprising	-11.4029
▁fourteen	-11.4031
▁spinning	-11.4032
▁exchanged	-11.4032
▁magazine	-11.4032
▁subdued	-11.4033
▁THEY	-11.4035
▁fortunes	-11.4043
▁prudence	-11.4043
▁Dead	-11.4043
▁Nina	-11.4045
▁beautifully	-11.4045
▁clinging	-11.4046
▁kicking	-11.405
▁spared	-11.405
▁Cousin	-11.405
▁stool	-11.4051
▁SECURITY	-11.4054
▁consequently	-11.4056
▁agents	-11.4057
▁dash	-11.4057
▁Kazan	-11.4058
▁painfully	-11.4059
▁Help	-11.4059
▁AREA	-11.4059
▁seed	-11.4064
▁unwilling	-11.4067
▁BELLA	-11.4068
▁happier	-11.4068
▁planned	-11.4069
▁bomb	-11.407
▁irritated	-11.4071
▁Hence	-11.4072
▁timid	-11.408
▁courtesy	-11.408
▁limited	-11.4083
▁raw	-11.4085
Z	-11.4086
▁hedge	-11.4086
Would	-11.4088
▁Didn	-11.4091
▁Ernest	-11.4092
▁merchant	-11.4099
▁bark	-11.4099
▁Wharton	-11.4102
▁agreement	-11.4102
▁regiment	-11.4104
ha	-11.4105
▁Holmes	-11.4117
▁virtues	-11.4119
▁studio	-11.4125
▁claims	-11.4125
▁strict	-11.4126
▁beds	-11.4127
▁grins	-11.4128
▁Newton	-11.4131
▁cheerfully	-11.4133
more	-11.4138
▁foe	-11.4142
▁previously	-11.4145
▁sworn	-11.4147
▁consult	-11.4148
▁apron	-11.4151
TJ	-11.4151
▁handful	-11.4151
▁echo	-11.4151
▁measures	-11.4154
▁champagne	-11.4154
▁KAFF	-11.4154
▁alright	-11.4155
▁aisle	-11.4158
▁fantastic	-11.416
▁dresses	-11.4164
▁Forrest	-11.4166
▁challenge	-11.4167
▁35	-11.4167
RSS	-11.4168
▁Feeds	-11.4172
▁citizens	-11.4174
▁roots	-11.4178
▁DOROTHY	-11.4179
▁bedside	-11.4182
▁department	-11.4182
▁Marquis	-11.4188
▁Evan	-11.4188
▁affections	-11.419
▁rat	-11.419
▁Marmaduke	-11.4191
▁Ryan	-11.4191
▁September	-11.4195
▁replaced	-11.4195
▁arch	-11.4195
▁player	-11.4199
▁FULL	-11.4201
▁governor	-11.4206
▁NICKY	-11.4206
▁ending	-11.4211
▁VAL	-11.4212
▁casting	-11.4213
After	-11.4216
▁porter	-11.4217
▁colors	-11.4219
▁Felipe	-11.4219
▁shilling	-11.4219
▁Cat	-11.4222
▁jaws	-11.4223
▁Americans	-11.4224
▁smallest	-11.4226
▁probability	-11.4229
▁pathetic	-11.423
▁relieve	-11.4231
▁Leopold	-11.4231
▁Providence	-11.4231
▁Parker	-11.4233
▁clad	-11.4234
▁bells	-11.424
▁swell	-11.4242
▁dimly	-11.4245
▁sealed	-11.4245
▁haunted	-11.4247
▁asks	-11.425
▁hearth	-11.4252
▁och	-11.4252
▁abode	-11.4253
▁buttons	-11.426
▁Sara	-11.4264
▁code	-11.4265
▁professor	-11.4267
▁Aylmer	-11.4267
▁Monica	-11.4269
▁halted	-11.4269
▁PETE	-11.4271
▁TRUCK	-11.4273
▁shapes	-11.4276
▁ANNA	-11.4276
▁motor	-11.4277
▁Gudrun	-11.428
▁pleaded	-11.4281
▁dreaded	-11.4285
▁wipes	-11.429
▁hasty	-11.4292
born	-11.4293
▁Bruce	-11.4293
▁les	-11.4295
▁suspicions	-11.4297
▁betwixt	-11.4298
▁sweetness	-11.4302
▁ribbon	-11.4304
▁Crosbie	-11.4305
▁guided	-11.431
▁sobs	-11.4313
▁lamps	-11.4316
▁Simon	-11.4321
▁Fine	-11.4322
▁honestly	-11.4324
▁LIGHT	-11.4326
▁ragged	-11.4327
▁passages	-11.4327
▁comrade	-11.4333
▁brows	-11.4337
▁arguments	-11.4338
▁ducks	-11.434
▁grain	-11.4342
▁flowing	-11.4343
▁admirable	-11.4343
▁Un	-11.4343
▁Armand	-11.4345
▁hearty	-11.435
▁induce	-11.4352
▁Jennifer	-11.4355
▁access	-11.4355
▁cent	-11.4356
▁Lenny	-11.4357
▁plot	-11.436
▁wander	-11.4362
hour	-11.4366
▁crisis	-11.4368
▁offices	-11.437
▁poem	-11.437
▁wiped	-11.4371
▁print	-11.4374
▁patch	-11.4376
▁CU	-11.4379
▁log	-11.438
▁shattered	-11.4381
▁quivering	-11.4383
▁hesitate	-11.4388
▁hatch	-11.4388
▁encouragement	-11.4393
▁Crawford	-11.4393
▁hitting	-11.4395
▁manifest	-11.4396
▁particulars	-11.4396
▁planted	-11.4399
▁VII	-11.44
▁conference	-11.4407
▁momentary	-11.4408
▁hug	-11.4408
▁dwelt	-11.4419
▁snapped	-11.4419
▁unworthy	-11.4419
▁relatives	-11.4421
▁temporary	-11.4422
▁reverence	-11.4426
▁tomb	-11.4427
▁characteristic	-11.4428
▁Walt	-11.4429
▁appearing	-11.443
▁dined	-11.4431
▁serving	-11.4435
water	-11.4435
▁opposed	-11.4436
▁Pollyanna	-11.4437
▁protected	-11.4437
▁towns	-11.4438
▁seize	-11.4441
▁cable	-11.4441
▁Alright	-11.4442
▁manuscript	-11.4446
▁framed	-11.4449
▁route	-11.446
▁afforded	-11.4461
▁advantages	-11.4464
▁damage	-11.4465
▁zeal	-11.4471
▁w	-11.4471
▁ticket	-11.4472
ling	-11.4474
▁desolate	-11.4475
▁shoves	-11.4475
▁ANN	-11.4477
▁constitution	-11.4478
▁ROSE	-11.4479
▁springs	-11.448
▁monk	-11.4484
▁Peggotty	-11.4485
▁selected	-11.4486
▁photograph	-11.4486
▁rubber	-11.449
▁JIMMY	-11.4491
▁respond	-11.4491
▁Shann	-11.4497
▁experiment	-11.4497
▁essential	-11.4499
Shall	-11.4501
▁NOT	-11.4502
▁repeating	-11.4504
▁seal	-11.4506
...?	-11.451
▁summit	-11.4511
▁Chuck	-11.4511
▁sub	-11.4514
▁fists	-11.4514
▁awfully	-11.4515
▁OPEN	-11.4518
▁conflict	-11.4519
▁copper	-11.4522
▁Jonas	-11.4524
▁Egyptian	-11.4525
▁torch	-11.4534
▁commercial	-11.4535
▁flashlight	-11.4536
Drama	-11.4537
▁morrow	-11.454
▁bears	-11.4541
IN	-11.4541
▁arts	-11.4542
▁contract	-11.4543
rs	-11.4546
▁dig	-11.4546
▁dreary	-11.4548
▁attendant	-11.455
▁Into	-11.4556
▁critical	-11.4559
▁hostile	-11.4561
▁mixture	-11.4562
▁device	-11.4563
▁unconsciously	-11.4565
▁semi	-11.4565
▁concrete	-11.4573
▁conquered	-11.4575
▁eyed	-11.4579
▁ledge	-11.4579
▁stretching	-11.4582
▁tailor	-11.4587
▁interposed	-11.4587
▁il	-11.4588
▁recollect	-11.459
▁thankful	-11.4593
▁](	-11.4597
▁conveyed	-11.4602
▁shared	-11.4605
▁represent	-11.4611
▁Allison	-11.4613
▁sailors	-11.4616
▁selling	-11.4625
▁snatched	-11.4626
▁council	-11.4628
▁explosion	-11.4628
▁Beyond	-11.463
▁31	-11.4632
▁judged	-11.4636
▁sullen	-11.4638
▁satisfactory	-11.4639
▁nerve	-11.4644
▁amuse	-11.4646
▁te	-11.4647
▁pops	-11.4648
▁lodge	-11.4649
▁kneels	-11.4649
▁THREE	-11.4657
▁stake	-11.4658
▁sailed	-11.4658
▁egg	-11.4661
▁vacant	-11.4664
▁honesty	-11.4665
rd	-11.4668
▁ray	-11.467
▁lo	-11.4674
▁majority	-11.4678
▁Lecount	-11.4679
▁Hetty	-11.4681
▁toast	-11.4682
▁echoed	-11.4686
▁apartments	-11.469
▁shrugged	-11.4691
▁fiery	-11.4691
▁shillings	-11.4692
▁Japanese	-11.4692
▁strictly	-11.4693
▁inferior	-11.4694
▁forbid	-11.4696
▁fitting	-11.4697
▁ter	-11.4701
▁thereby	-11.4704
▁unnecessary	-11.4704
▁floated	-11.4706
▁Verloc	-11.4718
▁Lincoln	-11.4719
▁coffin	-11.472
▁Dolly	-11.4721
▁figured	-11.4722
▁prospects	-11.4723
did	-11.4723
▁Ethan	-11.4732
▁despise	-11.4733
▁reports	-11.4734
▁kneeling	-11.4734
▁root	-11.4736
▁villain	-11.4743
▁compass	-11.4744
▁frantically	-11.4744
▁cotton	-11.4746
▁adding	-11.4746
▁chapel	-11.4751
▁tricks	-11.4754
▁sweeping	-11.4763
NA	-11.4764
▁games	-11.4768
▁HANNA	-11.4768
never	-11.4771
▁machinery	-11.4771
▁spoil	-11.4776
▁racing	-11.4776
▁Gloria	-11.4776
▁boot	-11.478
▁dangers	-11.4781
▁Dutch	-11.4786
▁cracked	-11.4787
▁claws	-11.4788
▁ample	-11.4792
▁FRAME	-11.4794
▁THEM	-11.4795
▁cups	-11.4798
▁civilization	-11.4799
▁enterprise	-11.4799
▁towers	-11.4802
▁colours	-11.4806
▁convey	-11.4807
▁create	-11.4809
▁Kit	-11.481
▁dock	-11.4812
▁punches	-11.4812
▁restore	-11.4814
▁latest	-11.4816
▁emerged	-11.4816
ANNIE	-11.4824
▁resemblance	-11.4825
Give	-11.4825
▁entry	-11.4825
▁Percy	-11.4827
▁ashore	-11.4833
▁intolerable	-11.4836
▁ranks	-11.4837
▁clay	-11.4838
▁strip	-11.484
▁drift	-11.4849
▁grasped	-11.4853
▁Senora	-11.4853
▁nothin	-11.4856
▁defeat	-11.4857
▁lords	-11.4859
▁nuts	-11.4864
DISSOLVE	-11.4868
▁Tower	-11.4868
▁VIII	-11.4869
▁comfortably	-11.4877
▁stooped	-11.4877
▁mount	-11.4881
▁Until	-11.4885
▁western	-11.4888
ud	-11.4888
▁punch	-11.4888
▁wilderness	-11.4889
▁quitted	-11.489
▁neighbors	-11.4891
▁spake	-11.4891
▁HELEN	-11.4892
▁declaration	-11.4894
▁Mine	-11.4901
▁remorse	-11.4902
▁Kane	-11.4904
▁players	-11.491
▁stirring	-11.4912
our	-11.4917
▁central	-11.4917
▁mechanical	-11.4917
▁65	-11.4918
▁Elinor	-11.4918
▁fashionable	-11.4918
except	-11.4919
▁mute	-11.4929
▁brutal	-11.493
▁Bridge	-11.4932
ment	-11.4933
▁witch	-11.4934
▁Irish	-11.4948
▁methods	-11.4949
▁balloon	-11.4949
▁shops	-11.4949
▁traces	-11.4951
▁Patience	-11.4951
▁DON	-11.4958
▁dripping	-11.4959
▁distracted	-11.496
SON	-11.4961
▁gleaming	-11.4963
▁thirst	-11.4964
▁pleasantly	-11.4965
ye	-11.4967
▁r	-11.497
▁composure	-11.497
▁radiant	-11.4971
▁undoubtedly	-11.4971
▁Beth	-11.4972
▁OTHER	-11.4973
▁Boston	-11.4974
▁deaf	-11.4975
Was	-11.4975
▁lads	-11.4976
▁proudly	-11.4979
▁lighting	-11.4981
▁Gervaise	-11.4984
▁Garth	-11.4985
▁Gabriel	-11.4986
▁separation	-11.4988
haired	-11.499
▁disaster	-11.4991
▁yells	-11.4992
▁searched	-11.4992
▁resources	-11.4994
▁Kenny	-11.4998
▁Comte	-11.4998
▁Spain	-11.4999
▁Brian	-11.4999
▁Isaac	-11.4999
▁outline	-11.5002
▁sailing	-11.5012
▁complaint	-11.5012
▁gasped	-11.5012
▁lingered	-11.5013
▁deer	-11.5013
▁overwhelmed	-11.5013
▁feathers	-11.5018
▁European	-11.5021
▁expressing	-11.5023
▁shadowy	-11.5024
▁reacts	-11.5031
▁Agent	-11.5033
▁ANNIE	-11.5033
▁KAREN	-11.5038
▁triumphant	-11.5038
▁attendance	-11.5039
ish	-11.5039
▁Cameron	-11.5039
▁exciting	-11.504
▁casually	-11.5041
▁shrill	-11.5043
▁plus	-11.5047
ai	-11.5048
▁woe	-11.5052
▁rips	-11.5053
▁eighty	-11.5053
▁THIS	-11.5059
▁allowing	-11.506
▁Huh	-11.5062
▁specially	-11.5062
▁limits	-11.5064
▁desirous	-11.5066
▁glittering	-11.5067
▁assisted	-11.5069
▁dealing	-11.5075
▁correspondence	-11.5079
▁BB	-11.5083
▁Sergeant	-11.5083
▁strides	-11.5085
].	-11.5087
▁Germany	-11.5088
▁..."	-11.5092
▁testimony	-11.5093
▁Tulliver	-11.5093
▁compliments	-11.5094
▁Outside	-11.5095
▁JONES	-11.5097
▁Virginian	-11.51
▁ties	-11.5103
▁link	-11.5104
▁Gould	-11.5111
▁distressed	-11.5112
▁pretence	-11.5113
▁seas	-11.5119
▁faults	-11.512
▁Gandhi	-11.5122
▁dramatic	-11.5122
▁conquer	-11.5135
▁LT	-11.5138
▁doin	-11.5146
▁hostess	-11.5147
▁screamed	-11.5151
▁Snow	-11.5154
▁construction	-11.5155
▁songs	-11.516
▁liberal	-11.5162
▁**************	-11.5163
▁peering	-11.5167
▁hanged	-11.5167
▁emphasis	-11.5168
▁NANCY	-11.5171
▁tales	-11.5171
▁guarded	-11.5173
into	-11.5173
▁harbour	-11.5177
▁worms	-11.5182
▁drama	-11.5182
▁waistcoat	-11.5183
▁Clark	-11.5187
▁dost	-11.5189
▁Richie	-11.5189
▁yelling	-11.519
▁islands	-11.519
▁neglect	-11.5191
▁forgiven	-11.5192
▁Above	-11.5193
▁muffled	-11.5193
▁crystal	-11.5198
head	-11.52
▁axe	-11.5204
▁depended	-11.5205
twenty	-11.5211
▁angels	-11.5213
▁hereafter	-11.5214
▁insane	-11.5217
▁Nicholas	-11.5219
▁JAR	-11.5219
▁flush	-11.522
▁ut	-11.5229
▁complicated	-11.5231
ies	-11.5233
▁awaiting	-11.5234
▁elbows	-11.5235
▁Maid	-11.5237
▁Lion	-11.5238
▁combination	-11.5238
▁relationship	-11.5239
▁masses	-11.5239
▁script	-11.524
▁apology	-11.5244
▁Craig	-11.5245
▁vexed	-11.5247
▁dazed	-11.5247
▁JULIA	-11.5251
▁Seeing	-11.5251
UEEN	-11.5253
▁deceive	-11.5257
▁Miriam	-11.526
▁AGENT	-11.5265
▁Monk	-11.5268
▁dense	-11.527
▁shotgun	-11.5271
▁knelt	-11.5272
▁creeping	-11.5276
▁heel	-11.5285
▁32	-11.5285
▁Eames	-11.5287
▁kidding	-11.5287
were	-11.5289
▁threat	-11.5294
▁70	-11.53
▁descent	-11.53
▁fleet	-11.5301
Does	-11.5312
▁urgent	-11.5315
";	-11.5315
▁nasty	-11.5316
▁witnessed	-11.5319
▁measured	-11.5323
▁BERLIN	-11.5328
▁discipline	-11.5339
light	-11.534
▁spectacles	-11.5341
▁Davies	-11.5347
▁cannon	-11.5349
▁exclamation	-11.535
▁whips	-11.535
▁spreading	-11.5352
▁Somebody	-11.5352
▁dame	-11.5355
▁unnatural	-11.5355
▁communicate	-11.5357
▁neatly	-11.5357
▁Office	-11.5358
▁Mayor	-11.5363
▁sweetheart	-11.5364
▁wiser	-11.5364
▁jumping	-11.5369
▁AMELIA	-11.5372
▁consulted	-11.5372
▁Society	-11.5373
▁trigger	-11.5377
▁Erik	-11.5383
▁desirable	-11.5384
▁formidable	-11.5384
▁pleasing	-11.5385
▁GREE	-11.5388
▁DEAN	-11.5388
▁collect	-11.5388
▁Try	-11.5389
▁softened	-11.5399
▁combined	-11.5401
▁Kid	-11.5403
yard	-11.5404
▁necklace	-11.5408
▁guardian	-11.5408
▁streams	-11.5411
▁38	-11.5411
▁luggage	-11.5413
▁thieves	-11.5418
▁communicated	-11.5419
▁MARTIN	-11.542
▁attempting	-11.542
▁Austin	-11.5427
▁sparkling	-11.5427
▁tap	-11.5429
UES	-11.5429
▁Show	-11.5432
▁cooking	-11.5434
▁causing	-11.5441
▁destined	-11.5442
▁Priscilla	-11.5443
▁Watch	-11.5447
▁mock	-11.5449
▁barrier	-11.5451
▁madame	-11.5456
▁Rupert	-11.5458
▁Leslie	-11.5459
▁Birkin	-11.5469
▁industry	-11.5469
▁lid	-11.547
▁freezes	-11.5471
▁swallow	-11.5474
▁invite	-11.5477
▁indignant	-11.5483
▁Annette	-11.5485
▁bolts	-11.5485
▁comprehend	-11.5487
▁Diana	-11.5488
▁manages	-11.5494
▁records	-11.5496
▁package	-11.5496
▁aims	-11.5499
▁Weston	-11.55
▁glove	-11.5504
coloured	-11.5507
▁blackness	-11.5508
▁Cap	-11.5508
▁justify	-11.5509
▁Police	-11.5512
▁Milton	-11.5513
three	-11.5523
▁prudent	-11.5526
▁perplexed	-11.5526
▁instinctively	-11.5527
▁Bella	-11.553
▁employ	-11.5531
▁Mills	-11.5535
▁Secretary	-11.5536
has	-11.5537
▁VITT	-11.554
▁considerably	-11.5541
▁democratic	-11.5541
▁deemed	-11.5542
▁Christians	-11.5543
▁wonderfully	-11.5548
▁pet	-11.555
▁Pray	-11.555
▁brightly	-11.5551
without	-11.5553
▁Lorna	-11.5558
▁Baby	-11.5558
▁unfortunately	-11.5559
▁pulse	-11.556
Say	-11.5561
nd	-11.5562
▁rack	-11.5566
▁nightmare	-11.5566
▁verse	-11.5566
▁breach	-11.5568
▁rob	-11.5569
▁Cut	-11.5569
▁readers	-11.5569
▁Abbot	-11.5569
▁frantic	-11.5571
▁goods	-11.5575
ee	-11.5576
▁alter	-11.5577
▁pretending	-11.5578
▁solution	-11.5581
▁shuddered	-11.5585
▁deprived	-11.5587
▁throng	-11.5588
▁approve	-11.5588
▁provisions	-11.5588
▁wealthy	-11.5591
▁Between	-11.5592
▁peer	-11.56
▁buying	-11.5603
▁Storm	-11.5603
▁surrender	-11.5605
▁Ball	-11.5607
▁bat	-11.5608
▁Kale	-11.5612
▁hats	-11.5617
▁GUN	-11.5619
▁Jo	-11.5619
▁attachment	-11.5622
▁magistrate	-11.5624
▁chorus	-11.5625
▁casual	-11.5626
▁expenses	-11.5627
▁painter	-11.5629
▁severely	-11.5629
▁Home	-11.5631
▁FIRES	-11.5636
▁River	-11.5638
▁respected	-11.5639
▁Todd	-11.564
▁Genji	-11.5641
▁blazing	-11.5642
▁frown	-11.5643
▁shades	-11.5644
▁noticing	-11.5645
▁Elsa	-11.5645
▁blaze	-11.5645
▁descending	-11.5646
▁NEIL	-11.5648
▁SPACE	-11.5648
▁withdraw	-11.565
▁eloquence	-11.5655
▁personality	-11.5657
▁vault	-11.5663
▁Taylor	-11.567
▁Archie	-11.5671
▁prejudice	-11.5676
▁explaining	-11.5676
▁dug	-11.5677
▁coin	-11.5677
▁winning	-11.568
ALI	-11.5681
▁embraced	-11.5683
▁Katie	-11.5685
▁cracks	-11.5686
▁sticking	-11.5687
▁injustice	-11.5688
▁reluctantly	-11.5688
▁feather	-11.5689
twas	-11.569
▁Julian	-11.5692
▁Art	-11.5695
▁stealing	-11.5695
▁educated	-11.5697
▁Dude	-11.5698
▁addresses	-11.5701
▁requested	-11.5704
▁upwards	-11.5706
▁Anything	-11.571
▁Later	-11.5713
▁medium	-11.5714
▁weighed	-11.5716
▁additional	-11.572
▁IX	-11.5723
Our	-11.5729
▁Trot	-11.5731
▁True	-11.5731
▁goddamn	-11.574
▁CHEV	-11.574
▁Senator	-11.5741
known	-11.5742
▁identity	-11.5743
▁invented	-11.5745
▁rifles	-11.5747
▁KIRSTY	-11.5749
▁welfare	-11.5757
▁Barry	-11.5757
▁visiting	-11.5757
▁harmony	-11.5758
▁sliding	-11.5762
▁End	-11.5764
▁Tappitt	-11.5768
▁shallow	-11.5775
▁knot	-11.5775
▁speeches	-11.5776
▁grinning	-11.5779
▁dragon	-11.5781
▁pony	-11.5783
▁Better	-11.5784
▁PARK	-11.5785
▁endured	-11.5787
▁bestowed	-11.5788
▁WALL	-11.5789
▁RE	-11.5794
php	-11.5798
▁gorgeous	-11.58
▁Army	-11.5801
▁RITA	-11.5806
ANNA	-11.581
▁founded	-11.5812
▁preparation	-11.5814
land	-11.5815
▁suspense	-11.5815
▁negro	-11.5816
▁earl	-11.582
▁monkey	-11.5821
▁leaping	-11.5824
▁packing	-11.5825
▁favourable	-11.5831
▁Tuesday	-11.5831
▁clenched	-11.5831
▁stockings	-11.5832
▁Claire	-11.5833
▁passionately	-11.5834
▁cousins	-11.5838
Or	-11.584
▁tu	-11.584
▁allusion	-11.5843
▁SHEPHERD	-11.5845
▁speedily	-11.5845
made	-11.5845
▁Allworthy	-11.5846
▁sprung	-11.5846
▁seemingly	-11.5847
▁sternly	-11.585
▁assault	-11.5853
▁flock	-11.5854
unless	-11.5856
▁stores	-11.5864
▁patiently	-11.5866
▁escort	-11.5867
▁peasants	-11.587
▁heroes	-11.5871
▁stumbles	-11.5874
▁RYAN	-11.5874
▁trifling	-11.5875
▁darted	-11.5876
▁mourning	-11.5877
▁captured	-11.588
▁reverse	-11.5881
▁LOT	-11.5883
▁vessels	-11.5885
▁BE	-11.5886
▁suitcase	-11.5888
▁bastard	-11.5888
▁JENNIFER	-11.5889
From	-11.589
▁depressed	-11.589
▁dearly	-11.5892
▁Marianne	-11.5894
▁license	-11.5897
▁sovereign	-11.5909
▁hay	-11.5912
making	-11.5913
▁columns	-11.5913
▁MS	-11.5917
▁scandal	-11.5917
▁issued	-11.5918
ES	-11.5918
▁Hammond	-11.5919
▁rocky	-11.5921
▁Ay	-11.5922
▁SCREAMS	-11.5923
▁36	-11.5927
▁80	-11.593
▁WINDOW	-11.593
Wait	-11.593
▁PAN	-11.5932
▁CLYDE	-11.5934
▁fox	-11.5934
▁roared	-11.5937
▁beef	-11.5944
▁Po	-11.5947
▁disposal	-11.5949
▁philosopher	-11.5949
▁gravel	-11.5949
Comedy	-11.595
▁Norah	-11.5953
▁stays	-11.596
▁Gordy	-11.5964
▁dagger	-11.5964
▁impressions	-11.5965
▁management	-11.5965
▁Nico	-11.5972
▁neighbor	-11.5973
▁toil	-11.5974
▁defiance	-11.5978
▁calculated	-11.5982
▁railing	-11.5982
▁curb	-11.5989
▁Roper	-11.5993
▁assented	-11.5995
▁Within	-11.5995
▁melted	-11.5996
year	-11.5998
▁EVE	-11.5999
▁Except	-11.6006
▁Suppose	-11.6006
▁focus	-11.6008
▁doll	-11.6008
▁thyself	-11.6009
Ha	-11.6015
▁traveller	-11.6015
▁slaps	-11.6015
▁shelves	-11.6016
▁crush	-11.6019
▁dealt	-11.6021
▁stately	-11.6023
ra	-11.6023
▁significance	-11.6023
▁followers	-11.6026
▁Probably	-11.6027
▁rabbit	-11.6028
▁Ever	-11.6028
▁Cyril	-11.6039
▁carelessly	-11.604
▁creation	-11.604
▁Hotel	-11.6041
▁engage	-11.6048
▁surroundings	-11.6052
▁Club	-11.6052
▁version	-11.6053
▁customers	-11.6053
▁complex	-11.6053
▁JACOB	-11.6053
▁stuffed	-11.6054
▁BARRY	-11.6055
▁borrowed	-11.6055
▁driveway	-11.6055
FRANK	-11.6056
▁drunken	-11.6057
▁ce	-11.6058
▁accord	-11.6063
▁avenue	-11.6068
▁hospitality	-11.6069
▁sympathetic	-11.607
▁loyal	-11.607
▁perceiving	-11.607
▁audible	-11.6071
▁victims	-11.6073
▁worldly	-11.6074
▁begging	-11.6075
▁42	-11.6076
▁Raymond	-11.6081
▁introduction	-11.6083
▁harmless	-11.6083
▁remainder	-11.6084
▁Certainly	-11.6084
▁Peak	-11.6085
▁blushed	-11.6086
▁fork	-11.6086
▁BISHOP	-11.6086
▁bursting	-11.6092
▁crawl	-11.6095
▁Spirit	-11.6096
bed	-11.6098
▁shrank	-11.6099
▁sincerity	-11.6099
▁tribes	-11.61
▁bidding	-11.61
▁gap	-11.61
GRAHAM	-11.6101
▁sufferings	-11.6104
▁valet	-11.6107
3	-11.6112
CARL	-11.6113
▁sermon	-11.6114
▁Somerset	-11.6115
▁Orme	-11.6117
▁musical	-11.6119
▁customs	-11.6121
▁pipes	-11.6124
▁dignified	-11.6129
▁umbrella	-11.613
▁limb	-11.6132
▁included	-11.6133
▁foliage	-11.6134
▁requires	-11.6137
▁1.	-11.6142
▁void	-11.6143
▁arise	-11.6143
▁crouched	-11.6145
▁sergeant	-11.6146
▁Wow	-11.6149
Some	-11.6157
▁Anthea	-11.616
▁Terry	-11.616
▁sinister	-11.6161
▁tension	-11.6161
▁Al	-11.6173
ALVY	-11.6175
▁globe	-11.6176
▁Bear	-11.6177
▁individuals	-11.6179
▁strained	-11.6182
▁Law	-11.6184
▁Bernie	-11.6186
▁piled	-11.6188
▁LUKE	-11.6191
▁forgiveness	-11.6192
▁editor	-11.6194
▁Lesta	-11.6194
▁Lake	-11.6195
▁shaped	-11.6196
▁creep	-11.6196
▁forcing	-11.6197
BEN	-11.6201
▁strokes	-11.6201
▁Merrick	-11.6205
▁flattered	-11.6207
▁rag	-11.6208
▁flowed	-11.6208
▁resembled	-11.6209
▁steamer	-11.621
▁workers	-11.6211
▁finishing	-11.6217
▁STORE	-11.6218
▁shawl	-11.6219
▁slipping	-11.6222
▁Frenchman	-11.6224
▁curled	-11.6224
▁despised	-11.6228
▁stained	-11.6231
▁footing	-11.6234
▁vigorous	-11.6235
▁tradition	-11.6236
▁readiness	-11.6236
▁asserted	-11.6238
▁tastes	-11.6238
▁sinks	-11.6239
▁90	-11.624
▁lamb	-11.6241
▁vent	-11.6242
▁LORD	-11.6245
▁cock	-11.6245
▁TIN	-11.6248
▁Light	-11.6248
▁rejected	-11.6252
▁basement	-11.6253
▁55	-11.6253
▁Indy	-11.6254
▁ROSS	-11.6262
▁occupy	-11.6263
▁ridge	-11.6265
▁Robarts	-11.6267
▁staggered	-11.6268
▁attraction	-11.6268
▁rosy	-11.6269
▁November	-11.627
Lord	-11.6271
▁restrain	-11.6279
logo	-11.6289
▁elaborate	-11.629
▁75	-11.6292
▁sorrows	-11.6293
▁ego	-11.6294
▁frighten	-11.6295
▁parallel	-11.6296
▁biggest	-11.6297
▁Jew	-11.6298
▁TIFFANY	-11.6298
▁Stepan	-11.6298
▁Casaubon	-11.6298
▁horrified	-11.63
▁opera	-11.63
▁outta	-11.6305
▁CLUB	-11.6306
▁emerge	-11.6309
▁Maud	-11.6312
▁BOWER	-11.6313
▁Till	-11.6313
▁ZOE	-11.6313
▁Watson	-11.6313
▁forbidden	-11.6313
▁Christianity	-11.6314
▁punished	-11.6315
SCOTT	-11.6316
▁interrupting	-11.6319
line	-11.6329
▁telegram	-11.633
▁Precious	-11.6331
▁Em	-11.6331
▁designed	-11.6332
▁TERRY	-11.6335
▁choked	-11.6335
▁Li	-11.6342
▁ascended	-11.6345
▁Alexander	-11.6346
▁detective	-11.6346
▁hinted	-11.6347
▁Kurt	-11.6348
▁judges	-11.6349
▁Women	-11.6357
▁eventually	-11.636
▁generations	-11.6362
▁Damn	-11.6364
Get	-11.6365
▁deepest	-11.6365
▁Du	-11.6371
▁seventeen	-11.6375
▁privately	-11.6384
▁promises	-11.6384
▁SMITH	-11.6388
▁(2)	-11.639
▁preceding	-11.639
▁Debbie	-11.639
▁primitive	-11.6391
▁equality	-11.6393
trees	-11.6393
▁Hans	-11.64
boy	-11.6403
▁contest	-11.6404
▁disorder	-11.6405
▁engines	-11.6407
▁groaned	-11.6407
▁population	-11.6407
▁recommended	-11.6408
▁heroic	-11.6408
▁token	-11.641
▁settlement	-11.6412
▁Wood	-11.6416
▁border	-11.642
▁questioning	-11.6421
▁adjoining	-11.6425
▁perish	-11.6427
BOB	-11.6427
▁pupils	-11.6431
▁pledge	-11.6433
▁Russia	-11.6435
going	-11.6435
▁cautious	-11.6437
▁Harman	-11.6437
▁Wade	-11.6438
Internet	-11.6443
▁goose	-11.6447
▁California	-11.645
▁dismal	-11.6452
▁Ongar	-11.6453
▁College	-11.6453
▁bodily	-11.6453
▁supplies	-11.6454
▁Shakespeare	-11.6458
IMSDb	-11.6458
still	-11.6459
▁lent	-11.6461
▁earned	-11.6464
▁remedy	-11.6465
▁bounds	-11.6465
▁disdain	-11.6466
▁wax	-11.6466
▁rug	-11.6466
▁recommend	-11.6467
▁oblige	-11.6467
nor	-11.6468
▁pious	-11.6468
▁admiring	-11.6469
▁Barton	-11.6469
▁Biddy	-11.6472
▁curls	-11.6472
▁wages	-11.6474
▁scripts	-11.6474
▁von	-11.6474
These	-11.6477
▁WIDE	-11.6478
▁doom	-11.6483
▁MAGGIE	-11.6484
▁33	-11.6484
▁arriving	-11.6485
▁alternative	-11.6487
▁revolution	-11.6488
▁storms	-11.649
▁cane	-11.6491
▁awaited	-11.6492
)](	-11.6501
▁PARKING	-11.6502
▁slumber	-11.6502
▁rascal	-11.6502
▁tour	-11.651
▁limit	-11.6512
▁northern	-11.6515
▁strove	-11.6516
▁governess	-11.6516
▁Palace	-11.6517
▁Peggy	-11.6517
▁JEAN	-11.6518
▁vital	-11.6518
▁obligation	-11.652
▁dances	-11.652
▁foundation	-11.6522
▁loses	-11.6527
im	-11.6528
▁trash	-11.6529
▁bald	-11.6529
▁demands	-11.6531
dvd	-11.6531
10/10	-11.6532
▁bond	-11.6534
▁dis	-11.6536
▁encourage	-11.6537
▁drags	-11.6543
▁tongues	-11.6545
▁privacy	-11.6545
▁nail	-11.6547
▁resigned	-11.6549
▁FIELD	-11.6554
▁heavenly	-11.6555
▁DOUG	-11.6559
▁resolute	-11.6562
▁SIDE	-11.6566
▁committee	-11.6567
▁BOX	-11.6572
▁harness	-11.6574
▁machines	-11.6578
▁Spooner	-11.6579
▁34	-11.6579
▁annoyance	-11.6582
▁manly	-11.6582
▁butler	-11.6582
▁refer	-11.6583
▁NURSE	-11.6585
▁purely	-11.6585
▁supposing	-11.6586
▁worm	-11.6587
▁nostrils	-11.6591
▁Anyway	-11.6591
▁Karen	-11.6592
▁thrill	-11.6593
▁irresistible	-11.6594
▁propriety	-11.6594
▁2.	-11.6595
▁Lewis	-11.6596
z	-11.6597
▁abuse	-11.6597
▁LEONARD	-11.6601
▁saint	-11.6602
▁president	-11.6603
▁lions	-11.6606
▁meadow	-11.661
▁Jeanne	-11.6613
▁lowest	-11.6617
▁Thursday	-11.6617
▁pop	-11.662
▁tread	-11.6623
▁Georgiana	-11.6627
▁switches	-11.6628
▁cargo	-11.6629
▁African	-11.6634
▁forests	-11.6636
vo	-11.6639
▁WALTER	-11.6643
▁Valancourt	-11.6643
▁tumult	-11.6645
▁Burton	-11.6646
▁crawling	-11.6646
▁division	-11.6647
▁improved	-11.6648
▁Second	-11.6652
▁resource	-11.6653
▁receiver	-11.6655
▁horns	-11.6655
▁concerns	-11.6656
hole	-11.6657
▁situated	-11.6659
▁shepherd	-11.6663
▁wallet	-11.6664
▁Ye	-11.6665
▁moderate	-11.6667
▁hugs	-11.6673
▁Helium	-11.6673
▁shudder	-11.6674
▁terrific	-11.6675
▁Tudor	-11.6677
▁politely	-11.6678
▁regions	-11.6679
▁stack	-11.668
top	-11.668
▁payment	-11.6681
something	-11.6683
▁bliss	-11.669
▁customary	-11.669
▁hurled	-11.6691
▁Alexey	-11.6694
▁paths	-11.6696
▁breeches	-11.6698
MAX	-11.67
▁disciples	-11.6701
▁39	-11.6704
▁wondrous	-11.6705
▁Gideon	-11.6706
▁Sykes	-11.6706
▁assembly	-11.6706
▁occasioned	-11.6707
▁PULL	-11.6707
▁Fang	-11.6707
▁weariness	-11.6707
▁types	-11.6709
▁Devil	-11.6709
▁Peters	-11.671
▁wolves	-11.6711
▁Sit	-11.6712
▁reasoning	-11.6712
▁documents	-11.6713
▁attacks	-11.6723
▁ropes	-11.6723
▁Comments	-11.6728
▁quest	-11.6729
▁armour	-11.6737
▁reckless	-11.6738
▁Raoul	-11.674
▁92	-11.6741
▁anticipated	-11.6742
▁guitar	-11.6742
▁37	-11.6743
▁modesty	-11.6744
▁bucket	-11.6745
ism	-11.6748
▁arrows	-11.6754
▁noisy	-11.6755
▁obstinate	-11.6755
▁REBECCA	-11.6755
▁babies	-11.6755
▁strongest	-11.6761
▁Fire	-11.6761
ner	-11.6766
▁INSIDE	-11.6767
▁divorce	-11.677
▁debts	-11.6772
▁HEDDA	-11.6772
about	-11.6772
▁Corey	-11.6775
▁yacht	-11.6775
▁Joey	-11.6777
▁southern	-11.6784
▁noises	-11.6785
▁Highness	-11.6787
▁whistling	-11.6788
▁Rita	-11.6788
▁temples	-11.6788
▁Gilbert	-11.6791
▁tendency	-11.6803
▁BOOK	-11.6804
▁44	-11.6805
▁youngest	-11.681
Has	-11.6812
▁stair	-11.6813
▁authorities	-11.682
▁Curtis	-11.682
▁investigation	-11.6825
▁Sally	-11.6827
▁Rocky	-11.6834
▁respectful	-11.6835
▁resignation	-11.6836
▁torment	-11.6836
▁Senate	-11.6836
▁lazy	-11.6836
▁groan	-11.6837
▁CONTROL	-11.6837
▁GREEN	-11.6839
▁Sharp	-11.684
▁Already	-11.6841
▁rejoiced	-11.6841
▁):	-11.6842
▁COLUMB	-11.6852
▁nobility	-11.6853
▁tragic	-11.6853
▁drifted	-11.6854
▁stamped	-11.6854
▁Priest	-11.6858
▁verge	-11.6865
▁malice	-11.6868
▁Lisbeth	-11.687
▁senior	-11.6874
▁hunted	-11.6874
▁breasts	-11.688
▁PK	-11.6882
▁Much	-11.6884
▁Goesler	-11.6885
▁Godolphin	-11.6886
!**	-11.6887
▁animated	-11.6887
▁coachman	-11.6887
▁bravely	-11.6889
▁foam	-11.6896
▁misfortunes	-11.6898
▁Tyler	-11.6901
▁wiping	-11.6903
▁derived	-11.6904
▁canoe	-11.6909
▁lungs	-11.6913
ship	-11.6916
▁transport	-11.6918
▁repair	-11.692
▁tossing	-11.6923
▁PANS	-11.6923
▁3.	-11.6925
▁99	-11.6925
▁traitor	-11.6928
▁sob	-11.6929
▁Vincent	-11.6932
▁marvellous	-11.6934
▁Hannah	-11.6937
▁bien	-11.6937
▁Egypt	-11.6938
▁grimly	-11.6939
▁claimed	-11.6941
▁48	-11.6944
▁ANAKIN	-11.6945
VIOLET	-11.695
▁Celia	-11.6952
▁relaxed	-11.6952
▁streaming	-11.6953
▁RINGS	-11.6955
▁forthwith	-11.6956
UE	-11.6956
▁vainly	-11.6957
▁approved	-11.6958
La	-11.6958
▁notions	-11.6958
▁Beast	-11.696
▁indicates	-11.6963
▁determine	-11.6965
▁beforehand	-11.6965
good	-11.6967
▁Country	-11.6968
▁comparatively	-11.6968
▁signals	-11.6974
▁punish	-11.6974
▁mare	-11.6975
▁criticism	-11.6976
MARTIN	-11.6977
▁sings	-11.6977
▁Jews	-11.6982
▁vicious	-11.6982
▁Racksole	-11.6984
▁unexpectedly	-11.6986
▁feature	-11.6987
▁Evil	-11.6987
▁Others	-11.6988
▁fucked	-11.6992
▁feeding	-11.6993
▁argued	-11.6993
come	-11.6996
▁CAN	-11.6999
▁Always	-11.6999
▁Stafford	-11.7
MORE	-11.7
▁sunny	-11.7001
▁Sheriff	-11.7001
▁mechanically	-11.7001
▁retained	-11.7001
▁transformed	-11.7002
ade	-11.7003
▁float	-11.7003
▁organ	-11.7005
▁captive	-11.7007
Action	-11.7011
six	-11.7011
▁Mister	-11.7012
▁bred	-11.7014
▁chanced	-11.7016
▁chaos	-11.7016
▁invariably	-11.7017
▁duck	-11.7019
▁BIG	-11.7023
HELEN	-11.7028
▁clothed	-11.7029
▁web	-11.7029
▁based	-11.703
▁spending	-11.7031
▁lain	-11.7032
▁limp	-11.7032
▁eternity	-11.7033
▁petty	-11.7033
▁Neefit	-11.7034
▁rags	-11.7034
▁EMILY	-11.7041
▁Marie	-11.7042
▁failing	-11.7042
▁boast	-11.7042
_;	-11.7044
▁bucks	-11.7046
▁sleepy	-11.7048
▁XI	-11.7049
▁confidential	-11.7049
▁haughty	-11.7049
▁Diego	-11.705
▁ardent	-11.705
▁Harvey	-11.705
▁jerks	-11.705
▁LOBBY	-11.7051
▁Wendy	-11.7052
▁shriek	-11.7053
▁YURI	-11.7055
▁refusal	-11.7055
▁taps	-11.7058
▁Dame	-11.7059
▁assent	-11.7059
▁marching	-11.7059
▁blankets	-11.7059
▁attentive	-11.706
▁Lovel	-11.7061
most	-11.7064
▁Penelope	-11.7067
▁GRACE	-11.7068
▁Must	-11.7069
▁SMALL	-11.707
▁Bay	-11.7084
▁ANDY	-11.7085
▁growled	-11.7085
▁pacing	-11.7087
▁commonwealth	-11.709
▁perception	-11.7091
▁prime	-11.7098
▁PRESIDENT	-11.7098
▁momentarily	-11.71
▁startling	-11.71
▁Corso	-11.7102
▁Bathsheba	-11.7102
▁geese	-11.7103
▁58	-11.7105
▁killer	-11.7111
▁whoever	-11.7114
▁varied	-11.7116
▁Rowan	-11.7116
▁ghastly	-11.7117
▁Buddy	-11.7117
▁gratified	-11.7117
▁edges	-11.7117
▁battered	-11.7117
▁National	-11.7118
▁drug	-11.712
▁Book	-11.7123
▁province	-11.7124
▁coloured	-11.7126
▁Wednesday	-11.7128
▁barren	-11.7133
▁joyous	-11.7133
▁gaiety	-11.7133
▁bonds	-11.7135
▁Conan	-11.7135
▁volumes	-11.7137
▁lab	-11.7143
DANTE	-11.7146
▁fathers	-11.7149
▁displeasure	-11.715
▁exhibited	-11.7151
▁backed	-11.7151
▁wakes	-11.7152
▁stumbled	-11.7153
▁doomed	-11.7153
▁briefcase	-11.7156
▁tub	-11.7158
▁utterance	-11.7158
▁invention	-11.7159
▁ALI	-11.7161
ful	-11.7161
▁react	-11.7162
▁Pinch	-11.7169
▁spoiled	-11.717
--_	-11.717
▁Open	-11.7171
▁materials	-11.7172
▁YORK	-11.7174
▁grabbing	-11.7174
▁interruption	-11.7175
▁cupboard	-11.7176
▁DRIVER	-11.7177
▁fits	-11.7181
▁smoked	-11.7185
▁nobleman	-11.7187
▁rightly	-11.7187
▁Ash	-11.7189
▁NOW	-11.719
▁meets	-11.7194
▁sickness	-11.7196
▁47	-11.7198
▁extremity	-11.72
▁virtuous	-11.72
▁prosperity	-11.7201
▁outstretched	-11.7202
▁spectators	-11.7204
▁curve	-11.7204
▁staggers	-11.7204
▁tips	-11.7205
▁drifting	-11.7206
▁43	-11.7207
▁Toward	-11.7208
▁Inn	-11.721
▁par	-11.7211
▁rocking	-11.7212
▁superiority	-11.7217
▁briskly	-11.7218
▁Dinah	-11.722
▁packet	-11.7228
▁shabby	-11.7235
▁attained	-11.7235
▁mothers	-11.7236
▁64	-11.7237
▁BOB	-11.7243
▁clue	-11.7243
▁REPORTER	-11.7245
▁opportunities	-11.7251
▁confounded	-11.7252
▁disgusted	-11.7255
▁realizing	-11.726
▁traveling	-11.7262
▁blonde	-11.7264
ta	-11.7266
▁Avenue	-11.7268
▁severity	-11.7268
▁negroes	-11.7269
▁contains	-11.7273
▁Said	-11.7274
▁suppressed	-11.7276
▁pluck	-11.7279
▁declaring	-11.7286
▁prevail	-11.7287
▁commander	-11.7291
▁Ask	-11.7292
▁crooked	-11.7296
▁WHAT	-11.7301
▁impressive	-11.7301
▁mirth	-11.7302
VIKTOR	-11.7302
over	-11.7302
▁echoes	-11.7304
▁awkwardly	-11.7306
▁crest	-11.7307
▁draught	-11.7312
DEAN	-11.7315
CHARLIE	-11.7316
▁Kennicott	-11.732
▁brushed	-11.7326
▁empire	-11.7329
▁hoarse	-11.7334
MELA	-11.7334
▁prolonged	-11.7338
▁shores	-11.7338
▁unjust	-11.7347
▁greatness	-11.7349
▁dives	-11.7351
▁traced	-11.7354
▁partially	-11.7354
▁Erin	-11.7354
▁moss	-11.7355
▁Stone	-11.7356
▁decline	-11.7357
▁phrases	-11.7362
▁obstacle	-11.7363
▁purchased	-11.7364
▁accomplish	-11.7365
▁muttering	-11.7368
▁Holland	-11.7368
War	-11.7369
▁fights	-11.7373
▁wonders	-11.7377
▁FATHER	-11.7386
▁flaming	-11.7386
▁baseball	-11.7388
▁Grimm	-11.7391
▁Je	-11.74
▁CABIN	-11.7405
▁Patsy	-11.7406
▁copies	-11.7406
▁advances	-11.7407
▁restrained	-11.7408
▁villages	-11.741
▁executed	-11.7411
▁bury	-11.7414
▁Fran	-11.7414
KELLY	-11.742
▁permanent	-11.7422
▁Jessica	-11.7423
▁available	-11.7423
▁promising	-11.7424
▁capture	-11.7428
▁interrupt	-11.7428
▁Elle	-11.7428
▁stamp	-11.7432
▁urge	-11.7432
▁roars	-11.7437
▁sweetly	-11.7438
▁hounds	-11.7438
▁possibilities	-11.744
▁gaily	-11.744
▁Bull	-11.7444
▁experiences	-11.7445
▁SHIP	-11.7445
▁jet	-11.7446
▁beggar	-11.7448
▁41	-11.7451
▁summons	-11.7455
Exit	-11.7455
chabod	-11.7457
▁windshield	-11.7457
▁Belton	-11.7457
▁ZED	-11.7458
▁independence	-11.7459
▁China	-11.7459
▁Jules	-11.7459
▁EYES	-11.7461
▁Button	-11.7463
▁Jesse	-11.7464
▁bloom	-11.7464
▁plains	-11.7465
▁Top	-11.7466
Adventure	-11.7472
▁dangling	-11.7474
▁Morris	-11.7474
▁STUDIO	-11.7475
▁indulge	-11.7477
▁Zoe	-11.7477
▁Bath	-11.7478
case	-11.7479
▁cleaning	-11.7483
▁yell	-11.7483
▁saints	-11.7484
▁provision	-11.7484
▁School	-11.7485
▁pistols	-11.7487
▁digging	-11.7488
▁Grief	-11.7492
▁intensely	-11.7494
▁achieved	-11.7495
▁recovery	-11.7496
▁discussing	-11.7498
▁ancestors	-11.7498
▁Neville	-11.7501
▁minor	-11.7502
▁allowance	-11.7503
▁attending	-11.7504
▁Kathy	-11.7509
▁dazzling	-11.7509
▁rests	-11.7514
ERIN	-11.7519
▁negative	-11.752
▁shifts	-11.7521
▁knives	-11.7522
▁irony	-11.7524
▁mould	-11.7524
▁faculties	-11.7526
▁bullshit	-11.7527
▁fruits	-11.7527
▁Baroness	-11.7527
▁sideways	-11.7528
▁Chance	-11.753
▁shines	-11.7531
▁pierced	-11.7531
▁pan	-11.7532
▁fearing	-11.7533
▁brightness	-11.7533
▁ward	-11.7544
▁Wragge	-11.7544
▁Archer	-11.7546
▁eyelids	-11.7554
▁reins	-11.7554
▁scoundrel	-11.7555
▁Ladies	-11.7555
▁fuel	-11.7556
Her	-11.7557
▁indicating	-11.756
COBB	-11.756
▁Alexandrovitch	-11.7561
▁mysteries	-11.7562
▁MOVES	-11.7566
IE	-11.757
▁gulf	-11.7574
!!	-11.7577
ion	-11.7578
▁stretches	-11.758
▁revived	-11.7582
▁Whose	-11.7583
▁external	-11.7585
▁Jove	-11.7586
▁announcement	-11.759
▁aristocratic	-11.7591
▁clumsy	-11.7597
▁remarkably	-11.7597
▁visibly	-11.7597
..."	-11.7597
▁Bulstrode	-11.7597
▁politeness	-11.7598
▁rotten	-11.7598
!’	-11.7601
▁January	-11.7601
▁originally	-11.7602
▁edition	-11.761
▁Welcome	-11.7611
▁didst	-11.7612
▁establish	-11.7613
▁objected	-11.7613
▁sublime	-11.7613
▁Algren	-11.7614
▁foes	-11.7615
▁Jasper	-11.7616
▁positions	-11.762
▁DO	-11.7625
▁wench	-11.7629
▁Page	-11.763
▁reign	-11.7632
▁potatoes	-11.7632
▁stripped	-11.7633
▁SLAMS	-11.7633
ring	-11.7633
▁Irene	-11.7634
▁site	-11.7636
talk	-11.7636
▁bulk	-11.7645
▁comforted	-11.7645
Listen	-11.7646
▁goat	-11.7646
▁relate	-11.7648
▁countess	-11.7649
▁chateau	-11.7649
▁dainty	-11.765
▁assertion	-11.7653
▁discharge	-11.7653
!...	-11.7656
▁Head	-11.7658
voice	-11.7658
▁Water	-11.7659
▁wraps	-11.766
▁suicide	-11.7661
▁Snake	-11.7661
▁poets	-11.7662
▁Number	-11.7665
▁borrow	-11.7665
▁darker	-11.7666
▁venerable	-11.7667
▁jokes	-11.7669
▁crawled	-11.7671
Please	-11.7678
▁52	-11.768
▁Eli	-11.7683
▁strings	-11.7684
▁purity	-11.7686
▁debris	-11.7686
▁95	-11.7687
▁illuminated	-11.7687
▁Steven	-11.7691
▁disappearing	-11.7692
▁fertilised	-11.7695
▁rubs	-11.7695
▁appropriate	-11.7696
▁inspiration	-11.7698
▁circular	-11.7699
▁46	-11.77
▁eagle	-11.77
FADE	-11.7702
▁Hilliard	-11.7702
▁submission	-11.7703
▁instruction	-11.7703
▁Milt	-11.7705
▁pounding	-11.7709
▁spark	-11.771
▁routine	-11.7712
▁actor	-11.7717
▁oppressed	-11.7721
▁buddy	-11.7721
▁Valley	-11.7721
▁choking	-11.7721
▁Chauvelin	-11.7721
▁farmers	-11.7722
▁Run	-11.7724
▁grieved	-11.7725
▁beats	-11.773
▁railroad	-11.7734
▁bands	-11.7735
▁Ace	-11.7735
▁thereof	-11.7736
):	-11.7737
▁campaign	-11.7738
▁Racine	-11.7738
▁GINGER	-11.774
ian	-11.774
▁66	-11.774
▁Hicks	-11.7741
▁compare	-11.7744
▁reflecting	-11.7744
▁files	-11.7745
▁sung	-11.7745
▁drawers	-11.7747
▁fare	-11.7751
▁TRAIN	-11.7754
▁Stephanie	-11.7755
▁accordance	-11.7755
continuing	-11.7756
▁piercing	-11.7757
▁53	-11.7757
▁Bring	-11.7768
colored	-11.7768
▁irregular	-11.7773
▁stall	-11.7773
▁abide	-11.7773
▁ecstasy	-11.7774
▁innumerable	-11.7774
▁detected	-11.7774
▁ascertain	-11.7775
▁pleading	-11.7775
▁MEDIUM	-11.7778
▁BEHIND	-11.7778
▁knights	-11.7779
INDY	-11.7785
▁palms	-11.7785
▁loyalty	-11.7791
▁Jerome	-11.7792
▁significant	-11.7792
▁LINDA	-11.7792
white	-11.7792
▁lingering	-11.7793
Surely	-11.7794
▁fascinated	-11.7794
▁WATER	-11.7796
▁schools	-11.7796
▁horseback	-11.7797
▁resume	-11.7799
▁pays	-11.7803
▁sketch	-11.7803
▁BEAN	-11.7808
▁frenzy	-11.7809
▁treasures	-11.7809
▁Ellen	-11.7816
▁raging	-11.7817
▁virgin	-11.7817
▁THEIR	-11.7818
▁fades	-11.7819
▁Jay	-11.7821
▁odds	-11.7822
▁AWAY	-11.7823
▁slay	-11.7824
▁Helmut	-11.7826
▁slippers	-11.7826
▁thirteen	-11.7827
▁salary	-11.7828
Romance	-11.7829
Pray	-11.7829
▁Godwin	-11.783
taking	-11.7832
▁plunge	-11.7833
ity	-11.7836
▁mule	-11.7844
▁revelation	-11.7845
▁observations	-11.7845
▁perched	-11.7847
▁nursery	-11.7848
▁recovering	-11.7855
▁personage	-11.7861
▁Brumley	-11.7863
▁wires	-11.7864
▁smashed	-11.7864
▁shutting	-11.7865
▁XIV	-11.7866
▁Modeste	-11.7866
▁tasted	-11.7868
▁Han	-11.787
▁onward	-11.7872
▁lecture	-11.7872
▁shrink	-11.7874
▁Clement	-11.7875
▁disliked	-11.7875
▁coats	-11.788
▁TABLE	-11.788
▁GO	-11.7881
▁stamens	-11.7882
▁clutches	-11.7882
▁Ardan	-11.7883
▁photos	-11.7887
▁furnish	-11.7887
▁maids	-11.7888
▁gasping	-11.7888
▁trunks	-11.7889
▁!...	-11.789
▁deliberate	-11.7891
▁pond	-11.7892
▁existing	-11.7892
▁enthusiastic	-11.7895
▁cigarettes	-11.7896
▁loneliness	-11.7899
▁69	-11.7899
ant	-11.79
▁CLAY	-11.7901
BOND	-11.7901
▁lied	-11.7901
▁trapped	-11.7902
▁whatsoever	-11.7904
▁converse	-11.7911
▁spray	-11.7913
▁brighter	-11.7914
▁Hope	-11.7915
▁pitiful	-11.7916
▁abrupt	-11.7917
▁precise	-11.7917
▁Ivan	-11.7918
▁51	-11.7918
▁controls	-11.7918
▁clutched	-11.7918
▁HONEY	-11.7919
▁considers	-11.792
▁Fate	-11.7921
▁comedy	-11.7922
LE	-11.7922
▁AIR	-11.7923
▁BEACH	-11.7925
▁Forget	-11.7926
▁distrust	-11.7927
▁sleeves	-11.7928
▁helicopter	-11.7933
▁respecting	-11.7934
sken	-11.7934
▁BUS	-11.7935
▁irritation	-11.7935
Lady	-11.7938
▁Zed	-11.794
▁workmen	-11.7947
▁frock	-11.7948
▁asshole	-11.7951
▁artificial	-11.7953
▁sobbed	-11.7954
▁basis	-11.7954
▁ivory	-11.7954
▁uneasily	-11.7956
▁complained	-11.7957
▁Barbican	-11.7957
▁tool	-11.7957
ning	-11.7958
▁Denys	-11.796
▁headlong	-11.796
must	-11.7964
▁jerk	-11.7966
▁await	-11.7967
▁Part	-11.7968
▁immortal	-11.7968
▁Yuri	-11.7972
▁escaping	-11.7972
▁Michel	-11.7972
▁uncommon	-11.7973
▁interference	-11.7973
▁COBB	-11.7973
▁59	-11.7977
▁neighbouring	-11.7977
▁SHOP	-11.7977
▁recorded	-11.7979
▁ELEVATOR	-11.7987
▁Enter	-11.7988
▁Ambrose	-11.799
▁Arkadyevitch	-11.799
▁courteous	-11.7991
▁attentively	-11.7991
▁slid	-11.7993
▁tumbled	-11.7995
▁recognise	-11.7998
▁indicate	-11.7999
▁pie	-11.8
▁taxi	-11.8002
▁acquaintances	-11.8003
▁grinned	-11.8008
▁earliest	-11.8009
▁submitted	-11.8009
▁Wayne	-11.8009
▁savages	-11.801
▁Union	-11.801
Crime	-11.8011
▁Pull	-11.8012
▁retain	-11.8018
▁temperament	-11.8023
▁grotesque	-11.8026
▁86	-11.8028
▁ELAINE	-11.8029
▁soothing	-11.803
▁sincerely	-11.8031
▁unit	-11.8031
▁rejoice	-11.8031
long	-11.8032
▁PULLS	-11.8033
▁blushing	-11.8033
▁dreadfully	-11.8034
▁merits	-11.804
▁evenings	-11.8041
▁hull	-11.8041
▁appealed	-11.805
▁footman	-11.8053
ter	-11.8062
▁topic	-11.8064
▁CECIL	-11.8064
▁Josh	-11.8065
pause	-11.8065
▁underground	-11.8066
▁keenly	-11.8067
▁demon	-11.807
▁Eh	-11.8072
▁rats	-11.8077
▁illusion	-11.8078
▁brand	-11.8078
▁catastrophe	-11.8079
▁cathedral	-11.808
▁affliction	-11.808
▁Scotch	-11.8081
▁stammered	-11.8082
▁snatches	-11.8083
▁Khalid	-11.8084
▁sustained	-11.8086
▁CARTER	-11.8096
▁pillar	-11.8098
▁disturbance	-11.8098
▁riches	-11.8099
▁Spock	-11.81
▁inspection	-11.8101
▁accepting	-11.8102
▁Grandet	-11.8106
▁handing	-11.8108
▁travels	-11.811
▁debate	-11.8111
▁skirts	-11.8113
▁concert	-11.8114
▁DAD	-11.8117
▁SIDNEY	-11.8118
▁Rosmer	-11.8119
▁Jamal	-11.8119
▁churchyard	-11.812
▁Empire	-11.8121
▁NELL	-11.8123
▁91	-11.8124
▁flutter	-11.8129
▁SE	-11.813
▁Seth	-11.8131
▁dials	-11.8133
could	-11.8135
▁glares	-11.8136
▁CH	-11.8137
▁ho	-11.8138
▁henceforth	-11.8139
▁Actually	-11.814
DAVID	-11.8142
▁Speed	-11.8147
▁hip	-11.8148
▁gaining	-11.8149
▁salute	-11.815
▁stricken	-11.8151
▁vicar	-11.8152
▁vow	-11.8152
ICE	-11.8152
▁states	-11.8153
▁turf	-11.8154
▁signature	-11.8154
▁94	-11.8155
▁Penny	-11.8158
▁nought	-11.8159
▁shivering	-11.8161
▁Co	-11.8163
▁Eyes	-11.8164
▁repent	-11.8166
▁survive	-11.8167
ia	-11.8171
▁photographs	-11.8172
▁eloquent	-11.8174
▁exalted	-11.8175
▁rusty	-11.8175
▁earnestness	-11.8176
▁simultaneously	-11.8176
▁planning	-11.8176
▁deserves	-11.8176
▁bind	-11.8177
▁Re	-11.8179
ECKER	-11.818
▁produces	-11.8181
▁Unless	-11.8183
▁hue	-11.8187
▁lump	-11.819
▁effective	-11.8192
▁anticipation	-11.8192
▁humility	-11.8193
▁humming	-11.8193
▁Russell	-11.8193
▁Vicar	-11.8195
▁Stan	-11.8195
▁afar	-11.8196
▁pausing	-11.8198
▁drum	-11.8201
▁Low	-11.8201
▁spin	-11.8202
▁Honor	-11.8208
▁devils	-11.8211
jpg	-11.8212
▁icy	-11.8212
▁appreciation	-11.8213
▁settling	-11.8214
▁Round	-11.8215
▁Seven	-11.8218
ist	-11.8218
▁Pip	-11.822
▁Theo	-11.8223
▁courts	-11.8229
▁ultimate	-11.8229
▁Virgin	-11.8229
▁cough	-11.8229
▁ambitious	-11.823
▁ominous	-11.823
▁robes	-11.823
▁corporal	-11.8231
▁Officer	-11.8232
▁XII	-11.8233
▁62	-11.8233
▁therein	-11.8235
▁aimed	-11.8238
▁decidedly	-11.824
▁attract	-11.8244
▁77	-11.8245
▁ribs	-11.8246
▁familiarity	-11.825
▁hovering	-11.8251
▁Reed	-11.8251
▁sweeps	-11.8253
▁December	-11.8253
▁realised	-11.8255
▁keeper	-11.8261
▁LEE	-11.8261
▁?...	-11.8267
▁litter	-11.8267
▁abyss	-11.8267
▁destination	-11.8268
▁Gibson	-11.8268
▁speechless	-11.8268
▁BONNIE	-11.8269
▁actress	-11.8269
▁gross	-11.8271
▁sweetest	-11.8273
▁endeavouring	-11.8274
▁muscle	-11.828
▁shew	-11.828
▁crimes	-11.8281
▁culture	-11.8283
▁torrent	-11.8286
▁theater	-11.8286
▁archdeacon	-11.8287
▁shaggy	-11.8287
▁overcoat	-11.8288
▁96	-11.8289
?...	-11.8289
▁Phoenix	-11.8292
Mother	-11.8293
▁crashing	-11.8294
▁threats	-11.8295
▁coolly	-11.8296
since	-11.8298
red	-11.8299
▁JESSE	-11.8299
▁yanks	-11.8301
j	-11.8303
▁Hawk	-11.8304
▁dialogue	-11.8305
▁defense	-11.8305
▁imaginary	-11.8306
▁Force	-11.8306
▁praised	-11.8308
▁Copperfield	-11.8308
▁huddled	-11.8308
▁operations	-11.8309
▁Need	-11.8309
5	-11.8312
▁churches	-11.8313
▁toys	-11.8313
▁Duncan	-11.8314
him	-11.8315
▁THOMAS	-11.832
▁timber	-11.8321
▁quaint	-11.8322
▁unreasonable	-11.8322
▁composition	-11.8324
▁Department	-11.8325
▁brethren	-11.8325
▁refined	-11.8328
▁Admiral	-11.833
▁amiss	-11.833
▁Beauty	-11.8332
▁Milo	-11.8332
▁JOEY	-11.8334
▁symptoms	-11.8334
class	-11.8336
Nor	-11.8337
▁afore	-11.8337
▁Claus	-11.8341
▁Bud	-11.8341
▁legitimate	-11.8342
▁contemplation	-11.8343
▁striving	-11.8343
▁strode	-11.8343
▁treachery	-11.8344
▁pursuing	-11.8344
▁HAVEN	-11.8345
▁involuntarily	-11.8345
▁bowing	-11.8347
JOE	-11.8349
▁sacrificed	-11.8349
▁parcel	-11.8351
▁ditch	-11.8352
4	-11.8353
▁j	-11.8353
these	-11.836
▁Bonteen	-11.8361
▁extravagant	-11.8361
▁identical	-11.8361
▁Tracy	-11.8362
▁falsehood	-11.8362
▁expert	-11.8362
▁Magic	-11.8364
▁leaders	-11.8364
▁ENID	-11.8365
▁swaying	-11.8365
▁tend	-11.8365
▁twist	-11.8365
▁56	-11.8368
▁TOP	-11.837
--“	-11.837
▁emotional	-11.837
▁namely	-11.8379
▁hum	-11.8379
▁IRA	-11.838
▁tranquil	-11.838
▁crawls	-11.8381
▁Hilary	-11.8382
▁bestow	-11.8382
▁doings	-11.8384
▁honoured	-11.8386
BILL	-11.8388
▁slim	-11.8388
▁indulged	-11.8389
▁49	-11.8397
▁lifetime	-11.8397
▁mix	-11.84
▁Katy	-11.84
▁pump	-11.84
▁Mickey	-11.84
▁omitted	-11.84
▁Plis	-11.84
▁Fair	-11.8401
▁85	-11.8401
▁Phyllis	-11.8402
▁horribly	-11.8402
▁historical	-11.8402
▁pinned	-11.8402
▁Truman	-11.8403
▁carriages	-11.8403
▁Reverend	-11.8404
▁practised	-11.8406
▁git	-11.8406
▁sentimental	-11.8408
▁offend	-11.8414
▁expressive	-11.8418
▁target	-11.8418
▁Republic	-11.8419
▁uncertainty	-11.8419
▁moustache	-11.842
▁enclosed	-11.8423
▁tho	-11.8423
▁Across	-11.8424
▁charmed	-11.8427
▁justly	-11.8429
▁howling	-11.8432
▁hides	-11.8436
▁rash	-11.8436
▁Woodward	-11.8438
▁cute	-11.8438
eh	-11.8438
▁Ronnie	-11.8438
▁splendour	-11.8439
▁Brion	-11.8439
▁RESTAURANT	-11.8439
▁scholar	-11.8441
▁Bride	-11.8441
▁visions	-11.8444
▁helplessly	-11.8444
▁conspicuous	-11.8446
▁explodes	-11.8446
▁tooth	-11.8447
▁BANK	-11.8453
▁ale	-11.8454
▁gazes	-11.8456
▁NEVILLE	-11.8458
▁Um	-11.8458
▁shells	-11.8458
▁57	-11.8461
▁forlorn	-11.8461
▁ACROSS	-11.8462
▁twisting	-11.8462
Horror	-11.8465
▁FLASH	-11.8471
▁tramp	-11.8472
▁chat	-11.8474
▁frost	-11.8477
▁Servadac	-11.8477
▁Off	-11.8477
▁inhabited	-11.8478
▁Benjamin	-11.8479
▁rounds	-11.848
▁kin	-11.8481
▁gasp	-11.8483
▁controlled	-11.8484
Aye	-11.8487
▁MOLLY	-11.8487
▁armor	-11.849
▁withered	-11.8492
▁72	-11.8494
▁picturesque	-11.8495
▁raft	-11.8495
▁spoon	-11.8495
▁Gentlemen	-11.8496
▁cordial	-11.8496
▁skies	-11.8497
▁frowned	-11.8498
▁Farm	-11.8499
▁decorated	-11.85
uick	-11.85
▁factory	-11.8501
▁BRIAN	-11.8502
▁bathed	-11.8503
Alas	-11.8504
▁shifting	-11.8506
▁ridicule	-11.851
▁collapses	-11.8511
▁Happy	-11.8512
▁professed	-11.8514
▁gasps	-11.8514
▁differently	-11.8516
▁88	-11.8516
▁soap	-11.8518
▁con	-11.8519
▁Brad	-11.8521
▁customer	-11.8521
▁largely	-11.8525
▁ruled	-11.8529
▁Murphy	-11.8534
▁Saul	-11.8536
▁Teddy	-11.8536
▁bruised	-11.8536
▁duly	-11.8538
boat	-11.8542
Father	-11.8543
▁dire	-11.8544
▁tire	-11.8546
being	-11.855
▁Glascock	-11.8554
▁sly	-11.8554
▁DEAD	-11.8554
▁Colin	-11.8554
▁Strickland	-11.8555
▁Jeffard	-11.8555
▁Glendinning	-11.8555
▁Baker	-11.8555
▁thicket	-11.8556
▁manhood	-11.8557
▁boiling	-11.8558
▁barrels	-11.8558
PHIL	-11.856
▁Laurent	-11.8561
▁DUDE	-11.857
▁wheat	-11.8573
▁tucked	-11.8574
▁Amadis	-11.8575
▁eats	-11.8576
▁ROCKY	-11.8576
▁pissed	-11.8578
▁hates	-11.8579
▁tangled	-11.8579
JIM	-11.8582
▁GENERAL	-11.8583
▁Noel	-11.8585
▁Francisco	-11.8592
▁smashes	-11.8593
▁muddy	-11.8593
▁babe	-11.8593
▁Curdie	-11.8594
▁STAGE	-11.8594
▁isolated	-11.8594
▁assert	-11.8603
▁withdrawn	-11.8604
▁54	-11.8608
▁pleases	-11.8609
▁LOGAN	-11.8609
▁Crystal	-11.8611
▁sombre	-11.8611
▁odious	-11.8611
▁Willow	-11.8612
▁shopping	-11.8612
▁Syme	-11.8613
see	-11.8614
Stop	-11.8614
▁wars	-11.8618
▁rattle	-11.8627
▁Turn	-11.8629
nt	-11.863
Sci	-11.8631
▁University	-11.8631
▁Santa	-11.8634
▁troop	-11.8634
▁baffled	-11.8635
▁boards	-11.8635
▁accounted	-11.8636
▁retreated	-11.8637
▁repeatedly	-11.8641
▁imposed	-11.8642
▁Cause	-11.8644
▁attendants	-11.8648
▁Papa	-11.8649
▁Bank	-11.8651
▁wrists	-11.8651
mon	-11.8652
▁Wheeler	-11.8652
▁regretted	-11.8652
▁oldest	-11.8654
▁conquest	-11.8655
▁Glaucus	-11.8655
▁regularly	-11.8655
▁peculiarly	-11.8656
thou	-11.866
▁oars	-11.8663
▁finer	-11.8666
▁ignore	-11.8666
▁Believe	-11.8667
▁Work	-11.8667
▁wipe	-11.8669
▁Dunstable	-11.867
▁refusing	-11.8671
▁attic	-11.8671
▁Ellinor	-11.8672
▁ELLIE	-11.8674
ted	-11.8674
▁verses	-11.8676
▁disturbing	-11.8677
▁pearls	-11.8678
TOM	-11.8678
▁considerations	-11.8679
▁pad	-11.868
▁locker	-11.868
▁weigh	-11.8683
▁imposing	-11.8691
▁Alfred	-11.8692
▁sports	-11.8692
▁STAN	-11.8694
▁stiffly	-11.8695
▁liar	-11.8696
▁hunter	-11.8697
▁98	-11.8698
▁SALLY	-11.8699
▁indulgence	-11.8702
▁super	-11.8707
piece	-11.8708
▁welcomed	-11.871
▁removing	-11.8711
▁wearily	-11.8711
▁robbery	-11.8712
handed	-11.8715
▁sparks	-11.8715
OLD	-11.8721
▁crow	-11.8722
▁hopeful	-11.8722
▁73	-11.8723
▁CLAIRE	-11.8724
▁avoiding	-11.8727
▁serene	-11.8728
▁overwhelming	-11.8729
▁CHURCH	-11.8731
▁eastern	-11.8734
▁treating	-11.8744
▁ungrateful	-11.8748
▁ED	-11.8749
▁BARON	-11.8751
▁twin	-11.8751
▁hail	-11.8752
▁associated	-11.8754
▁shorter	-11.8763
▁tops	-11.8765
▁Dockwrath	-11.8769
▁Pacific	-11.8769
▁Knightley	-11.8769
▁Marty	-11.877
▁steering	-11.8771
▁temperature	-11.8771
▁association	-11.8772
▁function	-11.8777
Sure	-11.8781
▁Music	-11.8781
▁hush	-11.8782
▁insects	-11.8782
▁Gods	-11.8786
▁74	-11.879
▁convenience	-11.8791
▁************	-11.8796
quite	-11.8796
▁excitedly	-11.8797
▁Link	-11.8798
▁exists	-11.8803
▁goodbye	-11.8805
▁JUST	-11.8806
▁procure	-11.8806
▁schemes	-11.8808
▁Montreville	-11.8808
▁Hanaud	-11.8808
▁Reardon	-11.8809
▁astonishing	-11.8809
▁Douglas	-11.881
▁luncheon	-11.8811
▁believes	-11.8813
▁instincts	-11.8821
▁congratulate	-11.8822
Am	-11.8823
▁commonly	-11.8823
▁uttering	-11.8824
▁squeeze	-11.8827
▁excess	-11.8827
▁crowned	-11.8827
▁examines	-11.8828
▁ERICA	-11.8828
▁joys	-11.8828
▁78	-11.8831
VOICE	-11.8834
▁folding	-11.8835
French	-11.8839
▁mournful	-11.8847
▁verdict	-11.8848
▁patches	-11.8849
▁ninety	-11.8849
▁confronted	-11.8849
▁wider	-11.885
▁wrinkled	-11.8851
▁GLASS	-11.8853
Mystery	-11.8859
▁Star	-11.8859
shaped	-11.886
▁WIFE	-11.886
▁sentences	-11.8861
▁plead	-11.8866
▁Georges	-11.8866
▁nineteen	-11.8868
▁Lloyd	-11.887
▁CUP	-11.887
▁hateful	-11.887
▁sewing	-11.887
▁screw	-11.887
▁posture	-11.8871
▁09	-11.8875
▁toes	-11.8878
▁likeness	-11.8878
▁moor	-11.888
▁Tai	-11.8881
▁straining	-11.8881
▁stress	-11.8882
▁Tara	-11.8885
▁gale	-11.8885
▁BOOM	-11.8887
▁Barris	-11.8887
ier	-11.8887
▁ALLMERS	-11.8888
▁baggage	-11.8888
▁praying	-11.889
▁79	-11.8891
▁foremost	-11.8892
till	-11.8892
▁procured	-11.8894
▁discharged	-11.8896
yet	-11.8898
John	-11.8899
▁SIR	-11.8902
▁ornaments	-11.8906
▁secrecy	-11.8908
▁Instantly	-11.8909
▁Traddles	-11.891
▁hesitating	-11.891
▁receipt	-11.8911
JACOB	-11.8914
▁ramp	-11.8922
▁thorough	-11.8928
▁grandeur	-11.8928
▁Ellida	-11.8928
▁fancies	-11.893
▁mantle	-11.893
▁contracted	-11.8932
▁Germans	-11.8933
▁penetrated	-11.8934
arrow	-11.894
▁relax	-11.8942
▁tortured	-11.8942
▁ignores	-11.8946
▁Mackel	-11.8948
▁glaring	-11.8949
▁filthy	-11.895
▁kinda	-11.8951
▁successfully	-11.8952
▁humiliation	-11.8953
que	-11.8953
▁83	-11.8956
▁butcher	-11.8959
▁Trust	-11.8961
▁refrain	-11.8963
▁REVEAL	-11.8963
▁jar	-11.8964
▁genre	-11.8966
▁talents	-11.8968
▁Inspector	-11.8969
▁heights	-11.8969
▁shifted	-11.8971
▁messages	-11.8972
▁Commons	-11.8973
▁matches	-11.8974
▁MILLER	-11.8975
▁ROSENFELD	-11.8977
▁satin	-11.898
▁survey	-11.8987
▁exile	-11.8987
▁DECK	-11.8988
▁enchanted	-11.8988
▁adorned	-11.899
▁Nathan	-11.8991
▁Immediately	-11.8992
▁Julius	-11.8993
▁juice	-11.8994
▁HARVEY	-11.8999
▁accusation	-11.9
▁acute	-11.9
▁meetings	-11.9001
ere	-11.9003
▁cured	-11.9006
▁67	-11.9006
▁languages	-11.9007
too	-11.9007
▁Venice	-11.901
▁patron	-11.9013
▁elected	-11.9015
▁93	-11.9017
aged	-11.9024
▁perplexity	-11.9029
▁Alleyne	-11.9029
▁companionship	-11.9029
▁Partridge	-11.903
▁Lane	-11.9031
▁Neb	-11.9034
▁Cardinal	-11.9034
▁Rock	-11.9034
▁Willie	-11.9035
▁sheriff	-11.9035
▁meals	-11.9036
▁garment	-11.9037
▁clicks	-11.9038
▁excuses	-11.9039
▁61	-11.904
tre	-11.904
▁abstract	-11.9043
▁array	-11.9044
▁extends	-11.9044
▁drugs	-11.9045
▁Glen	-11.9047
▁CRASH	-11.9047
▁4.	-11.9048
▁rubbish	-11.9048
▁ghosts	-11.9048
▁solemnity	-11.9049
▁Gilliatt	-11.905
▁acceptance	-11.9052
▁production	-11.9057
▁84	-11.9066
▁effectually	-11.907
▁Mula	-11.907
▁wickedness	-11.907
▁liable	-11.907
▁Godfrey	-11.907
▁Psmith	-11.9071
▁husbands	-11.9073
▁wisely	-11.9078
Fantasy	-11.9082
ENNY	-11.9084
▁implied	-11.9089
▁Ireland	-11.909
▁fulfilled	-11.909
▁assuming	-11.9092
▁Yellow	-11.9092
▁February	-11.9092
Twas	-11.9093
▁consumed	-11.9093
▁pitched	-11.9093
▁rapture	-11.9095
▁rogue	-11.9097
▁CO	-11.9098
Yet	-11.9099
▁helm	-11.91
▁laden	-11.9102
▁halfway	-11.9103
▁accuse	-11.9106
▁63	-11.9107
▁goddess	-11.9109
▁BARRIS	-11.911
▁Derek	-11.911
▁Herr	-11.9111
▁morality	-11.9111
▁football	-11.9111
▁register	-11.9112
▁madman	-11.9114
▁HIGHWAY	-11.9114
▁sour	-11.9115
▁bachelor	-11.9116
▁sensations	-11.9119
▁Hush	-11.912
▁lodged	-11.912
▁History	-11.9124
▁discovering	-11.9125
▁Rudolf	-11.9132
▁Mercy	-11.9133
▁assigned	-11.9133
▁ST	-11.9133
▁Want	-11.9135
▁homes	-11.9135
▁76	-11.9136
▁scrap	-11.9139
▁Find	-11.9139
▁incidents	-11.9141
▁basin	-11.9143
▁vehicles	-11.9145
▁vein	-11.9146
▁compact	-11.9147
▁Sowerby	-11.9151
▁daresay	-11.9151
▁sites	-11.9153
▁AROUND	-11.9154
▁producing	-11.9156
▁suite	-11.9161
▁k	-11.9161
▁HAN	-11.9164
▁aloft	-11.9165
▁borough	-11.9166
▁68	-11.9169
▁shrewd	-11.9171
▁outfit	-11.9172
▁converted	-11.9173
▁dome	-11.9173
▁PEOPLE	-11.9174
EN	-11.9177
▁specimen	-11.9178
▁representative	-11.9179
▁alliance	-11.918
Which	-11.9186
writer	-11.9192
▁Maguire	-11.9192
▁Jody	-11.9192
▁Faith	-11.9192
▁Cal	-11.9193
▁admiral	-11.9194
▁transparent	-11.9195
▁commanding	-11.9196
▁orderly	-11.9197
▁Paradise	-11.9201
▁71	-11.9203
▁TYLER	-11.9204
ALLISON	-11.9206
▁snuff	-11.9212
▁Cindy	-11.9213
▁pregnant	-11.9213
▁XIII	-11.9213
▁rational	-11.9213
▁abundance	-11.9214
▁happiest	-11.9214
▁prompted	-11.9214
▁harvest	-11.9216
▁Brangwen	-11.9219
▁Dark	-11.9221
▁Angela	-11.9224
▁El	-11.9224
▁mistakes	-11.9224
whether	-11.9228
▁designs	-11.9228
eight	-11.9232
▁Vivian	-11.9233
▁apparatus	-11.9234
▁fiction	-11.9234
▁Bunny	-11.9235
▁roofs	-11.9235
▁Peterkin	-11.9236
▁Power	-11.9236
_--	-11.9236
▁detached	-11.9237
▁fluttering	-11.9238
▁81	-11.9238
▁actors	-11.9239
▁elephant	-11.9242
▁87	-11.925
▁banker	-11.9251
▁pills	-11.9253
▁tickets	-11.9254
▁reluctance	-11.9254
▁frail	-11.9254
▁Twinkle	-11.9254
▁elapsed	-11.9255
▁Price	-11.9256
Two	-11.9259
▁brushes	-11.9261
▁exertion	-11.9262
▁saloon	-11.9263
▁institution	-11.9263
▁fold	-11.9265
▁Pause	-11.927
se	-11.927
▁GROUND	-11.9273
▁civility	-11.9275
▁conclude	-11.9275
▁joining	-11.9277
▁extend	-11.9277
▁Englishmen	-11.9279
▁Jacques	-11.9285
▁wool	-11.9286
MINI	-11.9289
▁oppose	-11.9291
▁wheeled	-11.9294
▁behavior	-11.9295
▁nowadays	-11.9295
▁laboratory	-11.9295
▁discreet	-11.9297
▁humbly	-11.9297
▁Eleanor	-11.9298
▁plump	-11.9299
▁feverish	-11.9299
▁contemplated	-11.93
▁flickering	-11.93
▁concentrated	-11.93
_]	-11.93
▁Darcy	-11.9301
▁unaware	-11.9303
▁sweating	-11.9305
▁artistic	-11.9305
▁devote	-11.9307
▁STREETS	-11.931
▁canst	-11.9311
▁rub	-11.9314
▁din	-11.9314
▁continual	-11.9316
▁Gerhardt	-11.9317
▁MOTEL	-11.9317
▁Katharine	-11.9317
▁ENTRANCE	-11.9318
▁HAVE	-11.9319
▁thrilled	-11.9319
▁heathen	-11.9324
▁scope	-11.9328
▁wrap	-11.9329
▁nicely	-11.933
▁Signor	-11.933
▁Dodge	-11.9336
▁HI	-11.9336
▁crumpled	-11.9338
▁deposited	-11.9338
▁CENTER	-11.9338
▁swollen	-11.9339
▁dive	-11.9341
▁upside	-11.9341
▁Honey	-11.9341
▁scans	-11.9342
▁seizing	-11.9343
▁mocking	-11.9346
▁starve	-11.9353
MELANIE	-11.9353
▁peek	-11.9355
ADAM	-11.9355
▁warmed	-11.9356
▁salvation	-11.9359
▁hinder	-11.9361
▁unkind	-11.9362
▁snapping	-11.9363
▁gaping	-11.9363
▁SHOTS	-11.9364
▁admission	-11.9366
▁delayed	-11.9366
cause	-11.9368
▁stain	-11.937
▁percent	-11.9379
▁needful	-11.9379
▁bronze	-11.938
▁whiskey	-11.938
▁EARLY	-11.9382
▁instructed	-11.9382
ton	-11.9384
▁novels	-11.9385
▁Davis	-11.9389
▁Hills	-11.9393
Lost	-11.9396
▁slows	-11.94
▁Elenor	-11.94
▁supporting	-11.9404
▁faithfully	-11.9404
▁Standing	-11.9406
▁stray	-11.9406
▁XV	-11.9411
▁heaps	-11.9411
▁Wars	-11.9413
▁hose	-11.9417
set	-11.9418
▁Samms	-11.9422
▁der	-11.9423
▁monsters	-11.9426
▁insulted	-11.9427
▁clubs	-11.9428
▁trapper	-11.9429
▁convent	-11.943
▁DOC	-11.9435
▁Sean	-11.9435
General	-11.9437
▁MOVE	-11.9438
wood	-11.9439
▁fuss	-11.9441
rip	-11.9442
▁tumbling	-11.9443
▁Perry	-11.9444
▁vexation	-11.945
▁fling	-11.9451
▁THEN	-11.9452
▁hints	-11.9452
▁dart	-11.9453
▁obtaining	-11.9453
▁vigour	-11.9453
▁legend	-11.9453
Yea	-11.9454
▁attain	-11.9454
▁piles	-11.9455
office	-11.9458
▁cats	-11.9462
▁ingenious	-11.9462
▁Monmouth	-11.9463
▁Shrek	-11.9464
▁Chandler	-11.9465
▁mademoiselle	-11.9465
▁worthless	-11.9465
▁handwriting	-11.9466
▁ripped	-11.9466
▁hushed	-11.9467
▁Judy	-11.9468
▁smoothly	-11.9469
▁TIGHT	-11.947
▁Poyser	-11.9471
▁patients	-11.9472
ST	-11.9473
▁Against	-11.9473
▁referring	-11.9476
▁compose	-11.9478
▁restraint	-11.948
take	-11.9482
▁Hulot	-11.9485
▁perfume	-11.9487
▁pro	-11.9487
▁troublesome	-11.9487
▁rod	-11.9488
▁undertaken	-11.9491
▁fade	-11.9503
cut	-11.9503
▁invalid	-11.9503
▁dans	-11.9504
▁goal	-11.9505
▁infernal	-11.9506
▁garbage	-11.9506
▁Rudy	-11.9507
▁Wessex	-11.9507
▁Junior	-11.9507
▁Abe	-11.9507
▁somethin	-11.9507
▁Finch	-11.9508
▁pal	-11.951
▁blades	-11.9511
▁sur	-11.9512
▁SR	-11.9513
▁slavery	-11.9513
▁ripe	-11.9517
rate	-11.952
▁Taking	-11.952
board	-11.9524
▁Picard	-11.9525
▁HOLMES	-11.9527
▁gallop	-11.9528
▁displeased	-11.9529
▁EXTERIOR	-11.9529
▁Silas	-11.9529
▁82	-11.9531
▁Truth	-11.9533
▁wardrobe	-11.9535
▁impact	-11.9537
▁fluid	-11.9537
▁yielding	-11.9538
▁appearances	-11.9542
▁Il	-11.9543
▁bounded	-11.9544
▁Feng	-11.9548
▁inherited	-11.9549
▁ultimately	-11.955
▁brooding	-11.9551
▁Beatrice	-11.9551
▁Shelly	-11.9552
▁dew	-11.9553
▁adopt	-11.9554
▁crushing	-11.9554
▁crude	-11.9556
▁Courcy	-11.9558
▁imitation	-11.9558
▁Either	-11.9561
▁scratch	-11.9562
▁improvement	-11.9562
▁rescued	-11.9564
ALEX	-11.9567
▁Greystock	-11.957
▁overheard	-11.9573
▁Town	-11.9574
▁cruelly	-11.9578
▁rounded	-11.9578
▁withal	-11.9578
▁Dashwood	-11.9579
▁shrug	-11.9581
▁sequence	-11.9581
▁Jake	-11.9582
▁girlfriend	-11.9583
▁nigger	-11.9586
▁improve	-11.9589
▁ERIK	-11.9589
▁sip	-11.9589
▁Carbuncle	-11.9591
▁FORREST	-11.9591
▁insolence	-11.9591
▁Dudley	-11.9592
▁FORD	-11.9593
▁policemen	-11.9593
▁minded	-11.9593
▁civilized	-11.9593
▁solely	-11.9594
▁hasten	-11.9595
▁glided	-11.9595
▁flattering	-11.9596
▁MOON	-11.9599
nail	-11.96
▁preference	-11.96
▁microphone	-11.9601
▁OMIT	-11.9601
▁horrors	-11.9605
▁une	-11.9607
▁signify	-11.961
▁ELIZABETH	-11.9612
▁internal	-11.9612
▁Milroy	-11.9613
▁Spilett	-11.9613
▁Gary	-11.9614
▁Committee	-11.9614
▁nursing	-11.9615
▁spies	-11.9615
▁PAST	-11.9617
▁wholesome	-11.9618
▁Lorraine	-11.9625
▁flee	-11.963
▁ferocious	-11.9633
▁clerks	-11.9633
▁MARTHA	-11.9635
▁faculty	-11.9635
▁Shaggy	-11.9635
▁discern	-11.9636
▁thrice	-11.9636
▁Heav	-11.9636
▁Warden	-11.9637
▁Christine	-11.964
▁exasperated	-11.9641
▁spit	-11.9641
▁champion	-11.9643
▁MASTER	-11.9644
▁profile	-11.9644
▁SCOTTY	-11.9645
▁lowering	-11.9645
▁floors	-11.965
UI	-11.9652
▁FOREST	-11.9653
▁biting	-11.9653
▁Bloom	-11.9654
▁insolent	-11.9655
▁Edith	-11.9657
▁beauties	-11.9657
▁Carteret	-11.9657
▁mouse	-11.9659
▁Elsbeth	-11.9659
▁Mind	-11.966
▁differ	-11.9661
▁rivers	-11.9661
▁drown	-11.9662
▁shirts	-11.9663
▁frowns	-11.9663
BACK	-11.9664
▁cheering	-11.9664
▁According	-11.9664
▁Rowley	-11.9665
▁mainly	-11.9665
▁Detective	-11.9666
▁headache	-11.9668
▁tents	-11.967
▁systems	-11.9672
▁impress	-11.9673
▁swam	-11.9675
▁comic	-11.9676
True	-11.9676
▁acid	-11.9678
▁torches	-11.9678
▁Lambert	-11.9679
▁POOL	-11.968
▁Oak	-11.968
▁joking	-11.9681
▁PATRICK	-11.9682
▁chalk	-11.9683
▁HOLD	-11.9689
▁duel	-11.9693
Short	-11.9696
WALT	-11.9697
Monsieur	-11.9697
DIGNAN	-11.9699
▁university	-11.9699
▁respectfully	-11.9701
▁lame	-11.9702
woman	-11.9704
seven	-11.9705
▁SNOW	-11.9705
▁symbol	-11.9709
▁fixing	-11.971
▁overboard	-11.971
▁relish	-11.9713
▁lunges	-11.9715
while	-11.9717
▁prominent	-11.972
▁Avenel	-11.9721
Animation	-11.9721
▁Times	-11.9721
▁arguing	-11.9721
▁hops	-11.9722
▁perpetually	-11.9723
▁bees	-11.9724
▁frowning	-11.9727
▁Speak	-11.9729
▁scarf	-11.9732
▁boarding	-11.9733
▁hi	-11.9734
tel	-11.9736
▁quicker	-11.9736
▁Yule	-11.9743
▁scare	-11.9743
▁suffice	-11.9744
▁LORI	-11.9744
▁Year	-11.9747
▁cradle	-11.9749
▁_[	-11.9749
▁cultivated	-11.9749
▁Station	-11.9753
▁compartment	-11.9754
▁cows	-11.9757
▁pigs	-11.9757
▁posted	-11.9758
▁freed	-11.9764
▁Burke	-11.9764
▁effected	-11.9765
▁spears	-11.9766
▁Fitz	-11.9766
▁settles	-11.9767
▁CAT	-11.977
▁DEAR	-11.9771
▁representing	-11.9771
▁WADE	-11.9775
▁creek	-11.9775
▁Pan	-11.9775
▁attire	-11.9782
▁excessive	-11.9785
▁Lundie	-11.9786
▁inheritance	-11.9786
▁prone	-11.9787
▁WALT	-11.9787
▁Crevel	-11.9787
▁apologize	-11.979
▁ash	-11.9792
TE	-11.9793
▁Air	-11.9794
▁Third	-11.9796
▁fascination	-11.9797
▁...**	-11.9797
▁schooner	-11.9798
▁click	-11.9799
▁commonplace	-11.98
▁grove	-11.9801
▁mayor	-11.9807
▁prosperous	-11.9807
Edward	-11.9807
before	-11.9807
BEAT	-11.9807
▁PICARD	-11.9808
▁AIRPORT	-11.9808
▁commotion	-11.9808
▁Gwilt	-11.9808
▁Accordingly	-11.9811
▁ankle	-11.9814
▁barred	-11.9815
▁leagues	-11.9816
▁loan	-11.9816
▁dwarf	-11.9818
▁proofs	-11.9821
▁puzzle	-11.9828
almost	-11.983
▁relating	-11.983
▁Central	-11.9831
▁Enid	-11.9831
▁sounding	-11.9831
▁CLOSER	-11.9831
▁Halbert	-11.9832
▁Doesn	-11.9837
▁gardener	-11.9841
▁Cabinet	-11.9841
▁speculation	-11.9842
▁Gus	-11.9844
▁monitors	-11.9847
▁Calvin	-11.9848
▁CROWD	-11.9848
son	-11.9849
▁Moscow	-11.9852
▁Aubert	-11.9852
▁Docchi	-11.9853
▁whirling	-11.9857
ray	-11.9861
▁essence	-11.9864
led	-11.9866
▁insignificant	-11.9868
▁cheat	-11.9868
▁curses	-11.987
▁INDY	-11.9872
NEFF	-11.9873
PAULINE	-11.9874
▁encouraging	-11.9874
▁arranging	-11.9876
▁fading	-11.9878
▁entertaining	-11.9879
▁oddly	-11.988
▁angles	-11.9881
ROBIN	-11.9885
▁pearl	-11.9888
▁bailiff	-11.9891
▁comforts	-11.9893
▁subsequent	-11.9895
▁Neo	-11.9896
▁Merdle	-11.9896
▁Dawson	-11.9896
▁Elaine	-11.9896
▁Ratcliffe	-11.9896
Family	-11.9896
▁economy	-11.9896
▁logic	-11.9897
▁GARAGE	-11.9897
▁surveyed	-11.9898
▁scenery	-11.9899
▁entreat	-11.99
ation	-11.99
▁resign	-11.9902
▁lifeless	-11.9903
▁glowed	-11.9903
▁chatter	-11.9904
▁COMPUTER	-11.9904
▁objections	-11.9906
▁disappearance	-11.9907
▁lui	-11.9908
▁floats	-11.9908
▁precaution	-11.9909
▁jewel	-11.991
▁thir	-11.991
▁Cecil	-11.9915
WAYNE	-11.9915
▁wig	-11.9917
▁growl	-11.9917
▁oblivious	-11.9918
▁Jill	-11.9918
▁realization	-11.9919
▁crashes	-11.992
▁Napoleon	-11.9921
▁affectionately	-11.9922
▁pillars	-11.9923
▁senseless	-11.9923
▁authors	-11.9929
▁program	-11.993
▁chopper	-11.9932
▁WOODS	-11.9932
▁fetched	-11.9932
▁GUARDS	-11.9932
▁ridden	-11.9933
▁rider	-11.9934
▁120	-11.9939
▁108	-11.994
▁obstinacy	-11.994
▁Security	-11.994
South	-11.9941
▁Commander	-11.9945
EMMA	-11.9946
▁stride	-11.9947
▁premises	-11.9947
▁baronet	-11.9952
point	-11.9953
▁FOUR	-11.9955
▁BLUE	-11.9956
▁intending	-11.9956
▁NED	-11.9957
master	-11.9958
▁understands	-11.9959
▁hurts	-11.9961
LARGE	-11.9963
Western	-11.9963
▁exaggerated	-11.9964
▁reluctant	-11.9965
▁ABOVE	-11.9965
▁constructed	-11.9966
▁hysterical	-11.9967
▁environment	-11.9967
▁ignored	-11.997
▁delicately	-11.997
▁swallows	-11.9971
▁FRAN	-11.9973
▁estates	-11.9975
▁picnic	-11.9976
▁blinded	-11.9977
▁INTERCUT	-11.998
▁toss	-11.9982
▁Away	-11.9983
▁CHAMBER	-11.9983
▁supernatural	-11.9984
▁disbelief	-11.9985
▁Coraline	-11.9985
▁howl	-11.9986
▁resolutely	-11.9986
▁endowed	-11.9987
▁shiny	-11.9987
▁defeated	-11.9988
▁Sammy	-11.9989
▁prompt	-11.9989
▁poised	-11.999
▁penetrate	-11.9991
▁conjecture	-11.9992
▁stables	-11.9993
▁surround	-11.9994
▁preach	-11.9995
▁weaker	-11.9995
▁handled	-11.9997
▁HALLE	-11.9997
▁smells	-12.0001
▁brisk	-12.0004
NBECK	-12.0007
▁quarrelled	-12.0007
_,"	-12.0008
▁starving	-12.0008
▁Bassett	-12.0008
▁Rhoda	-12.0009
▁poker	-12.001
ally	-12.001
▁screens	-12.0011
▁stooping	-12.0011
▁CHUCK	-12.0012
▁gentleness	-12.0016
maker	-12.0016
▁speeds	-12.0017
▁provincial	-12.0019
▁junior	-12.002
▁monks	-12.0026
▁tiger	-12.0027
▁cents	-12.0028
▁TESMAN	-12.0029
▁faltered	-12.003
▁Pancks	-12.003
MOORE	-12.0031
▁shivered	-12.0031
Really	-12.0031
▁Meriem	-12.0032
▁Korak	-12.0032
▁Edmee	-12.0033
▁peered	-12.0033
▁hound	-12.0035
▁STAR	-12.0036
▁sped	-12.0037
▁Peace	-12.0037
▁sneer	-12.0038
▁riot	-12.0041
said	-12.0041
▁claw	-12.0042
!!!	-12.0043
▁automatic	-12.0044
▁MURPHY	-12.0044
▁WAS	-12.0046
▁excused	-12.0047
▁PHIL	-12.0048
arms	-12.005
▁Mountains	-12.0052
rudatta	-12.0052
▁Dunstan	-12.0052
▁Scarlet	-12.0053
ard	-12.0058
love	-12.0058
▁realise	-12.0059
▁Hard	-12.006
▁expose	-12.0062
▁DESERT	-12.0063
▁subjected	-12.0063
▁THERE	-12.0064
▁tempest	-12.0065
▁101	-12.0066
▁burns	-12.0069
▁caps	-12.0072
▁morals	-12.0072
▁lesser	-12.0074
▁twinkling	-12.0074
▁fer	-12.0074
▁sunrise	-12.0075
▁inevitably	-12.0075
▁league	-12.0075
▁stumbling	-12.0075
dozen	-12.0076
▁Mabel	-12.0079
▁Mlle	-12.0079
▁acres	-12.0079
▁reconciled	-12.0081
▁Dog	-12.0081
▁confirm	-12.0085
▁streak	-12.0087
may	-12.0087
▁towering	-12.009
ALL	-12.0093
▁Laurie	-12.0095
▁FERGUS	-12.0096
▁haggard	-12.0097
▁transferred	-12.0097
▁rugged	-12.0097
▁XVI	-12.0098
▁plea	-12.0099
NICK	-12.0099
▁Camilla	-12.01
▁cheers	-12.01
▁unusually	-12.0101
▁Fortune	-12.0101
▁rewarded	-12.0103
▁SOLDIER	-12.0104
▁110	-12.0104
foot	-12.0112
▁huts	-12.0116
▁undertaking	-12.0116
ELLE	-12.0119
▁colony	-12.0119
▁rapidity	-12.012
▁merrily	-12.012
▁detained	-12.0121
▁Below	-12.0121
▁genial	-12.0121
▁proclaimed	-12.0121
▁blossoms	-12.0121
▁feebly	-12.0122
▁Bentley	-12.0122
▁Valentine	-12.0124
▁habitual	-12.0124
▁Maurice	-12.0125
▁attentions	-12.0127
▁barking	-12.0129
▁madly	-12.0129
▁Wind	-12.0134
▁grandson	-12.0135
▁Mc	-12.0137
▁random	-12.0141
▁unlucky	-12.0142
▁luminous	-12.0142
PAUSE	-12.0144
EDWARD	-12.0144
▁cherished	-12.0147
▁rim	-12.0149
▁maze	-12.015
▁Jupiter	-12.0152
▁Won	-12.0152
▁include	-12.0152
▁fake	-12.0154
1**	-12.0156
▁groans	-12.0157
▁Might	-12.016
▁pinch	-12.0161
▁offensive	-12.0163
▁desperation	-12.0165
▁Weldon	-12.0165
▁Juno	-12.0165
▁gracefully	-12.0167
▁aft	-12.0167
▁insensible	-12.0168
▁Donnie	-12.0168
▁AMY	-12.0169
▁flatter	-12.0169
▁clearer	-12.0171
▁realm	-12.0172
▁mound	-12.0173
▁guineas	-12.0174
▁wink	-12.0178
▁Morning	-12.0178
▁Bar	-12.0179
▁widely	-12.0179
▁GROUP	-12.018
roul	-12.018
▁CLOSEUP	-12.0181
▁RIPLEY	-12.0182
ANN	-12.0183
▁twists	-12.0187
▁phenomenon	-12.0188
▁DARCY	-12.0188
▁BRIDE	-12.0189
▁exercised	-12.019
▁whereby	-12.0193
▁saluted	-12.0196
▁MONTAGE	-12.0196
▁possessions	-12.0199
▁Therese	-12.02
▁fainted	-12.0201
▁depression	-12.0202
▁errors	-12.0203
▁97	-12.0203
▁skeleton	-12.0203
▁SYDNEY	-12.0206
▁director	-12.0206
▁clapped	-12.021
▁Greshamsbury	-12.0211
▁Hellboy	-12.0211
▁haze	-12.0212
▁scratched	-12.0213
▁Near	-12.0216
EEDY	-12.0216
▁LEADER	-12.0217
▁blindly	-12.0217
▁princes	-12.0218
▁pang	-12.0218
▁capsules	-12.0221
▁plague	-12.0223
▁weeds	-12.0223
▁pirate	-12.0224
▁weakly	-12.0224
▁pretext	-12.0226
▁razor	-12.0226
▁organization	-12.0226
▁RIVER	-12.0229
▁exterior	-12.0233
▁Fairlie	-12.0233
▁Greenow	-12.0233
Eh	-12.0234
▁Daisy	-12.0235
Film	-12.0236
HILDY	-12.0236
▁AGAIN	-12.0236
▁searches	-12.0239
▁embroidered	-12.024
▁Nugent	-12.0241
▁performing	-12.0241
▁banquet	-12.0241
▁Victoria	-12.0242
▁hunters	-12.0243
▁rouse	-12.0244
▁springing	-12.0247
▁Leon	-12.0254
▁89	-12.0255
▁Halcombe	-12.0256
▁dingy	-12.0256
▁glistening	-12.0257
PO	-12.0259
▁gleamed	-12.026
▁naughty	-12.026
▁mused	-12.0261
▁renew	-12.0266
▁scar	-12.0267
▁data	-12.0268
▁presumed	-12.027
▁banner	-12.0271
▁treason	-12.0271
▁phase	-12.0271
▁climate	-12.0272
▁JEFFR	-12.0274
▁clatter	-12.0274
▁slaughter	-12.0275
ng	-12.0278
▁kettle	-12.0278
▁Parr	-12.0279
▁Mozart	-12.0279
▁Jennings	-12.028
▁Sholmes	-12.028
▁Chase	-12.0281
▁Bush	-12.0281
▁daddy	-12.0281
legged	-12.0282
▁111	-12.0283
▁STORM	-12.0284
▁frustrated	-12.0285
▁Arab	-12.0286
▁survived	-12.0287
▁EVIL	-12.0289
car	-12.0289
▁miniature	-12.0294
▁fans	-12.0296
▁Tears	-12.0297
▁vanish	-12.0298
Link	-12.03
▁chart	-12.03
▁electrical	-12.0301
▁stubborn	-12.0301
▁expectations	-12.0301
▁deference	-12.0302
▁Jonson	-12.0303
▁obscurity	-12.0304
▁Lori	-12.031
▁bridle	-12.0311
▁Aye	-12.0311
▁condemn	-12.0313
covered	-12.0314
▁ignoring	-12.0314
▁preacher	-12.0321
▁shocking	-12.0322
▁handy	-12.0324
▁Desnoyers	-12.0325
▁brink	-12.0325
▁undone	-12.0325
▁strolled	-12.0326
▁insurance	-12.0327
CONRAD	-12.0328
▁immensely	-12.0329
▁hardened	-12.0332
▁RICHARD	-12.0332
▁breadth	-12.0342
▁Coming	-12.0342
▁occurrence	-12.0342
▁Fancy	-12.0343
▁energetic	-12.0349
▁undertook	-12.0349
▁Lionel	-12.0349
▁banished	-12.035
▁whipped	-12.035
▁armies	-12.0351
▁Clear	-12.0351
lit	-12.0351
▁timidly	-12.0352
▁chasing	-12.0352
▁decides	-12.0352
▁blinking	-12.0352
▁blasts	-12.0354
▁aching	-12.0355
▁terrors	-12.0359
▁corridors	-12.0359
▁wan	-12.0361
▁loading	-12.0361
▁Enough	-12.0361
▁Elton	-12.0363
▁pavilion	-12.0364
▁plantation	-12.0365
ARD	-12.0367
▁trains	-12.0368
▁watchful	-12.037
▁extensive	-12.037
▁calamity	-12.0371
▁Marjory	-12.0374
▁alluded	-12.0375
▁misses	-12.0375
▁lashes	-12.0376
▁moaning	-12.0376
▁Pearl	-12.0378
▁Full	-12.0378
▁hire	-12.038
SAMMY	-12.0381
▁crowds	-12.0381
Noir	-12.0384
▁sway	-12.0389
▁dependent	-12.0391
▁glimpses	-12.0393
▁lone	-12.0393
▁treacherous	-12.0393
▁activities	-12.0394
▁rebellion	-12.0394
▁Gamp	-12.0394
▁Bird	-12.0395
▁Edna	-12.0395
▁paradise	-12.0395
▁rattling	-12.0395
▁strains	-12.0398
ANNE	-12.0398
Exactly	-12.0399
▁DAN	-12.0401
About	-12.0401
▁sheltered	-12.0402
▁threaten	-12.0407
▁BOAT	-12.0409
▁hello	-12.041
▁atop	-12.041
▁mechanism	-12.0411
▁Joel	-12.0412
▁trusting	-12.0415
▁softness	-12.0417
▁Job	-12.0417
▁Ricardo	-12.0418
▁repaired	-12.042
▁Walker	-12.042
Musical	-12.0421
▁Silent	-12.0422
▁tame	-12.0423
▁shutters	-12.0425
DAY	-12.0426
▁reveals	-12.0429
▁harbor	-12.043
▁submarine	-12.0434
▁bout	-12.0436
▁goodly	-12.0436
Rip	-12.0436
▁Honour	-12.044
▁mattress	-12.044
▁trivial	-12.0441
▁singularly	-12.0445
▁swelling	-12.0449
▁execute	-12.0451
▁swarm	-12.0456
▁groom	-12.0457
▁Ike	-12.0457
▁reverie	-12.0458
▁opponent	-12.0459
▁serpent	-12.0462
▁lance	-12.0462
▁SG	-12.0463
▁coldness	-12.0464
▁preliminary	-12.0464
▁Vitti	-12.0464
bred	-12.0465
ENZO	-12.0465
▁Herrick	-12.0465
▁Harley	-12.0466
Submit	-12.047
▁CELL	-12.047
▁MARGE	-12.0473
▁NEXT	-12.0473
▁COLE	-12.0477
▁spur	-12.0478
▁sorrowful	-12.0478
tell	-12.0479
▁honours	-12.048
▁fails	-12.048
▁meditation	-12.0482
▁tyrant	-12.0483
▁sixth	-12.0484
▁KANE	-12.0488
▁PRISON	-12.0489
▁entreated	-12.0489
▁idly	-12.049
software	-12.0493
▁scores	-12.0498
▁grieve	-12.0498
▁compromise	-12.0499
▁Bad	-12.05
▁research	-12.05
TIM	-12.0506
▁peep	-12.0507
▁Brock	-12.0509
▁formation	-12.051
▁sting	-12.0511
▁elevated	-12.0512
▁Giles	-12.0512
▁repentance	-12.0512
▁accidentally	-12.0514
▁Sophie	-12.0515
▁tow	-12.0515
▁JOHNNY	-12.0517
▁WILSON	-12.0518
▁Post	-12.0519
▁Juliet	-12.0525
▁congregation	-12.0529
▁bicycle	-12.0529
▁core	-12.0529
▁expedient	-12.053
▁guides	-12.0533
▁Lost	-12.0534
▁Southern	-12.0534
▁whereof	-12.0535
▁Seaton	-12.0535
▁commerce	-12.0536
▁wrecked	-12.0541
Such	-12.0542
▁Flora	-12.0547
coming	-12.0549
▁furnace	-12.0554
▁JO	-12.0555
▁oxygen	-12.0555
▁movies	-12.0557
Seinfeld	-12.0558
▁granite	-12.0558
▁majestic	-12.0559
▁Mexico	-12.0559
▁fluttered	-12.056
▁Fortunately	-12.0561
▁outburst	-12.0562
▁pins	-12.0562
▁spurs	-12.0564
PEGGY	-12.0564
▁savagely	-12.0565
▁mounting	-12.0568
▁beads	-12.0568
▁parade	-12.057
▁associate	-12.0572
▁expanse	-12.0576
▁superstition	-12.0578
▁safer	-12.0581
▁sandwich	-12.0581
▁Dragon	-12.0582
▁mystic	-12.0583
▁heavier	-12.0583
▁saith	-12.0585
▁noses	-12.0587
▁melt	-12.0587
stricken	-12.0588
▁Sweet	-12.059
▁stoop	-12.0592
▁veiled	-12.0593
▁Port	-12.0594
▁tumble	-12.0599
▁Board	-12.0599
▁ripper	-12.0604
▁lust	-12.0605
Futurama	-12.0606
▁CASTLE	-12.0606
▁Gilmore	-12.0606
▁4400	-12.0606
▁DIRK	-12.0606
▁00	-12.0607
▁TURNS	-12.0611
▁Around	-12.0612
▁107	-12.0614
▁soaked	-12.0617
▁flicker	-12.062
▁strive	-12.062
▁SLOW	-12.0624
▁Sebastian	-12.0627
▁anew	-12.0628
▁Sydney	-12.0629
▁consternation	-12.0629
▁ROPER	-12.0629
▁JEFF	-12.063
▁guidance	-12.063
▁cursing	-12.0631
▁LONDON	-12.0632
▁Lila	-12.0632
▁distorted	-12.0632
▁serves	-12.0633
▁mentally	-12.0636
▁joyful	-12.0636
▁session	-12.0637
▁necks	-12.0638
▁Cup	-12.0638
▁wasting	-12.0642
▁whiskers	-12.0643
▁resort	-12.0644
back	-12.0647
▁bunk	-12.0647
▁villa	-12.065
▁shares	-12.0651
▁Thwaite	-12.0653
▁Exeter	-12.0654
▁Gascoigne	-12.0655
▁emptied	-12.0655
▁bang	-12.0656
▁crouching	-12.0656
▁sights	-12.0658
▁powerless	-12.0658
BREAN	-12.066
▁lama	-12.0661
▁grasping	-12.0666
▁revolt	-12.0667
▁defy	-12.0673
▁tribute	-12.0674
▁Solomon	-12.0674
▁freeze	-12.0674
▁Nash	-12.0675
▁instances	-12.0675
▁102	-12.0677
▁Vanderpoel	-12.0677
▁stature	-12.0678
▁merciful	-12.0678
▁exceeding	-12.0678
▁inquiring	-12.0679
▁EXPLODES	-12.0679
▁crap	-12.0682
▁Chancellor	-12.0686
▁proves	-12.0686
▁anti	-12.0686
▁ANNOUNCER	-12.0689
▁announce	-12.069
▁JOSH	-12.0693
▁sometime	-12.0693
girl	-12.0694
▁LE	-12.0695
▁knob	-12.0696
▁exhibition	-12.0697
▁launch	-12.0698
▁Lydia	-12.0699
▁Lavretsky	-12.0701
▁moist	-12.0701
UARTERS	-12.0701
▁canal	-12.0705
▁ankles	-12.0712
▁Know	-12.0712
▁Toto	-12.0712
ous	-12.0715
Isn	-12.0717
▁Car	-12.0717
▁publicly	-12.0717
▁JESSICA	-12.0718
▁cling	-12.0718
▁posts	-12.0719
▁obligations	-12.072
▁pans	-12.072
▁stairway	-12.0721
away	-12.0722
▁meadows	-12.0722
▁perilous	-12.0724
▁substantial	-12.0724
▁muscular	-12.0725
▁solicitude	-12.0725
▁Pedro	-12.0726
▁mast	-12.0727
▁honorable	-12.0727
▁logical	-12.0729
▁Going	-12.073
ESTAT	-12.0731
Captain	-12.0733
▁blinks	-12.0733
▁organs	-12.0741
▁ANDREW	-12.0745
▁Janet	-12.0746
▁Stangerson	-12.0749
▁Lynn	-12.0749
▁architecture	-12.0749
▁territory	-12.0749
▁sturdy	-12.075
▁incessantly	-12.075
▁PRE	-12.075
▁ranch	-12.075
▁Abraham	-12.0751
▁Jewish	-12.0751
▁Clotilde	-12.0751
▁inwardly	-12.0752
▁Prew	-12.0753
▁merchants	-12.0755
▁titles	-12.0756
HECTOR	-12.0757
▁Frances	-12.0761
▁bustle	-12.0764
▁Kill	-12.0766
▁breed	-12.0766
▁Early	-12.0769
▁Service	-12.0771
WAY	-12.0771
KATHLEEN	-12.0773
▁Rouletabille	-12.0774
▁radiance	-12.0774
▁shrieked	-12.0775
▁ascertained	-12.0777
▁resisted	-12.0778
▁contributed	-12.0778
▁tended	-12.0781
▁clears	-12.0782
▁Ho	-12.0783
▁PETERS	-12.0785
▁YOUR	-12.0789
▁NORMAN	-12.0793
▁shark	-12.0794
▁placid	-12.0797
▁Barfoot	-12.0797
▁Wangel	-12.0797
▁plateau	-12.0797
▁conventional	-12.0798
▁flask	-12.0798
▁quivered	-12.0799
▁DINING	-12.0803
▁extending	-12.0804
▁murmuring	-12.0806
▁divide	-12.081
▁Whoa	-12.081
▁Trim	-12.0813
▁marvel	-12.0813
▁teachers	-12.0813
HOLLY	-12.0813
▁periods	-12.082
▁officials	-12.0821
▁Valiant	-12.0821
▁Imperial	-12.0822
▁inexplicable	-12.0822
▁diminished	-12.0822
▁rustling	-12.0822
WOMAN	-12.0823
▁Beautrelet	-12.0823
▁whirled	-12.0823
▁foreigner	-12.0824
▁countless	-12.0824
▁Friend	-12.0825
▁Public	-12.0826
▁wherefore	-12.0828
JEFF	-12.083
bag	-12.0832
▁Ki	-12.0833
▁dispose	-12.0833
▁acquire	-12.0836
▁Eastern	-12.0839
▁han	-12.0841
▁Ain	-12.0841
▁inviting	-12.0845
▁homeward	-12.0846
▁companies	-12.0847
▁Cleves	-12.0847
▁costs	-12.0848
▁contemptuous	-12.0849
▁pose	-12.085
▁plucked	-12.085
▁benches	-12.0851
▁trout	-12.0852
▁heaving	-12.0858
▁connections	-12.0859
nine	-12.0864
▁dealer	-12.0864
▁Strange	-12.0866
▁Banks	-12.0867
▁JOAN	-12.0868
▁continent	-12.0869
▁futile	-12.0869
▁doctrines	-12.087
▁gripped	-12.087
▁devoured	-12.0872
▁Witch	-12.0872
▁triumphantly	-12.0874
▁bricks	-12.0875
Ye	-12.0876
▁select	-12.0877
."--"	-12.0877
DOUG	-12.0879
▁estimate	-12.0886
▁109	-12.089
▁suggestions	-12.0892
▁illustrious	-12.0894
▁Smiley	-12.0895
▁desolation	-12.0895
▁involuntary	-12.0897
HE	-12.0897
▁KELLY	-12.0898
▁Freddie	-12.0898
▁perchance	-12.0898
▁Cape	-12.0901
▁Turns	-12.0901
▁obstacles	-12.0904
▁HAMMOND	-12.0904
▁beaming	-12.0911
▁Exactly	-12.0914
▁continuous	-12.0918
ROKO	-12.0919
▁stony	-12.0919
▁afflicted	-12.092
▁EVAN	-12.0921
▁cowardly	-12.0921
▁DANIEL	-12.0923
▁projected	-12.0923
▁outrage	-12.0936
▁Turning	-12.0937
_."	-12.0937
▁squeezes	-12.0939
▁specific	-12.094
▁Coupeau	-12.094
▁TUNNEL	-12.0941
TH	-12.0941
▁Phillip	-12.0941
▁prairie	-12.0942
▁tedious	-12.0942
▁latch	-12.0942
▁Spaniard	-12.0942
▁Check	-12.0942
▁GON	-12.0942
▁monotonous	-12.0942
▁coals	-12.0942
▁Ojo	-12.0944
▁consists	-12.0944
▁greedy	-12.0945
▁caresses	-12.0946
▁Morgan	-12.0947
▁deuce	-12.0947
▁heated	-12.0954
▁lounge	-12.0958
▁Official	-12.0968
▁tranquillity	-12.0968
▁STUMP	-12.0968
▁LIONEL	-12.0968
▁KONG	-12.0969
▁Terran	-12.097
▁International	-12.097
▁Bye	-12.0973
▁RIGHT	-12.0973
▁ta	-12.0977
Bright	-12.0978
▁US	-12.098
▁flings	-12.0982
▁trucks	-12.0985
▁tutor	-12.0985
▁alarming	-12.0986
PK	-12.0986
▁Raf	-12.0987
▁differences	-12.0987
▁skins	-12.0987
▁hop	-12.0987
▁drifts	-12.0989
▁jam	-12.0989
▁lever	-12.0989
▁ambulance	-12.099
▁Crown	-12.0991
▁Natalie	-12.0993
▁bacon	-12.0994
▁battery	-12.0994
▁swayed	-12.0994
▁extinguished	-12.0995
▁Mesty	-12.0996
▁whereupon	-12.0998
▁descends	-12.0998
called	-12.1
▁fortunately	-12.1
▁SYKES	-12.1001
▁chaise	-12.1001
▁da	-12.1001
half	-12.1004
age	-12.1008
▁stroll	-12.1009
▁scruple	-12.1009
▁Jen	-12.101
▁Augusta	-12.1011
maid	-12.1012
bout	-12.1015
▁gratification	-12.1016
▁squad	-12.1016
▁portal	-12.1016
▁queried	-12.1017
▁ADAM	-12.1018
▁103	-12.1018
▁smote	-12.1018
▁Hang	-12.102
▁freak	-12.102
▁accidents	-12.102
▁circuit	-12.102
▁fortress	-12.1021
▁chattering	-12.1022
les	-12.1024
▁Sitting	-12.1024
▁gait	-12.1025
▁rebel	-12.1027
CAPTAIN	-12.1028
JACKIE	-12.1028
▁Ione	-12.103
▁CAESAR	-12.1031
▁strewn	-12.1032
▁slap	-12.1036
▁slopes	-12.1038
▁violin	-12.1039
▁canyon	-12.1042
▁penalty	-12.1042
▁Abigail	-12.1042
▁trumpet	-12.1043
▁zero	-12.1043
▁lurking	-12.1043
▁essentially	-12.1044
▁Patty	-12.1045
▁freshness	-12.1046
▁profoundly	-12.1047
▁GET	-12.1048
▁112	-12.1048
▁forwards	-12.1049
▁monarch	-12.105
▁lacked	-12.105
▁UN	-12.1051
▁REVERSE	-12.1052
▁vines	-12.106
▁digs	-12.1063
None	-12.1063
▁proceeds	-12.1063
▁hazard	-12.1064
▁GIN	-12.1065
▁LARGE	-12.1065
▁episode	-12.1066
▁fragment	-12.1066
▁blinding	-12.1066
▁respective	-12.1066
▁Marvin	-12.1067
▁greasy	-12.1067
▁proprietor	-12.1067
▁promotion	-12.1067
▁MANAGER	-12.1068
▁offspring	-12.1068
▁vigorously	-12.1069
▁Beach	-12.1069
▁favoured	-12.1069
▁presenting	-12.107
▁poisoned	-12.1071
▁FIGURE	-12.1072
DANNY	-12.1078
▁oaths	-12.1078
▁comin	-12.1081
VIST	-12.1081
▁whistled	-12.1082
▁sands	-12.1083
▁Pretty	-12.1085
ad	-12.1087
▁delights	-12.109
▁TOWN	-12.109
▁wanders	-12.1091
▁Staveley	-12.1092
▁desiring	-12.1092
▁mike	-12.1093
▁INSERT	-12.1097
▁Grantly	-12.1098
▁prophet	-12.1102
ION	-12.1103
▁Gale	-12.1103
▁HANDS	-12.1105
▁nurses	-12.1109
▁peak	-12.1113
▁MILK	-12.1116
▁Thirty	-12.1118
▁Blakeney	-12.1119
▁JILL	-12.1119
▁Hedra	-12.112
▁attributed	-12.1123
▁melting	-12.1123
▁affecting	-12.1127
▁gig	-12.1127
tempered	-12.1127
▁richly	-12.1131
▁SUMMER	-12.1138
▁swearing	-12.1139
▁Swift	-12.1141
▁spacious	-12.1142
▁homage	-12.1142
▁cockpit	-12.1142
▁mentioning	-12.1144
▁Brooks	-12.1144
▁absently	-12.1145
▁Sidwell	-12.1145
▁DOG	-12.1146
▁prejudices	-12.1147
▁allows	-12.1148
▁LAB	-12.1148
▁bites	-12.1149
▁delivery	-12.115
▁Romeo	-12.1153
▁darts	-12.1156
▁BASE	-12.1157
▁rocket	-12.1161
▁reform	-12.1164
▁Farnham	-12.1167
lilbutton	-12.1167
▁boyfriend	-12.1167
houses	-12.1167
▁Steerforth	-12.1168
▁CLICK	-12.1168
▁Persian	-12.1168
▁approbation	-12.1168
▁recollected	-12.117
▁105	-12.1171
▁sorely	-12.1172
▁RONNIE	-12.1173
▁labours	-12.1177
Hold	-12.1177
▁blinds	-12.118
▁afresh	-12.1181
those	-12.1182
pot	-12.1183
▁scramble	-12.1184
▁feeds	-12.1186
▁TOWER	-12.119
▁Darwin	-12.1191
▁repetition	-12.1191
▁financial	-12.1191
▁impenetrable	-12.1192
▁dice	-12.1193
▁vows	-12.1194
▁accursed	-12.1194
▁wot	-12.1194
▁constable	-12.1195
▁Petersburg	-12.1195
▁disclosed	-12.1196
▁JOEL	-12.1197
▁JUNO	-12.1202
CALVIN	-12.1203
▁reared	-12.1204
▁shrieks	-12.1206
uail	-12.1207
▁STONE	-12.1208
▁thrusting	-12.1213
▁hind	-12.1214
▁Middleton	-12.1215
▁malicious	-12.1216
▁enclosure	-12.1216
▁endurance	-12.1217
▁exhaustion	-12.1217
bound	-12.1217
▁Camperdown	-12.1218
▁overtake	-12.1218
▁gliding	-12.1219
▁releases	-12.1219
▁swelled	-12.122
▁AM	-12.1222
▁indignantly	-12.1223
dog	-12.1223
▁monkeys	-12.1224
▁candy	-12.1225
▁Albert	-12.1226
▁apprehensions	-12.1227
▁caring	-12.1227
▁drill	-12.1229
▁buck	-12.123
▁Moses	-12.1231
▁lacking	-12.1232
▁mirrors	-12.1232
▁breathes	-12.1236
▁Williams	-12.1236
▁XVIII	-12.1236
▁SPOCK	-12.1237
▁reef	-12.1239
▁especial	-12.1241
▁morsel	-12.1242
▁acknowledgment	-12.1242
▁miraculous	-12.1242
▁Graeme	-12.1242
▁JASON	-12.1242
▁pained	-12.1242
▁marches	-12.1243
▁Almighty	-12.1243
▁boyish	-12.1245
▁Mountain	-12.1246
▁Ghost	-12.1247
▁Aren	-12.1247
▁befallen	-12.1247
▁fearfully	-12.1248
▁spotted	-12.125
▁Marsh	-12.1252
field	-12.1253
TY	-12.1254
▁115	-12.1256
▁LIKE	-12.1256
CAL	-12.1256
);	-12.1258
▁cluster	-12.1263
▁pats	-12.1265
▁DOORS	-12.1266
▁spider	-12.1267
▁Cheesacre	-12.1268
▁fascinating	-12.1268
▁clasp	-12.1268
▁theories	-12.1268
▁subsided	-12.1269
▁doubled	-12.1271
▁Ya	-12.1272
ma	-12.1276
▁horsemen	-12.1276
Think	-12.1277
ur	-12.1279
▁hermit	-12.128
Put	-12.128
▁trailing	-12.128
▁DIL	-12.1282
▁plaster	-12.1283
▁discomfort	-12.1283
▁alighted	-12.1288
▁swamp	-12.1289
▁eve	-12.1291
▁embraces	-12.1292
SSUS	-12.1293
▁cavalry	-12.1293
▁adjacent	-12.1293
▁indispensable	-12.1293
▁Dignan	-12.1293
▁Mitch	-12.1293
▁novelty	-12.1293
▁GILLI	-12.1294
▁tapped	-12.1294
Bahr	-12.1295
▁grade	-12.1296
!)	-12.1296
▁tapping	-12.1299
▁pirates	-12.13
▁blocked	-12.13
▁bug	-12.1301
▁Free	-12.1304
▁Gardens	-12.1309
▁spits	-12.131
▁decay	-12.1312
da	-12.1314
▁wail	-12.1314
▁surf	-12.1316
▁everlasting	-12.1317
▁valued	-12.1317
▁longest	-12.1318
▁terrifying	-12.1318
▁CAMP	-12.1318
▁Fletcher	-12.1319
▁regained	-12.132
▁Mexican	-12.132
▁charging	-12.132
▁shovel	-12.132
▁chariot	-12.1321
▁hailed	-12.1321
▁whirl	-12.1321
▁provoked	-12.1323
▁adapted	-12.1323
▁pat	-12.1324
▁fangs	-12.1325
▁heaped	-12.1325
▁boiled	-12.1326
▁Lucky	-12.1326
▁SARA	-12.1331
▁blamed	-12.1332
▁obscured	-12.1333
▁104	-12.1337
▁shiver	-12.1339
▁cells	-12.134
▁menace	-12.1342
▁Submit	-12.1342
▁Lou	-12.1343
▁scatter	-12.1343
▁instinctive	-12.1343
▁precision	-12.1344
▁Ivanovitch	-12.1344
▁Meagles	-12.1344
▁benevolence	-12.1344
▁Rain	-12.1344
▁consultation	-12.1344
▁transaction	-12.1345
▁pitied	-12.1345
▁DUKE	-12.1346
▁urging	-12.1346
▁coolness	-12.1347
▁Satan	-12.1347
▁Small	-12.1349
▁Slow	-12.1351
▁Scotty	-12.1353
▁silenced	-12.1353
▁bathing	-12.1355
Nonsense	-12.1358
ley	-12.1364
▁tax	-12.1366
▁slice	-12.1366
▁Pat	-12.1367
▁aloof	-12.1368
▁Mercedes	-12.1369
▁durst	-12.137
▁JOHAN	-12.1371
▁FINAL	-12.1371
▁deem	-12.1371
▁drooping	-12.1372
▁mutton	-12.1372
▁ghostly	-12.1373
izing	-12.1377
▁SHERIFF	-12.1378
▁consulting	-12.1378
▁LEWIS	-12.1379
▁downright	-12.138
▁Stand	-12.138
20	-12.138
▁Fi	-12.1383
▁CHIP	-12.1386
▁COPS	-12.1389
▁Gold	-12.139
▁linger	-12.1391
▁suck	-12.1394
▁fragrance	-12.1395
▁scrambles	-12.1395
▁retirement	-12.1395
▁Fergus	-12.1395
▁Franklin	-12.1396
▁tavern	-12.1396
▁melody	-12.1396
▁menacing	-12.1396
▁warehouse	-12.1396
▁dungeon	-12.1397
▁reigned	-12.1398
▁antique	-12.1398
▁perished	-12.1398
▁calmness	-12.1399
▁trim	-12.14
▁Britain	-12.14
▁scrambled	-12.1402
▁SAL	-12.1402
▁curved	-12.1408
▁solve	-12.141
▁privileges	-12.1413
▁aback	-12.1414
▁pronounce	-12.1416
▁develop	-12.1417
▁BLOM	-12.1421
▁custody	-12.1421
▁energies	-12.1421
▁tyranny	-12.1421
▁slamming	-12.1422
▁Scottish	-12.1423
▁twins	-12.1426
▁zone	-12.1426
▁shrinking	-12.1426
▁collecting	-12.1431
▁KID	-12.1432
▁Often	-12.1433
look	-12.1436
▁reconcile	-12.144
▁BOURNE	-12.1442
▁Camera	-12.1446
▁bewilderment	-12.1447
▁pondered	-12.1447
▁preceded	-12.1448
▁transfer	-12.1448
▁Kevin	-12.1448
▁attacking	-12.145
▁employer	-12.1451
▁Mini	-12.1452
▁detect	-12.1454
▁LOOKS	-12.1456
▁LOVE	-12.1458
▁Than	-12.146
▁Whenever	-12.1462
▁institutions	-12.1463
▁CURTI	-12.1464
▁grate	-12.1464
▁RAIN	-12.1468
▁puppy	-12.147
▁bridegroom	-12.1472
▁valiant	-12.1473
▁administration	-12.1473
▁EARL	-12.1474
▁Turkish	-12.1474
▁chuckled	-12.1478
war	-12.1478
▁quiver	-12.1479
."]	-12.1481
▁gathers	-12.1481
▁drums	-12.1484
DETECTIVE	-12.1488
▁handling	-12.149
▁flourish	-12.1492
mother	-12.1492
▁SPEED	-12.1497
▁prodigious	-12.1498
▁demeanour	-12.1498
▁Carnby	-12.1498
▁concealment	-12.1499
▁rhythm	-12.1499
▁elegance	-12.15
▁resented	-12.15
▁qualified	-12.15
▁strife	-12.15
▁ribbons	-12.15
▁peeped	-12.15
▁jerked	-12.1501
▁circling	-12.1501
▁XVII	-12.1503
▁Barnes	-12.1503
▁grinding	-12.1503
▁fishes	-12.1504
air	-12.1505
▁reporters	-12.1506
▁rice	-12.1508
▁boughs	-12.1509
▁Ok	-12.1511
▁cooked	-12.1511
▁Hand	-12.1512
▁ALLEY	-12.1514
▁tubes	-12.1515
▁trials	-12.1516
▁yon	-12.1521
▁items	-12.1523
▁Assistant	-12.1525
▁translation	-12.1527
▁advertisement	-12.1527
▁traversed	-12.1527
▁Caroline	-12.1529
▁incredibly	-12.1531
▁flicks	-12.1532
▁pledged	-12.1537
▁Alone	-12.1539
▁Lo	-12.154
ARNA	-12.1542
▁Scene	-12.1544
TOBY	-12.1545
▁telescope	-12.1546
▁GIRLS	-12.1549
▁Babylon	-12.155
▁aristocracy	-12.155
▁abominable	-12.1551
▁frankness	-12.1551
▁statues	-12.1551
▁choosing	-12.1552
▁Sapt	-12.1552
▁RACIN	-12.1554
▁typical	-12.1555
▁sleeps	-12.1556
▁dashing	-12.1556
▁armchair	-12.1556
▁barber	-12.1558
▁kindled	-12.1558
▁brushing	-12.1561
▁crowns	-12.1563
▁cigars	-12.1568
▁interfered	-12.157
▁GORDON	-12.157
▁SCREAM	-12.1571
▁apples	-12.1572
▁LESTER	-12.1575
▁obedient	-12.1575
▁Word	-12.1576
▁foreground	-12.1576
▁grabbed	-12.1577
▁Tyrrel	-12.1577
▁propped	-12.1577
▁bureau	-12.1577
▁Hermione	-12.1579
▁Atlantic	-12.158
▁kindred	-12.1581
▁EDDIE	-12.1585
▁adventurer	-12.1587
▁echoing	-12.1588
▁Sub	-12.1589
Hush	-12.1593
Those	-12.1593
▁anon	-12.1593
▁tails	-12.1594
town	-12.1597
▁ALICE	-12.1602
▁RATH	-12.1603
▁MAVERICK	-12.1603
▁cowardice	-12.1604
▁Converte	-12.1604
▁vacation	-12.1605
▁BOOTH	-12.1606
▁Opera	-12.1606
▁cherry	-12.1606
▁demonstration	-12.1606
▁arches	-12.1607
▁Golden	-12.1608
▁wailing	-12.161
▁defended	-12.161
▁thirsty	-12.1613
▁sandy	-12.162
especially	-12.162
▁Marya	-12.1623
▁maidens	-12.1627
▁persistent	-12.1628
▁Delamayn	-12.1629
▁JUD	-12.163
▁Boone	-12.163
▁BASEMENT	-12.1631
▁blouse	-12.1631
▁hillside	-12.1632
▁Robinson	-12.1633
▁Glenvarloch	-12.1634
▁reckoned	-12.1634
looks	-12.1635
▁Howard	-12.1636
▁squeezed	-12.1638
▁150	-12.1638
▁constituted	-12.1639
▁aye	-12.1639
OWELL	-12.1642
▁sarcastic	-12.1642
▁Eight	-12.1642
▁SUITE	-12.1644
OUISA	-12.1644
!_"	-12.1645
▁SOUNDS	-12.1649
BOD	-12.1649
▁Move	-12.1652
▁enveloped	-12.1653
▁Wilkins	-12.1655
▁Thorpe	-12.1655
▁accurate	-12.1655
▁CHANCE	-12.1655
▁confinement	-12.1656
▁Pickle	-12.1656
▁Scatcherd	-12.1656
▁strengthened	-12.1656
▁Django	-12.1656
▁yelled	-12.1658
▁Ferdinand	-12.1658
▁ravine	-12.1658
▁draft	-12.1659
▁tissue	-12.1659
▁inter	-12.166
▁Frederic	-12.1661
▁Ms	-12.1662
▁physically	-12.1662
▁DARK	-12.1666
▁Unfortunately	-12.1666
RUSTY	-12.1667
ANTHONY	-12.1672
▁Send	-12.1672
▁meek	-12.1672
RACHEL	-12.1673
▁ornament	-12.1675
▁proportions	-12.1679
▁network	-12.168
▁margin	-12.1682
▁Barchester	-12.1682
▁Gadsby	-12.1682
▁TAYLOR	-12.1682
▁Elijah	-12.1682
▁giddy	-12.1682
▁Darkness	-12.1683
▁Blake	-12.1684
▁partial	-12.1684
▁confided	-12.1686
▁translated	-12.1687
▁coins	-12.1687
▁esteemed	-12.1687
▁Emil	-12.1689
▁product	-12.1689
▁CAMERON	-12.169
▁thumbs	-12.169
▁paced	-12.1691
▁poles	-12.1693
▁106	-12.1694
ecker	-12.1694
▁OBI	-12.1697
ue	-12.1698
▁arisen	-12.1699
▁clutch	-12.1702
▁NEWS	-12.1703
▁BUCK	-12.1704
▁inconvenience	-12.1705
▁benevolent	-12.1707
▁bust	-12.1708
▁disinterested	-12.1708
▁Askerton	-12.1708
▁decency	-12.1708
▁burial	-12.1708
▁loveliness	-12.1709
▁Assingham	-12.1709
nay	-12.1713
▁Parisian	-12.1713
▁quoted	-12.1716
▁viewed	-12.1719
▁journal	-12.172
▁headlights	-12.1722
Me	-12.1723
▁Cooke	-12.1725
STEVE	-12.1725
▁Save	-12.1726
▁disguised	-12.1727
▁defined	-12.1728
▁belongings	-12.1729
▁PILOT	-12.173
▁snowy	-12.1731
▁scrape	-12.1732
▁hairy	-12.1732
▁poems	-12.1733
▁fidelity	-12.1735
▁ruddy	-12.1736
▁Schindler	-12.1736
▁scanning	-12.1736
▁vest	-12.1736
▁diameter	-12.1736
▁Manning	-12.1736
▁barbarous	-12.1737
▁excite	-12.1738
▁sharing	-12.1739
▁Marshall	-12.1741
▁syllable	-12.1743
▁statements	-12.1743
▁comforting	-12.1745
▁occurs	-12.1746
▁glared	-12.1751
▁SCOTT	-12.1752
▁ministers	-12.1753
▁links	-12.1757
▁sources	-12.1757
▁conclusions	-12.1761
▁sire	-12.1761
ERRIS	-12.1761
▁Sonny	-12.1763
▁imprisoned	-12.1763
▁FAMILY	-12.1763
▁Elsie	-12.1764
▁chocolate	-12.1765
▁wearied	-12.1767
▁wouldst	-12.177
sher	-12.1771
▁succeeding	-12.1774
▁profits	-12.1776
▁cameras	-12.1776
▁quid	-12.1777
stone	-12.178
▁constitute	-12.1781
▁breeding	-12.1782
▁unmistakable	-12.1788
▁throbbing	-12.1788
▁paternal	-12.1788
▁patted	-12.1789
▁whisky	-12.1789
▁Eva	-12.179
▁idleness	-12.1791
▁fairies	-12.1792
▁escorted	-12.1792
▁Lordship	-12.1793
WAN	-12.1793
▁BAY	-12.1794
▁hips	-12.1795
▁halls	-12.1795
▁Act	-12.1795
▁DELA	-12.1795
▁salon	-12.1796
▁thigh	-12.1797
▁lawful	-12.1798
▁smash	-12.1798
▁china	-12.1801
▁counts	-12.1802
BURNS	-12.1807
HUB	-12.1807
▁BELL	-12.1807
▁splash	-12.1807
▁Mater	-12.1811
▁Marvel	-12.1812
▁Szpilman	-12.1815
▁muzzle	-12.1815
▁Stanley	-12.1815
▁Dirk	-12.1815
▁engaging	-12.1815
▁VIVIAN	-12.1815
▁transported	-12.1817
▁Madeleine	-12.1817
▁tormented	-12.1817
▁MOTION	-12.1818
▁uproar	-12.1819
▁refreshment	-12.1819
▁sloop	-12.1819
▁colleague	-12.1819
▁enraged	-12.182
▁Twice	-12.182
▁spreads	-12.1822
▁CINDY	-12.1822
▁weekend	-12.1823
▁replace	-12.1827
▁donkey	-12.1827
▁insight	-12.183
▁Talk	-12.1836
▁seasons	-12.184
ge	-12.184
▁evils	-12.1841
▁unfit	-12.1841
▁constrained	-12.1841
▁Fischer	-12.1841
▁Greece	-12.1841
▁consistent	-12.1842
▁loaf	-12.1842
▁enlightened	-12.1843
▁org	-12.1845
▁lagoon	-12.1845
▁fertile	-12.1846
▁injure	-12.1848
▁coughing	-12.1848
▁ROBERT	-12.1848
▁moi	-12.1849
▁stations	-12.185
▁Kent	-12.1852
▁rum	-12.1854
▁hoofs	-12.1854
▁provinces	-12.1855
▁owners	-12.1855
▁reckoning	-12.1856
▁concealing	-12.1856
▁widen	-12.1858
1.	-12.186
STEW	-12.186
▁airs	-12.186
▁cot	-12.1866
▁collapse	-12.1868
▁Melanie	-12.1868
▁summon	-12.1869
▁scrutiny	-12.1869
▁kneel	-12.1869
▁bandage	-12.1869
▁CHIEF	-12.1871
▁Crofts	-12.1872
▁Apparently	-12.1873
▁cheered	-12.1873
▁candidate	-12.1873
▁Left	-12.1874
▁explanations	-12.1874
DF	-12.1874
▁gilt	-12.1874
▁Blade	-12.1875
▁patrol	-12.1875
▁Nan	-12.1875
▁DODGE	-12.1877
▁blossom	-12.1877
▁Da	-12.1879
▁stem	-12.1881
▁jug	-12.1882
▁LOOKING	-12.1883
▁destroying	-12.1886
deck	-12.1886
Suppose	-12.1888
▁Guards	-12.1888
▁chased	-12.189
▁flare	-12.1894
▁conspiracy	-12.1895
▁jammed	-12.1895
▁moan	-12.1895
▁heiress	-12.1896
▁ascend	-12.1896
▁embarrassing	-12.1898
KIT	-12.1898
▁Frederick	-12.19
?’	-12.19
▁apparition	-12.19
▁Divine	-12.1901
▁adored	-12.1901
▁doubting	-12.1902
▁arena	-12.1903
▁shameful	-12.1905
▁stirs	-12.1908
ward	-12.1914
▁veranda	-12.1921
▁Numa	-12.1921
▁audacity	-12.1922
▁beckoned	-12.1922
▁drain	-12.1923
▁passive	-12.1923
▁velocity	-12.1924
▁giants	-12.1924
ily	-12.1924
▁PRESENT	-12.1925
▁brightened	-12.1925
▁magazines	-12.1926
fire	-12.1927
▁slam	-12.1928
▁rectory	-12.1929
▁classic	-12.1929
▁jobs	-12.193
▁ICHA	-12.1934
▁rip	-12.1934
▁Comrade	-12.1935
▁Rae	-12.1937
keeper	-12.1937
▁girdle	-12.1939
▁Nurse	-12.194
0	-12.1941
▁Tomorrow	-12.1943
▁antagonist	-12.1943
▁prostrate	-12.1943
▁mature	-12.1945
▁kills	-12.1945
▁HELICOPTER	-12.1946
▁("	-12.1947
▁Glegg	-12.1949
▁snakes	-12.1949
▁integrity	-12.195
incomprehensible	-12.1952
▁CLERK	-12.1952
▁hopelessly	-12.1954
▁orphan	-12.1954
▁deliberation	-12.1955
▁corrected	-12.1955
▁GRANT	-12.1957
▁pier	-12.1957
▁trot	-12.1964
▁yu	-12.1964
gown	-12.1967
▁cue	-12.1968
Even	-12.1969
▁appreciated	-12.197
▁disgraced	-12.1971
ius	-12.1972
▁silhouette	-12.1976
▁Revolution	-12.1976
▁frustration	-12.1976
▁verily	-12.1977
▁review	-12.1977
▁regain	-12.1977
▁LILA	-12.1978
▁defiant	-12.1978
▁launched	-12.1978
▁Tropile	-12.1979
▁bubble	-12.1979
▁undergone	-12.1979
▁Samuel	-12.1979
▁diving	-12.1979
▁STOP	-12.198
▁Babe	-12.198
▁leisurely	-12.198
▁peaks	-12.198
▁Sounds	-12.198
▁Spragg	-12.1981
▁brakes	-12.1986
LMUT	-12.1987
▁superb	-12.1987
▁protecting	-12.1989
▁114	-12.1992
▁taller	-12.1992
▁Aline	-12.1997
▁dinners	-12.1999
▁bee	-12.2001
▁glimmer	-12.2003
▁NEO	-12.2003
▁Marmont	-12.2004
▁ammunition	-12.2004
▁unaccountable	-12.2004
▁Robbie	-12.2004
▁laundry	-12.2004
▁Greer	-12.2004
JEANNE	-12.2004
▁foreseen	-12.2006
▁proving	-12.2008
▁GATES	-12.2008
▁nut	-12.2009
▁frontier	-12.2013
dressed	-12.2018
▁spaces	-12.2021
▁uniforms	-12.2022
▁starved	-12.2023
▁FLASHBACK	-12.2024
Scripts	-12.2025
▁trips	-12.2028
▁adequate	-12.203
▁grievous	-12.203
▁maternal	-12.2031
▁COCKPIT	-12.2031
▁reverend	-12.2031
▁felicity	-12.2032
▁Elzevir	-12.2032
▁Clarence	-12.2033
▁Thompson	-12.2033
▁Hyde	-12.2034
▁ascending	-12.2035
▁Edmund	-12.2035
▁som	-12.2035
▁museum	-12.2037
▁eminent	-12.2038
▁rejoicing	-12.2038
▁sucking	-12.2039
▁sighing	-12.2041
Keep	-12.2047
▁wary	-12.2048
▁bangs	-12.2048
▁cushions	-12.2049
▁HARDCASTLE	-12.2058
▁ingenuity	-12.2058
▁pensive	-12.2058
▁removal	-12.2058
▁sordid	-12.2059
▁Carson	-12.2059
▁Huns	-12.206
▁Adrian	-12.206
▁soda	-12.206
▁cheerfulness	-12.206
▁sucked	-12.206
OVER	-12.2061
▁deceased	-12.2061
▁mug	-12.2063
▁Eugene	-12.2063
▁governed	-12.2064
▁parchment	-12.2065
“	-12.2066
▁Somehow	-12.2071
▁moods	-12.2071
post	-12.2072
▁golf	-12.2074
▁Forest	-12.2079
▁directing	-12.208
KUMAR	-12.208
▁battles	-12.208
Maybe	-12.2081
▁Benedict	-12.2086
CROIX	-12.2086
▁concentration	-12.2086
▁vehemence	-12.2086
books	-12.2086
▁impertinent	-12.2087
▁influences	-12.2088
▁scanty	-12.2088
▁staggering	-12.2088
▁wad	-12.2089
▁enlarged	-12.2089
▁Takes	-12.209
▁plank	-12.2092
▁notebook	-12.2095
▁Voice	-12.2095
▁200	-12.2096
▁funds	-12.2096
▁pairs	-12.2097
▁possessing	-12.2099
▁appealing	-12.2104
▁ruler	-12.2105
▁creeps	-12.2112
▁prettiest	-12.2114
▁Sister	-12.2114
▁Rigby	-12.2115
▁unique	-12.2115
▁dancers	-12.2115
▁confront	-12.2119
▁Woody	-12.212
▁coincidence	-12.212
▁siege	-12.2121
▁westward	-12.2122
▁badge	-12.2123
▁abused	-12.2125
▁CARL	-12.2126
▁Buck	-12.2128
▁Heron	-12.2128
▁Same	-12.2133
their	-12.2138
▁recess	-12.214
▁Omnium	-12.2141
▁Viktor	-12.2141
▁aversion	-12.2141
▁retiring	-12.2141
▁harshly	-12.2144
▁smashing	-12.2145
▁pouch	-12.2145
▁binoculars	-12.2147
▁mildly	-12.2148
▁judging	-12.2148
▁holidays	-12.2151
▁pr	-12.2153
▁sexy	-12.2154
▁retreating	-12.2157
▁LIGHTS	-12.2157
▁pots	-12.2158
▁leapt	-12.2159
▁strips	-12.216
▁pictured	-12.2162
LONGFELLOW	-12.2163
▁scales	-12.2166
▁OR	-12.2167
▁Pascal	-12.2169
▁ferocity	-12.2169
▁Utah	-12.2169
▁knitting	-12.2169
▁convincing	-12.2169
ORDELL	-12.217
▁compound	-12.2171
▁WOMEN	-12.2172
▁hooked	-12.2174
▁TRUE	-12.2174
▁implored	-12.2175
▁Otherwise	-12.2175
ized	-12.2175
▁damsel	-12.2177
▁departing	-12.2178
▁hairs	-12.2178
▁crust	-12.2181
▁dates	-12.2181
▁Yu	-12.2183
▁Martian	-12.2183
▁owl	-12.2184
▁trifles	-12.2184
▁LAZARUS	-12.2186
▁wronged	-12.2188
▁Fear	-12.219
SEAN	-12.2192
▁jag	-12.2196
▁fashioned	-12.2196
▁untouched	-12.2197
▁superstitious	-12.2197
▁glee	-12.2197
▁grunted	-12.2198
▁socks	-12.22
▁Apollo	-12.2202
▁metallic	-12.2203
▁splendor	-12.2204
▁trench	-12.2207
▁fondly	-12.2208
▁JUDGE	-12.2211
▁FEMALE	-12.2213
▁calculations	-12.2215
▁Money	-12.2218
IRVING	-12.2219
▁Today	-12.222
ERTIE	-12.2222
▁Bargeton	-12.2224
▁Langham	-12.2224
▁Langdon	-12.2225
▁butterfly	-12.2225
▁Rubb	-12.2226
▁Alvy	-12.2227
▁Own	-12.2227
▁lapse	-12.2229
▁achieve	-12.2229
▁artists	-12.2229
▁inflicted	-12.223
under	-12.2231
▁dove	-12.2232
▁napkin	-12.2234
oo	-12.2234
▁accompanying	-12.2238
▁snatch	-12.2246
other	-12.2247
VADA	-12.2249
▁ordering	-12.225
▁penetrating	-12.2251
▁sensibility	-12.2252
▁Westhaven	-12.2252
▁Stacy	-12.2252
▁Osborne	-12.2252
▁emerging	-12.2253
▁SKY	-12.2254
▁tact	-12.2255
▁ache	-12.2255
▁Frog	-12.2259
▁Commissioner	-12.2261
▁rattled	-12.2262
▁insect	-12.2264
horse	-12.2266
GIRL	-12.2271
▁flown	-12.2273
▁dresser	-12.2274
▁lists	-12.2276
▁Allen	-12.2278
Every	-12.228
▁Chaffanbrass	-12.228
▁MCU	-12.2281
▁Dennis	-12.2281
▁wrung	-12.2282
▁Abbey	-12.2282
▁Myrtle	-12.2282
▁firmness	-12.2283
▁DETECTIVE	-12.2286
▁gettin	-12.2288
▁HAS	-12.2288
▁rumour	-12.2288
▁soothed	-12.2288
▁schoolmaster	-12.2289
▁Lamb	-12.229
▁amounted	-12.2291
▁WHO	-12.2291
▁precautions	-12.2292
▁Knights	-12.2297
▁125	-12.2298
▁crop	-12.2299
▁cleaned	-12.23
▁Hands	-12.2301
▁elders	-12.2302
MARGOT	-12.2303
▁experiments	-12.2305
▁worrying	-12.2307
▁industrial	-12.2308
▁facility	-12.2308
▁writhing	-12.2308
▁Paulette	-12.2309
▁mockery	-12.2309
▁chiefs	-12.231
▁airport	-12.231
▁YARD	-12.2311
▁speeding	-12.2311
▁calf	-12.2312
▁XIX	-12.2312
6	-12.2313
▁magistrates	-12.2315
KYLE	-12.2315
end	-12.2316
▁Th	-12.232
▁trance	-12.2321
▁BRAD	-12.2323
▁cracking	-12.2324
▁118	-12.2325
▁Horn	-12.2332
Like	-12.2332
▁dismiss	-12.2333
▁KNOCK	-12.2333
▁DARWIN	-12.2337
▁Glyde	-12.2337
▁accuracy	-12.2337
▁vegetation	-12.2337
▁stored	-12.2337
▁Tree	-12.2337
▁noiselessly	-12.2337
▁Marsham	-12.2337
▁doubly	-12.2339
▁blankly	-12.2341
▁vices	-12.2341
▁blackened	-12.2344
▁Cop	-12.2344
▁assumption	-12.2345
▁habitation	-12.2346
▁refinement	-12.2347
▁knots	-12.2348
▁CAROL	-12.235
▁damaged	-12.2351
▁Science	-12.2352
▁!?	-12.2353
▁limo	-12.2356
▁sage	-12.2358
▁softer	-12.236
▁devices	-12.236
▁luxurious	-12.2363
▁Meag	-12.2364
▁tremulous	-12.2364
▁TARLETON	-12.2365
▁Hartill	-12.2365
▁despairing	-12.2365
▁signified	-12.2365
▁Hildy	-12.2366
▁Otto	-12.2366
▁choir	-12.2366
▁Adelina	-12.2366
▁Berlin	-12.2367
▁climax	-12.2367
▁erected	-12.2369
▁sparkled	-12.237
▁Whom	-12.2372
▁forefinger	-12.2372
▁arched	-12.2379
ck	-12.2382
▁homely	-12.2387
▁attach	-12.2388
CORALINE	-12.2389
▁Ready	-12.2392
▁sustain	-12.2392
▁deafening	-12.2392
▁Delmar	-12.2393
▁ARCHIE	-12.2393
▁tattered	-12.2394
▁lass	-12.2394
▁CAB	-12.2394
▁Bashwood	-12.2394
▁MAR	-12.2395
▁ensued	-12.2396
▁vividly	-12.2396
▁WHICH	-12.2396
▁hurl	-12.2396
▁commented	-12.2397
▁consisting	-12.2397
▁infamous	-12.2403
▁mortification	-12.2403
▁overlooking	-12.2405
▁yearning	-12.2405
▁Laz	-12.2406
▁THIRD	-12.2407
▁Margot	-12.2408
▁Large	-12.2408
▁gum	-12.2409
▁groaning	-12.2409
▁inspire	-12.241
▁hawk	-12.241
▁cushion	-12.2411
RE	-12.2411
▁females	-12.2417
▁invent	-12.242
▁Family	-12.2422
▁disconcerted	-12.2422
▁estimation	-12.2423
▁BROWN	-12.2423
▁preached	-12.2424
▁Sophy	-12.2424
▁pursuits	-12.2425
▁Christie	-12.2426
▁blessings	-12.2427
▁Main	-12.2428
turning	-12.2428
▁aliens	-12.2432
▁rein	-12.2434
_!"	-12.2434
▁Deep	-12.2434
▁puff	-12.2434
▁valleys	-12.2434
▁Secret	-12.2436
▁Trent	-12.2436
▁dial	-12.2436
ty	-12.2437
▁sixpence	-12.244
▁Guess	-12.244
green	-12.2442
▁soothe	-12.2444
▁recollections	-12.2445
▁shields	-12.2446
▁seventh	-12.2447
▁repay	-12.2448
▁traditions	-12.2448
party	-12.2448
▁DORANTE	-12.245
▁Geoff	-12.245
▁gallantry	-12.2451
▁ejaculated	-12.2451
▁Ferris	-12.2451
▁Nostromo	-12.2452
▁adds	-12.2453
▁Senor	-12.2454
▁graciously	-12.2454
▁Hasar	-12.2455
▁meditated	-12.2455
▁enquired	-12.2456
▁SOLDIERS	-12.2457
▁scratching	-12.2457
▁sexual	-12.2459
▁calculation	-12.246
▁assuredly	-12.246
▁disgusting	-12.2461
▁Hunter	-12.2462
▁mortals	-12.2462
▁remembers	-12.2463
▁bearded	-12.2466
▁countrymen	-12.2466
▁exhibit	-12.2467
MOZART	-12.2475
▁roast	-12.2476
Since	-12.2476
▁imperfect	-12.2478
▁Marley	-12.248
▁worshipped	-12.248
▁lanes	-12.248
▁Clem	-12.2481
▁screwed	-12.2483
▁straightway	-12.2484
▁visage	-12.2488
▁steaming	-12.2489
▁TILLE	-12.2489
▁awed	-12.2495
▁flows	-12.2495
]:	-12.2496
▁blocking	-12.2496
▁Gate	-12.2501
rooms	-12.2504
▁rely	-12.2506
▁Terminator	-12.2507
▁engrossed	-12.2508
▁circus	-12.2508
▁unbroken	-12.2508
▁contemplating	-12.2508
▁sundry	-12.2508
▁BLOOD	-12.251
▁resemble	-12.2511
▁creating	-12.2511
▁detain	-12.2511
▁Cripps	-12.2511
▁VIDEO	-12.2511
▁stung	-12.2513
school	-12.2514
▁partners	-12.2515
▁graces	-12.2515
tes	-12.2515
▁sane	-12.2515
▁invasion	-12.2516
▁automobile	-12.2518
▁phantom	-12.2518
BARTON	-12.2518
▁Foster	-12.2518
ns	-12.2518
▁crisp	-12.2519
▁113	-12.252
▁critic	-12.2521
every	-12.2521
▁innocently	-12.2521
▁GLEN	-12.2521
should	-12.2522
▁specimens	-12.2527
▁monument	-12.2531
▁miracles	-12.2532
▁Beck	-12.2535
▁Schaefer	-12.2536
▁unnoticed	-12.2536
▁Boldwood	-12.2536
▁stupidity	-12.2537
▁FAUST	-12.2537
▁exclusive	-12.2537
▁describing	-12.2537
ri	-12.2538
▁Spaniards	-12.2538
▁Maxwell	-12.2539
▁fabric	-12.2539
▁HUGE	-12.254
▁HOW	-12.2542
▁stump	-12.2542
▁contemptuously	-12.2542
▁Andor	-12.2542
▁clasping	-12.2543
▁Search	-12.2545
▁tha	-12.2547
▁Garden	-12.2547
▁chickens	-12.2549
▁thickly	-12.255
▁channels	-12.2551
▁talkin	-12.2552
ten	-12.2552
▁Erica	-12.2552
▁demanding	-12.2556
▁Citizen	-12.2558
say	-12.2558
▁buzz	-12.256
▁SHADOW	-12.2561
▁apes	-12.2561
CABLE	-12.2562
▁sucks	-12.2564
▁unspeakable	-12.2565
▁chatting	-12.2565
▁improbable	-12.2565
▁Marneffe	-12.2566
▁vine	-12.2566
▁wheelchair	-12.2566
▁explore	-12.2567
▁Moggs	-12.2567
▁tennis	-12.2567
▁invested	-12.2567
▁vowed	-12.2568
▁Nadia	-12.2569
▁awakening	-12.257
▁cocked	-12.257
▁UNDER	-12.2574
▁130	-12.2574
...**	-12.2582
▁119	-12.2582
DALE	-12.2583
▁SO	-12.2588
RANDAL	-12.2592
ELVIN	-12.2592
WILLARD	-12.2592
MITCH	-12.2592
▁item	-12.2593
▁identify	-12.2594
▁CATES	-12.2594
▁impudence	-12.2594
▁recourse	-12.2595
▁masculine	-12.2595
▁agency	-12.2596
▁wretchedness	-12.2596
▁Kyle	-12.2596
▁Zenobia	-12.2596
▁defensive	-12.2597
▁Carlton	-12.2598
▁Follow	-12.2599
▁bolted	-12.2599
▁gratefully	-12.2599
!_	-12.2599
▁petition	-12.26
▁MIN	-12.2602
▁spun	-12.2602
▁backing	-12.2605
▁persuasion	-12.2606
▁accidental	-12.2606
▁vegetable	-12.2607
▁CHILD	-12.2608
▁divers	-12.2614
▁hurting	-12.2614
▁richer	-12.2614
▁writ	-12.262
▁MOORE	-12.2621
always	-12.2622
JENNY	-12.2622
▁Cambridge	-12.2623
▁SOMERSET	-12.2623
▁PAYTON	-12.2623
▁perspiration	-12.2623
▁quickened	-12.2623
▁livid	-12.2624
▁Anti	-12.2624
mo	-12.2625
▁exposure	-12.2625
▁DICK	-12.2631
▁misty	-12.2633
▁curate	-12.2633
▁slab	-12.2635
▁LEOPOLD	-12.2635
▁Sundays	-12.2639
▁convictions	-12.2643
▁congratulations	-12.2643
▁Powers	-12.2645
▁beseech	-12.2646
▁associations	-12.2647
JULES	-12.265
Right	-12.2651
▁Treves	-12.2652
▁hostility	-12.2652
▁BROOKS	-12.2652
▁discoveries	-12.2652
▁dunno	-12.2653
▁Dalgard	-12.2654
▁announcing	-12.2654
▁GREAT	-12.2655
▁Eugenie	-12.2655
▁mend	-12.2663
UARE	-12.2666
▁XX	-12.2668
▁GOOD	-12.267
▁Summer	-12.2671
▁binding	-12.2672
▁Allah	-12.2674
▁chips	-12.2678
▁layer	-12.2678
▁contradict	-12.2679
▁sneak	-12.2679
KALE	-12.268
▁Warren	-12.2681
▁unhappiness	-12.2681
▁needless	-12.2683
▁intercom	-12.2683
▁Clarissa	-12.2685
▁SET	-12.2689
▁projects	-12.269
▁suggesting	-12.2695
▁sinner	-12.2695
▁mayhap	-12.2697
▁Beside	-12.2697
▁dated	-12.2699
▁elephants	-12.27
▁dick	-12.2702
▁impulses	-12.2705
▁silvery	-12.2706
▁fraud	-12.2707
▁Dunbar	-12.271
▁impossibility	-12.271
▁Xander	-12.271
▁replies	-12.271
▁appalling	-12.271
▁miserably	-12.2711
▁BUDDY	-12.2714
▁preaching	-12.2716
chamber	-12.2719
▁garrison	-12.272
▁rendering	-12.2721
▁pulpit	-12.2722
▁slack	-12.2722
▁mattered	-12.2722
▁Us	-12.2724
any	-12.2726
▁prints	-12.2727
▁clip	-12.2728
▁tenant	-12.2728
▁127	-12.2729
▁lookin	-12.273
▁grains	-12.2732
▁116	-12.2734
GANDHI	-12.274
▁Effingham	-12.274
▁cemetery	-12.274
▁Trinity	-12.274
▁Granite	-12.274
▁Neff	-12.274
▁hovered	-12.2741
UVIA	-12.2741
▁typing	-12.2741
▁Beneath	-12.2741
▁ROOF	-12.2741
▁scruples	-12.2741
▁garb	-12.2742
▁wretches	-12.2742
▁Bourne	-12.2742
▁Forgive	-12.2743
▁DESK	-12.2743
▁Carthage	-12.2744
▁guarantee	-12.2744
▁drowning	-12.2746
▁whale	-12.2748
▁connect	-12.2749
▁Roby	-12.2751
▁inscription	-12.2752
control	-12.2752
▁emperor	-12.2752
▁olive	-12.2752
▁cottages	-12.2753
▁orchard	-12.2755
▁heartless	-12.2755
▁threads	-12.276
▁junk	-12.276
▁observer	-12.2761
▁dont	-12.2763
▁closest	-12.2765
rville	-12.2767
▁Butch	-12.2768
▁conceit	-12.2769
HAROLD	-12.2769
Something	-12.2769
▁alternately	-12.277
▁fragrant	-12.277
Old	-12.2771
▁fondness	-12.2772
▁organized	-12.2773
▁imitate	-12.2775
▁sooth	-12.2778
know	-12.2778
▁carpenter	-12.2781
▁creed	-12.2782
▁balanced	-12.2782
▁imagining	-12.2783
▁musing	-12.2786
▁Walk	-12.2787
▁shaded	-12.2789
▁wrongs	-12.279
▁strap	-12.2796
▁indebted	-12.2798
▁lining	-12.2798
▁Cadillac	-12.2798
▁deliverance	-12.2799
▁obliging	-12.2799
Master	-12.2799
▁strapped	-12.2799
▁daybreak	-12.28
▁Constance	-12.28
▁Revision	-12.2802
▁Valerie	-12.2802
▁peeping	-12.2803
▁clapping	-12.2803
▁Arbaces	-12.2804
▁banging	-12.2804
▁WIN	-12.2806
▁costly	-12.2807
▁grating	-12.2809
▁partition	-12.2811
▁publication	-12.2812
▁accommodation	-12.2813
much	-12.2818
▁di	-12.282
▁artillery	-12.2828
▁hooks	-12.2828
▁resembling	-12.2828
▁serenity	-12.2828
▁unfamiliar	-12.2828
▁eccentric	-12.2829
▁loosened	-12.2829
▁discarded	-12.2829
▁Roy	-12.2829
▁cheated	-12.283
▁overlooked	-12.2833
▁BLOOM	-12.2834
▁Tess	-12.2835
▁Hurry	-12.2836
▁rung	-12.2837
▁stark	-12.284
▁corruption	-12.2841
▁defending	-12.2842
▁heroine	-12.2843
▁trod	-12.2846
▁Read	-12.2847
▁hardest	-12.2847
▁stormy	-12.2848
▁OCEAN	-12.2854
▁needles	-12.2854
▁locking	-12.2855
VO	-12.2857
▁pumps	-12.2857
▁charitable	-12.2858
▁STANDARD	-12.2858
▁flags	-12.286
▁LIFE	-12.2861
▁alight	-12.2862
▁shoved	-12.2864
▁FINN	-12.2865
▁steer	-12.2867
▁traveled	-12.2867
_!	-12.287
▁AL	-12.2874
▁tenants	-12.2875
hall	-12.2875
▁gin	-12.2876
coat	-12.2878
▁STEPHANIE	-12.2883
▁languid	-12.2886
▁abundant	-12.2887
▁Fitzgerald	-12.2888
▁jagged	-12.2888
▁Willoughby	-12.2888
▁Ferguson	-12.2888
▁corresponding	-12.2889
▁righteous	-12.289
▁MACHINE	-12.289
▁freezing	-12.289
▁Hortense	-12.2891
▁faintest	-12.2892
▁Behold	-12.2894
▁tempt	-12.2894
▁scissors	-12.2895
▁Goodbye	-12.2896
per	-12.2897
▁lasting	-12.2898
▁infancy	-12.2899
▁gifted	-12.29
▁Manon	-12.29
▁KIDS	-12.2902
▁straightens	-12.2903
▁Way	-12.2907
▁martial	-12.2908
▁Anya	-12.291
ya	-12.2914
▁tires	-12.2916
▁compel	-12.2917
▁victorious	-12.2917
▁HAROLD	-12.2917
▁Psammead	-12.2917
▁Suzie	-12.2917
▁Tuvia	-12.2917
▁impudent	-12.2917
▁absurdity	-12.2918
▁favorable	-12.2918
▁conversing	-12.2918
▁slippery	-12.2918
LLOYD	-12.2918
▁MILLS	-12.2918
▁HAWK	-12.2919
▁Thorvald	-12.2919
▁confidently	-12.292
▁operating	-12.2921
▁Lucius	-12.2922
LISA	-12.2923
▁Thought	-12.2923
▁flooded	-12.2924
▁airy	-12.2926
▁Madge	-12.2928
▁Venus	-12.2929
▁Hooker	-12.293
▁narrowly	-12.293
▁6.7	-12.2931
▁extravagance	-12.2931
▁Spring	-12.2932
▁correspondent	-12.2932
▁praises	-12.2932
▁location	-12.2932
▁adore	-12.2933
akr	-12.2934
▁yea	-12.2935
▁FRANCIS	-12.2937
▁boom	-12.2947
▁adversary	-12.2947
▁Whereupon	-12.2948
▁Denman	-12.2949
▁diverted	-12.2949
▁memorable	-12.2949
▁envied	-12.2949
▁robot	-12.2952
▁inhuman	-12.2953
▁Middle	-12.2953
▁suspiciously	-12.2954
▁chop	-12.296
▁diversion	-12.2962
ground	-12.2962
▁Grandma	-12.2966
▁portraits	-12.2967
▁Bones	-12.2968
▁orchestra	-12.297
EL	-12.2974
▁improper	-12.2977
▁Gringoire	-12.2977
▁Sherman	-12.2977
▁dipped	-12.2978
▁WARDEN	-12.2978
SIDNEY	-12.2979
▁gilded	-12.298
▁dump	-12.298
▁Rex	-12.2982
▁VERY	-12.2983
▁JULIAN	-12.2983
UICK	-12.2987
▁streaks	-12.2988
▁sarcasm	-12.2992
▁tug	-12.2992
▁TESS	-12.2994
▁tackle	-12.2997
▁loop	-12.2999
▁jack	-12.2999
▁sleek	-12.3007
▁Suzy	-12.3007
JAMAL	-12.3008
▁Pedgift	-12.3009
▁dashes	-12.3009
DONNIE	-12.3009
▁Tamara	-12.301
STEVEN	-12.301
▁Kroll	-12.301
Nobody	-12.3011
▁gaunt	-12.3011
▁colonists	-12.3012
▁cakes	-12.3012
▁Whilst	-12.3012
skin	-12.3014
▁pools	-12.3014
▁shuddering	-12.3016
▁corpses	-12.3018
▁lens	-12.3018
SUE	-12.302
os	-12.3021
▁fugitive	-12.3022
ler	-12.3023
▁solar	-12.3026
▁richest	-12.3029
▁pillows	-12.3033
▁Girls	-12.3034
▁dizzy	-12.3034
seeing	-12.3035
▁Vaughn	-12.3038
▁isolation	-12.3038
▁mihi	-12.3038
▁Rand	-12.3038
▁Talley	-12.3038
▁ELINOR	-12.3038
▁annual	-12.3038
▁chooses	-12.3039
▁parks	-12.3039
▁CLAR	-12.3039
▁tibi	-12.3039
▁SEA	-12.3039
▁Romans	-12.304
▁hissing	-12.3042
▁corral	-12.3052
▁excellence	-12.3052
▁Coombe	-12.3054
▁role	-12.3056
▁honored	-12.3057
▁mines	-12.3062
]_	-12.3065
▁decisive	-12.3067
▁whirls	-12.3067
▁stab	-12.3067
▁deputy	-12.3068
▁gallows	-12.3068
▁Nantz	-12.3068
▁deepened	-12.3069
▁DADDY	-12.3069
▁Pendleton	-12.3069
puppy	-12.3071
▁Hercules	-12.3071
▁knowest	-12.3071
▁finely	-12.3073
▁slung	-12.3073
▁STARL	-12.3073
▁bothered	-12.3074
▁investigate	-12.3074
▁Wouldn	-12.3075
▁levels	-12.3075
▁livery	-12.3076
▁117	-12.3077
▁sickly	-12.3082
▁enquire	-12.3085
▁contradiction	-12.3087
▁Yea	-12.3087
▁LYNN	-12.3088
sar	-12.3088
▁issues	-12.3088
▁pitcher	-12.309
▁RING	-12.309
uiet	-12.3097
▁nobles	-12.3097
▁Lutha	-12.3098
▁competition	-12.3098
▁surveillance	-12.3098
UIN	-12.3099
▁straightened	-12.31
▁SUNSET	-12.3101
▁canopy	-12.3101
▁caressing	-12.3101
▁Connie	-12.3102
▁Asia	-12.3104
▁growling	-12.3105
▁Burnett	-12.3105
▁import	-12.3105
▁Mamma	-12.3105
▁assuring	-12.3107
▁complaining	-12.3108
▁Wentworth	-12.3111
▁tout	-12.3113
▁politician	-12.3114
▁prose	-12.3115
▁colleagues	-12.3124
▁Mitchell	-12.3125
▁TOWARD	-12.3126
▁comprehension	-12.3129
▁cramped	-12.3129
▁Woodman	-12.313
▁Marion	-12.3131
▁Canalis	-12.3131
▁blindness	-12.3132
▁sunken	-12.3132
▁noblest	-12.3133
▁Juan	-12.3134
▁Ham	-12.3135
▁adjusted	-12.3135
▁neighboring	-12.3136
▁Yo	-12.3139
▁Children	-12.314
▁tenth	-12.3143
▁astray	-12.3144
der	-12.3144
▁ham	-12.3144
▁whiteness	-12.3148
▁Absolutely	-12.3152
▁gratify	-12.3156
▁5.	-12.3158
▁patent	-12.3159
▁Murdstone	-12.3159
▁Frankland	-12.3161
▁identified	-12.3162
▁Coralie	-12.3163
indeed	-12.3163
▁tests	-12.3165
LA	-12.3166
▁Jeeves	-12.3166
▁telegraph	-12.3166
▁betraying	-12.3169
ave	-12.3173
▁deceit	-12.3175
▁galley	-12.3178
▁complaints	-12.3178
[	-12.3183
▁BETH	-12.3186
▁risks	-12.3187
▁Greeks	-12.3189
▁rural	-12.319
Roget	-12.319
▁Swiss	-12.3192
▁Forsythe	-12.3193
▁singer	-12.3193
▁fortitude	-12.3193
▁shrubs	-12.3194
▁sacrifices	-12.3194
AGENT	-12.3194
▁delusion	-12.3195
vous	-12.3195
▁sentry	-12.3196
▁CHILDREN	-12.3199
VICK	-12.3199
▁chuckle	-12.32
▁comb	-12.3201
Still	-12.3202
▁CIA	-12.3203
▁spine	-12.3205
▁prick	-12.3205
▁cocks	-12.3208
▁bass	-12.3208
▁speedy	-12.3213
▁Director	-12.3213
▁suppress	-12.3217
▁Treasury	-12.3221
▁presumption	-12.3221
▁crouches	-12.3221
▁portable	-12.3222
▁quitting	-12.3222
▁WAREHOUSE	-12.3222
▁180	-12.3224
vist	-12.3224
PRECIOUS	-12.3224
▁ACTION	-12.3224
▁jeans	-12.3225
▁yawning	-12.3226
Ready	-12.3226
[...]
