<unk>	0
<s>	0
</s>	0
,	-3.06832
▁the	-3.27955
.	-3.37473
▁to	-3.9085
▁and	-3.90854
▁of	-3.94476
▁a	-4.13951
▁I	-4.46475
▁**	-4.46864
▁in	-4.50837
▁.	-4.51092
'	-4.53244
▁	-4.70465
s	-4.71112
▁that	-4.75235
▁"	-4.80862
▁was	-4.82955
▁he	-4.88082
▁his	-4.90105
▁it	-4.90262
▁you	-4.93756
▁her	-5.06531
▁with	-5.15119
▁had	-5.2141
▁'	-5.21891
▁as	-5.2735
▁is	-5.27374
▁for	-5.27676
;	-5.31298
▁,	-5.35752
▁on	-5.39384
▁at	-5.41293
▁not	-5.4359
-	-5.4748
▁be	-5.49415
▁him	-5.51548
▁she	-5.52258
**	-5.62729
▁have	-5.66611
▁The	-5.66979
▁me	-5.71649
▁my	-5.78167
--	-5.82263
t	-5.83565
▁but	-5.84324
."	-5.85365
▁from	-5.85673
▁He	-5.86072
▁this	-5.88645
▁all	-5.90224
▁by	-5.90597
▁which	-5.96363
▁said	-5.98495
▁so	-6.05798
▁they	-6.06179
?	-6.06823
▁out	-6.10922
▁up	-6.11522
▁were	-6.11757
▁one	-6.1385
,"	-6.13851
▁-	-6.15737
▁would	-6.17531
!	-6.18705
▁are	-6.19656
▁(	-6.20419
▁an	-6.21507
▁we	-6.25271
▁been	-6.28333
▁them	-6.28916
▁no	-6.30502
▁there	-6.35653
I	-6.36311
▁or	-6.36707
▁into	-6.38469
▁what	-6.38652
▁do	-6.42264
▁your	-6.42889
▁who	-6.43138
▁their	-6.43371
▁if	-6.44661
▁s	-6.44667
▁It	-6.46463
▁She	-6.47132
▁will	-6.50186
▁when	-6.51687
▁could	-6.51706
▁man	-6.56329
▁And	-6.57707
▁know	-6.58071
▁like	-6.58939
▁more	-6.59343
▁can	-6.59633
:	-6.60971
?"	-6.61794
▁now	-6.62236
▁about	-6.63888
▁But	-6.6398
▁down	-6.70194
▁very	-6.71414
▁?	-6.72397
▁then	-6.73308
▁back	-6.74622
▁...	-6.75635
▁see	-6.76108
▁You	-6.76212
▁time	-6.76863
▁some	-6.77481
▁over	-6.78087
▁A	-6.78093
▁did	-6.78853
▁little	-6.81013
▁has	-6.84356
▁Mr	-6.8686
▁than	-6.87216
▁any	-6.89802
)	-6.91157
▁other	-6.91495
▁should	-6.94376
▁go	-6.95176
▁upon	-6.9895
▁only	-6.99706
▁_	-6.99804
▁before	-7.02381
▁come	-7.04536
▁think	-7.05254
▁don	-7.06027
!"	-7.06477
▁--	-7.06562
▁good	-7.0682
▁two	-7.07833
▁way	-7.08395
▁made	-7.08809
▁us	-7.09511
▁never	-7.10236
▁much	-7.10492
▁here	-7.10548
▁just	-7.11422
▁again	-7.11586
▁say	-7.1227
▁himself	-7.12404
▁****	-7.13221
▁must	-7.14756
▁They	-7.15164
▁own	-7.15206
▁such	-7.15229
▁t	-7.15639
▁our	-7.15999
d	-7.16067
▁through	-7.19234
▁away	-7.19331
▁eyes	-7.20705
▁off	-7.21153
▁old	-7.22886
▁too	-7.23049
▁get	-7.23441
▁hand	-7.23739
▁might	-7.24649
▁after	-7.26283
▁)	-7.26841
▁first	-7.27009
▁well	-7.27677
▁am	-7.28854
▁great	-7.28996
S	-7.29363
▁came	-7.29793
▁What	-7.30038
▁make	-7.30096
▁We	-7.30355
▁!	-7.30534
▁face	-7.30935
▁long	-7.31558
m	-7.32351
▁thought	-7.32993
▁door	-7.33984
ll	-7.35244
▁still	-7.35279
▁where	-7.3574
▁how	-7.35902
▁right	-7.36285
▁head	-7.38036
▁day	-7.39269
▁its	-7.40466
▁life	-7.40945
▁even	-7.42989
▁There	-7.44143
▁take	-7.44168
▁these	-7.44423
▁look	-7.44796
▁went	-7.4535
▁may	-7.45971
▁men	-7.46277
▁going	-7.46976
’	-7.47334
▁got	-7.47528
▁last	-7.47571
▁room	-7.47815
re	-7.48173
▁In	-7.49093
▁shall	-7.50895
▁Mrs	-7.51204
▁without	-7.52054
▁being	-7.53206
▁nothing	-7.54098
▁tell	-7.54671
▁:	-7.56775
a	-7.57269
_	-7.5732
▁something	-7.58729
ing	-7.59321
▁THE	-7.59398
▁house	-7.59559
e	-7.59602
▁those	-7.6085
▁ever	-7.61494
▁want	-7.62042
▁moment	-7.62451
▁That	-7.63209
...	-7.63376
▁looks	-7.63468
▁INT	-7.64302
▁another	-7.64675
▁This	-7.64863
▁young	-7.64997
▁people	-7.65585
▁thing	-7.6567
▁Then	-7.6635
▁“	-7.66777
▁yet	-7.6694
▁love	-7.67249
▁S	-7.67477
▁though	-7.67582
▁place	-7.6774
▁while	-7.69646
▁left	-7.69747
▁mind	-7.69751
▁[	-7.70696
▁As	-7.70874
▁No	-7.71015
▁saw	-7.71269
and	-7.71426
▁most	-7.71529
▁once	-7.71999
▁every	-7.73344
▁things	-7.74342
▁night	-7.74348
▁found	-7.74713
▁woman	-7.74861
▁knew	-7.75746
▁put	-7.75932
▁same	-7.76307
▁father	-7.76858
▁looked	-7.76902
▁under	-7.77617
▁hands	-7.77868
▁give	-7.80263
▁around	-7.80309
▁world	-7.80498
▁against	-7.80598
▁always	-7.81375
▁let	-7.81427
You	-7.81515
▁many	-7.82397
▁side	-7.82904
▁seemed	-7.83149
▁herself	-7.83495
▁If	-7.83984
▁told	-7.8415
▁******	-7.84385
ve	-7.84947
▁took	-7.85444
▁heart	-7.86213
▁better	-7.86461
▁re	-7.86554
▁heard	-7.86951
▁done	-7.87506
▁His	-7.87522
▁DAY	-7.88919
▁asked	-7.89195
▁mother	-7.90572
▁three	-7.9115
▁enough	-7.91297
▁find	-7.92002
▁course	-7.93019
▁work	-7.95005
▁home	-7.95153
▁When	-7.95416
▁because	-7.9543
▁seen	-7.96859
▁quite	-7.97731
▁looking	-7.97832
▁far	-7.98046
▁few	-7.98166
▁light	-7.99323
▁behind	-7.99388
▁between	-7.99696
ed	-8.00082
▁So	-8.01222
▁half	-8.01551
n	-8.01576
▁girl	-8.01589
▁each	-8.0182
▁myself	-8.02475
▁new	-8.03135
▁m	-8.03171
▁anything	-8.03586
▁voice	-8.04118
▁open	-8.04133
▁felt	-8.04224
▁almost	-8.04353
▁years	-8.04428
)**	-8.05625
y	-8.05749
▁friend	-8.06976
▁end	-8.08274
▁name	-8.08632
▁TO	-8.08994
▁both	-8.09407
,--	-8.10479
▁sure	-8.10671
▁word	-8.10725
▁words	-8.11287
▁NIGHT	-8.11326
▁turned	-8.11577
▁next	-8.11789
▁having	-8.12504
▁Miss	-8.12578
▁At	-8.1261
▁EXT	-8.12976
▁part	-8.13732
▁mean	-8.13903
▁whole	-8.14518
It	-8.14702
▁For	-8.14892
▁)**	-8.14904
▁hear	-8.15064
▁money	-8.17861
A	-8.1788
▁soon	-8.18032
▁morning	-8.18074
▁whom	-8.18559
▁wife	-8.18811
▁gone	-8.18921
▁matter	-8.19041
in	-8.1917
▁really	-8.19197
▁water	-8.2018
▁dear	-8.20459
▁also	-8.21811
▁O	-8.21911
▁God	-8.22042
▁Oh	-8.23636
▁believe	-8.23891
"	-8.23988
The	-8.24202
▁together	-8.24473
the	-8.24692
▁To	-8.24748
▁began	-8.25167
▁set	-8.25177
▁gave	-8.25513
▁stood	-8.25583
▁round	-8.25733
/	-8.25758
ly	-8.25803
▁small	-8.26069
▁does	-8.26171
▁Now	-8.26788
▁How	-8.28057
▁kind	-8.28268
▁days	-8.28469
▁leave	-8.29321
▁feet	-8.29406
▁didn	-8.29514
▁air	-8.29539
▁poor	-8.29561
▁keep	-8.29578
▁called	-8.29602
▁why	-8.29636
▁sir	-8.29958
▁turns	-8.30622
▁white	-8.30881
▁since	-8.30961
What	-8.31513
▁table	-8.32118
▁alone	-8.32402
▁best	-8.33176
▁Lady	-8.33282
r	-8.33377
▁coming	-8.33458
▁help	-8.33524
er	-8.33692
▁brought	-8.34247
▁D	-8.34637
But	-8.35099
And	-8.35115
▁full	-8.35258
▁My	-8.35435
▁rather	-8.35535
▁across	-8.35669
▁Sir	-8.35672
▁call	-8.36056
▁window	-8.36358
▁taken	-8.37226
▁**(	-8.37429
▁along	-8.37664
▁toward	-8.38036
▁boy	-8.38118
▁bed	-8.38221
▁need	-8.38337
▁speak	-8.38904
▁till	-8.39457
▁All	-8.39857
▁feel	-8.40186
▁.**	-8.40291
▁talk	-8.4033
](/	-8.40604
▁until	-8.40871
▁de	-8.41137
▁hope	-8.41193
Oh	-8.41472
▁front	-8.41635
▁cried	-8.42261
▁black	-8.42524
▁towards	-8.42709
▁dead	-8.4298
▁comes	-8.43253
▁lady	-8.43285
Yes	-8.43342
▁sat	-8.43482
▁Well	-8.43767
▁child	-8.43831
▁car	-8.43945
▁Her	-8.44502
▁nor	-8.44977
▁already	-8.44996
▁Why	-8.45068
▁hard	-8.45535
▁high	-8.4632
▁among	-8.46556
▁won	-8.46719
▁perhaps	-8.46738
that	-8.46874
▁indeed	-8.47112
▁answered	-8.47327
▁replied	-8.47382
No	-8.47757
o	-8.47989
▁fire	-8.48023
▁present	-8.48784
▁understand	-8.48958
▁Lord	-8.49391
▁less	-8.50282
▁body	-8.50637
▁least	-8.51409
▁dark	-8.51574
▁passed	-8.51608
▁others	-8.5193
▁turn	-8.52203
▁above	-8.52271
▁On	-8.52446
▁near	-8.52512
▁takes	-8.52579
▁cannot	-8.52623
▁letter	-8.52714
▁else	-8.52765
▁son	-8.52988
▁ask	-8.53242
▁doing	-8.53799
▁everything	-8.54314
but	-8.54608
▁care	-8.54898
▁wish	-8.5499
▁close	-8.55174
▁arm	-8.5563
▁answer	-8.55894
▁ground	-8.5594
▁death	-8.56225
▁suddenly	-8.56518
▁whose	-8.56578
D	-8.57179
▁hour	-8.5741
▁true	-8.57518
▁One	-8.5766
▁given	-8.57886
Well	-8.5812
▁question	-8.58256
▁thou	-8.583
to	-8.58649
▁large	-8.58668
▁case	-8.59048
▁country	-8.59281
▁rest	-8.59378
▁however	-8.59494
▁goes	-8.59565
▁point	-8.59592
▁family	-8.59597
▁arms	-8.59928
▁big	-8.6006
▁floor	-8.60311
▁With	-8.60437
▁d	-8.60624
▁friends	-8.60707
▁children	-8.61197
▁brother	-8.61234
?'	-8.61315
▁second	-8.61331
▁lost	-8.61466
▁ll	-8.61592
▁read	-8.62097
▁John	-8.62253
▁live	-8.62273
▁business	-8.62479
▁past	-8.62722
▁themselves	-8.62899
▁sound	-8.62954
O	-8.63097
He	-8.63103
▁lay	-8.63147
▁certain	-8.63565
▁making	-8.63643
▁ON	-8.63671
▁short	-8.64353
▁Yes	-8.64962
▁known	-8.65328
▁women	-8.65369
▁used	-8.65578
▁hair	-8.65585
▁*	-8.6572
▁fact	-8.65792
▁husband	-8.65803
▁OF	-8.66159
i	-8.66519
▁sort	-8.66551
▁evening	-8.66629
▁use	-8.67043
--"	-8.67203
▁wall	-8.67395
.”	-8.67583
▁power	-8.67859
▁o	-8.67868
▁doubt	-8.68003
▁says	-8.68072
▁idea	-8.6937
▁wanted	-8.69678
▁four	-8.69723
▁ready	-8.69818
▁fear	-8.70304
▁eye	-8.70512
▁truth	-8.70519
._	-8.70968
▁hundred	-8.71028
▁within	-8.71362
▁manner	-8.7176
INT	-8.7202
▁whether	-8.72189
▁Don	-8.72314
▁person	-8.73519
▁means	-8.73755
▁held	-8.74017
▁hold	-8.7409
▁doesn	-8.74745
▁either	-8.74861
▁yourself	-8.7488
▁forward	-8.74935
▁show	-8.74957
▁reason	-8.7498
▁smile	-8.7537
▁become	-8.75412
▁sight	-8.75466
▁taking	-8.7552
▁happy	-8.75585
▁itself	-8.7584
it	-8.76092
▁often	-8.76192
▁run	-8.76266
▁returned	-8.7661
▁times	-8.77217
▁spoke	-8.77369
▁order	-8.77497
▁slowly	-8.77634
▁town	-8.77679
▁year	-8.77781
▁kept	-8.77788
▁Do	-8.7792
▁five	-8.78276
▁standing	-8.78446
▁bad	-8.78491
▁possible	-8.78603
▁silence	-8.7868
▁suppose	-8.79198
▁walk	-8.79238
▁stand	-8.79556
▁feeling	-8.79654
▁steps	-8.79677
▁Not	-8.79971
▁walks	-8.80151
▁sent	-8.80201
▁strange	-8.80527
▁pretty	-8.80801
▁blood	-8.81038
▁Let	-8.81163
▁able	-8.81172
▁saying	-8.81236
▁red	-8.81325
▁return	-8.81616
▁Of	-8.82084
▁fell	-8.82529
▁sense	-8.82654
▁remember	-8.82889
▁fine	-8.82911
▁longer	-8.82961
▁M	-8.83202
▁fellow	-8.83246
▁trying	-8.83387
That	-8.83404
▁CONTINUED	-8.83471
▁sea	-8.83484
▁street	-8.83637
▁happened	-8.83658
▁ten	-8.84408
▁sitting	-8.84532
▁sister	-8.84592
▁daughter	-8.84736
▁bring	-8.84986
,”	-8.85286
▁thinking	-8.85307
▁After	-8.85973
▁beautiful	-8.8626
▁chair	-8.86284
▁mine	-8.86765
h	-8.86987
▁thy	-8.87022
▁getting	-8.87047
▁followed	-8.87299
▁mouth	-8.87526
▁wrong	-8.87886
▁thee	-8.87982
▁became	-8.88022
▁low	-8.89052
▁AND	-8.89191
▁thus	-8.89321
▁deep	-8.8937
▁thousand	-8.89508
▁CONT	-8.89643
you	-8.898
▁gentleman	-8.8983
▁nature	-8.90039
▁talking	-8.90508
▁story	-8.90876
▁soul	-8.91006
▁V	-8.9115
▁stands	-8.91244
▁cold	-8.91264
▁ve	-8.91451
▁strong	-8.9147
▁seems	-8.91627
▁meet	-8.91799
l	-8.92356
▁road	-8.92499
▁Tom	-8.92509
▁late	-8.9276
▁earth	-8.92905
▁clear	-8.93173
▁pulls	-8.93303
▁real	-8.93451
▁living	-8.93556
▁sits	-8.93867
▁appeared	-8.94232
▁ought	-8.94807
▁makes	-8.95072
▁line	-8.95243
▁different	-8.95244
▁try	-8.95477
▁human	-8.95637
▁afraid	-8.95687
▁hours	-8.95691
▁gets	-8.95861
▁watch	-8.9648
▁several	-8.96584
We	-8.96649
▁ROOM	-8.96668
▁inside	-8.96704
▁met	-8.97086
▁continued	-8.97139
▁/	-8.97276
▁waiting	-8.97304
as	-8.97546
▁move	-8.97707
▁free	-8.97737
▁tried	-8.97922
Why	-8.98035
▁sorry	-8.98257
he	-8.98346
▁play	-8.98377
▁sun	-8.98423
▁rose	-8.98477
▁position	-8.98499
▁stop	-8.98733
▁cut	-8.99046
▁starts	-8.99182
▁sit	-8.99305
▁chance	-8.99339
▁master	-8.99425
es	-8.9946
▁beat	-8.99495
▁subject	-8.9959
▁Who	-8.99623
▁Here	-9.00298
▁lips	-9.00347
!'	-9.00646
▁minutes	-9.00908
▁stay	-9.00941
▁opened	-9.00993
▁quickly	-9.01051
▁twenty	-9.01567
▁change	-9.01626
E	-9.01698
▁beyond	-9.01701
▁therefore	-9.02077
▁sees	-9.02155
▁trouble	-9.0225
▁Yeah	-9.02369
▁corner	-9.02392
▁Where	-9.02555
▁horse	-9.02729
▁seem	-9.02986
▁CUT	-9.03069
▁outside	-9.03307
▁doctor	-9.03319
▁Just	-9.03463
▁glass	-9.0349
▁tears	-9.03722
▁state	-9.0381
▁foot	-9.04056
▁form	-9.04101
▁phone	-9.04105
▁walked	-9.04374
▁glad	-9.04621
▁book	-9.05144
▁please	-9.05319
▁Captain	-9.05611
▁isn	-9.05611
▁top	-9.05712
▁view	-9.05732
▁added	-9.0585
▁IN	-9.05886
▁sleep	-9.06263
▁further	-9.07032
▁paper	-9.07361
▁Jack	-9.07502
▁during	-9.07872
▁wind	-9.07936
If	-9.08273
▁knows	-9.08411
▁bit	-9.0849
▁Mary	-9.08765
▁seeing	-9.0881
▁ran	-9.09129
▁lot	-9.09191
▁London	-9.09317
▁interest	-9.09439
▁land	-9.09453
▁office	-9.09766
▁self	-9.10091
▁deal	-9.10095
▁dinner	-9.10116
▁CHAPTER	-9.1016
▁distance	-9.10485
▁ago	-9.10501
▁none	-9.10613
▁pass	-9.10975
]	-9.11009
▁certainly	-9.11071
▁hardly	-9.11341
▁ship	-9.1144
▁beside	-9.11546
▁King	-9.11694
▁wait	-9.11896
▁pay	-9.1241
▁reached	-9.1244
▁six	-9.12501
▁gun	-9.12549
▁C	-9.13119
▁quiet	-9.13136
▁figure	-9.13236
▁company	-9.13265
▁fall	-9.13321
;--	-9.13419
▁Come	-9.13571
▁ill	-9.13619
▁party	-9.13689
for	-9.13804
▁received	-9.13879
▁From	-9.1401
▁silent	-9.14136
▁sometimes	-9.1414
▁wouldn	-9.14371
▁married	-9.14643
▁entered	-9.14852
▁gonna	-9.15348
▁shot	-9.15732
▁shoulder	-9.15736
▁die	-9.15888
▁moves	-9.16023
▁attention	-9.16056
▁later	-9.16243
▁stopped	-9.16382
▁neither	-9.16645
▁pleasure	-9.16851
▁forth	-9.17125
There	-9.17182
▁loved	-9.17436
▁running	-9.17455
▁immediately	-9.18143
▁seat	-9.18194
▁easy	-9.18237
▁opens	-9.18301
▁caught	-9.18309
▁step	-9.18536
EXT	-9.18546
▁holding	-9.18801
▁heavy	-9.18913
▁blue	-9.19136
▁carried	-9.19185
room	-9.19326
▁week	-9.19421
▁start	-9.19441
▁led	-9.19443
My	-9.19855
▁B	-9.20143
▁watching	-9.20165
or	-9.20235
▁Dr	-9.20779
▁fair	-9.20885
▁school	-9.21024
▁bear	-9.21117
▁broken	-9.21426
▁By	-9.21474
▁English	-9.21483
▁An	-9.21556
▁account	-9.21622
▁city	-9.21704
▁T	-9.21748
▁tone	-9.22112
▁breath	-9.22507
▁number	-9.22655
▁below	-9.22721
▁thoughts	-9.2277
▁except	-9.22986
She	-9.23021
▁follow	-9.23037
▁smiles	-9.23143
▁conversation	-9.23453
▁cause	-9.23631
▁wild	-9.23978
▁straight	-9.24046
▁wonder	-9.24135
▁early	-9.24271
▁necessary	-9.24459
▁lived	-9.24579
▁age	-9.24647
▁girls	-9.24762
▁Your	-9.2477
▁couldn	-9.24983
▁remained	-9.25214
▁secret	-9.25467
T	-9.25601
▁spirit	-9.2562
▁character	-9.25696
▁moved	-9.25969
▁ye	-9.26014
▁save	-9.26052
▁laugh	-9.26192
em	-9.26322
Y	-9.26626
▁crowd	-9.26703
▁general	-9.27328
▁yes	-9.27366
▁leaving	-9.27595
▁minute	-9.27696
▁turning	-9.28437
▁marriage	-9.28559
▁trees	-9.28675
▁fast	-9.28731
How	-9.28825
▁stops	-9.29002
▁boat	-9.29215
▁probably	-9.29346
▁purpose	-9.29366
▁laid	-9.29549
▁sweet	-9.29593
▁presence	-9.29772
▁walking	-9.29795
▁following	-9.29845
▁length	-9.29849
▁neck	-9.3
▁George	-9.30193
▁war	-9.30983
is	-9.31364
c	-9.31374
▁started	-9.31528
▁sign	-9.31608
_,	-9.3164
▁sudden	-9.32155
▁heads	-9.32168
▁drew	-9.32176
▁months	-9.32431
▁future	-9.32491
▁meant	-9.32566
▁un	-9.32574
▁green	-9.32731
▁send	-9.33033
u	-9.33037
▁nearly	-9.33136
▁force	-9.3315
▁duty	-9.33171
▁fight	-9.33224
if	-9.33298
▁speaking	-9.33385
▁drink	-9.33495
▁piece	-9.33591
▁dog	-9.33707
▁P	-9.33768
▁write	-9.33885
▁gold	-9.33971
▁struck	-9.34031
C	-9.34173
▁expression	-9.3426
▁opinion	-9.34497
▁scene	-9.34537
▁hall	-9.34733
▁filled	-9.34851
ING	-9.34946
▁public	-9.35305
▁pocket	-9.35378
▁darkness	-9.35384
▁closed	-9.35399
▁desire	-9.35524
▁whatever	-9.35663
▁kill	-9.35999
▁king	-9.36021
day	-9.36089
▁St	-9.36108
▁impossible	-9.36161
▁HOUSE	-9.36287
▁hat	-9.36294
▁moving	-9.36432
▁natural	-9.3671
▁These	-9.36725
▁strength	-9.37248
▁effect	-9.37331
▁empty	-9.37578
▁laughed	-9.37738
▁Will	-9.37788
▁England	-9.38177
▁exclaimed	-9.38186
▁Good	-9.38456
▁SHOT	-9.38641
▁giving	-9.38731
▁dress	-9.38772
▁direction	-9.389
▁beginning	-9.38948
▁break	-9.39042
▁occasion	-9.39067
▁knowledge	-9.39068
▁church	-9.39089
CONT	-9.39548
ness	-9.39688
▁art	-9.39695
▁clothes	-9.3972
▁act	-9.39753
▁middle	-9.4029
▁begin	-9.40328
▁common	-9.40331
▁garden	-9.40466
▁service	-9.40507
▁wasn	-9.40777
▁cry	-9.41032
▁eat	-9.41115
▁pain	-9.4121
▁music	-9.41341
▁sky	-9.41367
▁usual	-9.41375
▁law	-9.41494
▁box	-9.41717
▁puts	-9.41766
▁onto	-9.41808
▁wide	-9.41868
▁marry	-9.41976
Do	-9.42114
▁Some	-9.42161
▁nice	-9.42242
▁bright	-9.42306
▁beauty	-9.42421
▁beneath	-9.42541
▁runs	-9.42574
▁gives	-9.42707
▁Are	-9.42789
▁begins	-9.42869
▁terrible	-9.43132
▁hot	-9.43275
▁note	-9.43462
man	-9.43463
▁fingers	-9.43684
▁single	-9.439
▁Can	-9.43968
▁news	-9.44147
R	-9.44165
▁stares	-9.44239
▁shut	-9.44286
th	-9.44315
▁Hey	-9.44394
▁afternoon	-9.4446
▁lord	-9.44545
▁2	-9.44761
▁died	-9.44924
▁tree	-9.45199
▁joy	-9.4524
▁object	-9.45482
▁instant	-9.45542
▁wished	-9.45758
▁visit	-9.45768
▁river	-9.4586
V	-9.4594
alphabetical	-9.45989
▁stone	-9.4611
▁captain	-9.4624
▁circumstances	-9.46288
▁Harry	-9.46327
▁desk	-9.46348
▁uncle	-9.46532
▁carry	-9.46662
g	-9.46793
▁grabs	-9.46815
▁creature	-9.46979
▁honour	-9.46991
▁expected	-9.47284
▁escape	-9.47351
▁holds	-9.4738
▁worse	-9.47398
▁touch	-9.4747
▁kitchen	-9.47485
▁reach	-9.47487
▁ladies	-9.47575
▁grew	-9.47782
en	-9.4797
▁picture	-9.48019
▁learned	-9.48147
▁Joe	-9.48161
▁raised	-9.48259
▁stairs	-9.48306
▁written	-9.48455
an	-9.48542
▁watches	-9.48679
▁lying	-9.48779
▁fortune	-9.4892
▁Look	-9.49396
▁space	-9.49468
Then	-9.49782
▁showed	-9.49785
▁soft	-9.49793
▁perfect	-9.49797
▁lie	-9.49947
▁boys	-9.49953
▁forget	-9.50026
▁guy	-9.50055
▁covered	-9.50064
▁angry	-9.5007
▁quick	-9.50156
▁food	-9.50216
▁exactly	-9.50226
▁worth	-9.50233
▁legs	-9.50233
▁youth	-9.50265
▁guess	-9.50295
▁broke	-9.50485
▁instead	-9.50637
▁edge	-9.50731
▁surprise	-9.50766
▁working	-9.50857
▁couple	-9.5123
▁sake	-9.51288
▁leaves	-9.51365
▁miles	-9.51409
▁walls	-9.51535
on	-9.51549
B	-9.51586
▁building	-9.51618
▁New	-9.51622
▁David	-9.51638
▁1	-9.51776
▁Yet	-9.51989
▁appearance	-9.52134
▁spoken	-9.52194
?”	-9.5224
▁safe	-9.52394
▁books	-9.52487
▁promise	-9.52547
▁trust	-9.52906
▁changed	-9.52922
▁nods	-9.53045
▁simply	-9.53569
▁rich	-9.53603
▁understood	-9.53691
▁reaches	-9.53799
_.	-9.53897
▁L	-9.53909
▁ears	-9.53969
▁ain	-9.54059
▁Did	-9.54067
▁danger	-9.54071
▁Man	-9.5411
Ah	-9.54297
▁placed	-9.54347
not	-9.54445
▁dressed	-9.54986
▁Two	-9.55021
They	-9.55277
▁aunt	-9.55374
▁shoulders	-9.55379
▁serious	-9.55505
▁notice	-9.5552
▁Madame	-9.55538
ED	-9.55564
▁game	-9.55644
▁hath	-9.55712
▁baby	-9.55847
▁finally	-9.55859
▁happiness	-9.56053
▁train	-9.56306
▁plain	-9.56386
morrow	-9.56455
!--	-9.56689
▁surprised	-9.5679
▁pale	-9.56885
N	-9.57036
▁reading	-9.57193
▁supposed	-9.57338
▁ear	-9.57411
▁shook	-9.57434
▁rock	-9.57462
▁spot	-9.57623
▁allowed	-9.57656
▁French	-9.57786
▁peace	-9.58565
▁enters	-9.58584
▁pleased	-9.586
▁glance	-9.58732
▁easily	-9.58874
▁hurt	-9.59137
▁places	-9.59317
▁lights	-9.5949
▁huge	-9.59528
▁knowing	-9.59726
▁haven	-9.59821
▁Even	-9.59822
▁drawing	-9.59938
▁killed	-9.59978
clock	-9.59983
▁remain	-9.60005
▁quietly	-9.60258
▁doors	-9.60272
▁reply	-9.60276
▁observed	-9.60434
▁particular	-9.60495
▁telling	-9.60851
▁third	-9.60941
▁Martin	-9.61147
▁journey	-9.61245
▁MAN	-9.61246
▁tea	-9.61265
at	-9.61292
▁nose	-9.6152
▁evil	-9.61577
),	-9.61621
▁Go	-9.61657
▁wants	-9.61747
▁Or	-9.61787
▁arrived	-9.61816
▁bound	-9.61836
.]	-9.6187
▁liked	-9.61882
▁gate	-9.61989
▁simple	-9.6215
▁expect	-9.62152
▁paid	-9.62277
▁situation	-9.62326
▁listen	-9.624
▁dream	-9.62451
▁enter	-9.62451
▁ahead	-9.62638
▁hell	-9.62654
▁Suddenly	-9.62678
▁private	-9.62712
▁fresh	-9.62747
▁lives	-9.62764
▁bag	-9.62909
▁talked	-9.62914
▁altogether	-9.63004
▁Peter	-9.63154
▁tries	-9.6323
▁wood	-9.63432
▁smiled	-9.63601
Not	-9.63671
▁flowers	-9.63746
▁Sam	-9.63865
like	-9.63931
▁servant	-9.63959
▁smiling	-9.64078
▁Frank	-9.64204
▁respect	-9.64239
▁sword	-9.6439
▁repeated	-9.64452
▁pleasant	-9.64687
▁appear	-9.64723
▁Dorothy	-9.64752
▁lead	-9.64772
▁rate	-9.64824
▁speech	-9.64885
▁staring	-9.64935
of	-9.64987
▁aware	-9.65044
▁coat	-9.65135
▁laughing	-9.65138
▁cousin	-9.65251
▁Paris	-9.65425
▁cast	-9.65481
▁fixed	-9.65677
▁blow	-9.65728
▁offer	-9.65879
▁bottom	-9.6588
▁meeting	-9.65969
she	-9.66169
▁believed	-9.66281
▁somewhat	-9.6635
▁although	-9.6639
no	-9.66392
▁letters	-9.66719
▁horses	-9.66782
▁Nothing	-9.66846
▁threw	-9.66965
▁happen	-9.67138
▁important	-9.67156
▁G	-9.67161
▁E	-9.67327
▁condition	-9.67389
▁perfectly	-9.6763
▁ANGLE	-9.67756
▁smoke	-9.67883
▁faces	-9.68081
▁declared	-9.68228
▁VOICE	-9.6823
▁passion	-9.68248
▁board	-9.68318
▁lose	-9.68322
▁cross	-9.68387
▁alive	-9.68413
▁points	-9.68427
▁village	-9.68549
▁action	-9.68698
▁entirely	-9.68921
ueen	-9.69037
▁unless	-9.69063
▁l	-9.69069
▁experience	-9.69114
▁wine	-9.69147
▁knees	-9.69215
▁passing	-9.69245
▁playing	-9.69352
▁learn	-9.69409
▁path	-9.69433
▁CLOSE	-9.69816
▁proper	-9.69851
▁dropped	-9.69874
▁pause	-9.69895
▁watched	-9.69982
▁spite	-9.7019
▁fool	-9.7055
▁stranger	-9.70565
▁heaven	-9.70587
▁Okay	-9.70594
▁anxious	-9.70748
▁seven	-9.70777
▁drive	-9.70855
▁aside	-9.70963
▁fit	-9.70969
▁opportunity	-9.70982
.)**	-9.70991
▁society	-9.71031
▁determined	-9.71062
▁windows	-9.71402
▁afterwards	-9.71588
▁lies	-9.71603
▁fallen	-9.71637
▁group	-9.71671
▁putting	-9.71682
▁Get	-9.71698
▁drawn	-9.71716
▁hit	-9.71724
p	-9.71807
▁memory	-9.71905
ers	-9.71917
Now	-9.71956
▁bar	-9.72038
▁appears	-9.72192
▁opening	-9.72196
▁teeth	-9.72299
▁grave	-9.72327
▁thick	-9.72417
genre	-9.72457
▁court	-9.72533
▁warm	-9.72566
▁someone	-9.72576
▁greater	-9.72699
▁waited	-9.72926
▁carefully	-9.73155
▁gentlemen	-9.73212
▁born	-9.73243
▁charge	-9.73292
▁dare	-9.73407
P	-9.73452
▁writing	-9.73487
▁noise	-9.73555
▁merely	-9.73561
▁history	-9.73743
what	-9.73783
▁sharp	-9.73802
▁opposite	-9.73822
▁difficulty	-9.7383
▁breakfast	-9.74204
▁wonderful	-9.74517
▁regard	-9.74541
▁J	-9.74568
This	-9.7459
▁kiss	-9.74618
▁field	-9.74698
▁nobody	-9.74996
▁likely	-9.75148
so	-9.75245
▁questions	-9.75257
▁Prince	-9.7529
▁tired	-9.75362
▁carrying	-9.75781
▁latter	-9.75781
▁hate	-9.7582
▁former	-9.7583
▁tall	-9.75976
▁screen	-9.75983
▁companion	-9.75985
▁sad	-9.76004
▁personal	-9.76033
▁finished	-9.76187
▁guys	-9.76258
▁stage	-9.76298
▁comfort	-9.76332
▁wrote	-9.76395
▁House	-9.7642
▁difficult	-9.76478
▁Their	-9.7648
▁thank	-9.76485
▁LATER	-9.7654
▁suit	-9.77157
▁Duke	-9.77356
▁rising	-9.7737
▁pair	-9.7742
▁fifty	-9.77503
▁discovered	-9.77555
▁sick	-9.77604
CUT	-9.77693
▁Only	-9.77709
▁mere	-9.77746
▁falls	-9.7779
we	-9.77819
▁K	-9.77831
▁actually	-9.78004
▁thrown	-9.78124
M	-9.78329
▁roof	-9.78337
▁pride	-9.7842
▁job	-9.78454
▁picks	-9.78455
▁obliged	-9.78456
In	-9.78547
▁summer	-9.78609
▁allow	-9.78617
▁eight	-9.78641
▁spent	-9.78665
▁honest	-9.78716
To	-9.78739
▁plan	-9.7874
▁proud	-9.78741
al	-9.78755
▁effort	-9.788
Don	-9.78902
▁settled	-9.79107
▁feelings	-9.79123
▁catch	-9.79137
▁attempt	-9.79242
▁carriage	-9.79318
est	-9.79338
▁noble	-9.79553
L	-9.79563
w	-9.79597
▁hung	-9.79613
▁promised	-9.79662
▁battle	-9.7969
▁BACK	-9.79773
▁thirty	-9.79791
▁various	-9.79827
▁considered	-9.79842
▁finger	-9.79844
▁scarcely	-9.79872
▁courage	-9.80107
▁Jesus	-9.80264
▁Charles	-9.80271
▁American	-9.80272
▁matters	-9.80351
▁Doctor	-9.80441
▁shadow	-9.80473
▁calm	-9.80483
▁weeks	-9.8057
▁loud	-9.80618
▁Street	-9.80643
▁guard	-9.80742
K	-9.80764
▁la	-9.8077
▁seated	-9.80826
▁narrow	-9.80838
!”	-9.80907
night	-9.80947
▁shit	-9.80957
▁offered	-9.80986
▁especially	-9.80999
▁remembered	-9.81019
CONTINUED	-9.81072
▁police	-9.81196
▁okay	-9.81319
▁mad	-9.81321
▁throat	-9.8139
▁month	-9.81674
▁CAMERA	-9.81752
▁asleep	-9.81774
▁tongue	-9.81933
▁surface	-9.81965
by	-9.82136
f	-9.82253
▁drop	-9.82401
▁touched	-9.8249
▁burst	-9.82506
▁control	-9.82508
▁Ah	-9.82515
▁pounds	-9.82583
▁hill	-9.82703
▁pity	-9.8277
▁gently	-9.82808
▁rain	-9.82828
▁apartment	-9.8295
▁faith	-9.82956
▁race	-9.83044
▁Master	-9.83056
▁ball	-9.83103
▁pull	-9.83142
▁wearing	-9.83163
▁Ralph	-9.83177
▁throw	-9.83273
▁forgotten	-9.83294
▁ring	-9.83297
So	-9.83358
G	-9.83418
▁anybody	-9.83455
▁forest	-9.83922
▁Our	-9.83942
▁station	-9.83989
▁CONTINUOUS	-9.84082
▁shop	-9.84092
▁terror	-9.84233
▁calling	-9.84425
▁bank	-9.8444
▁moon	-9.84515
▁whispered	-9.84518
▁snow	-9.84578
▁explain	-9.84646
▁mistress	-9.84723
▁drops	-9.84779
▁follows	-9.8479
▁prepared	-9.84904
▁judge	-9.85001
▁presently	-9.85051
▁everybody	-9.85098
▁F	-9.85351
▁lines	-9.85605
▁breast	-9.85621
▁Perhaps	-9.8565
▁Was	-9.85677
▁slow	-9.85707
▁Anne	-9.8576
▁coffee	-9.85833
▁Ben	-9.85857
▁iron	-9.85921
▁rise	-9.85985
▁thin	-9.86235
▁continues	-9.86392
▁Have	-9.86427
▁fancy	-9.86547
▁passage	-9.86651
▁closer	-9.86736
▁spring	-9.86786
▁brain	-9.8679
▁While	-9.86813
▁difference	-9.86815
▁stuff	-9.8688
am	-9.8704
▁decided	-9.87149
▁enemy	-9.87321
▁entrance	-9.87323
▁resolved	-9.87394
▁property	-9.87433
▁success	-9.87453
▁silver	-9.87661
▁yellow	-9.87817
▁chest	-9.87972
▁completely	-9.88017
▁Maybe	-9.88021
▁bottle	-9.88111
▁Before	-9.88124
▁ways	-9.88238
▁Like	-9.88254
▁fly	-9.88279
▁knife	-9.88528
▁chamber	-9.88531
▁keeping	-9.88536
▁confidence	-9.88745
▁conduct	-9.88934
▁shore	-9.88958
▁yours	-9.88971
▁anyone	-9.88994
▁unto	-9.89092
▁R	-9.89188
▁listening	-9.89265
▁Father	-9.89407
▁result	-9.89438
▁pulled	-9.89624
▁affair	-9.89646
▁language	-9.89776
▁class	-9.89777
▁special	-9.89887
▁command	-9.89935
▁CAR	-9.90027
▁anger	-9.90056
▁share	-9.90105
▁lower	-9.90449
▁ancient	-9.906
▁key	-9.90675
▁meaning	-9.91121
▁distant	-9.9115
▁Emily	-9.91186
▁forced	-9.91232
▁ourselves	-9.91332
▁engaged	-9.91383
▁hearing	-9.91442
▁intended	-9.91618
▁clean	-9.91627
")	-9.91765
▁spread	-9.91895
▁Lucy	-9.91929
▁gentle	-9.92052
?--	-9.92059
▁directly	-9.92152
▁listened	-9.92508
which	-9.92529
▁3	-9.92532
▁vain	-9.92672
▁grass	-9.92673
▁complete	-9.92699
H	-9.9273
▁maybe	-9.9291
▁dance	-9.92919
▁chief	-9.93
▁orders	-9.93032
▁fault	-9.93036
b	-9.93333
all	-9.93369
▁sounds	-9.93425
▁papers	-9.93546
▁glances	-9.93674
▁asking	-9.93696
▁broad	-9.93753
▁Had	-9.93907
▁dry	-9.93956
▁TV	-9.94068
▁shakes	-9.94079
us	-9.94094
▁busy	-9.94127
▁horror	-9.94298
▁Henry	-9.94329
▁camera	-9.94375
▁study	-9.9439
▁See	-9.94521
▁surely	-9.94538
▁twice	-9.94607
house	-9.94767
▁bedroom	-9.94796
▁growing	-9.94814
▁falling	-9.94892
▁finding	-9.94906
▁Paul	-9.95055
Come	-9.95119
Of	-9.95184
▁fucking	-9.95398
▁moments	-9.95469
▁Tell	-9.95469
▁Bill	-9.95472
▁deck	-9.95557
▁receive	-9.95625
▁bent	-9.95643
▁Dick	-9.95703
▁thinks	-9.9583
▁Such	-9.9585
▁slight	-9.95898
▁clearly	-9.95929
▁lover	-9.95932
▁taste	-9.96021
▁weight	-9.96058
▁worked	-9.96262
▁explained	-9.96349
▁wise	-9.96556
▁handsome	-9.96608
▁Jones	-9.96672
▁influence	-9.96726
▁consider	-9.96816
▁hole	-9.96824
▁weak	-9.9708
▁imagine	-9.97141
▁ride	-9.97293
▁post	-9.97304
▁curious	-9.97459
▁advice	-9.97473
Let	-9.97522
▁fate	-9.97522
▁**********	-9.97551
▁buy	-9.97675
▁due	-9.97675
▁familiar	-9.97745
▁devil	-9.97791
▁frightened	-9.98018
▁false	-9.98065
▁softly	-9.98075
▁Laura	-9.98376
▁faint	-9.98449
▁pieces	-9.98461
up	-9.98493
▁officer	-9.98593
▁greatest	-9.98613
▁island	-9.98681
F	-9.98848
▁noticed	-9.98915
▁brown	-9.98925
▁movement	-9.98946
▁servants	-9.9895
▁quarter	-9.99152
▁dust	-9.99152
▁satisfied	-9.99451
▁hanging	-9.99564
▁affairs	-9.99725
▁delight	-9.99865
▁somewhere	-9.99892
▁cover	-9.99973
with	-10.0001
▁shirt	-10.0017
▁Thus	-10.0028
▁failed	-10.0028
▁Colonel	-10.0037
▁Old	-10.0046
▁persons	-10.0048
▁mountain	-10.0063
▁slightly	-10.0064
▁twelve	-10.0066
▁attack	-10.0077
k	-10.0086
▁skin	-10.0089
▁streets	-10.0095
▁draw	-10.0118
▁paused	-10.013
▁UP	-10.0133
▁affection	-10.0136
▁loss	-10.015
▁speed	-10.0168
▁However	-10.0173
▁fashion	-10.0173
de	-10.018
▁spirits	-10.0199
▁Every	-10.0199
▁social	-10.02
▁justice	-10.0203
▁according	-10.0203
▁mirror	-10.0206
▁soldiers	-10.0238
▁ideas	-10.0243
▁search	-10.0256
▁formed	-10.0269
▁countenance	-10.0274
▁advantage	-10.0287
▁somebody	-10.0293
▁interested	-10.0315
▁Alice	-10.0316
▁lovely	-10.0317
▁health	-10.0318
▁absolutely	-10.0321
▁mistake	-10.0326
▁dozen	-10.0328
▁main	-10.0335
▁concerned	-10.034
▁equal	-10.0353
▁vast	-10.0357
▁wore	-10.0363
▁satisfaction	-10.0373
▁pointed	-10.0385
▁OFFICE	-10.0385
▁Monsieur	-10.0387
▁grown	-10.0396
▁message	-10.0402
▁grow	-10.0411
▁Mark	-10.0412
▁Thank	-10.0415
▁existence	-10.0416
▁cool	-10.0417
▁stream	-10.042
▁stick	-10.0424
▁degree	-10.0424
▁POV	-10.0431
▁Still	-10.0446
▁occurred	-10.0449
▁Polly	-10.0463
▁sooner	-10.0471
▁crying	-10.0482
▁Anna	-10.0483
▁APARTMENT	-10.0487
▁STREET	-10.0487
▁instantly	-10.0489
▁worst	-10.0495
▁yesterday	-10.0496
▁4	-10.05
▁doorway	-10.0505
▁entire	-10.0506
▁leading	-10.0511
▁flesh	-10.052
▁everyone	-10.0538
▁song	-10.0548
▁le	-10.0556
▁prove	-10.0569
▁suggested	-10.0586
▁otherwise	-10.0594
▁waves	-10.0596
▁machine	-10.0604
my	-10.0607
▁generally	-10.0609
▁throws	-10.0611
▁truly	-10.0617
▁played	-10.0646
▁dangerous	-10.0652
▁nearer	-10.0653
▁pick	-10.0655
▁bread	-10.0656
▁Another	-10.0671
▁shame	-10.0679
▁remarked	-10.0682
▁forehead	-10.0683
....	-10.0687
▁bare	-10.069
▁evidence	-10.0698
there	-10.0699
▁possession	-10.0701
▁besides	-10.0708
▁ordinary	-10.0719
▁expressed	-10.0722
▁saved	-10.0734
▁double	-10.0738
▁animal	-10.0739
▁shown	-10.074
▁welcome	-10.0757
▁weather	-10.0762
▁Great	-10.0767
▁mentioned	-10.0774
▁wear	-10.0778
▁tiny	-10.0794
▁Because	-10.0815
▁Christian	-10.0819
▁passes	-10.082
▁hidden	-10.0838
▁higher	-10.0838
Good	-10.0841
▁Would	-10.0842
▁houses	-10.0854
▁OUT	-10.0856
▁period	-10.086
▁Uncle	-10.086
▁hotel	-10.0863
▁pray	-10.0874
▁tender	-10.0877
▁lifted	-10.0877
▁mention	-10.0878
▁shaking	-10.0887
do	-10.0889
men	-10.0891
▁frame	-10.0901
▁cruel	-10.0904
▁White	-10.0904
▁conscious	-10.0907
▁N	-10.0911
▁approach	-10.092
THE	-10.0926
▁desired	-10.0931
▁Maggie	-10.0938
▁problem	-10.0938
▁Be	-10.0941
▁leg	-10.0944
▁sorrow	-10.0945
▁information	-10.0958
▁Billy	-10.0964
▁William	-10.0965
Who	-10.0966
▁pressed	-10.0981
▁events	-10.0988
▁kid	-10.1
▁army	-10.1004
▁5	-10.1009
▁hoped	-10.1015
▁grand	-10.1017
▁acquaintance	-10.102
▁works	-10.102
▁York	-10.1023
▁begun	-10.1029
▁worthy	-10.1035
▁shape	-10.1036
▁bridge	-10.1042
▁possibly	-10.1045
▁greatly	-10.1049
▁fond	-10.1049
▁nervous	-10.1053
▁relief	-10.1057
▁needed	-10.1058
▁cup	-10.106
▁Church	-10.1061
▁fuck	-10.1067
▁beg	-10.1068
▁crossed	-10.1069
▁accept	-10.1091
▁SCENE	-10.1093
▁forty	-10.1103
▁produced	-10.1104
▁Script	-10.1112
▁Sunday	-10.1117
▁storm	-10.1119
▁France	-10.1121
▁nine	-10.1122
▁blind	-10.1124
▁winter	-10.113
le	-10.1132
://	-10.1142
▁ease	-10.1145
▁ordered	-10.1154
▁support	-10.1168
▁perceived	-10.1187
▁sides	-10.1192
Mr	-10.1195
▁cries	-10.1204
▁despair	-10.1205
▁Adam	-10.1225
▁truck	-10.1229
▁bird	-10.1231
▁terms	-10.124
▁Chapter	-10.1241
▁rooms	-10.1251
▁kids	-10.1252
▁pure	-10.1254
▁dying	-10.1259
▁harm	-10.126
▁bore	-10.1261
▁Take	-10.127
▁Please	-10.127
▁unhappy	-10.1274
▁laughter	-10.1275
▁gaze	-10.1282
▁unable	-10.1289
▁grief	-10.129
▁caused	-10.1293
▁store	-10.1299
looking	-10.1306
▁impression	-10.1317
▁loose	-10.1323
▁Thomas	-10.1327
▁shouldn	-10.133
▁join	-10.133
tis	-10.1343
▁motion	-10.1351
▁apart	-10.1362
▁parts	-10.1367
▁rough	-10.1369
▁MRS	-10.1373
▁leans	-10.1378
▁Christ	-10.1388
▁possessed	-10.1396
▁excitement	-10.1404
▁burning	-10.1406
▁castle	-10.141
▁gotta	-10.141
▁golden	-10.142
▁Once	-10.1429
▁ha	-10.1429
▁friendship	-10.145
▁visible	-10.145
▁kissed	-10.145
▁level	-10.1459
▁dreadful	-10.1459
▁suffered	-10.1469
▁page	-10.1478
ER	-10.1478
▁names	-10.148
All	-10.1481
▁flat	-10.1488
▁hits	-10.149
▁n	-10.1495
▁excellent	-10.1499
▁sand	-10.15
▁taught	-10.1501
▁today	-10.1512
▁circle	-10.1514
▁showing	-10.1524
▁May	-10.1527
▁gathered	-10.1528
▁square	-10.1541
▁hide	-10.1565
▁Jim	-10.1578
▁willing	-10.1579
▁seized	-10.158
Is	-10.1584
▁final	-10.1595
▁corridor	-10.1597
▁fish	-10.1603
▁flying	-10.1603
▁continue	-10.1604
one	-10.1606
▁value	-10.1616
▁evidently	-10.1616
▁speaks	-10.1618
▁calls	-10.1631
▁birds	-10.1635
▁rage	-10.1637
▁unknown	-10.1641
▁driven	-10.1642
▁shadows	-10.1646
▁et	-10.165
▁HIS	-10.1654
they	-10.166
▁wound	-10.1661
▁camp	-10.1663
▁maid	-10.1667
▁regarded	-10.1668
▁ceased	-10.1672
▁bow	-10.1673
▁Thou	-10.1686
▁keeps	-10.1694
▁pardon	-10.1701
▁comfortable	-10.1702
▁cheek	-10.171
▁forgive	-10.1714
▁wondered	-10.172
▁awful	-10.1721
▁JACK	-10.1721
▁favour	-10.1724
▁metal	-10.1724
▁hurry	-10.1735
▁choice	-10.1743
st	-10.1744
▁check	-10.1745
▁seek	-10.1746
▁ma	-10.1773
▁rocks	-10.1776
▁built	-10.1786
▁Nor	-10.1795
▁fighting	-10.1798
▁serve	-10.18
▁Never	-10.1804
▁farther	-10.1805
▁parents	-10.1813
▁ashamed	-10.1817
▁shake	-10.1821
▁lawyer	-10.1823
▁fully	-10.183
▁supper	-10.1834
▁interesting	-10.1836
▁H	-10.1836
▁dull	-10.1844
▁[_	-10.1844
▁mighty	-10.1856
▁10	-10.1863
▁Jane	-10.1866
▁stare	-10.187
▁proved	-10.1876
▁agreed	-10.1879
▁Heaven	-10.1888
▁anxiety	-10.1888
▁finds	-10.1892
▁shock	-10.191
▁temper	-10.1916
▁brave	-10.1919
▁system	-10.193
▁count	-10.193
▁miserable	-10.1946
▁flight	-10.195
▁gray	-10.195
▁innocent	-10.1951
▁apparently	-10.1953
▁younger	-10.1961
▁hadn	-10.1961
▁Little	-10.1968
▁heat	-10.198
▁sufficient	-10.1982
▁disappeared	-10.1991
▁deeply	-10.1992
▁James	-10.1994
▁extraordinary	-10.2012
▁sought	-10.2017
▁approaches	-10.2024
▁ended	-10.2027
law	-10.2028
▁friendly	-10.2038
▁grey	-10.204
▁education	-10.2051
Your	-10.2056
▁shoes	-10.2062
▁excited	-10.2065
▁lad	-10.2066
▁prison	-10.2067
▁excuse	-10.207
▁cheeks	-10.2078
▁match	-10.2082
▁absence	-10.2088
▁curiosity	-10.2088
▁marked	-10.2097
▁address	-10.2105
----	-10.2109
▁Bob	-10.211
▁approaching	-10.2118
▁trembling	-10.2124
▁image	-10.2143
ON	-10.2155
▁Movie	-10.2162
▁forgot	-10.2168
▁interrupted	-10.2175
▁report	-10.2181
----"	-10.2182
▁First	-10.2184
▁task	-10.2191
▁accident	-10.2192
▁cat	-10.2195
▁rush	-10.2199
▁locked	-10.2202
▁Michael	-10.2209
▁dollars	-10.2211
▁imagination	-10.2214
▁bitter	-10.222
▁ice	-10.2231
▁refused	-10.2232
▁Princess	-10.2233
▁mountains	-10.224
▁remains	-10.2244
▁older	-10.2245
Where	-10.2252
▁firm	-10.2254
▁luck	-10.2254
▁odd	-10.2263
▁Three	-10.2266
▁honor	-10.2268
▁stupid	-10.2276
▁rapidly	-10.2276
▁BEDROOM	-10.2283
▁intention	-10.2289
▁strike	-10.2295
▁Aunt	-10.2297
▁oh	-10.2306
able	-10.231
▁careful	-10.2311
▁picked	-10.2317
▁habit	-10.2318
▁Right	-10.2321
▁America	-10.2324
▁hopes	-10.2328
Illustration	-10.2338
▁woods	-10.2343
▁enjoy	-10.2347
▁struggle	-10.2363
▁understanding	-10.2366
▁yards	-10.2381
▁occupied	-10.2405
▁required	-10.2407
▁somehow	-10.2411
▁assured	-10.2414
▁i	-10.2424
▁HE	-10.243
.)	-10.2435
▁bell	-10.2442
▁inquired	-10.2444
▁fat	-10.2448
▁hang	-10.2453
▁served	-10.246
▁freedom	-10.2465
▁features	-10.2478
com	-10.2482
▁wet	-10.2485
▁JOHN	-10.2488
▁mysterious	-10.2505
▁worry	-10.2505
▁kindly	-10.2507
▁Something	-10.2507
▁approached	-10.251
▁arrival	-10.2524
▁crazy	-10.2527
▁advanced	-10.2536
▁steel	-10.2539
▁necessity	-10.2545
▁particularly	-10.2546
▁stars	-10.2561
▁tonight	-10.2569
▁prevent	-10.257
▁safety	-10.2576
▁Mike	-10.2577
me	-10.2581
▁driving	-10.2581
▁Red	-10.259
▁north	-10.2599
▁eating	-10.26
▁Though	-10.2603
less	-10.2603
▁vision	-10.261
▁surrounded	-10.2612
▁card	-10.2626
▁creatures	-10.2627
el	-10.2631
U	-10.2647
▁9	-10.2653
▁admit	-10.2661
▁Mother	-10.2661
▁naturally	-10.2666
▁demanded	-10.2668
▁closes	-10.2673
▁confused	-10.2674
▁miss	-10.2675
▁peculiar	-10.2675
▁wheel	-10.268
▁pushes	-10.2682
▁(_	-10.2693
▁drove	-10.2694
▁grace	-10.2695
▁rises	-10.2695
imsdb	-10.2701
▁powerful	-10.2703
▁club	-10.2707
▁succeeded	-10.2715
▁sleeping	-10.2715
For	-10.2724
▁cost	-10.2725
▁convinced	-10.2739
▁Robert	-10.2742
▁Arthur	-10.2742
▁clever	-10.2751
When	-10.2756
▁express	-10.276
▁everywhere	-10.2763
▁voices	-10.2767
▁soldier	-10.2772
▁HER	-10.2776
▁p	-10.2782
▁presented	-10.2785
who	-10.2788
▁WITH	-10.2802
▁becoming	-10.2806
▁choose	-10.2808
▁needs	-10.2811
▁Nick	-10.2812
▁stared	-10.2814
▁delicate	-10.2821
▁row	-10.2822
▁accepted	-10.2823
▁feared	-10.2827
▁lock	-10.2833
▁sympathy	-10.2835
▁pulling	-10.2842
▁Which	-10.2845
▁named	-10.2853
▁forms	-10.2861
▁cloud	-10.2869
▁instance	-10.2873
▁leaning	-10.288
▁wishes	-10.2882
▁cabin	-10.2884
Upon	-10.2885
▁mark	-10.2887
▁laughs	-10.2903
out	-10.2906
▁base	-10.2907
▁fun	-10.2907
▁Court	-10.2911
▁bought	-10.2914
▁energy	-10.2915
▁yard	-10.2918
▁murder	-10.2923
▁Charlie	-10.2923
▁W	-10.2938
▁singing	-10.294
▁beast	-10.2955
▁win	-10.2961
▁bosom	-10.2964
▁lamp	-10.2965
▁pipe	-10.2971
▁crime	-10.2998
▁whisper	-10.2999
▁joined	-10.3003
▁wooden	-10.3005
▁AT	-10.3005
▁officers	-10.3014
ie	-10.3026
▁usually	-10.3031
▁authority	-10.304
▁Count	-10.304
:--	-10.3046
Very	-10.3051
▁signs	-10.3054
▁Earl	-10.3057
As	-10.306
▁escaped	-10.3066
v	-10.3067
▁counter	-10.307
▁tight	-10.307
▁kindness	-10.3071
▁sigh	-10.3072
▁midst	-10.3075
▁Smith	-10.3079
▁conscience	-10.3084
▁emotion	-10.309
▁German	-10.3092
▁suffer	-10.3095
▁La	-10.3098
▁slept	-10.3101
▁charming	-10.3103
▁Edward	-10.3105
▁Phineas	-10.3106
▁guns	-10.311
▁cap	-10.3111
▁attitude	-10.3114
▁8	-10.3118
▁religion	-10.3129
▁avoid	-10.3142
▁press	-10.3142
▁Grace	-10.3144
▁bringing	-10.3144
▁eager	-10.3156
way	-10.3159
▁Those	-10.316
▁band	-10.3176
un	-10.3182
▁interview	-10.3183
▁bodies	-10.3185
▁SAM	-10.3189
▁style	-10.3192
▁suffering	-10.3195
▁helped	-10.3207
▁General	-10.3215
▁mass	-10.3218
▁thanks	-10.3221
▁shows	-10.3229
▁consequence	-10.323
▁violent	-10.3235
▁pushed	-10.3239
▁drunk	-10.3245
▁wealth	-10.3259
▁hangs	-10.3259
▁liberty	-10.3274
▁priest	-10.328
▁President	-10.3282
▁WE	-10.3283
▁rear	-10.3284
▁jumps	-10.3294
▁size	-10.3298
▁6	-10.3302
▁Indeed	-10.3319
▁Again	-10.3331
▁Hello	-10.3332
▁Philip	-10.3351
▁blame	-10.3352
▁dogs	-10.3356
▁treated	-10.3361
▁clouds	-10.337
▁worn	-10.3378
▁hurried	-10.338
▁shoot	-10.3395
▁Margaret	-10.3398
▁cont	-10.3401
▁admitted	-10.3404
▁De	-10.3407
▁horrible	-10.3409
▁Hall	-10.3411
▁stepped	-10.3423
▁suspicion	-10.3426
▁proceeded	-10.3427
▁rode	-10.3438
▁weary	-10.3439
▁considerable	-10.3442
▁measure	-10.3445
▁pen	-10.3449
▁madam	-10.3451
▁Hi	-10.3462
▁sell	-10.3462
▁CHARLIE	-10.3464
▁contrary	-10.3467
▁confusion	-10.3471
▁returning	-10.3475
▁dignity	-10.3475
▁YOU	-10.3477
▁content	-10.348
▁reasons	-10.3487
▁hearts	-10.3493
▁leads	-10.3495
▁wounded	-10.3497
▁birth	-10.3505
▁kisses	-10.3508
▁wings	-10.3515
▁capable	-10.3515
▁equally	-10.3518
Are	-10.3519
was	-10.3528
▁reader	-10.3532
▁nurse	-10.3537
▁MORNING	-10.354
▁becomes	-10.3542
▁fill	-10.3551
▁extremely	-10.3555
▁lit	-10.3555
▁spare	-10.3565
▁clock	-10.3567
▁North	-10.3571
▁plainly	-10.3575
▁government	-10.3579
▁mercy	-10.3583
▁utter	-10.3585
▁example	-10.359
▁claim	-10.3592
▁proof	-10.3594
▁modern	-10.3596
▁Max	-10.36
▁brief	-10.3601
▁crew	-10.3617
▁sum	-10.3618
▁cottage	-10.3626
▁uttered	-10.363
▁plenty	-10.363
▁rule	-10.3631
how	-10.3637
▁importance	-10.3644
▁dancing	-10.3648
▁breaking	-10.3649
▁colour	-10.3652
▁delighted	-10.3654
▁upper	-10.3657
▁drinking	-10.3663
▁aid	-10.3676
▁Ann	-10.3678
▁Besides	-10.3679
▁Give	-10.3686
▁judgment	-10.3687
▁upstairs	-10.3689
▁misery	-10.3699
▁en	-10.3699
▁consideration	-10.37
▁direct	-10.3718
▁closely	-10.3718
▁fellows	-10.3722
▁political	-10.3723
▁price	-10.3732
▁flower	-10.3733
▁shouted	-10.3735
this	-10.3742
▁fifteen	-10.3748
▁TWO	-10.3751
▁cell	-10.3767
▁glanced	-10.3772
▁reads	-10.3784
▁Finally	-10.3786
W	-10.3788
▁prisoner	-10.3792
▁dim	-10.3799
▁arranged	-10.3803
▁alarm	-10.3806
▁rank	-10.3813
▁south	-10.3813
Here	-10.3816
▁ones	-10.3822
▁flame	-10.3825
▁guests	-10.3826
▁tear	-10.3829
▁moral	-10.3837
▁spend	-10.3853
▁virtue	-10.3854
▁WOMAN	-10.3854
when	-10.3862
her	-10.3866
▁native	-10.3867
▁triumph	-10.3868
▁original	-10.3873
www	-10.3887
▁MIKE	-10.389
▁departure	-10.3891
▁Fred	-10.39
▁height	-10.3902
▁stretched	-10.3903
te	-10.3913
▁pictures	-10.3916
Have	-10.3916
▁foolish	-10.3918
▁rushed	-10.3921
▁MR	-10.3926
▁melancholy	-10.3931
▁progress	-10.3943
▁concern	-10.3957
▁Roger	-10.3962
▁animals	-10.3963
▁shining	-10.3963
▁People	-10.3964
▁wicked	-10.3964
il	-10.3976
▁addressed	-10.3985
▁assure	-10.3989
▁center	-10.3992
▁feels	-10.3992
▁fail	-10.3993
▁startled	-10.3996
▁radio	-10.4
▁dining	-10.4003
▁risk	-10.4003
▁ya	-10.4011
▁assistance	-10.4012
▁naked	-10.4018
▁starting	-10.4028
▁facts	-10.4028
▁utterly	-10.4037
▁female	-10.4037
▁refuse	-10.4039
▁thrust	-10.404
▁rolled	-10.4055
▁cigarette	-10.406
▁Rachel	-10.4061
▁NICK	-10.4069
▁glory	-10.407
▁pointing	-10.4076
▁guilty	-10.4089
▁slave	-10.409
▁flash	-10.4094
▁buried	-10.4103
▁happens	-10.4104
▁awake	-10.4121
▁tomorrow	-10.4131
▁trial	-10.4138
▁accustomed	-10.4156
▁remarkable	-10.416
▁credit	-10.417
▁audience	-10.4174
▁anywhere	-10.4184
▁glasses	-10.4186
▁setting	-10.4188
▁sing	-10.4193
▁handle	-10.4197
▁bearing	-10.4204
▁rope	-10.4206
▁boots	-10.4207
▁ne	-10.4208
▁cars	-10.4208
▁estate	-10.4213
▁More	-10.4219
▁thoroughly	-10.4224
▁roll	-10.423
▁Park	-10.4232
▁affected	-10.4234
▁removed	-10.4236
▁vessel	-10.4236
▁jacket	-10.4239
▁amount	-10.424
▁weapon	-10.4244
▁sin	-10.4245
▁fairly	-10.4245
▁proposed	-10.4246
▁sex	-10.4247
▁breathing	-10.4252
▁request	-10.4267
▁ceiling	-10.4267
▁reflection	-10.4271
▁companions	-10.4279
▁tale	-10.428
▁flung	-10.428
▁valley	-10.4281
▁figures	-10.4285
▁wedding	-10.4292
▁brow	-10.4297
▁mystery	-10.4306
▁regret	-10.4308
▁daily	-10.4315
▁informed	-10.432
▁chain	-10.4328
▁nodded	-10.4329
▁sprang	-10.4333
▁confess	-10.4336
▁driver	-10.4338
▁meat	-10.4353
▁hears	-10.4359
▁minds	-10.4364
▁beer	-10.4365
"--	-10.437
▁enormous	-10.4372
▁newspaper	-10.4383
▁members	-10.4383
▁plate	-10.4388
http	-10.4391
▁color	-10.4391
▁gradually	-10.4417
▁20	-10.442
▁explanation	-10.442
▁throwing	-10.4424
▁coast	-10.4426
▁patient	-10.4427
▁Very	-10.4428
▁immediate	-10.4433
▁pool	-10.4436
▁agree	-10.4437
▁remark	-10.444
▁gesture	-10.4445
▁precious	-10.4445
▁consent	-10.4448
▁wisdom	-10.4449
▁consciousness	-10.4456
▁inclined	-10.446
▁raise	-10.4461
▁season	-10.4465
▁bowed	-10.4474
▁wave	-10.4477
▁dreams	-10.4487
▁GEORGE	-10.4492
▁managed	-10.4493
▁fierce	-10.4496
▁dared	-10.4503
▁Both	-10.4507
▁Everyone	-10.4512
▁crosses	-10.4514
▁resolution	-10.4514
▁intelligence	-10.452
▁enemies	-10.4539
▁7	-10.4543
▁unfortunate	-10.4546
▁furniture	-10.4549
▁tower	-10.4556
▁warning	-10.4558
▁IT	-10.4559
▁add	-10.4561
▁tail	-10.4567
▁hated	-10.4574
▁resumed	-10.4598
▁area	-10.4612
▁BLACK	-10.4614
▁whilst	-10.463
ry	-10.4633
▁funny	-10.4634
▁notes	-10.4639
▁practice	-10.4641
▁track	-10.4642
▁Men	-10.4649
▁desert	-10.4651
▁rifle	-10.4655
▁lighted	-10.4659
▁couch	-10.4659
▁clerk	-10.466
▁discover	-10.4672
▁ruin	-10.4677
▁security	-10.4677
▁swear	-10.469
▁anyway	-10.4697
▁gazed	-10.4701
na	-10.4709
▁rolls	-10.4712
▁belief	-10.4717
▁stones	-10.4721
▁Wait	-10.4724
▁lest	-10.4734
▁trade	-10.4735
ic	-10.4738
▁begged	-10.4745
By	-10.4747
▁flew	-10.4748
▁pistol	-10.475
▁blows	-10.475
▁member	-10.475
▁murmured	-10.475
▁witness	-10.4752
▁lonely	-10.4758
▁larger	-10.4759
▁brilliant	-10.4765
▁wretched	-10.4776
▁wondering	-10.4778
▁earnest	-10.4779
▁forever	-10.4784
▁hills	-10.4784
ting	-10.4789
▁nevertheless	-10.4798
▁event	-10.481
▁scarce	-10.4814
▁mood	-10.4829
▁lands	-10.4832
▁barely	-10.4836
▁drives	-10.4836
▁desperate	-10.4839
▁silently	-10.484
▁material	-10.4846
▁generous	-10.4853
▁palace	-10.4862
▁conditions	-10.4862
um	-10.4868
▁Having	-10.487
▁manners	-10.487
▁seconds	-10.4874
▁Could	-10.4876
▁bold	-10.4881
_)	-10.4883
Did	-10.4899
▁million	-10.4905
▁regular	-10.4909
▁Database	-10.4928
▁Everything	-10.4931
▁acquainted	-10.4933
▁sold	-10.4934
▁bill	-10.4942
his	-10.4945
▁fields	-10.4948
▁darling	-10.4948
▁tied	-10.495
▁troubled	-10.4952
▁12	-10.4959
▁rid	-10.4959
▁hero	-10.4966
ling	-10.4969
▁guest	-10.4976
▁smoking	-10.4979
▁torn	-10.4983
▁plans	-10.4987
▁Me	-10.4988
▁amongst	-10.4989
▁vague	-10.4993
▁smooth	-10.4997
▁per	-10.5
▁quarrel	-10.5002
▁knock	-10.5006
▁highest	-10.5011
▁DR	-10.5011
▁science	-10.5013
▁arose	-10.503
J	-10.5036
▁heavily	-10.5037
▁Thanks	-10.504
▁ends	-10.5044
▁scared	-10.505
▁hesitated	-10.5055
▁Sometimes	-10.5055
▁accompanied	-10.5077
▁teach	-10.5088
▁shade	-10.5091
▁attached	-10.5092
▁dirty	-10.5094
Tis	-10.5095
eth	-10.5095
▁partly	-10.5096
▁breaks	-10.5101
▁painful	-10.5101
▁b	-10.5104
▁dressing	-10.5104
▁folks	-10.511
▁concerning	-10.5111
▁solemn	-10.5114
▁wake	-10.5117
▁sacrifice	-10.5121
▁hungry	-10.5122
▁savage	-10.5129
▁aloud	-10.5129
▁agreeable	-10.5132
▁cave	-10.5145
▁aren	-10.5146
▁beach	-10.5146
▁brings	-10.5155
▁giant	-10.5158
▁highly	-10.5161
▁lately	-10.5163
▁advance	-10.5165
▁gay	-10.5167
▁Pierre	-10.517
▁famous	-10.5191
▁previous	-10.5193
▁guide	-10.5196
▁admiration	-10.5196
▁pack	-10.5206
▁Rose	-10.5208
▁mile	-10.5216
▁finish	-10.5218
▁smell	-10.523
▁Clara	-10.5231
▁Bishop	-10.5233
▁chin	-10.5253
▁stern	-10.5259
LY	-10.5264
bye	-10.5267
EY	-10.5272
▁patience	-10.5287
▁list	-10.5287
▁Sure	-10.53
▁decision	-10.5304
▁powers	-10.5305
▁gift	-10.5309
▁recovered	-10.5315
▁imagined	-10.5316
▁Without	-10.5322
▁During	-10.5326
▁leaned	-10.533
▁violence	-10.5334
▁INTO	-10.5334
▁candle	-10.5334
▁catches	-10.5336
▁star	-10.5338
▁prince	-10.5339
▁Ray	-10.5345
▁brothers	-10.5349
▁stuck	-10.535
▁splendid	-10.5362
▁manage	-10.5363
▁glow	-10.5364
▁Christmas	-10.5364
▁dread	-10.539
▁raises	-10.5391
▁hasn	-10.5394
▁conviction	-10.5397
▁Through	-10.5403
▁laws	-10.5406
▁waste	-10.5417
▁joke	-10.5421
▁stories	-10.5426
▁hastily	-10.5427
▁cases	-10.5431
ment	-10.5433
▁abruptly	-10.5441
▁etc	-10.5445
▁astonishment	-10.5451
▁abroad	-10.5455
▁Louis	-10.5458
▁travel	-10.546
▁loving	-10.5477
▁plays	-10.5478
▁individual	-10.5478
▁ugly	-10.5487
▁riding	-10.5488
▁Sarah	-10.549
▁rolling	-10.5492
▁atmosphere	-10.5493
▁connection	-10.5496
▁seriously	-10.55
▁hast	-10.5501
▁rare	-10.5503
▁Black	-10.5521
▁reality	-10.5525
▁stock	-10.5525
▁reveal	-10.554
▁bathroom	-10.5545
▁knocked	-10.5548
▁weapons	-10.5558
five	-10.5559
▁chosen	-10.5559
▁steady	-10.5561
▁superior	-10.5565
▁type	-10.5569
▁cab	-10.557
▁Emmeline	-10.5581
▁Listen	-10.5583
▁extreme	-10.5585
ar	-10.5586
▁francs	-10.5589
▁date	-10.5601
▁using	-10.5601
▁handed	-10.5611
ne	-10.5613
▁slipped	-10.5613
▁cared	-10.563
▁fires	-10.5632
▁notices	-10.5633
▁mamma	-10.5635
▁X	-10.5638
▁earlier	-10.5639
▁fruit	-10.564
though	-10.5648
▁jump	-10.5654
▁holy	-10.5657
▁meal	-10.5658
▁State	-10.5659
▁eagerly	-10.5659
▁sacred	-10.5664
▁farm	-10.5667
▁SAME	-10.5673
▁title	-10.5675
ey	-10.5677
▁slightest	-10.5682
▁changes	-10.5688
▁solid	-10.5692
▁utmost	-10.5697
▁west	-10.5702
MAN	-10.5704
▁Fanny	-10.5705
▁sink	-10.5707
▁f	-10.5707
▁increased	-10.5712
▁U	-10.5714
▁City	-10.5719
▁Kate	-10.5725
▁seldom	-10.5728
▁loves	-10.5729
▁elevator	-10.5729
▁armed	-10.5736
▁sending	-10.5737
▁stayed	-10.5746
▁prospect	-10.5749
▁Love	-10.575
▁cloth	-10.5753
▁waters	-10.5753
▁senses	-10.5761
▁background	-10.5763
▁nation	-10.5779
▁quality	-10.5784
▁lift	-10.5785
▁wit	-10.5786
▁swept	-10.5792
▁parted	-10.5804
▁tenderness	-10.5811
▁rings	-10.5825
▁Since	-10.5826
▁plants	-10.5828
▁button	-10.583
▁Hal	-10.5831
▁hospital	-10.5831
▁mistaken	-10.5836
▁ere	-10.5847
▁Richard	-10.585
▁Oscar	-10.5854
▁gained	-10.5855
▁distress	-10.5858
▁flies	-10.586
▁sheet	-10.5861
▁deserted	-10.5861
▁efforts	-10.5863
▁lake	-10.5865
▁foreign	-10.5865
▁discovery	-10.5866
▁park	-10.5868
▁painted	-10.587
▁realize	-10.5873
▁portion	-10.588
▁keen	-10.5884
▁retired	-10.5887
▁MARY	-10.5894
▁Indian	-10.5895
▁que	-10.5897
▁Nobody	-10.59
▁exits	-10.5906
▁faithful	-10.5915
▁Poor	-10.5918
▁Jacob	-10.5926
▁useless	-10.5931
▁physical	-10.5947
▁hollow	-10.5951
▁JOE	-10.5952
▁Ursula	-10.5961
▁library	-10.5966
▁branches	-10.5967
▁lifts	-10.5969
▁charm	-10.597
▁dragged	-10.597
▁dawn	-10.5971
▁lap	-10.5971
▁milk	-10.5974
▁?!	-10.5977
▁coach	-10.5977
▁learning	-10.5985
▁afford	-10.5987
▁Luke	-10.5989
▁disturbed	-10.5989
▁30	-10.5991
▁enjoyed	-10.5997
▁Finn	-10.5999
▁record	-10.6
▁slip	-10.6006
▁poet	-10.6009
▁Out	-10.6013
▁landing	-10.6015
Go	-10.6025
▁fought	-10.6026
▁knee	-10.6029
▁widow	-10.6041
let	-10.6042
▁described	-10.6042
▁household	-10.6049
▁centre	-10.6055
▁similar	-10.6061
▁continuing	-10.6064
▁queer	-10.6067
▁hiding	-10.608
▁crowded	-10.6081
▁folk	-10.6083
▁FROM	-10.6084
▁interests	-10.6087
▁reflected	-10.6087
▁frequently	-10.6087
▁damn	-10.6087
▁horizon	-10.6091
▁immense	-10.6094
▁chairs	-10.6099
▁whenever	-10.6102
▁stronger	-10.6104
▁15	-10.6114
▁Emma	-10.6117
▁sail	-10.6117
▁sentence	-10.6117
▁pages	-10.6123
▁Europe	-10.6141
▁Uh	-10.6146
▁attend	-10.6148
▁Over	-10.6158
▁gratitude	-10.6162
▁genius	-10.6167
▁author	-10.6171
▁ignorant	-10.6171
et	-10.6174
▁computer	-10.6178
▁pile	-10.6183
▁IS	-10.6184
▁gain	-10.6187
▁keys	-10.619
▁realized	-10.6199
▁pockets	-10.62
2	-10.6218
▁useful	-10.6218
▁th	-10.6221
▁provided	-10.6226
▁Thy	-10.6228
1	-10.6237
▁motionless	-10.6238
▁queen	-10.624
▁sank	-10.6241
▁British	-10.6242
▁fury	-10.6248
▁AS	-10.626
▁firmly	-10.6268
▁contact	-10.627
▁divine	-10.6271
▁belong	-10.6274
▁entering	-10.628
▁lightly	-10.6282
▁push	-10.6284
▁contempt	-10.6292
Perhaps	-10.6296
▁niece	-10.6302
▁tent	-10.6303
▁rushes	-10.631
styled	-10.6313
▁waist	-10.6321
▁weakness	-10.6325
▁recognized	-10.6325
▁sisters	-10.6326
▁grateful	-10.6329
▁badly	-10.633
▁evident	-10.6342
▁duties	-10.6342
▁market	-10.6343
▁belonged	-10.6345
▁du	-10.6346
▁Eve	-10.6347
▁religious	-10.6351
▁worried	-10.6352
▁mental	-10.6359
had	-10.6359
ation	-10.6365
▁Gerard	-10.6366
▁sufficiently	-10.6368
▁Behind	-10.6371
▁east	-10.6372
▁Steve	-10.6372
▁absolute	-10.6374
▁Each	-10.6379
▁platform	-10.6382
▁climb	-10.6385
▁Sidney	-10.6387
▁astonished	-10.6388
▁silk	-10.6391
▁gas	-10.6392
ies	-10.6395
▁Life	-10.64
▁god	-10.6401
▁hunting	-10.6409
▁fatal	-10.641
▁Z	-10.6419
▁pink	-10.6422
▁remaining	-10.6429
▁HALLWAY	-10.643
▁em	-10.643
▁inner	-10.6443
well	-10.6445
▁Ed	-10.6445
▁Scripts	-10.645
▁Italian	-10.6452
▁secure	-10.6463
▁pace	-10.6463
▁DOOR	-10.6465
▁magic	-10.6472
▁Long	-10.6475
▁adventure	-10.6483
▁papa	-10.6485
▁strangers	-10.6493
▁Lee	-10.6497
▁Baron	-10.6502
rs	-10.6503
▁settle	-10.6512
▁cook	-10.6512
▁swings	-10.6518
▁fired	-10.6519
▁squire	-10.6521
▁sharply	-10.6526
▁WHITE	-10.6529
▁exchange	-10.6529
▁silly	-10.6531
▁Charlotte	-10.6532
▁sighed	-10.6534
▁About	-10.6537
▁wrapped	-10.6538
▁puzzled	-10.6541
▁screaming	-10.6544
▁Ted	-10.6551
▁details	-10.6551
▁throughout	-10.6563
▁Dad	-10.6564
▁sets	-10.6564
▁losing	-10.6567
▁West	-10.6567
▁tape	-10.6569
▁helpless	-10.657
▁exhausted	-10.6571
▁constantly	-10.6572
▁sounded	-10.6573
▁observe	-10.6575
▁relations	-10.6577
▁tie	-10.6577
(	-10.6579
▁sofa	-10.6581
▁crown	-10.6588
▁Allan	-10.6588
▁hitherto	-10.6589
▁connected	-10.659
▁ocean	-10.6591
▁venture	-10.6594
▁objects	-10.6597
▁delay	-10.6598
▁calmly	-10.6601
▁wholly	-10.6601
▁exercise	-10.6607
▁bloody	-10.6613
▁insisted	-10.6618
▁HENRY	-10.6627
▁Jerry	-10.6629
▁nearest	-10.6633
▁extent	-10.6634
▁conclusion	-10.6637
▁constant	-10.6638
▁stomach	-10.6642
▁haste	-10.6644
▁thine	-10.6645
▁trip	-10.6649
SAM	-10.6649
▁vanished	-10.6658
▁Amy	-10.666
▁muttered	-10.6663
▁Amelia	-10.6665
▁Elizabeth	-10.6665
▁reference	-10.6666
▁pursued	-10.6667
▁whence	-10.6667
▁Lucien	-10.6677
▁host	-10.6677
▁scattered	-10.6682
▁lack	-10.6686
▁appeal	-10.6688
time	-10.669
be	-10.6703
▁engine	-10.6707
▁Dan	-10.6711
▁descended	-10.6713
▁DOWN	-10.6713
▁announced	-10.6723
▁fled	-10.6724
▁Therefore	-10.6727
▁gazing	-10.6746
▁perceive	-10.6746
▁KITCHEN	-10.6759
▁chose	-10.6759
▁copy	-10.6763
▁Saint	-10.6764
▁Earth	-10.678
▁process	-10.678
▁LIVING	-10.6782
▁lets	-10.6786
▁bid	-10.6791
▁bench	-10.6793
▁career	-10.6796
▁touching	-10.6797
▁Sorry	-10.6806
▁screams	-10.681
▁destroy	-10.6813
▁argument	-10.6821
▁deeper	-10.6824
▁relation	-10.6828
▁mounted	-10.6845
▁11	-10.6847
▁unconscious	-10.6849
▁humble	-10.6851
▁team	-10.6852
▁missed	-10.6856
▁OVER	-10.6856
ion	-10.6861
▁engagement	-10.6862
▁minister	-10.6872
▁rested	-10.6872
▁DISSOLVE	-10.6873
▁est	-10.6875
▁cards	-10.6876
▁Chris	-10.6878
Nay	-10.688
ce	-10.6885
▁belt	-10.6896
▁fence	-10.6899
▁missing	-10.69
▁Larry	-10.6901
▁directed	-10.6906
▁shone	-10.6908
Look	-10.6909
▁employed	-10.6912
▁Rome	-10.6914
▁custom	-10.692
▁tells	-10.6921
▁hallway	-10.6923
▁intimate	-10.6924
▁climbs	-10.6934
▁lion	-10.6935
▁delightful	-10.6941
Will	-10.6941
▁obtained	-10.6944
▁writer	-10.6944
▁distinguished	-10.6949
▁practical	-10.6951
▁cloak	-10.6952
▁shooting	-10.6958
▁committed	-10.6959
▁concluded	-10.6961
▁cheerful	-10.6961
▁beard	-10.6966
▁signal	-10.6966
▁gloom	-10.6969
▁military	-10.6984
▁treat	-10.6984
▁separate	-10.6985
▁destroyed	-10.6986
▁visitor	-10.6986
At	-10.6988
▁DAVID	-10.6989
▁c	-10.6992
▁block	-10.7007
▁e	-10.7008
▁shelter	-10.7011
▁invited	-10.7017
▁van	-10.7018
▁score	-10.702
▁Major	-10.7022
▁17	-10.7024
▁Levin	-10.7026
are	-10.7028
▁uneasy	-10.7031
▁aspect	-10.7038
▁amused	-10.7039
▁cart	-10.704
ism	-10.7049
▁century	-10.7062
▁victim	-10.7069
▁sensible	-10.7073
▁burn	-10.7073
▁Claude	-10.7078
WILL	-10.708
▁lucky	-10.7082
▁Next	-10.7086
▁spots	-10.7086
▁heels	-10.7096
▁deny	-10.7102
▁disposed	-10.7104
▁gods	-10.7105
▁BEN	-10.7105
▁leather	-10.7108
▁striking	-10.7109
ch	-10.7117
▁slides	-10.7122
▁owe	-10.7122
▁slams	-10.713
▁smaller	-10.7131
▁inches	-10.7132
▁intense	-10.7136
Can	-10.7139
▁lunch	-10.7142
▁disposition	-10.7142
▁SEE	-10.7142
▁knight	-10.7143
▁yeah	-10.7143
▁produce	-10.7151
X	-10.716
▁Stephen	-10.7166
▁current	-10.7173
▁occasions	-10.7178
hearted	-10.7181
why	-10.7185
▁nonsense	-10.7191
▁mud	-10.7191
▁Anthony	-10.7191
▁difficulties	-10.7196
▁doubtless	-10.7199
▁contained	-10.7207
▁checks	-10.7211
▁strongly	-10.7211
▁letting	-10.7215
▁Mademoiselle	-10.7218
▁waits	-10.7223
▁Russian	-10.7225
▁eleven	-10.7227
▁studies	-10.7227
▁returns	-10.7228
▁burned	-10.7232
▁Green	-10.7237
US	-10.7241
▁scheme	-10.7246
▁Joseph	-10.725
▁relieved	-10.725
▁Majesty	-10.7257
▁Mme	-10.7257
▁HIM	-10.7267
▁closing	-10.7267
▁ships	-10.7269
▁decide	-10.7271
▁Annie	-10.7273
▁agony	-10.7277
▁bless	-10.7289
▁protection	-10.729
▁Professor	-10.729
▁pressure	-10.7291
▁beating	-10.7293
▁outer	-10.7301
then	-10.7302
▁delivered	-10.7303
▁HOTEL	-10.7304
▁curtain	-10.7304
▁demand	-10.7307
▁daughters	-10.7307
▁cutting	-10.7307
▁mist	-10.7307
will	-10.7308
▁oil	-10.7311
▁mid	-10.7315
▁ANOTHER	-10.7317
▁forces	-10.7326
▁introduced	-10.733
▁Back	-10.7331
▁South	-10.7333
▁monster	-10.7338
▁endure	-10.7339
▁tunnel	-10.7341
;"	-10.7347
▁goodness	-10.7353
▁stiff	-10.7354
▁disappointment	-10.7354
▁royal	-10.7357
▁staircase	-10.7373
▁Phil	-10.7379
▁mankind	-10.7383
▁circumstance	-10.7384
JACK	-10.7385
▁Whatever	-10.7385
▁fever	-10.7392
▁Many	-10.7396
▁purse	-10.7397
▁porch	-10.7407
▁treasure	-10.7408
▁observation	-10.7411
▁sheep	-10.7412
▁Young	-10.743
▁ignorance	-10.7432
▁Scott	-10.7439
”	-10.744
▁Tarzan	-10.7452
▁series	-10.7453
▁swiftly	-10.7453
▁Say	-10.7458
▁trunk	-10.7459
▁parties	-10.7463
▁disappointed	-10.7465
ity	-10.7469
▁FRANK	-10.747
▁frozen	-10.7479
▁reaching	-10.7484
▁huh	-10.7484
▁capital	-10.7485
▁facing	-10.7485
▁glimpse	-10.7486
▁terrified	-10.7491
▁active	-10.7496
▁species	-10.7497
▁Day	-10.7502
ish	-10.7505
▁Linda	-10.7505
▁suggestion	-10.7507
▁handkerchief	-10.7511
▁occasionally	-10.7516
▁sons	-10.752
▁prayer	-10.7524
▁smart	-10.753
▁successful	-10.7531
▁plant	-10.7538
▁article	-10.754
▁Ruth	-10.7542
▁exit	-10.7543
▁Mac	-10.7546
▁JACKIE	-10.755
▁source	-10.7559
▁unusual	-10.7563
▁bones	-10.7563
▁misfortune	-10.7564
▁arrive	-10.7571
▁drank	-10.7571
▁BILLY	-10.7572
▁plane	-10.7572
▁magnificent	-10.7582
▁impulse	-10.7584
▁"_	-10.7584
▁je	-10.7587
▁SARAH	-10.7594
▁compelled	-10.7597
▁scream	-10.7615
▁numbers	-10.7617
▁Under	-10.7618
▁Toby	-10.7629
▁bade	-10.7632
▁Nell	-10.7635
▁elder	-10.7636
▁abandoned	-10.7637
▁Walter	-10.7638
AL	-10.7643
▁supply	-10.7645
▁14	-10.7656
▁ACE	-10.766
▁grandfather	-10.7661
▁instinct	-10.7662
▁Roman	-10.7667
▁uniform	-10.7668
▁Y	-10.767
▁burden	-10.7671
▁profession	-10.7674
▁domestic	-10.7676
._]	-10.7678
ful	-10.7682
▁flames	-10.7684
▁g	-10.7686
▁remote	-10.7686
▁blessed	-10.7692
One	-10.7693
▁Countess	-10.7695
▁skill	-10.7696
▁Internet	-10.7698
▁16	-10.7702
▁rapid	-10.7705
▁ridiculous	-10.771
ist	-10.771
▁attended	-10.7717
▁dirt	-10.7717
▁angel	-10.7723
▁stir	-10.7727
▁gates	-10.7731
▁souls	-10.7732
▁suspect	-10.7733
▁inn	-10.7735
▁Van	-10.7738
off	-10.7739
▁Nature	-10.7743
▁fist	-10.7746
▁RACHEL	-10.7748
▁exact	-10.7749
table	-10.7753
▁trace	-10.7753
▁civil	-10.7757
▁vous	-10.7761
▁severe	-10.7761
▁swift	-10.7764
▁wanting	-10.7769
▁glorious	-10.777
▁repeat	-10.7774
▁wanna	-10.7778
▁favor	-10.7781
▁Tommy	-10.7788
▁Mom	-10.7789
▁declare	-10.7791
▁downstairs	-10.7798
▁directions	-10.7799
▁June	-10.7803
▁assumed	-10.7804
▁GIRL	-10.7806
▁humanity	-10.7812
▁struggling	-10.7812
▁sadly	-10.7812
▁slips	-10.7813
▁planet	-10.7815
▁totally	-10.7819
▁established	-10.782
▁quarters	-10.782
▁wi	-10.7823
▁violently	-10.7834
PAUL	-10.7839
▁shocked	-10.784
▁doth	-10.784
▁march	-10.7843
▁possibility	-10.7843
place	-10.7849
▁protect	-10.785
▁indifferent	-10.7852
▁suspected	-10.7853
ES	-10.7853
▁reputation	-10.7856
▁response	-10.7858
▁praise	-10.7859
don	-10.7867
▁devoted	-10.787
▁STATION	-10.7871
▁mask	-10.788
▁acted	-10.788
▁answers	-10.7881
▁permitted	-10.7883
▁hint	-10.789
▁Kirk	-10.7891
▁mortal	-10.7895
▁wheels	-10.7899
▁amid	-10.7899
▁strangely	-10.7901
▁obviously	-10.7906
▁awkward	-10.7913
▁Alex	-10.7915
▁college	-10.7918
▁guards	-10.7923
▁rendered	-10.7924
▁rejoined	-10.7929
▁stopping	-10.7933
▁Carl	-10.7934
▁sailor	-10.7939
▁obtain	-10.794
▁throne	-10.7941
▁Nevertheless	-10.7945
▁trail	-10.7945
▁stole	-10.7946
▁thousands	-10.7946
▁rang	-10.795
▁idle	-10.7952
▁Clare	-10.7954
▁lordship	-10.7956
▁hid	-10.7957
▁behold	-10.796
▁shouting	-10.7961
▁reward	-10.7964
▁touches	-10.7967
▁conceal	-10.7982
▁Ali	-10.7984
▁profound	-10.7985
▁overcome	-10.7989
▁degrees	-10.7994
▁Ha	-10.7995
▁paying	-10.7997
▁revealing	-10.8002
▁Mason	-10.8004
▁test	-10.8011
▁statement	-10.8021
▁Patrick	-10.8022
▁San	-10.8027
▁breeze	-10.8034
▁Lizzie	-10.8037
html	-10.8038
▁upward	-10.8041
▁departed	-10.8044
▁attempted	-10.8044
▁Meanwhile	-10.8045
▁income	-10.8047
▁fears	-10.8048
▁volume	-10.8061
▁blank	-10.8065
▁mess	-10.8067
▁partner	-10.807
▁port	-10.8071
▁stunned	-10.8086
▁ladder	-10.8091
▁limbs	-10.8095
▁grasp	-10.8099
▁humour	-10.8102
▁obey	-10.8105
▁sunshine	-10.8109
▁folly	-10.8116
la	-10.8117
▁deed	-10.8123
▁grim	-10.8124
▁Louise	-10.813
▁Julia	-10.813
▁tide	-10.8133
▁Put	-10.8134
▁balance	-10.8142
▁uncomfortable	-10.8143
▁Helen	-10.8148
▁midnight	-10.815
▁infinite	-10.8154
▁ceremony	-10.8156
▁enthusiasm	-10.8156
▁concealed	-10.8157
▁respectable	-10.8159
▁High	-10.8166
▁merry	-10.8167
▁searching	-10.8174
Z	-10.8175
▁Parliament	-10.8177
▁Blood	-10.819
▁resting	-10.8198
▁collar	-10.8199
▁pursuit	-10.8202
▁dearest	-10.8206
▁uh	-10.821
▁telephone	-10.8216
▁lieutenant	-10.822
▁Hector	-10.8221
▁Spanish	-10.8225
▁Chief	-10.8228
▁subjects	-10.823
▁acting	-10.8231
▁jumped	-10.8235
▁basket	-10.8237
▁States	-10.8247
▁official	-10.825
Thank	-10.8263
▁moreover	-10.8266
▁SOUND	-10.8268
▁HALL	-10.8269
land	-10.827
▁")	-10.8271
▁theory	-10.8271
▁PAT	-10.8276
Footnote	-10.8279
▁13	-10.8283
▁depths	-10.8286
▁paint	-10.8287
▁wire	-10.8287
▁Saturday	-10.8288
▁Holy	-10.8289
▁non	-10.8291
▁Time	-10.8299
▁behaviour	-10.8299
▁roar	-10.83
▁happening	-10.8301
▁jealous	-10.8302
IN	-10.8302
▁Pecksniff	-10.8307
▁RED	-10.8308
▁Most	-10.8309
▁ghost	-10.831
▁embrace	-10.8312
▁movie	-10.832
▁trick	-10.8327
▁slaves	-10.833
▁sticks	-10.833
▁agent	-10.8333
▁sorts	-10.8334
▁cuts	-10.8337
▁singular	-10.8338
▁hatred	-10.8341
▁pauses	-10.8345
▁failure	-10.8347
▁indifference	-10.8348
▁Greek	-10.8352
▁apparent	-10.8355
▁scorn	-10.8368
▁inch	-10.8369
▁Government	-10.8369
▁quit	-10.837
▁nearby	-10.8374
▁likewise	-10.8386
▁principle	-10.8389
▁Oliver	-10.8391
▁marble	-10.8396
▁fix	-10.8403
▁beasts	-10.8406
▁owner	-10.8411
▁activity	-10.8418
▁trembled	-10.8422
Because	-10.8424
▁proceed	-10.8425
▁Think	-10.843
▁nephew	-10.844
▁parish	-10.8443
▁killing	-10.8448
▁THAT	-10.8451
Never	-10.8452
▁views	-10.8452
▁properly	-10.8453
▁staying	-10.8455
▁Robin	-10.8457
▁Any	-10.8457
▁cigar	-10.8459
▁lesson	-10.846
▁honey	-10.8461
▁Carol	-10.8467
▁movements	-10.8468
▁upset	-10.847
▁retreat	-10.8472
▁bride	-10.8473
▁boxes	-10.8476
▁palm	-10.8483
▁design	-10.8487
▁qui	-10.8488
▁lip	-10.8491
▁display	-10.8494
▁laying	-10.8496
▁discussion	-10.8502
▁Four	-10.8504
▁Gregory	-10.8509
▁freely	-10.851
▁Martha	-10.8511
▁blade	-10.8514
▁Kipps	-10.8516
▁NEW	-10.8518
▁build	-10.852
▁Ramona	-10.8523
▁fourth	-10.8524
▁bullet	-10.8528
▁exist	-10.853
▁prisoners	-10.8534
▁Really	-10.8537
▁borne	-10.8537
▁urged	-10.8546
▁Does	-10.8547
▁notion	-10.8552
▁wrath	-10.8559
ia	-10.8561
▁gown	-10.8564
▁unexpected	-10.8567
▁revealed	-10.8568
▁pushing	-10.8572
▁poured	-10.8574
▁raising	-10.8576
▁amazement	-10.8578
▁pour	-10.858
▁gloomy	-10.8582
▁leader	-10.8586
▁punishment	-10.8587
▁faster	-10.8589
▁furious	-10.8593
▁branch	-10.8593
▁examined	-10.8595
▁Alan	-10.8596
▁probable	-10.8599
▁steadily	-10.8599
▁Un	-10.86
ah	-10.8602
▁issue	-10.8602
TV	-10.8607
▁folded	-10.861
▁impressed	-10.861
▁afterward	-10.8611
▁separated	-10.8615
oh	-10.8618
▁revenge	-10.8619
▁III	-10.8625
God	-10.8627
▁LOUIS	-10.863
▁method	-10.863
▁cliff	-10.8634
▁pot	-10.865
▁threatened	-10.865
ANGLE	-10.8654
▁straw	-10.866
▁drag	-10.8663
▁sixty	-10.8666
▁local	-10.8667
▁massive	-10.8675
▁backward	-10.8677
▁Malcolm	-10.8679
▁pretend	-10.8682
▁ruined	-10.8684
▁obvious	-10.8696
▁habits	-10.8697
▁nations	-10.8698
▁description	-10.8701
▁struggles	-10.8704
▁seeking	-10.8704
▁Big	-10.8706
▁angrily	-10.8712
▁Betty	-10.8715
▁Norman	-10.8716
▁considering	-10.8716
▁Up	-10.8722
▁Shall	-10.8723
beat	-10.8728
▁Presently	-10.873
▁Land	-10.8737
▁anymore	-10.8742
just	-10.8744
▁victory	-10.8778
▁dumb	-10.878
▁Madam	-10.878
▁MAX	-10.8781
x	-10.8781
▁benefit	-10.8785
▁Stop	-10.8786
▁betrayed	-10.8801
▁grip	-10.8805
▁labour	-10.8808
▁August	-10.8812
▁heavens	-10.8816
▁popular	-10.8819
▁IMSDb	-10.8819
▁indignation	-10.8821
▁alarmed	-10.8821
▁gather	-10.8821
▁kick	-10.8833
▁rules	-10.8835
▁leaps	-10.8835
▁succeed	-10.8838
▁Virginia	-10.8839
▁Val	-10.8846
▁range	-10.8848
▁footsteps	-10.885
▁cage	-10.8851
▁Everybody	-10.8852
▁Blue	-10.8854
▁wildly	-10.8856
▁hesitation	-10.8857
▁Cobb	-10.8858
▁behalf	-10.8862
▁families	-10.8864
▁composed	-10.8866
▁kingdom	-10.8869
▁sweat	-10.8872
▁fetch	-10.8884
▁absent	-10.8884
▁Neither	-10.8885
▁nervously	-10.8887
▁ambition	-10.8891
Nothing	-10.8905
go	-10.8908
▁purple	-10.891
▁faded	-10.8911
▁arrangement	-10.8913
▁impatient	-10.8914
▁normal	-10.8916
▁trusted	-10.8921
▁Danny	-10.8923
▁ventured	-10.8925
▁ate	-10.8925
▁Fawn	-10.8927
▁(-	-10.8928
▁leaped	-10.8933
▁HOME	-10.8933
▁favourite	-10.8934
▁eh	-10.8935
▁jungle	-10.8937
▁correct	-10.8938
▁crack	-10.8939
▁LARRY	-10.8951
▁Ma	-10.8958
▁crept	-10.8959
ton	-10.8965
▁veil	-10.8965
▁appointed	-10.8965
▁actual	-10.8966
▁NO	-10.8967
▁Peregrine	-10.8968
▁wrist	-10.8972
▁easier	-10.8974
▁Kim	-10.8975
▁BUILDING	-10.8976
▁beheld	-10.8977
▁Castle	-10.8978
▁strain	-10.8988
▁CORRIDOR	-10.8991
▁staff	-10.8994
▁prefer	-10.8996
▁represented	-10.8998
▁worship	-10.9004
▁Re	-10.9006
▁elbow	-10.9016
▁stirred	-10.9016
▁envelope	-10.9016
▁PAUL	-10.9018
▁loudly	-10.902
▁spiritual	-10.9022
▁neighbourhood	-10.9033
▁waving	-10.9035
ter	-10.904
▁vanity	-10.904
▁invitation	-10.9054
▁divided	-10.9058
▁temple	-10.9062
▁disagreeable	-10.9062
▁cash	-10.9067
▁aim	-10.9068
▁swung	-10.907
▁permit	-10.907
▁beloved	-10.9072
▁Ch	-10.9075
▁lawn	-10.9078
▁piano	-10.9079
▁file	-10.908
▁solitary	-10.9085
▁pressing	-10.9086
▁OLD	-10.9088
▁invisible	-10.9088
▁results	-10.9095
▁decent	-10.9097
▁EVENING	-10.91
▁map	-10.91
▁Molly	-10.9101
▁warmth	-10.9102
JOHN	-10.9106
▁intend	-10.9114
▁dine	-10.9116
▁artist	-10.913
▁bushes	-10.9132
3	-10.9135
▁wears	-10.9137
▁marks	-10.914
▁Grant	-10.9148
▁hideous	-10.9157
▁changing	-10.9157
▁OFF	-10.9163
▁created	-10.9167
▁rushing	-10.9167
▁seats	-10.9169
▁alike	-10.9169
▁meantime	-10.9171
▁wandering	-10.9171
▁50	-10.9182
▁daylight	-10.9187
▁distinct	-10.9187
▁cleared	-10.9191
▁inquiry	-10.9197
▁expense	-10.9197
▁wandered	-10.9199
▁assurance	-10.9199
▁gravely	-10.9199
▁Englishman	-10.9201
▁quoth	-10.9206
▁bars	-10.9209
▁counsel	-10.921
▁cops	-10.9215
▁dropping	-10.9215
▁lightning	-10.9216
▁defend	-10.9221
▁principal	-10.9225
▁Five	-10.9235
▁communication	-10.9235
▁bus	-10.924
▁eternal	-10.9248
▁moonlight	-10.925
▁farewell	-10.9251
▁extended	-10.9259
▁FOR	-10.926
▁sighs	-10.926
▁resist	-10.9265
▁amusement	-10.9265
▁gathering	-10.9267
▁maiden	-10.9267
▁ME	-10.9268
▁clergyman	-10.9272
▁shaken	-10.9273
▁male	-10.9274
▁embarrassed	-10.9275
box	-10.9285
▁hoping	-10.9289
▁involved	-10.9289
▁knocking	-10.9295
▁19	-10.9296
▁thunder	-10.9298
▁visited	-10.9302
▁recognize	-10.9303
▁Herbert	-10.9305
▁nowhere	-10.9305
▁parting	-10.9309
▁TIME	-10.931
▁troubles	-10.9314
▁tones	-10.9317
▁pillow	-10.9323
▁rights	-10.9326
▁rent	-10.9326
▁glowing	-10.9326
eyed	-10.9335
▁Alessandro	-10.9336
▁PHONE	-10.9341
Just	-10.9341
▁expecting	-10.9344
▁leap	-10.9345
▁carries	-10.9349
▁panic	-10.9353
▁Harriet	-10.9359
▁mingled	-10.9365
▁soil	-10.9369
▁deserve	-10.9378
▁permission	-10.9379
▁absorbed	-10.9379
▁experienced	-10.9384
▁upright	-10.9386
▁traffic	-10.9387
▁Wilson	-10.9388
▁Minister	-10.9388
▁motive	-10.939
▁Joan	-10.9393
▁nay	-10.9393
▁Booth	-10.9395
▁poverty	-10.9402
▁Rob	-10.9403
▁flood	-10.9404
▁weren	-10.9406
▁buildings	-10.9415
▁tables	-10.9416
▁Stanbury	-10.9417
▁exposed	-10.9421
▁shower	-10.9424
Indeed	-10.9434
▁shed	-10.9444
▁destruction	-10.945
▁prey	-10.9457
can	-10.947
▁legal	-10.9471
▁poetry	-10.9472
now	-10.9472
images	-10.9473
▁absurd	-10.9476
▁opinions	-10.9477
▁ex	-10.9485
▁Delamere	-10.9487
uite	-10.949
▁nerves	-10.9493
▁readily	-10.9495
▁Andy	-10.9506
▁contents	-10.9511
▁races	-10.9514
▁weeping	-10.9517
▁talks	-10.9518
▁draws	-10.9522
▁!!	-10.9522
▁Square	-10.9525
▁bills	-10.9531
▁nights	-10.9534
▁faced	-10.9535
▁harder	-10.954
▁spins	-10.9541
▁goin	-10.9541
▁mon	-10.9542
*	-10.9544
only	-10.9546
▁fastened	-10.9549
▁load	-10.9561
▁passionate	-10.957
▁sunlight	-10.9573
▁gestures	-10.9576
▁retorted	-10.958
▁film	-10.9581
▁rude	-10.9584
▁detail	-10.9599
▁interior	-10.9603
▁crossing	-10.961
▁thither	-10.961
▁acknowledged	-10.9618
▁mischief	-10.9619
▁flushed	-10.9622
▁stolen	-10.9622
▁risen	-10.9623
▁Brown	-10.9624
Sir	-10.9625
▁salt	-10.9625
▁lean	-10.9628
▁possess	-10.9628
▁Sylvia	-10.9628
▁fearful	-10.9631
▁ONE	-10.9633
from	-10.9636
▁swing	-10.9637
▁medical	-10.9643
▁applied	-10.965
▁earnestly	-10.9654
▁steep	-10.9656
▁picking	-10.9659
▁commanded	-10.9668
▁offence	-10.9671
▁steal	-10.9672
▁World	-10.9676
▁describe	-10.9679
▁flow	-10.9681
▁anxiously	-10.9683
▁mixed	-10.9684
▁related	-10.9685
▁curtains	-10.9688
▁accordingly	-10.9688
cont	-10.9689
▁heap	-10.9702
▁deadly	-10.9706
▁guessed	-10.9712
▁characters	-10.9714
▁answering	-10.9714
▁40	-10.9715
yes	-10.9715
▁Le	-10.9716
son	-10.9716
▁bunch	-10.9717
▁phrase	-10.9721
?!	-10.9725
▁CAPTAIN	-10.9726
▁bowl	-10.9734
ian	-10.9736
▁scenes	-10.9736
▁v	-10.9739
▁require	-10.9742
▁incident	-10.9743
▁gracious	-10.9743
▁floating	-10.9747
▁Daddy	-10.9748
Ay	-10.9752
▁Isabel	-10.9757
▁ages	-10.9766
▁Although	-10.9766
▁theatre	-10.9767
book	-10.9771
▁feed	-10.9778
▁Eric	-10.9778
▁Susan	-10.9778
▁fuckin	-10.9782
▁heading	-10.9784
▁beaten	-10.9785
▁stout	-10.9787
▁accomplished	-10.9787
MRS	-10.9788
▁covering	-10.9793
▁Several	-10.9794
▁major	-10.9794
▁heartily	-10.9795
▁safely	-10.9796
Tell	-10.9798
▁paces	-10.9799
▁responsibility	-10.9801
▁teacher	-10.9801
▁happily	-10.9802
▁photo	-10.9802
▁mate	-10.9803
▁troops	-10.9803
▁oath	-10.9807
▁KING	-10.9811
▁louder	-10.9811
▁closet	-10.9811
HARRY	-10.9814
▁hither	-10.9815
ted	-10.9818
▁Am	-10.9818
▁pre	-10.9822
▁cop	-10.9822
Certainly	-10.983
▁altered	-10.9834
▁endeavoured	-10.9835
▁roused	-10.9835
▁objection	-10.9839
▁neighborhood	-10.984
▁21	-10.9846
▁East	-10.9851
▁Judge	-10.9855
▁numerous	-10.9857
▁anguish	-10.9861
▁powder	-10.9872
▁emotions	-10.9873
▁18	-10.9874
▁formerly	-10.9875
▁stroke	-10.9877
▁solitude	-10.9878
▁Fuck	-10.988
▁y	-10.9887
▁BOY	-10.9895
▁twisted	-10.9898
▁pas	-10.9899
▁recover	-10.99
▁including	-10.9902
▁Death	-10.9905
▁section	-10.9905
▁qualities	-10.9913
▁wash	-10.9918
▁completed	-10.9919
▁eggs	-10.992
▁assist	-10.9922
▁remarks	-10.9923
▁yield	-10.9927
▁corn	-10.993
▁prevented	-10.9936
your	-10.9941
▁preparing	-10.9945
▁politics	-10.9945
▁grows	-10.9946
▁addressing	-10.9948
▁nod	-10.9948
▁Harding	-10.9955
▁blowing	-10.9956
▁MORE	-10.9959
▁hastened	-10.9963
▁reminded	-10.9967
▁suggest	-10.9968
▁funeral	-10.9968
▁United	-10.9978
▁chase	-10.9981
▁saddle	-10.9981
▁glancing	-10.9982
▁wagon	-10.9983
▁Ten	-10.9984
Dear	-10.9987
▁Miller	-10.9995
▁Sue	-10.9995
▁corpse	-11.0002
▁disgust	-11.0004
▁noon	-11.0004
▁total	-11.0004
▁25	-11.001
▁Carter	-11.0012
▁term	-11.0018
▁Kitty	-11.0021
▁propose	-11.0021
▁parlour	-11.0023
▁affectionate	-11.0024
▁eaten	-11.0026
▁covers	-11.0027
▁angle	-11.0031
▁shout	-11.0036
▁impatience	-11.0043
▁trap	-11.0043
▁Leonard	-11.0048
▁Lisa	-11.0052
▁Alwynne	-11.0054
▁shrugs	-11.0059
▁Pete	-11.006
▁IV	-11.0066
▁amazed	-11.007
▁intervals	-11.0072
▁consequences	-11.0073
▁Bond	-11.0074
▁fancied	-11.0075
▁lodgings	-11.0075
▁LISA	-11.0076
▁Nay	-11.0078
▁dreamed	-11.0089
▁Rick	-11.0091
▁elsewhere	-11.0094
▁protest	-11.0096
▁weird	-11.0099
▁prepare	-11.0101
▁Latin	-11.0105
▁railway	-11.0109
▁wing	-11.0115
▁disappears	-11.0122
▁remind	-11.0127
BILLY	-11.0134
Be	-11.0139
▁hundreds	-11.0141
▁fortnight	-11.015
▁disgrace	-11.0151
▁yielded	-11.0161
▁prize	-11.0162
▁presses	-11.0169
▁pit	-11.0172
▁checked	-11.0176
▁distinctly	-11.0185
▁craft	-11.0189
▁positive	-11.019
▁instructions	-11.0192
▁jealousy	-11.0195
▁Duchess	-11.0198
▁THROUGH	-11.0204
▁intent	-11.0212
▁flashed	-11.0214
▁tremendous	-11.0214
▁24	-11.0215
▁wives	-11.0219
▁reasonable	-11.022
▁coal	-11.022
▁awe	-11.0223
▁pitch	-11.0227
▁string	-11.023
▁contented	-11.0245
▁inhabitants	-11.0245
▁Also	-11.0246
▁community	-11.0249
▁Sandy	-11.025
Miss	-11.0257
▁slender	-11.0259
▁articles	-11.0267
▁landlord	-11.0267
▁bull	-11.0269
▁Looks	-11.0271
▁AN	-11.0273
▁backs	-11.0273
side	-11.0278
even	-11.0281
▁actions	-11.0283
▁sunk	-11.0287
▁parked	-11.0288
▁OK	-11.029
▁Jordan	-11.0292
▁Johnny	-11.0294
▁MUSIC	-11.0295
▁TOM	-11.0297
▁furnished	-11.0298
▁drinks	-11.0298
▁submit	-11.0299
▁blew	-11.0299
▁STEPHEN	-11.03
very	-11.0302
▁bay	-11.0304
▁compared	-11.0304
▁Too	-11.0305
▁h	-11.0306
▁faintly	-11.0307
▁]	-11.0309
some	-11.031
▁Night	-11.0313
▁romantic	-11.0318
▁performed	-11.0319
▁secretary	-11.0319
▁citizen	-11.0319
▁reduced	-11.0327
▁kicks	-11.0329
▁bishop	-11.0329
▁principles	-11.0341
▁Jennie	-11.0344
▁BY	-11.0349
▁gallery	-11.0351
▁des	-11.0352
▁warriors	-11.0355
▁fog	-11.0361
▁granted	-11.0369
▁whereas	-11.0371
▁feeble	-11.0372
▁MED	-11.0375
▁policy	-11.0375
▁gloves	-11.0388
▁engineer	-11.0389
EE	-11.0391
▁interfere	-11.0393
▁SHE	-11.04
▁banks	-11.0401
▁Were	-11.0412
▁services	-11.0412
▁whispers	-11.0415
▁Tim	-11.0418
▁whip	-11.0426
▁tosses	-11.0427
MR	-11.0431
▁extra	-11.0434
▁reception	-11.0434
▁Emperor	-11.0436
▁dis	-11.044
▁YOUNG	-11.0451
▁sentiment	-11.0454
▁breathe	-11.0461
▁crushed	-11.0463
▁hunt	-11.0465
▁Oz	-11.0469
▁AFTERNOON	-11.0469
▁grin	-11.0472
▁practically	-11.0475
▁merit	-11.0477
AN	-11.0477
▁heir	-11.048
four	-11.0481
▁chapter	-11.0481
▁climbed	-11.0482
▁Tin	-11.0484
▁Should	-11.0492
▁Arabella	-11.0496
▁professional	-11.0497
▁offering	-11.05
▁catching	-11.05
▁brains	-11.0502
▁FLOOR	-11.0505
▁co	-11.0505
▁Dorothea	-11.0505
▁shoots	-11.0506
▁Soon	-11.0506
▁cheap	-11.0509
▁Sophia	-11.0511
▁Other	-11.0512
▁blown	-11.0513
▁curse	-11.0514
▁swinging	-11.0517
▁meanwhile	-11.0521
▁Betsy	-11.0521
▁Ross	-11.0524
▁pavement	-11.0524
▁positively	-11.0524
▁recall	-11.0525
▁Hill	-11.0527
▁Island	-11.0529
▁tin	-11.053
▁Logan	-11.053
▁ladyship	-11.053
▁acknowledge	-11.0532
▁hence	-11.0532
▁MATT	-11.0534
▁sole	-11.0537
▁recalled	-11.0542
▁Keep	-11.0544
▁Rebecca	-11.0545
▁lofty	-11.0546
▁painting	-11.0553
▁shield	-11.0553
▁fro	-11.0553
▁wilt	-11.0561
▁Magdalen	-11.0564
▁GUARD	-11.0564
▁performance	-11.0567
▁instrument	-11.0572
▁training	-11.0572
▁Kennedy	-11.0573
▁bite	-11.0576
▁Nigel	-11.058
With	-11.059
An	-11.0592
▁illness	-11.0593
▁images	-11.0597
▁innocence	-11.0597
▁vulgar	-11.0599
▁monstrous	-11.0604
▁proposal	-11.0611
▁trifle	-11.0612
▁princess	-11.0614
▁receiving	-11.0615
▁carpet	-11.0619
▁voyage	-11.0621
▁cautiously	-11.0625
▁Ashe	-11.063
▁conceived	-11.0632
▁preferred	-11.0632
▁passenger	-11.0639
▁Italy	-11.0643
▁Remember	-11.0647
▁spell	-11.0649
▁tobacco	-11.0649
▁offended	-11.0652
▁enjoying	-11.0652
▁rescue	-11.0658
▁Benny	-11.0659
▁Excuse	-11.0661
----------------	-11.0663
▁residence	-11.0663
▁fortunate	-11.0664
▁bags	-11.0665
two	-11.0666
▁BEAT	-11.067
▁boats	-11.067
▁beam	-11.0671
▁pants	-11.0675
▁Violet	-11.0677
▁POLICE	-11.0682
▁studied	-11.0684
▁Hugh	-11.0686
▁winds	-11.0687
▁Jackie	-11.0687
▁backwards	-11.0691
▁portrait	-11.0691
hand	-11.0698
▁listens	-11.0699
▁intelligent	-11.0708
▁lovers	-11.0712
▁modest	-11.0716
▁cares	-11.0719
▁Fairy	-11.072
▁Dale	-11.0721
▁sober	-11.0729
▁loaded	-11.0735
▁MARK	-11.0735
▁Down	-11.0737
▁continually	-11.0737
▁Adams	-11.0743
▁firing	-11.0748
▁mission	-11.075
▁bigger	-11.0755
▁WILL	-11.0759
▁longing	-11.077
▁polite	-11.077
▁persuaded	-11.0771
▁Palliser	-11.0771
▁tray	-11.0774
▁emerges	-11.0779
▁linen	-11.0782
▁Monday	-11.0783
z	-11.079
▁apt	-11.0797
▁bush	-11.08
▁murmur	-11.0801
▁twilight	-11.0807
▁prayers	-11.081
▁attracted	-11.0811
▁se	-11.0811
▁philosophy	-11.0816
▁valuable	-11.0816
▁rays	-11.0818
im	-11.0819
▁bitch	-11.0822
▁intellectual	-11.0825
▁depend	-11.0826
▁offers	-11.0828
▁pours	-11.0829
▁leisure	-11.0831
▁mode	-11.0832
▁travelling	-11.0834
▁Jimmy	-11.0836
▁alley	-11.0836
▁overhead	-11.0837
▁filling	-11.0837
▁mild	-11.0838
▁Shit	-11.0839
▁Bell	-11.0843
▁horrid	-11.0853
▁MEN	-11.0853
▁shouts	-11.0856
ul	-11.0856
▁union	-11.0857
Take	-11.0857
▁rival	-11.0859
▁assume	-11.086
▁longed	-11.0863
▁Instead	-11.0864
▁electric	-11.0867
▁county	-11.0867
▁Catherine	-11.0871
▁DANNY	-11.0874
▁impatiently	-11.0876
▁depth	-11.0876
▁wreck	-11.088
▁www	-11.0882
▁bitterly	-11.0887
▁refuge	-11.0889
▁bone	-11.089
▁DAWN	-11.0891
▁22	-11.0894
▁helping	-11.0896
▁kinds	-11.0896
▁damp	-11.0896
▁wept	-11.0898
▁lively	-11.0899
▁Rev	-11.0907
▁washed	-11.0909
▁remove	-11.0909
▁inevitable	-11.0914
▁millions	-11.0917
▁mansion	-11.0922
gif	-11.0924
▁madness	-11.0926
▁acquired	-11.0927
▁maintain	-11.0931
natured	-11.0931
▁sensation	-11.0933
▁warrant	-11.0936
▁spear	-11.0937
▁Leo	-11.0938
where	-11.0939
ant	-11.0942
▁Glencora	-11.0943
▁obeyed	-11.0946
▁model	-11.0947
▁War	-11.095
▁charged	-11.0956
▁devotion	-11.0957
▁fed	-11.0965
▁marrying	-11.0967
▁Pope	-11.0969
▁shortly	-11.097
▁Governor	-11.0972
▁frequent	-11.0973
▁grounds	-11.0977
▁sore	-11.0977
▁signed	-11.0978
▁outward	-11.0985
▁wishing	-11.0986
▁colonel	-11.0986
▁favorite	-11.0993
▁drawer	-11.0994
▁MOTHER	-11.1
▁sang	-11.1
▁admired	-11.1001
▁satisfy	-11.1004
▁existed	-11.1007
▁com	-11.101
▁knocks	-11.1013
▁video	-11.1015
▁supported	-11.1021
▁vengeance	-11.1021
▁determination	-11.1021
▁regarding	-11.1022
▁doubted	-11.1022
▁SCREEN	-11.1036
▁eighteen	-11.1038
▁visitors	-11.1038
▁hesitates	-11.1039
▁chiefly	-11.1047
▁mustn	-11.1053
▁LADY	-11.1054
▁hunger	-11.1062
▁novel	-11.1063
▁Squire	-11.1063
ley	-11.1064
▁wounds	-11.107
▁jail	-11.107
▁injured	-11.107
▁Has	-11.1071
▁desperately	-11.1072
▁unpleasant	-11.1077
LE	-11.1079
▁clothing	-11.1083
▁hopeless	-11.1086
▁lowered	-11.1086
▁grandmother	-11.1088
▁Wolf	-11.1088
▁Chia	-11.1093
▁genuine	-11.1099
▁Half	-11.1099
▁KIRK	-11.1099
▁pronounced	-11.1108
▁awhile	-11.1111
▁agitation	-11.1111
▁gravity	-11.1111
▁restless	-11.1112
▁crash	-11.1119
▁monsieur	-11.112
▁murdered	-11.1121
▁secrets	-11.1123
▁sugar	-11.1128
▁tough	-11.1129
▁passions	-11.1132
▁shy	-11.1135
▁foul	-11.1138
▁Barney	-11.1139
▁bewildered	-11.1141
▁blast	-11.1143
▁cunning	-11.1145
▁plastic	-11.1148
▁Gerald	-11.1168
▁fame	-11.117
▁BAR	-11.1171
head	-11.1171
Mrs	-11.1172
▁Moon	-11.1172
▁Eddie	-11.1175
▁Call	-11.118
▁brick	-11.118
▁restored	-11.1181
ud	-11.1185
▁HEAD	-11.1187
▁exquisite	-11.1192
▁velvet	-11.1201
▁None	-11.1202
▁Trevelyan	-11.1203
▁effects	-11.1204
▁harsh	-11.1206
▁whither	-11.1207
▁uncertain	-11.1209
▁cure	-11.121
▁increase	-11.1215
▁100	-11.1219
▁Sea	-11.1219
▁leaf	-11.122
▁Veronica	-11.1222
▁clearing	-11.1229
▁cheer	-11.1234
▁sunset	-11.1235
▁ringing	-11.1237
▁childhood	-11.124
▁Caesar	-11.1249
▁brush	-11.1251
▁FADE	-11.1253
▁wherever	-11.1255
LARRY	-11.126
▁shalt	-11.126
▁enjoyment	-11.1261
▁kissing	-11.1265
because	-11.1269
▁altar	-11.1269
▁precisely	-11.127
▁advise	-11.1274
▁Dorrit	-11.1276
▁terribly	-11.1277
▁Being	-11.1278
ier	-11.1279
▁containing	-11.128
▁ROB	-11.1286
▁Scotland	-11.1286
▁bargain	-11.1289
▁operation	-11.1289
▁curiously	-11.1294
▁defence	-11.1294
▁cattle	-11.1295
▁blessing	-11.1296
▁Lester	-11.1304
▁mail	-11.1305
▁packed	-11.1306
▁Close	-11.1308
▁Lieutenant	-11.1308
MARK	-11.1308
▁chances	-11.1314
▁motions	-11.1316
▁wolf	-11.1317
▁Royal	-11.1317
▁Jude	-11.1318
▁MALCOLM	-11.1318
▁torture	-11.1319
▁Boy	-11.1326
▁disappear	-11.1326
▁locks	-11.133
▁balls	-11.1334
▁DUSK	-11.1335
▁FRONT	-11.1336
▁tip	-11.1337
▁Lily	-11.1338
▁vaguely	-11.1348
▁chap	-11.1348
▁Lapham	-11.1351
▁injury	-11.1351
▁annoyed	-11.1355
▁render	-11.1356
ra	-11.1357
▁mostly	-11.1358
▁frightful	-11.1359
▁Eustace	-11.136
](	-11.136
▁thief	-11.1362
▁warrior	-11.1366
▁Gresham	-11.1369
▁unlike	-11.1371
▁interval	-11.1373
▁Coningsby	-11.1378
▁Pencroft	-11.1379
▁bath	-11.1381
▁Doc	-11.1382
▁qu	-11.1388
▁Blanche	-11.1391
▁duke	-11.1394
▁seeming	-11.1396
▁release	-11.1398
▁ape	-11.1405
▁graceful	-11.1405
▁recognised	-11.1411
▁debt	-11.1411
▁waved	-11.1413
▁responsible	-11.1416
▁capacity	-11.1417
▁Bobby	-11.1417
▁romance	-11.142
▁treatment	-11.142
▁dad	-11.142
▁den	-11.1424
▁belongs	-11.1426
▁Him	-11.1427
▁arrested	-11.1428
TO	-11.1429
▁acts	-11.1433
▁fur	-11.1434
▁Mowbray	-11.1435
▁split	-11.1438
▁Looking	-11.144
▁Miles	-11.1441
▁rector	-11.1441
▁steam	-11.1457
ha	-11.1458
▁examine	-11.1462
▁lane	-11.1464
▁lifting	-11.1466
▁autumn	-11.1469
TED	-11.1476
▁farmer	-11.1476
▁Hold	-11.148
headed	-11.148
▁Geoffrey	-11.1484
▁confession	-11.1486
▁deceived	-11.1489
▁memories	-11.1492
▁jewels	-11.1492
▁Harold	-11.1493
▁landed	-11.1498
▁discuss	-11.1502
▁wont	-11.1502
▁bottles	-11.1503
▁sinking	-11.1503
▁suspicious	-11.1521
▁CHARLES	-11.1521
▁contrast	-11.1522
▁DE	-11.1523
▁landscape	-11.1524
our	-11.1528
▁aboard	-11.153
▁doubtful	-11.1533
▁RICK	-11.1535
.'"	-11.1537
▁aged	-11.1537
▁LA	-11.1539
▁barrel	-11.1539
▁fitted	-11.154
▁robe	-11.1555
▁tracks	-11.1556
▁MARGARET	-11.1558
▁pains	-11.1558
▁Make	-11.1559
▁conceive	-11.156
▁chill	-11.1563
▁28	-11.1568
age	-11.1568
▁assembled	-11.157
▁Charley	-11.1579
▁pretended	-11.1581
ning	-11.1585
▁Mount	-11.1586
▁daring	-11.1587
▁clasped	-11.1587
▁wretch	-11.1591
SON	-11.1593
▁attacked	-11.1597
▁Grand	-11.16
▁reserve	-11.1603
▁surrounding	-11.1603
▁Among	-11.1604
▁yonder	-11.1607
▁insult	-11.1607
▁whispering	-11.1607
▁perform	-11.1618
▁corners	-11.162
▁MOMENTS	-11.1627
down	-11.1631
▁pouring	-11.1631
▁scale	-11.1636
▁hut	-11.1637
▁criminal	-11.1641
▁shoe	-11.1642
ee	-11.1643
▁Lufton	-11.1644
▁variety	-11.1644
▁attractive	-11.1644
▁inform	-11.1647
▁warned	-11.1647
▁diamonds	-11.165
▁fairy	-11.1651
▁hurries	-11.1653
▁gang	-11.1655
▁discourse	-11.1661
▁Kelly	-11.1663
ine	-11.1663
▁VAN	-11.1663
5	-11.1663
▁agitated	-11.1665
▁Roland	-11.1677
See	-11.168
▁stretch	-11.168
▁charity	-11.1682
▁Friday	-11.1686
▁grab	-11.169
▁brass	-11.169
▁ERIC	-11.169
▁strikes	-11.1691
▁shaft	-11.1693
▁Silence	-11.1694
▁slope	-11.1695
▁mill	-11.1696
▁admire	-11.17
▁encounter	-11.1709
▁Washington	-11.1711
▁reckon	-11.1712
▁recollection	-11.1718
▁blanket	-11.172
▁inquiries	-11.1721
▁Marian	-11.1722
▁45	-11.1722
▁sleeve	-11.1726
▁swore	-11.1731
▁Whether	-11.1731
▁DOCTOR	-11.1734
▁belonging	-11.1738
▁hook	-11.174
▁independent	-11.174
▁plunged	-11.1744
▁thanked	-11.1747
▁sport	-11.1747
gate	-11.1749
▁resentment	-11.175
▁aught	-11.1753
vo	-11.1754
▁reproach	-11.1755
▁Grey	-11.176
▁grant	-11.176
▁bleeding	-11.1761
▁Strether	-11.1762
▁threshold	-11.1769
▁incredible	-11.177
per	-11.177
▁Son	-11.177
▁wrought	-11.1774
▁tightly	-11.1775
▁sub	-11.1779
▁examination	-11.1785
▁mutual	-11.1786
▁counted	-11.1788
▁VI	-11.1788
ally	-11.1789
▁thumb	-11.179
▁JULIE	-11.179
May	-11.1791
▁PA	-11.1791
▁inward	-11.1792
▁dwelling	-11.1803
▁HAND	-11.1809
▁behaved	-11.181
▁vehicle	-11.1816
▁murderer	-11.1821
▁deliver	-11.1821
▁induced	-11.1824
▁appointment	-11.1825
▁dish	-11.1827
▁amiable	-11.1827
▁nigh	-11.1829
▁neat	-11.1829
▁WILLIAM	-11.1836
led	-11.1836
▁caution	-11.1843
▁anyhow	-11.1844
▁helmet	-11.1844
▁trousers	-11.1846
▁sheets	-11.1846
▁observing	-11.1847
bed	-11.1854
▁Angel	-11.1856
▁appreciate	-11.1856
▁gear	-11.1857
▁revolver	-11.1865
▁certainty	-11.1869
▁tune	-11.1871
▁balcony	-11.1886
▁Barbara	-11.1888
▁privilege	-11.1888
▁ALL	-11.1891
▁Clennam	-11.1896
▁FACE	-11.1898
▁error	-11.1905
▁cease	-11.1906
▁cursed	-11.1906
ty	-11.191
▁Homer	-11.191
▁inspired	-11.1913
more	-11.192
▁Scarecrow	-11.1926
▁elegant	-11.1926
▁Rosamond	-11.1928
▁charges	-11.1928
Star	-11.1945
▁skull	-11.1946
▁column	-11.1953
▁Lydgate	-11.1955
▁holes	-11.1956
ner	-11.1956
▁Jason	-11.1958
▁charms	-11.1961
▁JIM	-11.1962
▁literature	-11.1966
▁notwithstanding	-11.1967
▁halt	-11.1969
▁END	-11.1974
▁messenger	-11.1975
▁gleam	-11.1976
▁occasional	-11.1976
▁dislike	-11.1977
▁dashed	-11.1978
▁trained	-11.1984
▁FIRE	-11.1984
▁chimney	-11.1984
ta	-11.1988
▁dried	-11.1989
▁tossed	-11.1992
▁INTERIOR	-11.1997
▁peers	-11.2008
▁policeman	-11.2008
▁profit	-11.2008
▁esteem	-11.2011
▁stable	-11.2012
▁opposition	-11.2015
▁flashing	-11.2017
▁bitterness	-11.2018
▁secured	-11.2018
▁weep	-11.2027
▁labor	-11.2028
▁shots	-11.2032
▁boss	-11.2033
▁Thee	-11.2033
▁noted	-11.2033
▁alien	-11.2034
▁persuade	-11.2037
▁OFFICER	-11.2038
▁sentiments	-11.204
▁Al	-11.2044
▁pound	-11.2045
▁lodging	-11.2045
▁MY	-11.2045
▁cow	-11.2047
work	-11.2048
▁Room	-11.2048
▁HARRY	-11.2048
▁scent	-11.2051
▁subtle	-11.2052
▁lo	-11.2052
▁likes	-11.2053
▁purposes	-11.2053
▁Daniel	-11.2056
▁breathed	-11.2058
▁Ford	-11.2064
▁shan	-11.2064
▁MAC	-11.2066
▁Gordon	-11.2066
▁FIRST	-11.2067
past	-11.2071
ship	-11.2071
▁realizes	-11.2072
▁yo	-11.2073
▁jaw	-11.2074
▁personally	-11.2077
▁Moreover	-11.2078
▁universe	-11.2085
▁candles	-11.2091
▁landlady	-11.2095
▁substance	-11.2095
▁arrest	-11.2103
▁birthday	-11.2107
▁Andrew	-11.2109
▁0	-11.2113
▁multitude	-11.2115
▁26	-11.2116
▁arrangements	-11.2118
▁.)	-11.2119
▁********	-11.2123
▁adventures	-11.2125
▁sidewalk	-11.2126
▁ideal	-11.2129
▁displayed	-11.213
▁Dear	-11.2139
▁Mars	-11.2141
▁deserved	-11.2143
▁flips	-11.2144
light	-11.2154
▁thence	-11.2155
▁eldest	-11.2155
▁TOMMY	-11.2159
▁Jackson	-11.2159
▁cake	-11.2159
▁developed	-11.2161
▁enabled	-11.2163
▁attorney	-11.2166
faced	-11.2168
▁collected	-11.2168
▁Meg	-11.2174
▁toilet	-11.2174
0	-11.2179
NA	-11.2179
rd	-11.2183
▁pig	-11.2185
▁intimacy	-11.2186
▁accompany	-11.2191
▁Graham	-11.2196
▁Chiltern	-11.2196
▁establishment	-11.2199
▁Nancy	-11.22
On	-11.22
▁rows	-11.22
▁Clavering	-11.2206
que	-11.2206
▁BRIDGE	-11.221
▁bother	-11.2214
▁denied	-11.2216
▁Sid	-11.2217
▁withdrew	-11.2218
▁fan	-11.2224
▁medicine	-11.2228
▁passengers	-11.2233
▁expedition	-11.2238
▁pencil	-11.2239
▁awoke	-11.2246
▁desires	-11.2247
▁scientific	-11.2248
▁alongside	-11.2249
▁Bernard	-11.225
▁Pao	-11.2252
▁fishing	-11.2255
▁booth	-11.2256
▁exceedingly	-11.2258
▁purchase	-11.2261
▁definite	-11.2263
4	-11.2271
▁console	-11.2271
▁uses	-11.2275
▁peaceful	-11.2275
▁ours	-11.2276
▁Isn	-11.2276
here	-11.2277
▁saving	-11.2277
▁23	-11.2282
▁amidst	-11.2284
▁delicious	-11.2285
▁confined	-11.2289
▁penny	-11.229
▁apprehension	-11.2291
have	-11.2291
▁rail	-11.2301
▁Victor	-11.2302
▁Rue	-11.2305
▁complain	-11.2306
▁intently	-11.2311
▁coarse	-11.2312
▁60	-11.2314
ma	-11.2315
▁reported	-11.2317
▁bows	-11.2317
▁Beat	-11.2318
▁arrives	-11.2319
▁bend	-11.232
▁ROAD	-11.2326
se	-11.2327
▁Africa	-11.2328
▁guilt	-11.2328
▁Vanstone	-11.2328
▁remembrance	-11.2331
would	-11.2338
▁simplicity	-11.2339
▁beings	-11.2342
▁MAIN	-11.2346
▁confirmed	-11.2352
▁newspapers	-11.2353
▁enable	-11.2354
▁literary	-11.236
▁reaction	-11.2362
▁COP	-11.2363
▁causes	-11.2365
▁gifts	-11.2366
▁descend	-11.2367
▁oak	-11.2369
▁equipment	-11.237
▁Maria	-11.2373
▁project	-11.2374
▁bending	-11.2377
▁fragments	-11.2377
▁RAY	-11.2378
▁Hale	-11.2381
▁Armadale	-11.2382
▁selfish	-11.2388
▁compliment	-11.239
▁entertained	-11.2393
▁regards	-11.2398
▁needle	-11.2404
▁gardens	-11.2405
...."	-11.2406
▁damned	-11.2409
▁centuries	-11.2411
ate	-11.2416
▁Fox	-11.2418
▁Harris	-11.2423
▁provide	-11.2427
▁careless	-11.2433
▁flashes	-11.2435
▁thoughtful	-11.2435
▁greeted	-11.2435
▁repose	-11.2436
▁BILL	-11.2436
▁butter	-11.245
▁procession	-11.2453
▁renewed	-11.2454
▁Nora	-11.2455
▁struggled	-11.2463
▁shelf	-11.2465
▁consented	-11.247
▁studying	-11.2471
line	-11.2472
▁compassion	-11.2472
▁Doug	-11.2473
▁pollen	-11.2473
▁Arnold	-11.2485
▁addition	-11.2489
▁confessed	-11.2491
▁average	-11.2494
▁Thorne	-11.2496
▁VIEW	-11.2496
▁Dave	-11.2498
▁temptation	-11.2498
▁warn	-11.2499
▁endless	-11.2502
▁destiny	-11.2505
▁switch	-11.2507
▁protested	-11.2509
▁lighter	-11.2511
▁poison	-11.2512
▁Cross	-11.2515
▁growth	-11.2516
▁climbing	-11.2516
▁greet	-11.2517
▁sweep	-11.2521
▁sensitive	-11.2522
▁manager	-11.2522
▁STARK	-11.2522
▁Wall	-11.2523
▁Jeff	-11.2529
▁doubts	-11.2529
▁Prime	-11.253
▁drowned	-11.253
▁flag	-11.253
▁clung	-11.2536
▁masters	-11.2536
ring	-11.2544
▁CHRIS	-11.2545
▁deeds	-11.2545
▁stove	-11.2552
▁[![	-11.2552
▁Far	-11.2552
▁awakened	-11.2553
▁Mackenzie	-11.2557
▁Israel	-11.2557
▁Company	-11.2558
▁GUY	-11.2559
▁threatening	-11.2559
▁finest	-11.2564
▁execution	-11.2564
▁fills	-11.2568
DR	-11.2568
▁Western	-11.2569
▁relative	-11.257
▁tools	-11.2571
▁generation	-11.2575
ily	-11.2575
▁steward	-11.2579
▁inquire	-11.258
▁discussed	-11.2582
▁bursts	-11.2586
▁Indians	-11.2596
▁shell	-11.2597
▁SECOND	-11.2597
▁willingly	-11.26
▁sobbing	-11.26
▁collection	-11.2604
▁Someone	-11.2607
▁resolve	-11.2607
▁BARBARA	-11.261
▁underneath	-11.261
▁tribe	-11.2615
▁snaps	-11.2616
▁luxury	-11.262
▁lots	-11.2621
▁joint	-11.2622
▁abandon	-11.2625
▁recent	-11.2629
▁Bible	-11.2631
▁bonnet	-11.2634
▁teaching	-11.2638
▁Woman	-11.2638
▁costume	-11.2639
▁feast	-11.2642
▁published	-11.2642
ad	-11.2643
▁Po	-11.2644
▁visits	-11.2648
▁jest	-11.265
▁whistle	-11.2653
▁Council	-11.2653
▁feminine	-11.2653
▁lace	-11.2653
▁Midwinter	-11.2654
▁remembering	-11.2659
▁mob	-11.2659
▁attempts	-11.2662
▁declined	-11.2667
▁pattern	-11.2669
▁brute	-11.267
▁introduce	-11.2672
▁BATHROOM	-11.2675
▁presume	-11.2676
▁rarely	-11.2678
▁India	-11.2681
▁dreaming	-11.2681
EN	-11.2681
▁preserved	-11.2683
▁owing	-11.2683
▁intercourse	-11.2684
▁robbed	-11.2684
▁scarlet	-11.2684
▁national	-11.2685
▁increasing	-11.2689
ized	-11.269
lo	-11.2693
▁text	-11.2695
▁sale	-11.2701
▁LONG	-11.2705
▁seventy	-11.2708
▁disturb	-11.271
old	-11.271
▁neighbours	-11.2711
▁amazing	-11.2714
▁slain	-11.2717
▁openly	-11.2717
▁Sun	-11.2719
▁tragedy	-11.2726
▁Florence	-11.2727
▁chambers	-11.2734
▁printed	-11.2743
▁danced	-11.2746
▁avoided	-11.2746
▁parking	-11.2747
▁obedience	-11.2749
▁commenced	-11.2751
▁believing	-11.2752
▁Nice	-11.2753
▁motives	-11.2756
▁circles	-11.2757
▁bundle	-11.2757
▁Matthew	-11.2758
▁entitled	-11.2759
▁conducted	-11.2765
▁briefly	-11.2765
▁29	-11.2765
▁mom	-11.2766
▁March	-11.2766
ur	-11.2767
▁waiter	-11.2771
▁statue	-11.2777
▁tenderly	-11.2778
▁talent	-11.2784
▁ALEX	-11.2787
▁eagerness	-11.2793
▁students	-11.2794
▁orange	-11.2799
▁questioned	-11.28
▁depart	-11.2801
co	-11.2806
▁HIGH	-11.281
▁insist	-11.2812
▁student	-11.2814
▁summoned	-11.2814
▁restaurant	-11.2819
▁doctrine	-11.282
▁hurriedly	-11.2821
▁spy	-11.2822
▁terrace	-11.2822
nd	-11.2823
▁writes	-11.2826
▁Ozma	-11.2826
▁Hester	-11.283
▁betray	-11.2833
▁Place	-11.2834
His	-11.2835
▁removes	-11.2835
▁MOM	-11.2836
▁pole	-11.2838
▁fiercely	-11.284
▁brook	-11.284
▁OUTSIDE	-11.2841
▁Holly	-11.2845
▁tank	-11.2845
▁frankly	-11.2847
▁CITY	-11.2848
▁FRED	-11.2851
▁Stay	-11.2852
▁district	-11.2853
▁sixteen	-11.2855
▁ASH	-11.2855
▁spectacle	-11.2855
▁Oxford	-11.2856
▁Justice	-11.286
▁Got	-11.2866
▁Drew	-11.2867
▁proportion	-11.287
▁indicated	-11.2871
▁distinction	-11.2874
▁lessons	-11.2877
ph	-11.2884
▁expectation	-11.2886
▁cream	-11.2889
▁monitor	-11.2891
Poor	-11.2896
▁unseen	-11.2899
▁tremble	-11.2899
▁TED	-11.2901
▁towel	-11.2904
▁panel	-11.291
▁sincere	-11.2915
▁Surely	-11.2916
▁universal	-11.2919
▁Haven	-11.2924
▁sheer	-11.2928
▁bullets	-11.293
▁Matt	-11.293
▁Cole	-11.2931
▁Dean	-11.2933
▁confident	-11.2938
▁ashes	-11.294
▁roses	-11.2941
▁pleasures	-11.2942
▁resistance	-11.2943
▁glare	-11.2946
▁fireplace	-11.2947
▁Ned	-11.2948
▁boldly	-11.2948
▁lined	-11.2952
▁winding	-11.2953
ai	-11.2955
▁Jenny	-11.2956
▁TONY	-11.2956
▁Julie	-11.2962
▁coldly	-11.2962
▁RADIO	-11.2963
▁development	-11.2964
▁Montoni	-11.2964
▁dragging	-11.2965
born	-11.2967
▁Jean	-11.2972
▁advancing	-11.2978
▁Glass	-11.2978
▁Agnes	-11.2978
▁parent	-11.2981
▁MISS	-11.2981
CLOSE	-11.2983
▁OMITTED	-11.2992
▁intellect	-11.2993
▁supreme	-11.2995
▁narrative	-11.2995
▁accent	-11.3003
▁ability	-11.3003
▁humor	-11.3004
▁miracle	-11.3006
▁inclination	-11.3007
▁Guard	-11.3011
▁Shut	-11.3018
▁examining	-11.3023
▁formal	-11.3024
▁mouths	-11.3024
▁fright	-11.3025
▁countries	-11.3031
▁newly	-11.3032
▁liquid	-11.3035
▁element	-11.3035
perhaps	-11.3039
▁appetite	-11.304
▁seeds	-11.3041
▁intensity	-11.3041
▁wasted	-11.3043
▁endeavour	-11.3043
▁April	-11.3045
after	-11.3052
▁Ripley	-11.3052
▁dollar	-11.3053
▁election	-11.3054
▁Lawrence	-11.3055
▁Percival	-11.3065
▁neglected	-11.3066
▁secretly	-11.3073
▁ARE	-11.3079
▁tense	-11.308
▁emergency	-11.3086
▁employment	-11.3086
▁Miguel	-11.3087
▁surgeon	-11.3087
▁cities	-11.3088
▁comments	-11.3095
▁vote	-11.3095
▁needn	-11.3096
▁cruelty	-11.3097
▁pin	-11.3101
▁origin	-11.3105
▁lantern	-11.311
▁bored	-11.3111
▁dusk	-11.3116
▁Hell	-11.3117
nothing	-11.3118
▁!!!	-11.3122
▁woke	-11.3127
▁swim	-11.3128
▁veins	-11.3129
▁Felix	-11.3131
▁owed	-11.3134
▁27	-11.3134
▁fatigue	-11.3135
▁housekeeper	-11.3135
▁stated	-11.3139
▁promptly	-11.3142
▁solemnly	-11.3147
▁DOLL	-11.3148
▁canvas	-11.315
▁proposition	-11.3151
▁beams	-11.3152
▁childish	-11.3153
▁recognition	-11.3154
▁hood	-11.3155
▁LUCY	-11.3155
▁owned	-11.3155
▁con	-11.3156
▁counting	-11.316
▁united	-11.316
▁exception	-11.3164
▁dwell	-11.3166
▁LATE	-11.3167
▁shift	-11.317
▁Marilla	-11.3177
▁arrange	-11.3177
▁honourable	-11.3177
▁eyebrows	-11.3184
▁courtyard	-11.3187
tree	-11.3189
▁pine	-11.3191
▁KATE	-11.3196
▁snake	-11.3197
▁natives	-11.3201
▁quantity	-11.3208
▁hammer	-11.3209
▁swallowed	-11.3211
▁darkened	-11.3212
water	-11.3212
▁blush	-11.3218
▁anchor	-11.3218
▁Knight	-11.3225
▁peasant	-11.3231
▁SUSAN	-11.3231
door	-11.3236
stairs	-11.3238
▁burnt	-11.3243
▁si	-11.3249
▁earn	-11.3251
▁dies	-11.3252
▁Chinese	-11.3254
▁dishes	-11.3257
▁complexion	-11.3261
▁thoughtfully	-11.3263
▁uneasiness	-11.3265
▁occupation	-11.3266
▁skirt	-11.3273
▁convenient	-11.3274
▁Cat	-11.3282
▁...?	-11.3286
▁persisted	-11.3288
▁Lopez	-11.3288
▁perfection	-11.3289
▁thread	-11.3292
▁document	-11.3299
▁liking	-11.3303
▁PETER	-11.3305
▁gallant	-11.3306
▁vivid	-11.3306
▁Last	-11.3307
▁comparison	-11.331
▁channel	-11.3314
▁brandy	-11.3314
▁apple	-11.3315
▁Leave	-11.3318
▁slide	-11.3319
▁JAKE	-11.3322
▁physician	-11.3323
ro	-11.3325
▁advised	-11.3326
▁Chicago	-11.3328
▁Road	-11.333
wood	-11.3337
▁STEVE	-11.334
▁lawyers	-11.3344
▁writers	-11.3346
▁RE	-11.3351
▁Inside	-11.3352
▁bends	-11.3353
▁Lupin	-11.3357
▁ink	-11.3358
▁hurrying	-11.336
les	-11.3362
▁Temple	-11.3367
▁cellar	-11.338
▁hired	-11.3382
▁nails	-11.3384
▁shine	-11.3391
▁Francis	-11.3392
▁yer	-11.3397
▁undertake	-11.3398
▁JORDAN	-11.3401
6	-11.3404
▁comment	-11.3406
▁MICHAEL	-11.3409
ye	-11.341
glass	-11.3411
▁suspended	-11.3413
▁Alaric	-11.3414
▁nodding	-11.3417
▁Girl	-11.3417
▁forgetting	-11.3417
▁highway	-11.3418
▁apply	-11.3419
mo	-11.342
▁lend	-11.3422
▁wits	-11.3422
▁delicacy	-11.3424
▁garage	-11.3424
▁condemned	-11.3425
▁accused	-11.3429
▁pupil	-11.3429
▁r	-11.3432
▁applause	-11.3436
▁Marguerite	-11.3439
▁net	-11.344
▁plates	-11.3445
▁Denry	-11.3447
▁healthy	-11.3447
▁belly	-11.3447
▁structure	-11.3451
▁Six	-11.3453
▁Clay	-11.3454
▁horn	-11.3455
▁majesty	-11.3458
▁soup	-11.3459
▁jolly	-11.346
▁naught	-11.3466
▁Slowly	-11.3471
▁Ken	-11.3478
▁distinguish	-11.3478
j	-11.3481
▁roads	-11.3485
▁barn	-11.3489
▁Li	-11.3493
▁Gertrude	-11.3495
▁crimson	-11.3501
▁fountain	-11.3507
▁polished	-11.3508
▁FBI	-11.351
▁frank	-11.3512
▁Mistress	-11.3514
▁Trevor	-11.3516
▁***	-11.352
▁arrow	-11.3523
▁dismay	-11.3524
red	-11.3527
▁despite	-11.3528
▁Johnson	-11.353
▁disguise	-11.3534
▁colored	-11.3537
▁dismissed	-11.3541
▁garments	-11.3545
▁deliberately	-11.3553
▁shuts	-11.3555
▁literally	-11.3556
▁roaring	-11.3559
minded	-11.356
▁priests	-11.357
▁Vavasor	-11.3574
▁television	-11.3574
▁downward	-11.3574
▁adopted	-11.3576
▁occur	-11.3577
▁errand	-11.3578
▁travellers	-11.3579
▁helps	-11.3579
▁classes	-11.3579
▁cabinet	-11.3589
▁lowers	-11.3593
▁disease	-11.3594
such	-11.3596
▁Help	-11.3596
▁nest	-11.3598
▁Gray	-11.3598
▁Troy	-11.3605
▁erect	-11.3606
▁MOVING	-11.3607
▁Vronsky	-11.361
▁amusing	-11.3612
▁pet	-11.3614
der	-11.3617
▁pilot	-11.362
▁respects	-11.362
▁Cap	-11.362
▁suited	-11.3622
▁infant	-11.3623
▁application	-11.3624
▁problems	-11.3624
▁rides	-11.3629
▁cord	-11.3629
▁gotten	-11.3634
PETER	-11.3635
▁conception	-11.3636
▁encouraged	-11.3639
▁Guy	-11.3643
▁preserve	-11.3644
▁blocks	-11.3647
▁entertain	-11.3648
▁heed	-11.365
▁Brother	-11.3652
▁ruins	-11.3653
▁tempted	-11.3657
▁tidings	-11.3657
▁chicken	-11.3661
▁envy	-11.3662
▁Jo	-11.3663
▁accounts	-11.3664
▁breathless	-11.3666
▁Jeffrey	-11.3667
▁coward	-11.3669
▁client	-11.3671
▁avail	-11.3674
▁Raffles	-11.3676
▁rigid	-11.3676
▁muscles	-11.3677
▁released	-11.3678
▁proceedings	-11.3685
▁cheese	-11.3686
ive	-11.3686
Ha	-11.3688
▁w	-11.3689
▁travelled	-11.3691
▁Myles	-11.3693
▁diamond	-11.3695
▁sends	-11.3702
▁Things	-11.3706
▁infinitely	-11.3707
▁standard	-11.3708
▁snap	-11.3712
▁yourselves	-11.3716
▁obscure	-11.3717
▁cent	-11.3721
▁idiot	-11.3725
▁neighbour	-11.3725
▁studio	-11.3726
▁necessarily	-11.3728
▁LITTLE	-11.3729
▁Dora	-11.373
▁maintained	-11.3731
▁tearing	-11.3732
▁alert	-11.3732
▁doctors	-11.3737
▁consisted	-11.3739
▁ETHAN	-11.3739
▁agreement	-11.3739
▁learnt	-11.3741
▁speaker	-11.3742
▁parson	-11.3742
****************	-11.3742
▁earthly	-11.3744
▁Murray	-11.375
▁swimming	-11.375
▁Micawber	-11.3751
Only	-11.3757
os	-11.376
▁alas	-11.3761
▁responded	-11.3765
▁convince	-11.3766
▁witnesses	-11.3768
▁rubber	-11.3773
▁Wharton	-11.3774
▁generosity	-11.3774
▁motor	-11.3784
▁expensive	-11.3784
▁dat	-11.3784
▁swords	-11.3784
▁lasted	-11.3785
▁recently	-11.3788
fashioned	-11.379
▁peril	-11.3792
▁manifest	-11.3798
▁vile	-11.3798
did	-11.3799
Enter	-11.3802
ard	-11.3804
▁tube	-11.3804
▁Almost	-11.3806
▁log	-11.3806
▁behave	-11.3806
▁holiday	-11.3808
▁reserved	-11.3808
▁greeting	-11.3808
▁Chichikov	-11.381
▁Undine	-11.3811
▁parlor	-11.3812
▁strict	-11.3815
▁reflect	-11.3817
▁Alas	-11.3818
▁proceeding	-11.3823
▁fifth	-11.3823
ri	-11.3826
▁gossip	-11.3831
▁LAURA	-11.3833
▁Tony	-11.3835
▁July	-11.3838
▁dispute	-11.3843
▁sails	-11.3843
▁referred	-11.3845
▁sins	-11.3846
ue	-11.3847
ci	-11.3849
▁fain	-11.3855
▁abode	-11.3857
▁gladly	-11.386
▁sadness	-11.3862
▁Simon	-11.3867
▁suits	-11.3872
▁elderly	-11.3874
▁contain	-11.3876
▁affect	-11.3876
▁region	-11.3879
▁chains	-11.3883
▁Twenty	-11.3883
▁preparations	-11.3895
▁prevailed	-11.3895
▁bike	-11.3898
▁entertainment	-11.3899
▁bits	-11.3899
▁marched	-11.3899
▁forming	-11.3903
▁induce	-11.3904
▁sphere	-11.3905
▁Wizard	-11.3905
▁retire	-11.3905
▁ter	-11.3907
▁arch	-11.3908
▁instruments	-11.391
▁reflections	-11.3912
ous	-11.3913
▁Dead	-11.3917
▁commit	-11.3918
▁panting	-11.3918
▁Neil	-11.392
▁rubbing	-11.392
Thou	-11.3923
MILES	-11.3923
chair	-11.3928
▁Cyrus	-11.3929
▁consolation	-11.3935
▁lobby	-11.3936
▁stillness	-11.3936
▁sack	-11.394
▁HOSPITAL	-11.3943
▁reporter	-11.3944
▁VAL	-11.3946
▁October	-11.3946
▁placing	-11.3947
▁Easy	-11.3947
▁combat	-11.3949
da	-11.3951
▁argue	-11.3953
ities	-11.3954
▁warmly	-11.3955
▁kicked	-11.3959
CAROL	-11.3959
▁foe	-11.3961
▁fitting	-11.3962
▁raw	-11.3963
▁checking	-11.3963
▁jury	-11.3964
▁code	-11.3965
▁kings	-11.3965
▁BOBBY	-11.3965
ex	-11.3966
▁discretion	-11.3966
▁Brooke	-11.3967
▁finishes	-11.3968
▁merchant	-11.397
▁http	-11.3971
▁cavern	-11.3972
▁Co	-11.3972
▁intentions	-11.3976
ver	-11.3977
▁Lucilla	-11.398
▁aroused	-11.398
▁dash	-11.3981
▁SCHOOL	-11.3981
▁JERRY	-11.3984
▁bomb	-11.3988
▁Forrest	-11.3991
▁approval	-11.3992
▁washing	-11.3992
▁folds	-11.3994
▁plot	-11.3994
▁JAC	-11.3998
...?	-11.4
▁Magee	-11.4002
▁carved	-11.4003
▁Hodder	-11.4003
▁commercial	-11.4003
over	-11.4005
▁clutching	-11.4007
▁boot	-11.4009
▁38	-11.401
▁Catholic	-11.4011
▁perpetual	-11.4013
▁stepping	-11.4013
▁gigantic	-11.4014
▁supplied	-11.4014
▁commission	-11.4014
▁35	-11.4016
▁celebrated	-11.4017
▁commands	-11.4017
▁DEBBIE	-11.4017
▁contrived	-11.4018
▁consult	-11.4019
▁CU	-11.402
▁liquor	-11.4022
IE	-11.4022
▁prayed	-11.4026
▁Thibault	-11.4027
Thriller	-11.4028
▁depends	-11.4028
▁vice	-11.403
▁Pauline	-11.4032
▁comrades	-11.4039
▁HEAR	-11.404
▁justified	-11.4041
▁rat	-11.4042
▁department	-11.4049
▁Furnival	-11.405
▁hearth	-11.405
ler	-11.4051
▁ragged	-11.4053
▁Chad	-11.4054
▁waking	-11.4054
▁elements	-11.4057
▁ending	-11.4057
▁wherein	-11.4057
▁apron	-11.4058
▁headed	-11.4058
▁pursue	-11.4059
▁Maya	-11.4059
▁roughly	-11.406
▁cable	-11.4061
7	-11.4064
▁Fine	-11.4065
▁encountered	-11.4067
▁embarrassment	-11.407
▁assistant	-11.4072
▁succession	-11.4076
▁Em	-11.408
▁EDWARD	-11.408
ka	-11.408
▁rubbed	-11.4087
▁joins	-11.4091
▁cliffs	-11.4093
▁bolt	-11.4095
▁bark	-11.4096
▁FULL	-11.4097
▁largest	-11.4098
▁te	-11.4103
▁reverence	-11.4104
▁definitely	-11.4104
▁incapable	-11.4104
▁governor	-11.4111
▁magazine	-11.4111
▁dusty	-11.4112
▁suitable	-11.4113
▁furiously	-11.4116
▁seed	-11.412
▁surprising	-11.4121
▁fourteen	-11.4123
▁spinning	-11.4124
▁youthful	-11.4126
▁subdued	-11.4127
▁fools	-11.4128
▁THEY	-11.4128
▁exchanged	-11.4128
▁convey	-11.4129
▁Sara	-11.4129
▁stool	-11.4131
▁prudence	-11.4136
▁Nina	-11.4137
▁clinging	-11.414
▁relieve	-11.4141
▁Cousin	-11.4144
▁kicking	-11.4145
▁groups	-11.4147
▁spared	-11.4147
▁lays	-11.4147
▁egg	-11.4148
▁SECURITY	-11.4148
▁consequently	-11.4149
▁Kazan	-11.4151
▁NOT	-11.4152
▁AREA	-11.4153
▁painfully	-11.4155
▁beautifully	-11.4157
▁unwilling	-11.4157
▁expressions	-11.416
▁happier	-11.4163
▁hedge	-11.4163
▁planned	-11.4163
▁irritated	-11.4166
▁Hence	-11.4167
▁courtesy	-11.4173
▁Holmes	-11.4173
▁timid	-11.4174
▁agents	-11.4174
▁limited	-11.4178
Would	-11.4178
▁Walt	-11.4181
▁regiment	-11.4182
▁tomb	-11.4185
▁Ernest	-11.4185
▁Didn	-11.4189
After	-11.4194
▁professor	-11.4194
▁LIGHT	-11.4207
▁brows	-11.421
▁punch	-11.4217
▁BELLA	-11.4218
▁access	-11.4222
▁Evan	-11.4222
▁Newton	-11.4225
▁cheerfully	-11.4228
▁65	-11.4231
▁aisle	-11.4232
▁par	-11.4233
▁fortunes	-11.4236
▁handful	-11.4237
▁previously	-11.4241
▁grins	-11.4242
▁sworn	-11.4242
▁challenge	-11.4242
▁echo	-11.4244
▁KAFF	-11.4248
▁champagne	-11.4248
▁alright	-11.4248
▁virtues	-11.4253
▁hug	-11.4254
▁fantastic	-11.4254
▁patch	-11.4256
▁claims	-11.426
▁ribbon	-11.4263
▁dresses	-11.4264
RSS	-11.4264
▁Feeds	-11.4268
▁OPEN	-11.427
▁Marquis	-11.427
▁DOROTHY	-11.4272
▁bedside	-11.4276
▁strip	-11.428
▁roots	-11.4284
▁Marmaduke	-11.4285
▁Ryan	-11.4285
▁September	-11.4288
▁measures	-11.4288
▁replaced	-11.4289
▁citizens	-11.4289
▁ANNA	-11.4293
▁tailor	-11.4294
▁player	-11.4295
▁porter	-11.4298
▁shilling	-11.4298
▁casting	-11.4299
▁NICKY	-11.43
▁36	-11.4303
▁mixture	-11.431
▁presents	-11.4311
▁Felipe	-11.4313
▁ROSE	-11.4314
▁pathetic	-11.4322
▁probability	-11.4322
▁swell	-11.4323
▁smallest	-11.4323
▁wander	-11.4325
▁Leopold	-11.4325
▁Providence	-11.4325
▁Parker	-11.4331
▁clad	-11.4331
▁BE	-11.4334
▁Dis	-11.4335
▁jaws	-11.4335
▁desolate	-11.434
▁sealed	-11.434
▁haunted	-11.4342
▁dimly	-11.4342
▁affections	-11.4343
▁31	-11.4346
ance	-11.4348
▁experiment	-11.4348
▁ticket	-11.4349
▁colors	-11.4352
rate	-11.4352
TJ	-11.4355
top	-11.4357
▁TRUCK	-11.4357
▁characteristic	-11.436
▁Aylmer	-11.436
hour	-11.4361
▁Monica	-11.4362
▁och	-11.4363
▁Shann	-11.4364
▁halted	-11.4364
▁PETE	-11.4365
▁Gudrun	-11.4374
▁pleaded	-11.4375
▁hatch	-11.4376
▁dreaded	-11.4383
▁Bruce	-11.4385
▁buttons	-11.4386
▁grain	-11.4387
▁dig	-11.4389
▁bells	-11.4389
▁betwixt	-11.4391
▁Americans	-11.4393
▁semi	-11.4394
▁hasty	-11.4395
▁wipes	-11.4396
▁sweetness	-11.4398
▁Crosbie	-11.4398
▁guided	-11.4405
▁les	-11.4408
▁comrade	-11.4413
tic	-11.4417
▁sobs	-11.4419
▁respond	-11.4421
▁torch	-11.4423
▁Alright	-11.4423
▁honestly	-11.4424
▁shapes	-11.4424
▁restore	-11.4431
▁ANN	-11.4431
▁suspicions	-11.4433
▁admirable	-11.4436
▁Armand	-11.4437
▁Chuck	-11.4438
▁flowing	-11.444
▁Bridge	-11.4444
▁poem	-11.4448
▁Jennifer	-11.4449
▁Lenny	-11.4449
RE	-11.445
▁ducks	-11.4453
▁shrill	-11.4455
▁lamps	-11.4457
▁Beth	-11.446
▁crisis	-11.4461
▁arguments	-11.4464
▁print	-11.4464
▁wiped	-11.4465
▁hesitate	-11.4466
TE	-11.4471
yard	-11.4472
▁council	-11.4474
▁shattered	-11.4475
ST	-11.4475
TH	-11.4477
▁quivering	-11.4477
▁hearty	-11.4478
▁bat	-11.4482
▁copper	-11.4483
▁conference	-11.4485
▁Crawford	-11.4487
▁encouragement	-11.4487
▁hitting	-11.4489
▁passages	-11.4491
except	-11.4492
▁planted	-11.4495
▁VII	-11.4496
Was	-11.4498
▁ray	-11.4498
▁Mine	-11.45
▁momentary	-11.4503
▁Show	-11.4505
▁dwelt	-11.4512
▁snapped	-11.4512
▁unworthy	-11.4513
▁despise	-11.4514
▁temporary	-11.4515
▁seize	-11.4517
▁manuscript	-11.4525
▁dined	-11.4528
▁contract	-11.453
▁Pollyanna	-11.453
▁opposed	-11.453
▁serving	-11.4531
▁relatives	-11.4532
▁protected	-11.4534
▁appearing	-11.4534
▁seal	-11.454
▁beds	-11.454
▁damage	-11.4543
▁route	-11.4547
▁framed	-11.4548
▁constitution	-11.455
▁End	-11.4554
▁photograph	-11.4558
▁afforded	-11.4559
ALI	-11.4562
▁monk	-11.4563
▁zeal	-11.4564
▁spoil	-11.4564
▁stake	-11.4568
▁shoves	-11.4575
UE	-11.4577
▁essential	-11.4578
▁Peggotty	-11.4578
▁selected	-11.4579
tel	-11.4582
▁particulars	-11.4584
▁JIMMY	-11.4585
▁summit	-11.4589
▁conflict	-11.4594
Shall	-11.4595
▁repeating	-11.4599
▁civilization	-11.4602
▁witch	-11.4603
▁Egyptian	-11.4604
▁rob	-11.4613
▁awfully	-11.4614
▁flashlight	-11.4616
▁offices	-11.4616
▁Jonas	-11.4617
▁FRAME	-11.4617
▁advantages	-11.4617
▁ut	-11.4621
▁il	-11.4621
au	-11.4625
▁villain	-11.4625
Drama	-11.4628
▁attendant	-11.4629
▁asks	-11.4631
▁fists	-11.4639
▁dreary	-11.4641
▁device	-11.4642
▁springs	-11.4645
▁morrow	-11.4651
▁critical	-11.4652
▁hostile	-11.4654
mon	-11.4655
▁Into	-11.4659
▁ledge	-11.4661
▁unconsciously	-11.4662
▁dock	-11.4662
▁concrete	-11.4667
▁conquered	-11.467
▁recollect	-11.4674
▁stretching	-11.4678
▁DON	-11.468
▁interposed	-11.4681
▁thirst	-11.4683
▁thankful	-11.4685
▁represent	-11.4686
▁](	-11.4694
▁conveyed	-11.4696
▁eyed	-11.4698
▁stirring	-11.4698
▁shared	-11.4704
▁resemblance	-11.4706
▁wilderness	-11.4706
▁Allison	-11.4706
▁explosion	-11.4707
▁nerve	-11.4709
▁harbour	-11.4711
▁snatched	-11.4721
Give	-11.4722
▁Beyond	-11.4723
▁selling	-11.4724
▁lodge	-11.4728
▁sullen	-11.4729
▁satisfactory	-11.4732
▁Kit	-11.4732
▁judged	-11.4736
▁sailors	-11.474
▁towns	-11.4744
▁root	-11.4745
▁amuse	-11.4746
▁kneels	-11.475
▁THREE	-11.4751
▁sailed	-11.4753
▁vacant	-11.4756
▁arts	-11.4758
about	-11.4758
▁honesty	-11.4762
▁toast	-11.4765
▁ample	-11.4765
▁pops	-11.4766
▁central	-11.4771
▁separation	-11.4771
▁Lecount	-11.4771
▁majority	-11.4772
▁inferior	-11.4773
▁Hetty	-11.4775
▁Home	-11.4778
▁bears	-11.478
▁echoed	-11.4782
▁defeat	-11.4782
▁forbid	-11.4783
▁brutal	-11.4783
▁Japanese	-11.4784
▁shrugged	-11.4784
▁fiery	-11.4784
▁strictly	-11.4788
▁Du	-11.4789
io	-11.4796
▁unnecessary	-11.4798
▁coffin	-11.4799
▁floated	-11.48
▁shillings	-11.4801
▁deaf	-11.4805
iness	-11.4808
▁Verloc	-11.4811
ade	-11.4811
▁thereby	-11.4811
▁Lincoln	-11.4813
▁Dolly	-11.4816
▁mute	-11.4817
boy	-11.4822
▁Ethan	-11.4824
▁construction	-11.4825
▁figured	-11.4826
▁kneeling	-11.4827
▁drift	-11.4827
▁chapel	-11.4829
▁communicate	-11.4829
▁70	-11.4832
▁compass	-11.4837
▁frantically	-11.4837
▁cotton	-11.484
Or	-11.485
▁mock	-11.4852
▁adding	-11.4858
▁sweeping	-11.4858
▁apartments	-11.4859
ANNIE	-11.4861
▁prospects	-11.4862
▁HANNA	-11.4864
▁machinery	-11.4865
never	-11.4866
into	-11.4867
▁Gloria	-11.487
▁racing	-11.4871
▁conquer	-11.4873
has	-11.4876
▁tricks	-11.4876
▁enterprise	-11.4878
▁reports	-11.4879
▁Dutch	-11.4879
▁cracked	-11.4883
▁create	-11.4887
▁THEM	-11.4888
▁claws	-11.4892
▁neglect	-11.4898
▁deceive	-11.49
▁punches	-11.4905
▁OTHER	-11.4906
▁Cut	-11.4908
▁emerged	-11.491
▁latest	-11.4912
▁Art	-11.492
▁Percy	-11.4921
▁entry	-11.4922
▁clay	-11.493
▁intolerable	-11.493
▁Irish	-11.4931
▁towers	-11.4931
▁Monk	-11.4934
▁colours	-11.4941
▁Cameron	-11.4943
ck	-11.4944
▁nothin	-11.4944
▁Senora	-11.4946
▁Tower	-11.4947
▁ce	-11.4947
▁ashore	-11.4947
con	-11.4947
▁grasped	-11.495
▁hay	-11.495
▁cups	-11.4951
▁mount	-11.4957
DISSOLVE	-11.496
▁games	-11.4962
▁VIII	-11.4968
▁Gould	-11.497
▁comfortably	-11.497
▁stooped	-11.4972
▁declaration	-11.4973
▁nuts	-11.4974
▁dangers	-11.4977
▁ranks	-11.4977
▁Until	-11.4979
▁western	-11.4981
▁quitted	-11.4984
▁spake	-11.4984
▁HELEN	-11.4988
▁Snow	-11.4994
▁remorse	-11.4995
▁neighbors	-11.4998
▁Kane	-11.4998
▁surrender	-11.5004
▁mechanical	-11.501
▁Elinor	-11.501
▁fashionable	-11.5012
▁dazed	-11.5015
▁players	-11.5021
▁balloon	-11.5023
nor	-11.5028
▁Watch	-11.5034
▁Patience	-11.5044
▁crystal	-11.5049
▁liberal	-11.505
▁dripping	-11.5051
▁Gandhi	-11.5052
▁distracted	-11.5053
▁gleaming	-11.5057
▁drama	-11.5059
▁radiant	-11.5063
▁plus	-11.5064
▁composure	-11.5064
▁undoubtedly	-11.5065
▁Boston	-11.5066
▁pleasantly	-11.5067
▁lords	-11.5068
▁disaster	-11.5068
].	-11.5073
▁methods	-11.5073
▁cock	-11.5075
▁traces	-11.5075
▁Gervaise	-11.5078
▁Garth	-11.5078
▁Gabriel	-11.5079
▁Maid	-11.508
▁proudly	-11.5081
haired	-11.5082
▁outline	-11.509
▁Comte	-11.5091
▁Kenny	-11.5092
▁Brian	-11.5092
▁Spain	-11.5092
▁searched	-11.5092
▁Isaac	-11.5093
▁complaint	-11.5094
▁Erik	-11.5095
▁yells	-11.5096
▁link	-11.5098
▁resources	-11.51
▁European	-11.5101
▁fleet	-11.5101
▁overwhelmed	-11.5106
▁lingered	-11.5106
▁gasped	-11.5107
▁42	-11.5107
▁sailing	-11.5109
▁Agent	-11.5111
▁THIS	-11.5112
▁expressing	-11.5122
▁shadowy	-11.5122
▁dense	-11.5124
▁lads	-11.5124
▁feathers	-11.5128
▁shops	-11.5129
▁woe	-11.5129
▁triumphant	-11.513
▁ANNIE	-11.513
▁Craig	-11.5132
▁attendance	-11.5132
▁KAREN	-11.5132
▁lighting	-11.5133
▁exciting	-11.5134
▁casually	-11.5136
▁reacts	-11.5138
▁songs	-11.5142
▁deer	-11.5142
▁eighty	-11.515
▁vent	-11.5151
▁tap	-11.5154
▁rips	-11.5156
▁Huh	-11.5157
▁desirous	-11.5159
▁glittering	-11.5161
▁Kid	-11.5162
▁allowing	-11.5164
▁specially	-11.5164
▁assisted	-11.5165
▁limits	-11.5169
▁..."	-11.5169
▁dealing	-11.5173
▁Dude	-11.5173
▁correspondence	-11.5173
▁heel	-11.5175
▁Sergeant	-11.5176
▁BB	-11.5179
ga	-11.5181
▁Germany	-11.5183
▁testimony	-11.5186
▁Tulliver	-11.5186
▁strides	-11.5188
▁Outside	-11.5189
▁JONES	-11.5191
▁pretence	-11.5192
▁Ball	-11.5192
▁Virginian	-11.5196
ir	-11.52
▁pop	-11.5203
▁**************	-11.5204
▁threat	-11.5205
▁distressed	-11.5209
▁compliments	-11.521
▁JAR	-11.5215
▁dramatic	-11.5218
▁coin	-11.5221
▁Mayor	-11.5222
▁shallow	-11.5228
▁CO	-11.5229
▁tu	-11.5231
▁LT	-11.524
▁hostess	-11.524
were	-11.5246
▁screamed	-11.5248
▁emphasis	-11.5258
▁waistcoat	-11.5261
▁Try	-11.5262
▁peering	-11.5262
▁NANCY	-11.5265
▁hanged	-11.5267
▁pleasing	-11.527
▁Pray	-11.5271
▁ties	-11.5271
▁fox	-11.5272
hole	-11.5272
▁axe	-11.5273
▁guarded	-11.5274
▁Clark	-11.5278
ERS	-11.5279
▁Richie	-11.5283
▁faults	-11.5285
▁yelling	-11.5285
▁Above	-11.5286
▁muffled	-11.5286
▁worms	-11.5287
▁forgiven	-11.5287
▁comprehend	-11.5294
▁perplexed	-11.5298
▁Ye	-11.5299
▁flush	-11.53
▁depended	-11.5302
twenty	-11.5303
▁tales	-11.5305
▁hereafter	-11.5307
▁insane	-11.5308
▁dost	-11.5311
▁1.	-11.5312
▁Nicholas	-11.5312
La	-11.5317
▁combination	-11.5317
▁relationship	-11.5317
▁River	-11.532
▁Lion	-11.5321
UES	-11.5322
▁parallel	-11.5324
▁complicated	-11.5325
▁script	-11.5325
making	-11.5326
▁32	-11.5328
▁glove	-11.5329
▁awaiting	-11.5329
▁masses	-11.5334
▁collect	-11.5335
▁angels	-11.5336
▁Bella	-11.5337
▁apology	-11.5338
▁breach	-11.534
▁ho	-11.5341
▁vexed	-11.5341
UEEN	-11.5345
▁shotgun	-11.5349
▁Seeing	-11.5353
▁Miriam	-11.5354
▁lid	-11.5354
▁elbows	-11.5354
▁cannon	-11.5355
field	-11.5357
▁JULIA	-11.5357
▁doin	-11.5358
▁AGENT	-11.5361
▁islands	-11.5361
▁unnatural	-11.5363
▁knelt	-11.5366
made	-11.5368
▁creeping	-11.537
▁Eames	-11.538
▁kidding	-11.538
▁DO	-11.5393
▁descent	-11.5394
▁55	-11.5394
ns	-11.5398
";	-11.5407
▁nasty	-11.5408
Does	-11.5408
▁urgent	-11.541
▁witnessed	-11.5417
▁measured	-11.5419
▁GREE	-11.542
▁PAN	-11.542
▁BERLIN	-11.5421
▁47	-11.5422
▁exclamation	-11.5429
▁dame	-11.5432
▁discipline	-11.5434
▁doll	-11.5435
Say	-11.5435
▁seas	-11.5438
▁Davies	-11.5441
▁sweetheart	-11.5444
▁Somebody	-11.5446
▁Office	-11.545
▁neatly	-11.5453
▁Storm	-11.5454
▁spectacles	-11.5454
▁trigger	-11.5454
▁spreading	-11.5455
▁feather	-11.5455
▁wiser	-11.5461
▁AMELIA	-11.5464
▁Society	-11.5467
▁jumping	-11.5467
▁consulted	-11.5467
▁whips	-11.5472
▁DEAN	-11.5473
▁chorus	-11.5476
▁Tappitt	-11.5478
▁desirable	-11.5478
▁formidable	-11.5478
▁necklace	-11.5486
▁guardian	-11.5487
▁GUN	-11.5493
▁softened	-11.5493
▁combined	-11.5495
▁Milton	-11.5499
Wait	-11.55
▁alter	-11.5501
▁luggage	-11.5506
car	-11.5506
▁thieves	-11.5511
▁winning	-11.5513
ANNA	-11.5513
▁communicated	-11.5514
▁accord	-11.5514
▁MARTIN	-11.5516
▁license	-11.5516
▁Austin	-11.552
▁sparkling	-11.552
▁attempting	-11.5521
▁Julian	-11.5529
▁barrier	-11.5529
tre	-11.5531
▁cooking	-11.5532
▁destined	-11.5534
▁causing	-11.5534
▁invite	-11.5535
▁Kale	-11.5535
▁Priscilla	-11.5536
▁Todd	-11.554
▁democratic	-11.555
▁madame	-11.5552
▁Rupert	-11.5552
▁Leslie	-11.5552
▁swallow	-11.5553
▁frown	-11.5561
▁industry	-11.5562
▁Birkin	-11.5562
▁Abbot	-11.5563
▁Tuesday	-11.5567
▁valet	-11.5573
▁freezes	-11.5573
▁streams	-11.5574
▁package	-11.5575
▁indignant	-11.5575
▁Annette	-11.5577
▁Light	-11.5578
▁Wood	-11.5578
known	-11.5581
▁Diana	-11.5582
▁WALL	-11.5592
▁Weston	-11.5595
▁bolts	-11.5596
coloured	-11.5598
▁True	-11.5598
▁justify	-11.5602
▁Fire	-11.5604
▁Police	-11.5604
▁employ	-11.5605
▁blackness	-11.5612
three	-11.5615
▁curb	-11.5616
▁prudent	-11.5619
▁instinctively	-11.5621
▁aims	-11.5624
▁records	-11.5626
▁SPACE	-11.5627
ated	-11.5627
▁Secretary	-11.563
▁manages	-11.5631
year	-11.5632
▁VITT	-11.5634
▁considerably	-11.5634
nt	-11.5634
▁deemed	-11.5636
board	-11.5636
back	-11.5637
8	-11.5639
▁pulse	-11.5642
▁nightmare	-11.5644
without	-11.5645
▁Mills	-11.565
▁wonderfully	-11.565
▁Lorna	-11.5651
▁rack	-11.5651
▁Baby	-11.5652
▁peer	-11.5654
▁verse	-11.5655
▁brightly	-11.5656
▁unfortunately	-11.5656
▁dragon	-11.5656
ge	-11.5658
Our	-11.5662
▁throng	-11.5664
▁approve	-11.5664
▁frantic	-11.5666
▁solution	-11.5666
▁pretending	-11.5675
▁39	-11.5676
id	-11.5679
▁shuddered	-11.568
▁deprived	-11.5681
▁Bear	-11.5682
▁Between	-11.5685
▁wealthy	-11.5688
▁44	-11.569
▁rag	-11.569
▁provisions	-11.5696
▁Christians	-11.5701
▁attachment	-11.5701
ists	-11.5702
▁magistrate	-11.5703
▁buying	-11.5704
▁painter	-11.5711
▁blaze	-11.5715
▁casual	-11.5716
▁readers	-11.5718
▁pro	-11.5719
▁additional	-11.5723
▁severely	-11.5726
unless	-11.5726
▁NEIL	-11.5727
▁withdraw	-11.5731
oo	-11.5733
▁blazing	-11.5734
▁Genji	-11.5734
▁Elsa	-11.5738
▁noticing	-11.5739
▁vault	-11.574
▁descending	-11.5741
▁respected	-11.5743
▁FIRES	-11.5744
▁expenses	-11.5748
▁eloquence	-11.5749
▁personality	-11.575
▁scandal	-11.5753
▁prejudice	-11.5754
▁37	-11.5754
▁Taylor	-11.5763
▁Archie	-11.5765
lin	-11.5766
▁dug	-11.5769
▁Lake	-11.577
▁knot	-11.5772
▁opera	-11.5774
▁explaining	-11.5777
▁Katie	-11.5778
▁wax	-11.5778
▁shades	-11.5778
▁embraced	-11.578
▁injustice	-11.5782
▁reluctantly	-11.5783
twas	-11.5786
▁sticking	-11.5787
bo	-11.5787
ni	-11.5789
▁gorgeous	-11.579
▁educated	-11.5791
▁Trot	-11.5792
▁stealing	-11.5792
▁addresses	-11.5797
▁requested	-11.5803
▁Anything	-11.5804
▁ridge	-11.5805
▁Club	-11.5807
▁medium	-11.5807
▁Later	-11.5808
▁weighed	-11.5809
▁cracks	-11.5811
▁58	-11.5817
▁Senator	-11.5821
▁CHEV	-11.5821
▁goddamn	-11.5832
▁upwards	-11.5833
▁negro	-11.5835
▁identity	-11.5836
ten	-11.5837
▁invented	-11.584
▁Except	-11.584
▁Suppose	-11.5841
▁hats	-11.5843
▁KIRSTY	-11.5843
▁welfare	-11.585
▁harmony	-11.5851
▁Barry	-11.5851
▁questioning	-11.5851
▁80	-11.5853
▁sliding	-11.5856
▁Ever	-11.5858
ating	-11.5862
▁visiting	-11.5863
▁border	-11.5869
▁IX	-11.5872
▁grinning	-11.5873
▁speeches	-11.5874
▁Law	-11.5874
▁lamb	-11.5875
▁bond	-11.5876
▁pony	-11.5876
▁PARK	-11.5877
▁Better	-11.5879
▁bestowed	-11.5882
▁k	-11.5883
▁endured	-11.5884
php	-11.5884
▁rifles	-11.5892
▁preparation	-11.5892
▁Army	-11.5895
▁Ay	-11.59
▁RITA	-11.5901
▁monkey	-11.5901
▁earl	-11.5906
▁suspense	-11.5909
▁committee	-11.5912
▁CAN	-11.5914
▁leaping	-11.5919
▁allusion	-11.5922
▁packing	-11.5924
▁favourable	-11.5925
▁Claire	-11.5926
▁clenched	-11.5927
▁assault	-11.5928
▁flock	-11.5928
▁recommend	-11.593
▁passionately	-11.5931
▁stockings	-11.5932
▁SHEPHERD	-11.5938
▁sprung	-11.5938
▁Allworthy	-11.5939
▁speedily	-11.5939
CARL	-11.5942
▁escort	-11.5943
▁seemingly	-11.5944
▁sternly	-11.5946
going	-11.5948
▁focus	-11.5951
▁LORD	-11.5953
▁president	-11.5958
▁reverse	-11.5959
▁patiently	-11.5964
▁duck	-11.5965
▁46	-11.5966
▁heroes	-11.5966
▁bastard	-11.5967
good	-11.5967
▁suitcase	-11.5967
▁RYAN	-11.5968
▁trifling	-11.5968
▁darted	-11.597
▁Bernie	-11.5971
▁mourning	-11.5972
▁harmless	-11.5973
▁stumbles	-11.5973
▁neighbor	-11.5975
▁captured	-11.5975
▁contest	-11.598
From	-11.5981
▁loyal	-11.5983
▁peasants	-11.5983
▁JENNIFER	-11.5983
▁depressed	-11.5983
▁founded	-11.5985
▁Marianne	-11.5988
▁sovereign	-11.5988
▁fork	-11.5992
▁48	-11.5994
▁ego	-11.6004
▁LOT	-11.6005
Some	-11.6007
▁Cyril	-11.6012
▁Hammond	-11.6012
▁issued	-11.6014
▁SCREAMS	-11.6016
▁stores	-11.6018
▁rocky	-11.6022
▁WINDOW	-11.6022
▁vessels	-11.6022
▁philosopher	-11.6027
▁CLYDE	-11.6027
▁columns	-11.6029
▁dearly	-11.603
▁crawl	-11.6031
▁Nico	-11.6032
▁JACOB	-11.6033
▁SMITH	-11.6033
▁creep	-11.6033
▁roared	-11.6035
▁cousins	-11.6035
▁beef	-11.6039
Comedy	-11.6041
▁dagger	-11.6041
▁34	-11.6042
▁disposal	-11.6042
▁void	-11.6043
▁gravel	-11.6046
▁Norah	-11.6046
▁tribes	-11.6049
▁arise	-11.6053
▁MS	-11.6053
▁Gordy	-11.6057
▁Spirit	-11.6058
▁management	-11.6058
▁STORE	-11.6062
▁railing	-11.6064
▁designed	-11.6064
▁population	-11.6072
▁defiance	-11.6072
BEN	-11.6073
▁calculated	-11.6077
▁90	-11.6078
▁gap	-11.6083
▁TIN	-11.6083
▁Roper	-11.6087
▁melted	-11.6089
▁assented	-11.609
▁perish	-11.6093
▁Jew	-11.6093
▁traveller	-11.6094
▁sermon	-11.6102
▁thyself	-11.6103
▁Within	-11.6104
▁crush	-11.6106
▁rabbit	-11.6108
▁shelves	-11.611
ent	-11.6112
▁slaps	-11.6112
▁significance	-11.6117
▁creation	-11.6119
▁Probably	-11.6121
▁impressions	-11.6122
▁engage	-11.6123
▁followers	-11.6126
ize	-11.6127
▁Hans	-11.6128
OR	-11.6128
▁version	-11.6132
▁dealt	-11.6132
▁Hotel	-11.6135
▁stately	-11.6136
▁carelessly	-11.6137
▁limb	-11.6142
▁EVE	-11.6144
▁Je	-11.6146
▁complex	-11.6146
▁avenue	-11.6147
▁BARRY	-11.6147
▁75	-11.6147
FRANK	-11.6147
▁reasoning	-11.6148
▁Part	-11.6148
▁driveway	-11.6149
▁heroic	-11.6149
▁borrowed	-11.615
▁drunken	-11.615
▁token	-11.6156
▁43	-11.6156
▁stuffed	-11.6157
▁customers	-11.6159
▁audible	-11.6162
▁introduction	-11.6162
▁shawl	-11.6162
▁hospitality	-11.6163
▁perceiving	-11.6163
▁sympathetic	-11.6163
▁surroundings	-11.6168
▁SIDE	-11.6169
▁Raymond	-11.6172
▁Lo	-11.6173
▁begging	-11.6175
▁2.	-11.6178
▁remainder	-11.6178
▁California	-11.6179
▁Peak	-11.6179
▁BISHOP	-11.618
▁blushed	-11.6182
▁Certainly	-11.6183
ng	-11.6188
▁sincerity	-11.6192
▁shrank	-11.6192
GRAHAM	-11.6192
▁bursting	-11.6192
▁bidding	-11.6194
▁pan	-11.6195
▁Maud	-11.6199
▁Must	-11.6201
▁victims	-11.6204
boat	-11.6205
▁umbrella	-11.6208
▁Somerset	-11.6209
▁toil	-11.6209
▁Orme	-11.6212
▁musical	-11.6214
▁guitar	-11.6222
▁dignified	-11.6222
▁foliage	-11.6222
--_	-11.6223
still	-11.6224
▁sergeant	-11.6225
▁included	-11.6228
logo	-11.6233
▁worldly	-11.6234
▁tumult	-11.6238
▁crouched	-11.6239
▁Wow	-11.6243
▁slumber	-11.6245
▁bald	-11.6247
▁Shakespeare	-11.6249
▁stays	-11.625
▁sufferings	-11.625
▁pipes	-11.6251
▁Anthea	-11.6253
▁sinister	-11.6253
▁Terry	-11.6253
▁customs	-11.6253
▁globe	-11.6254
▁tension	-11.6256
▁requires	-11.6258
▁j	-11.6267
ALVY	-11.6268
ably	-11.627
▁editor	-11.6273
▁strained	-11.6278
▁lent	-11.6279
come	-11.6282
▁tradition	-11.6283
▁LUKE	-11.6283
▁piled	-11.6285
▁forgiveness	-11.6288
▁steamer	-11.6291
▁Lesta	-11.6296
LA	-11.6296
▁shaped	-11.6297
▁El	-11.6298
▁Merrick	-11.6299
▁flattered	-11.6301
▁Thursday	-11.6303
▁resembled	-11.6303
▁forcing	-11.6303
▁web	-11.6304
▁flowed	-11.6305
▁determine	-11.6307
MORE	-11.631
▁finishing	-11.6314
▁slipping	-11.6314
▁Till	-11.6314
▁curled	-11.6319
▁individuals	-11.6319
▁Frenchman	-11.632
▁despised	-11.6323
▁strokes	-11.6323
▁Anyway	-11.6324
▁vigorous	-11.6327
▁workers	-11.6327
▁stained	-11.6327
▁revolution	-11.6328
▁readiness	-11.6331
▁asserted	-11.6332
▁CLUB	-11.6333
▁trash	-11.6339
talk	-11.6341
▁remedy	-11.6345
▁basement	-11.6346
▁rejected	-11.6346
▁attraction	-11.6347
▁refer	-11.6348
▁Indy	-11.6348
▁footing	-11.6351
▁Sit	-11.6352
▁butler	-11.6352
▁restrain	-11.6353
▁divorce	-11.6354
▁occupy	-11.6355
▁Bay	-11.6358
▁ROSS	-11.6358
▁Bull	-11.636
▁Robarts	-11.636
▁Burton	-11.636
▁rosy	-11.636
▁staggered	-11.6361
▁frighten	-11.6362
Lord	-11.6363
▁November	-11.6364
▁receiver	-11.6364
▁cautious	-11.6369
▁stamped	-11.6369
▁harness	-11.6371
▁sinks	-11.6375
▁Sharp	-11.6378
▁elaborate	-11.6381
▁emerge	-11.639
▁biggest	-11.6391
▁Stepan	-11.6391
▁TIFFANY	-11.6392
▁Casaubon	-11.6392
▁horrified	-11.6394
▁worm	-11.6397
ION	-11.6403
SCOTT	-11.6406
▁Watson	-11.6406
▁BOWER	-11.6406
▁ZOE	-11.6407
▁Christianity	-11.6407
▁forbidden	-11.6408
▁telegram	-11.6409
▁punished	-11.6409
▁tastes	-11.641
▁outta	-11.6413
▁interrupting	-11.6415
▁goose	-11.6417
▁armour	-11.642
▁rascal	-11.6421
▁detective	-11.6424
▁Precious	-11.6424
▁TERRY	-11.6428
▁choked	-11.643
▁BOX	-11.6434
▁ascended	-11.6439
▁Alexander	-11.6439
▁hinted	-11.6445
▁wallet	-11.6446
▁Damn	-11.6446
case	-11.6447
▁Kurt	-11.645
▁Women	-11.6451
▁eventually	-11.6453
▁tread	-11.6456
▁saint	-11.6456
▁sorrows	-11.6458
Get	-11.6458
▁deepest	-11.6461
▁encourage	-11.6463
▁seventeen	-11.6467
▁drug	-11.6468
trees	-11.6473
▁CONTROL	-11.6475
▁generations	-11.6477
These	-11.6477
▁disorder	-11.6481
▁64	-11.6483
▁preceding	-11.6484
▁primitive	-11.6484
▁Debbie	-11.6484
ius	-11.6484
▁equality	-11.6485
▁privately	-11.6488
▁FIELD	-11.6489
▁rug	-11.6491
▁settlement	-11.6493
▁(2)	-11.6493
▁von	-11.6498
▁PULL	-11.6499
▁Tudor	-11.6499
▁northern	-11.6499
▁33	-11.6501
▁groaned	-11.6502
▁recommended	-11.6503
▁vital	-11.6509
▁pledge	-11.6511
▁adjoining	-11.6515
BOB	-11.6519
▁DOUG	-11.6522
▁Devil	-11.6527
▁Russia	-11.6527
▁Bath	-11.6528
▁Harman	-11.6531
▁Wade	-11.6531
▁judges	-11.6532
Internet	-11.6534
▁engines	-11.6536
▁tour	-11.6539
▁Highness	-11.6539
▁dismal	-11.6544
▁pupils	-11.6544
▁super	-11.6546
▁supplies	-11.6546
▁College	-11.6546
▁bodily	-11.6546
▁oblige	-11.6547
▁Ongar	-11.6547
IMSDb	-11.655
▁tub	-11.6556
▁disdain	-11.6556
▁WIDE	-11.6559
▁pious	-11.6559
▁earned	-11.656
▁admiring	-11.6561
▁Barton	-11.6562
▁Biddy	-11.6566
▁alternative	-11.6566
ere	-11.6569
▁wages	-11.657
▁curls	-11.6573
▁mould	-11.6574
▁Dame	-11.6575
▁Bo	-11.6575
▁arriving	-11.6578
▁MAGGIE	-11.6578
▁School	-11.658
▁scripts	-11.6586
▁limit	-11.6587
▁doom	-11.6587
▁awaited	-11.6588
)](	-11.6594
▁PARKING	-11.6597
▁JEAN	-11.6598
▁Priest	-11.6598
▁promises	-11.6599
▁obligation	-11.6599
▁CH	-11.6603
▁59	-11.6605
▁governess	-11.6608
▁strove	-11.6609
▁Palace	-11.6609
▁Corey	-11.6609
▁foundation	-11.661
▁Peggy	-11.6611
▁Ash	-11.6622
dvd	-11.6625
▁Jeanne	-11.6625
10/10	-11.6626
▁nail	-11.663
den	-11.6633
▁Pan	-11.6634
ite	-11.664
▁privacy	-11.664
long	-11.6643
▁resigned	-11.6643
▁stack	-11.6646
War	-11.6649
▁Book	-11.665
▁resolute	-11.6654
▁storms	-11.6654
▁Second	-11.6654
▁Sal	-11.6655
▁Helium	-11.6656
▁southern	-11.6656
▁GO	-11.6658
▁heavenly	-11.6659
▁meadow	-11.6661
▁annoyance	-11.6661
ham	-11.6662
▁thrill	-11.6664
▁demands	-11.6664
▁limp	-11.6664
▁abuse	-11.667
▁bounds	-11.6672
▁Spooner	-11.6672
▁drags	-11.6674
▁LEONARD	-11.6676
▁NURSE	-11.6677
▁supposing	-11.6681
▁52	-11.6681
▁purely	-11.6684
▁Karen	-11.6686
▁nostrils	-11.6687
▁mare	-11.6688
▁irresistible	-11.6688
▁propriety	-11.6688
▁Lewis	-11.6688
▁dances	-11.6692
▁Holland	-11.6701
▁54	-11.6702
▁En	-11.6704
ber	-11.6705
▁African	-11.6713
▁lowest	-11.6713
▁Georgiana	-11.672
ward	-11.6721
▁BOOK	-11.6721
▁switches	-11.6722
ran	-11.6722
▁cargo	-11.6723
▁division	-11.6725
▁loses	-11.6726
9	-11.6728
▁tongues	-11.6731
▁cane	-11.6732
▁resource	-11.6732
▁lions	-11.6736
▁3.	-11.6736
▁Valancourt	-11.6737
▁WALTER	-11.6737
ium	-11.6739
▁machines	-11.674
▁organ	-11.6741
▁crawling	-11.6741
▁shepherd	-11.6742
▁improved	-11.6742
ina	-11.6743
▁shudder	-11.6746
▁lab	-11.6746
▁horns	-11.675
▁situated	-11.6753
ron	-11.6753
▁Peters	-11.6754
▁41	-11.6755
▁moderate	-11.6758
▁payment	-11.6761
▁terrific	-11.6768
▁Rita	-11.6768
▁politely	-11.6773
op	-11.6773
something	-11.6774
▁stair	-11.6778
ICE	-11.678
▁bliss	-11.6784
▁Tyler	-11.6784
▁customary	-11.6784
▁hurled	-11.6786
▁hugs	-11.6787
▁Alexey	-11.6788
MAX	-11.679
▁breeches	-11.6792
▁regions	-11.6792
▁92	-11.6792
▁Honor	-11.6792
▁wondrous	-11.6797
▁Gideon	-11.68
▁assembly	-11.68
▁Sykes	-11.68
▁disciples	-11.68
▁weariness	-11.68
▁Fang	-11.6801
▁concerns	-11.6803
▁wolves	-11.6804
!!	-11.6808
▁Car	-11.6812
▁repair	-11.6814
▁refusal	-11.6816
▁occasioned	-11.6817
▁immortal	-11.6822
▁forests	-11.6823
Has	-11.6825
▁bucket	-11.6825
▁Comments	-11.6826
▁quest	-11.6826
▁ALI	-11.6827
▁reckless	-11.6829
most	-11.6829
▁respectful	-11.683
six	-11.6831
▁documents	-11.6831
▁Raoul	-11.6832
▁Vincent	-11.6832
▁anticipated	-11.6836
▁modesty	-11.6838
▁66	-11.6839
▁99	-11.684
▁types	-11.6847
▁obstinate	-11.6847
▁Top	-11.6847
▁REBECCA	-11.6848
▁babies	-11.6848
▁noisy	-11.6848
set	-11.6849
▁yacht	-11.6853
dis	-11.6854
▁strongest	-11.6857
▁INSIDE	-11.6861
▁HEDDA	-11.6864
▁inspiration	-11.6864
▁jet	-11.6866
▁ropes	-11.6868
▁arrows	-11.6871
eh	-11.6875
▁Joey	-11.6877
▁whistling	-11.6881
▁Gilbert	-11.6885
▁Wednesday	-11.6885
▁Ho	-11.6889
▁debts	-11.689
▁Stone	-11.6893
▁attacks	-11.6894
▁tendency	-11.6897
▁feature	-11.6897
▁paths	-11.6901
▁investigation	-11.6904
▁taxi	-11.6912
▁youngest	-11.6912
▁torment	-11.6913
▁authorities	-11.6913
▁groan	-11.6913
▁Curtis	-11.6914
▁UN	-11.6914
▁temples	-11.6915
▁AIR	-11.6919
▁blonde	-11.6921
▁Rocky	-11.6923
!**	-11.6923
▁Sally	-11.6924
▁capture	-11.6924
▁manly	-11.6927
▁GREEN	-11.6929
▁Beast	-11.6929
▁virtuous	-11.6929
▁Senate	-11.6929
▁BOB	-11.6929
▁lazy	-11.6929
▁resignation	-11.6929
▁Much	-11.693
▁bien	-11.693
▁Already	-11.6935
▁):	-11.6936
▁rejoiced	-11.6937
▁tragic	-11.6938
ries	-11.6938
izing	-11.6943
▁attentive	-11.6944
TY	-11.6945
▁53	-11.6945
▁COLUMB	-11.6945
▁nobility	-11.6947
▁drifted	-11.695
▁senior	-11.6953
▁verge	-11.6956
▁Head	-11.6957
▁flaming	-11.6962
▁malice	-11.6962
▁briefcase	-11.6962
▁minor	-11.6962
▁Country	-11.6963
▁Lisbeth	-11.6964
ez	-11.6967
▁sketch	-11.697
▁hunted	-11.6971
▁animated	-11.6977
▁transport	-11.6977
▁Goesler	-11.6978
▁Godolphin	-11.6979
▁goods	-11.698
▁noises	-11.698
▁National	-11.6981
▁coachman	-11.6981
▁PK	-11.6982
EL	-11.6982
MARTIN	-11.6985
▁foam	-11.6986
▁bravely	-11.699
▁canoe	-11.6991
▁BIG	-11.6991
▁taps	-11.6991
▁ward	-11.6992
▁wiping	-11.6995
▁derived	-11.6998
▁clue	-11.7003
▁bucks	-11.7003
ons	-11.7008
▁traitor	-11.7008
▁lungs	-11.7012
▁tossing	-11.7018
▁PANS	-11.7019
▁marvellous	-11.7026
▁Hannah	-11.7028
▁51	-11.7029
▁misfortunes	-11.7029
▁Inn	-11.7031
▁Egypt	-11.7031
ial	-11.7032
▁grimly	-11.7034
▁rejoice	-11.7037
▁ANAKIN	-11.704
▁claimed	-11.704
VIOLET	-11.7044
▁gulf	-11.7044
▁Celia	-11.7044
▁relaxed	-11.7047
▁RINGS	-11.7047
▁forthwith	-11.705
▁approved	-11.7053
▁57	-11.7054
▁62	-11.7054
▁streaming	-11.7054
▁criticism	-11.7055
▁vainly	-11.7059
▁Fran	-11.706
▁beforehand	-11.7061
▁boast	-11.7062
▁comparatively	-11.7063
Her	-11.7064
▁punish	-11.7065
IC	-11.7066
▁Han	-11.7066
▁indicates	-11.707
▁breasts	-11.7071
▁Marie	-11.7072
▁vicious	-11.7073
▁hoarse	-11.7074
▁sob	-11.7074
▁Racksole	-11.7077
▁Evil	-11.7081
▁unexpectedly	-11.7083
▁float	-11.7083
▁captive	-11.7087
▁feeding	-11.7087
▁argued	-11.7088
OLD	-11.7091
▁Stafford	-11.7091
▁Always	-11.7093
▁Sheriff	-11.7093
▁fucked	-11.7093
▁Jews	-11.7093
▁prime	-11.7095
▁sunny	-11.7096
▁transformed	-11.7096
▁retained	-11.7096
▁mechanically	-11.7097
▁react	-11.7099
Action	-11.7103
▁scoundrel	-11.7103
▁notions	-11.7104
▁Lovel	-11.7104
▁draught	-11.7105
▁Mister	-11.7106
▁sickness	-11.7106
▁negative	-11.7109
▁signals	-11.711
▁Others	-11.711
ise	-11.711
▁invariably	-11.711
▁chaos	-11.711
HELEN	-11.7119
▁bred	-11.7119
▁external	-11.7124
▁based	-11.7126
▁Neefit	-11.7126
▁eternity	-11.7126
▁petty	-11.7127
▁failing	-11.7127
▁bonds	-11.7128
▁chanced	-11.7128
▁spending	-11.7129
▁49	-11.7129
▁clothed	-11.7129
▁shriek	-11.713
▁EMILY	-11.713
▁lain	-11.713
▁curve	-11.7131
▁sings	-11.7132
_;	-11.7135
▁assent	-11.7137
Re	-11.7137
see	-11.714
▁confidential	-11.714
▁ardent	-11.714
▁Harvey	-11.7143
▁haughty	-11.7143
▁Diego	-11.7143
▁LOBBY	-11.7145
▁Wendy	-11.7146
▁XI	-11.7146
▁rags	-11.7148
▁YURI	-11.7149
▁crest	-11.715
▁indulge	-11.7152
▁sleepy	-11.7155
▁marching	-11.7156
▁jerks	-11.7158
▁crooked	-11.7158
▁routine	-11.716
▁Penelope	-11.7161
▁GRACE	-11.7163
▁SMALL	-11.7164
▁fer	-11.7167
▁commonwealth	-11.7169
▁perception	-11.717
▁hull	-11.7176
▁growled	-11.718
▁digging	-11.7181
▁blankets	-11.7182
▁pacing	-11.7182
▁ANDY	-11.7183
▁unjust	-11.7184
▁PRESIDENT	-11.7193
▁momentarily	-11.7193
▁Corso	-11.7194
▁startling	-11.7194
▁Bathsheba	-11.7196
▁geese	-11.7196
▁provision	-11.7203
▁province	-11.7203
▁killer	-11.7206
▁ghastly	-11.721
▁whoever	-11.721
▁varied	-11.721
▁gratified	-11.721
▁Rowan	-11.721
▁Buddy	-11.7211
▁battered	-11.7211
▁joyous	-11.7224
▁barren	-11.7226
▁gaiety	-11.7227
▁Conan	-11.7228
▁coloured	-11.7229
▁eagle	-11.723
▁pluck	-11.7232
▁invention	-11.7237
▁utterance	-11.7237
DANTE	-11.7237
▁displeasure	-11.7243
▁Neville	-11.7243
▁exhibited	-11.7245
▁stumbled	-11.7247
▁doomed	-11.7247
▁tips	-11.7247
▁Eli	-11.7248
▁Open	-11.7251
▁Jesse	-11.7251
▁interruption	-11.7254
▁cupboard	-11.7254
▁Bar	-11.7254
▁Button	-11.726
▁Pinch	-11.7262
▁spoiled	-11.7264
▁volumes	-11.7267
▁YORK	-11.7267
▁grabbing	-11.7268
▁campaign	-11.7271
▁DRIVER	-11.7274
▁Bring	-11.7281
▁NOW	-11.7282
▁FATHER	-11.7282
▁nobleman	-11.7282
▁pleading	-11.7285
▁ST	-11.7285
▁smoked	-11.7287
ray	-11.7291
▁yell	-11.7292
▁extremity	-11.7294
▁prosperity	-11.7294
▁wakes	-11.7295
▁outstretched	-11.7295
▁spectators	-11.7298
▁Stan	-11.7298
▁drifting	-11.73
▁staggers	-11.7302
pause	-11.7305
▁packet	-11.7306
▁superiority	-11.7311
▁China	-11.7312
▁briskly	-11.7313
▁Dinah	-11.7314
▁Toward	-11.7314
▁Run	-11.7315
▁materials	-11.7319
▁hum	-11.732
▁rocking	-11.732
▁mirth	-11.7321
▁shabby	-11.7328
▁attained	-11.733
▁inter	-11.7332
▁REPORTER	-11.734
):	-11.7342
▁confounded	-11.7343
▁opportunities	-11.7345
ow	-11.7347
▁edges	-11.7347
▁disgusted	-11.7349
▁realizing	-11.7354
▁Water	-11.7358
!’	-11.7359
▁prevail	-11.7361
▁traveling	-11.7361
▁Avenue	-11.7362
▁suicide	-11.7362
▁severity	-11.7362
▁negroes	-11.7363
▁Said	-11.7369
▁suppressed	-11.7371
▁63	-11.7374
▁commander	-11.7377
▁mis	-11.7377
▁temperament	-11.7379
▁declaring	-11.738
▁fits	-11.7381
▁restrained	-11.7384
▁contains	-11.7387
▁aristocratic	-11.739
▁bulk	-11.7392
▁impressive	-11.7395
VIKTOR	-11.7396
▁Number	-11.7396
▁WHAT	-11.7396
▁rightly	-11.7397
▁echoes	-11.7397
▁awkwardly	-11.7402
lit	-11.7404
▁Hope	-11.7406
DEAN	-11.7406
▁empire	-11.7407
CHARLIE	-11.7407
▁69	-11.7412
▁Kennicott	-11.7413
▁Fair	-11.7413
▁Jules	-11.7415
▁circular	-11.7416
▁brand	-11.7421
▁abide	-11.7422
▁brushed	-11.7424
▁Pip	-11.7424
▁urge	-11.7425
MELA	-11.7427
▁piercing	-11.7432
▁prolonged	-11.7432
▁decline	-11.7434
pot	-11.7436
▁obstacle	-11.7443
▁moss	-11.7443
▁dives	-11.7447
▁muttering	-11.7447
▁Erin	-11.7449
▁partially	-11.7449
▁traced	-11.745
voice	-11.7451
▁accomplish	-11.7454
him	-11.7458
▁Steven	-11.7458
Listen	-11.7459
Please	-11.7459
▁purchased	-11.746
▁56	-11.746
▁Milo	-11.7463
IS	-11.7465
▁borrow	-11.7474
▁chateau	-11.7477
▁Cal	-11.7478
▁SE	-11.748
▁baseball	-11.7482
▁greatness	-11.7482
▁Grimm	-11.7483
20	-11.7484
▁Um	-11.7484
▁phrases	-11.7487
▁backed	-11.7491
▁Patsy	-11.7498
▁CABIN	-11.7499
▁copies	-11.7499
▁interrupt	-11.7503
▁executed	-11.7506
▁Enter	-11.7506
▁appropriate	-11.7508
KELLY	-11.7511
▁stamp	-11.7514
tin	-11.7515
▁permanent	-11.7515
▁Jessica	-11.7516
▁available	-11.7516
--“	-11.7518
ERIN	-11.7518
▁promising	-11.7518
▁Ask	-11.7519
▁theater	-11.752
▁Elle	-11.7522
▁beggar	-11.7523
▁shores	-11.7525
▁bury	-11.7531
▁gaily	-11.7533
▁possibilities	-11.7533
▁lingering	-11.7539
▁SHIP	-11.754
▁bloom	-11.7542
kin	-11.7544
▁sweetly	-11.7546
▁goat	-11.7547
Exit	-11.7547
▁meets	-11.7548
▁hounds	-11.7549
▁advances	-11.7549
chabod	-11.755
▁independence	-11.755
▁windshield	-11.755
▁fuel	-11.755
▁Belton	-11.7551
▁ZED	-11.7552
▁EYES	-11.7554
ble	-11.7556
▁summons	-11.7557
▁overcoat	-11.7558
▁spark	-11.7558
Adventure	-11.7563
FADE	-11.7565
▁site	-11.7566
▁STUDIO	-11.7568
▁dangling	-11.7568
▁Morris	-11.7568
▁roars	-11.7569
▁slay	-11.757
▁Zoe	-11.7574
▁plains	-11.7575
▁67	-11.7576
▁allowance	-11.7582
▁Grief	-11.7585
▁Helmut	-11.7585
▁catastrophe	-11.7585
▁cleaning	-11.7588
▁ramp	-11.7589
▁achieved	-11.759
▁recovery	-11.7592
▁intensely	-11.7592
▁discussing	-11.7594
▁saints	-11.7596
▁ancestors	-11.7597
master	-11.7597
▁reins	-11.7597
▁attending	-11.7601
▁dazzling	-11.7601
▁Kathy	-11.7603
▁95	-11.7604
RI	-11.7611
..."	-11.7613
▁Theo	-11.7614
▁knives	-11.7618
▁bullshit	-11.7619
▁faculties	-11.762
▁Baroness	-11.7621
▁villages	-11.7622
▁sideways	-11.7622
▁ditch	-11.7623
▁Chance	-11.7623
▁irony	-11.7624
▁BEAN	-11.7625
▁Work	-11.7625
▁pierced	-11.7625
▁fights	-11.7626
▁recognise	-11.7629
▁brightness	-11.7631
▁pistols	-11.7632
▁Wragge	-11.7637
▁choking	-11.7637
▁shifts	-11.7638
▁litter	-11.7639
▁Archer	-11.7639
▁BUS	-11.764
▁attract	-11.7646
▁distrust	-11.7647
▁Ladies	-11.7649
▁eyelids	-11.765
COBB	-11.7652
▁experiences	-11.7653
class	-11.7653
▁indicating	-11.7654
cut	-11.7654
▁shines	-11.7655
▁Alexandrovitch	-11.7655
▁mysteries	-11.7655
▁wonders	-11.7656
▁Virgin	-11.7657
▁MOVES	-11.766
tes	-11.7661
▁fearing	-11.7663
▁converse	-11.7664
▁spray	-11.7668
▁announcement	-11.7669
▁instruction	-11.767
▁fruits	-11.7674
▁IRA	-11.7675
▁stretches	-11.7675
▁revived	-11.7677
▁Whose	-11.7677
ens	-11.7678
▁Jove	-11.7678
sken	-11.7686
▁edition	-11.7687
▁timber	-11.7688
▁rotten	-11.7689
▁clumsy	-11.769
▁visibly	-11.769
▁remarkably	-11.769
▁Bulstrode	-11.7691
▁ELEVATOR	-11.7692
▁politeness	-11.7692
▁WATER	-11.7693
▁January	-11.7695
▁repent	-11.7695
▁Con	-11.7697
▁originally	-11.77
▁sublime	-11.7704
▁Welcome	-11.7705
▁establish	-11.7706
▁Algren	-11.7707
▁Jasper	-11.7709
▁Page	-11.7711
▁Hawk	-11.7711
▁reign	-11.7714
▁spin	-11.7718
BOND	-11.7722
white	-11.7722
▁offend	-11.7723
▁objected	-11.7724
▁artificial	-11.7724
▁splendour	-11.7725
▁stripped	-11.7725
▁potatoes	-11.7725
▁SLAMS	-11.7727
▁spoon	-11.7728
▁Irene	-11.7728
▁discharge	-11.773
▁didst	-11.773
▁relate	-11.7731
▁assertion	-11.7732
▁foes	-11.7733
▁wench	-11.7734
piece	-11.7734
▁Milt	-11.774
▁Snake	-11.774
▁countess	-11.7741
!...	-11.7742
▁dainty	-11.7743
▁Ivan	-11.7743
▁Scotch	-11.7743
aged	-11.7744
▁ascertain	-11.7744
▁94	-11.7745
must	-11.7745
▁comforted	-11.775
▁Forget	-11.7754
▁hail	-11.7755
lu	-11.7756
▁Speed	-11.7757
cha	-11.7758
▁venerable	-11.776
rip	-11.7763
▁crawled	-11.7764
▁wraps	-11.7766
▁deliberate	-11.7767
▁demon	-11.777
ho	-11.7773
▁Clement	-11.7777
▁purity	-11.7778
▁debris	-11.7778
▁illuminated	-11.778
taking	-11.7783
▁darker	-11.7787
▁disappearing	-11.7788
▁fertilised	-11.7789
▁frost	-11.7794
▁Hilliard	-11.7796
▁submission	-11.7796
eight	-11.7797
▁Low	-11.7803
▁poets	-11.7804
▁pounding	-11.7805
▁LEE	-11.7806
ster	-11.7809
▁twist	-11.7809
▁rubs	-11.781
INDY	-11.781
▁Star	-11.7811
▁railroad	-11.7812
▁jokes	-11.7813
▁buddy	-11.7813
▁oppressed	-11.7814
▁TABLE	-11.7814
▁strings	-11.7814
▁Valley	-11.7814
▁Chauvelin	-11.7815
▁Need	-11.7817
▁actor	-11.7819
▁grieved	-11.7819
▁compare	-11.7822
▁mix	-11.7824
PO	-11.7824
colored	-11.7828
▁Racine	-11.7831
▁GINGER	-11.7831
pin	-11.7832
▁Ace	-11.7834
▁Hicks	-11.7837
▁thereof	-11.7837
▁reflecting	-11.7839
pe	-11.784
▁jerk	-11.7842
▁farmers	-11.7843
▁gasping	-11.7843
▁concert	-11.7844
▁TRAIN	-11.7845
ave	-11.7847
continuing	-11.7848
▁sung	-11.7848
▁Stephanie	-11.7849
▁accordance	-11.7849
▁vicar	-11.785
▁stall	-11.7851
▁pal	-11.7853
arrow	-11.7858
▁Fate	-11.786
▁CLAY	-11.786
▁irregular	-11.7864
since	-11.7866
▁ecstasy	-11.7867
▁innumerable	-11.7867
▁files	-11.7869
▁detected	-11.7869
▁drawers	-11.7871
▁MEDIUM	-11.7872
▁BEHIND	-11.7872
▁TOP	-11.7872
▁pie	-11.7873
▁resume	-11.7876
▁grotesque	-11.7882
▁fare	-11.7882
▁illusion	-11.7884
▁Jerome	-11.7885
▁contemplation	-11.7885
▁loyalty	-11.7885
▁significant	-11.7885
▁Union	-11.7886
▁fascinated	-11.7886
Surely	-11.7886
▁await	-11.7886
▁LINDA	-11.7887
ba	-11.7887
▁horseback	-11.7892
▁virgin	-11.7895
▁91	-11.7897
▁blushing	-11.7898
▁bands	-11.7899
take	-11.7902
▁culture	-11.7903
▁frenzy	-11.7903
▁plunge	-11.7905
▁Ellen	-11.791
▁THEIR	-11.7914
▁knights	-11.7915
▁raging	-11.7916
▁furnish	-11.7917
▁palms	-11.7918
▁Michel	-11.7919
▁Jay	-11.7919
Romance	-11.792
▁thirteen	-11.792
Pray	-11.7921
▁salary	-11.7921
▁AWAY	-11.7921
▁Godwin	-11.7921
▁mule	-11.7922
▁Bride	-11.7924
▁revelation	-11.7924
li	-11.7925
▁fades	-11.7925
▁slippers	-11.7928
▁afore	-11.7929
▁nursery	-11.794
▁SHOP	-11.794
▁perched	-11.794
▁personage	-11.7942
▁lecture	-11.7942
ical	-11.7943
▁treasures	-11.7944
▁shrink	-11.7947
▁recovering	-11.795
▁Eh	-11.7953
▁positions	-11.7953
▁Brumley	-11.7957
▁drum	-11.7958
▁lump	-11.7958
▁smashed	-11.7959
▁Modeste	-11.796
▁shutting	-11.796
▁!...	-11.7962
▁XIV	-11.7962
▁rests	-11.7963
▁tasted	-11.7969
handed	-11.797
▁disliked	-11.7971
▁onward	-11.7972
NE	-11.7974
▁stamens	-11.7975
▁Ardan	-11.7975
▁clutches	-11.7976
▁COBB	-11.7979
▁enthusiastic	-11.7979
▁observations	-11.798
uick	-11.7986
▁existing	-11.7988
▁cordial	-11.799
▁odds	-11.7992
▁pond	-11.7993
DAVID	-11.7993
▁loneliness	-11.7993
▁tranquil	-11.7994
▁wires	-11.7995
▁speechless	-11.7997
▁whatsoever	-11.7998
▁Off	-11.7999
▁trapped	-11.7999
▁frock	-11.8002
▁flutter	-11.8002
▁mothers	-11.8006
▁pitiful	-11.8008
▁precise	-11.8008
▁abrupt	-11.801
▁fathers	-11.8011
▁HONEY	-11.8011
▁Woodward	-11.8011
▁helicopter	-11.8011
▁clutched	-11.8013
▁77	-11.8015
▁BEACH	-11.8015
▁lied	-11.8016
▁raft	-11.8017
Am	-11.8018
▁brighter	-11.8019
▁comedy	-11.8021
▁trunks	-11.8024
▁photos	-11.8026
▁satin	-11.8027
▁irritation	-11.8029
▁humming	-11.8029
Lady	-11.803
▁Marty	-11.803
stone	-11.803
▁asshole	-11.803
▁Claus	-11.8031
▁DEAD	-11.8032
▁61	-11.8039
▁Zed	-11.804
▁gross	-11.8041
▁68	-11.8041
▁respecting	-11.8042
▁ivory	-11.8047
▁sobbed	-11.8047
▁basis	-11.8047
▁cigarettes	-11.8047
▁workmen	-11.8049
▁sleeves	-11.8049
▁uneasily	-11.805
▁Barbican	-11.8051
▁complained	-11.8053
▁Denys	-11.8054
▁headlong	-11.8054
▁Katy	-11.8056
▁di	-11.8057
▁maids	-11.8058
▁tumbled	-11.8058
ary	-11.8058
▁Se	-11.8061
▁uncommon	-11.8063
▁turf	-11.8065
▁interference	-11.8066
▁escaping	-11.8066
▁Yuri	-11.8066
maker	-11.8066
▁unit	-11.8067
▁beats	-11.807
▁Round	-11.8071
▁rats	-11.8073
▁neighbouring	-11.8073
▁slid	-11.8073
▁recorded	-11.8077
▁debate	-11.8077
▁indicate	-11.8077
▁courteous	-11.8081
▁Ambrose	-11.8084
▁Arkadyevitch	-11.8084
▁Music	-11.8085
▁73	-11.8086
▁schools	-11.8086
▁attentively	-11.8087
▁Penny	-11.8088
▁Bud	-11.8092
▁retain	-11.8094
▁72	-11.8096
▁considers	-11.8102
▁grinned	-11.8102
▁Wayne	-11.8102
▁earliest	-11.8102
▁submitted	-11.8102
▁Seth	-11.8103
Crime	-11.8103
▁pays	-11.8103
▁coats	-11.8105
▁stress	-11.8105
▁NELL	-11.8107
▁Pull	-11.8108
▁Bank	-11.8111
▁armor	-11.8115
HE	-11.8115
▁controls	-11.8117
▁picturesque	-11.812
▁ambitious	-11.812
▁striving	-11.812
▁86	-11.8122
▁ELAINE	-11.8123
writer	-11.8123
▁soothing	-11.8124
▁sincerely	-11.8128
▁PULLS	-11.8128
▁dreadfully	-11.8134
▁quaint	-11.8138
▁Brad	-11.8141
▁bind	-11.8141
▁tool	-11.8149
▁appealed	-11.8149
▁footman	-11.8151
▁Magic	-11.8156
▁CECIL	-11.8157
▁Bonteen	-11.8157
▁Josh	-11.8158
▁cathedral	-11.8159
▁affliction	-11.8159
ti	-11.816
▁savages	-11.816
▁underground	-11.816
rie	-11.816
▁hue	-11.8166
▁keenly	-11.8166
▁merits	-11.8167
▁indulgence	-11.8167
▁FLASH	-11.8171
▁stammered	-11.8176
▁snatches	-11.8176
▁acquaintances	-11.8177
▁howling	-11.8177
▁disturbance	-11.8177
▁Khalid	-11.8178
▁sustained	-11.8178
▁sentimental	-11.8179
▁pillar	-11.818
TOM	-11.8181
▁lifetime	-11.8181
▁topic	-11.8188
▁CARTER	-11.8191
▁expert	-11.8193
▁Spock	-11.8194
▁inspection	-11.8194
ov	-11.8198
▁Grandet	-11.8199
▁riches	-11.8199
▁accepting	-11.8203
▁DAD	-11.8208
▁Rosmer	-11.8212
▁Jamal	-11.8212
▁SIDNEY	-11.8213
LING	-11.8213
ca	-11.8213
▁churchyard	-11.8214
▁Empire	-11.8214
▁hip	-11.8215
Nor	-11.8217
▁Seven	-11.8221
▁slim	-11.8224
could	-11.8225
▁vow	-11.8225
▁salute	-11.8227
▁skirts	-11.823
▁humiliation	-11.8231
▁henceforth	-11.8231
▁sombre	-11.8232
▁signature	-11.8233
▁Actually	-11.8234
▁dials	-11.8235
▁forlorn	-11.8236
▁pad	-11.8242
▁Papa	-11.8243
these	-11.8243
▁survive	-11.8244
▁sports	-11.8244
▁gaining	-11.8248
▁stricken	-11.8248
▁tooth	-11.8248
▁compact	-11.8248
▁nought	-11.825
put	-11.825
▁Ne	-11.825
▁glares	-11.8254
▁shivering	-11.8255
▁travels	-11.8258
▁attic	-11.826
▁wipe	-11.8261
▁eloquent	-11.8265
▁sur	-11.8266
▁STAN	-11.8268
▁exalted	-11.8269
▁tend	-11.8269
▁planning	-11.8269
▁rusty	-11.8269
▁simultaneously	-11.827
▁posture	-11.827
▁Eyes	-11.827
▁anticipation	-11.8271
▁earnestness	-11.8271
▁96	-11.8276
▁Unless	-11.8278
▁accuse	-11.8279
town	-11.8283
▁effective	-11.8285
▁humility	-11.8287
▁photographs	-11.8287
▁Russell	-11.8287
PHIL	-11.8287
▁Vicar	-11.8287
UI	-11.829
▁Turn	-11.829
▁pausing	-11.8292
▁Force	-11.8296
king	-11.8298
▁Signor	-11.83
ping	-11.8302
▁expressive	-11.8303
ELLE	-11.8305
jpg	-11.8305
▁icy	-11.8306
▁settling	-11.8306
▁pump	-11.8306
▁appreciation	-11.8306
▁cough	-11.8307
▁professed	-11.8307
▁deserves	-11.8308
▁Officer	-11.8312
▁afar	-11.8312
▁mantle	-11.8314
▁produces	-11.8318
▁ultimate	-11.8321
▁chat	-11.8322
woman	-11.8323
▁ominous	-11.8323
▁corporal	-11.8324
▁XII	-11.8326
▁target	-11.8328
▁rub	-11.833
▁emotional	-11.8332
▁?...	-11.8333
▁aimed	-11.8333
?...	-11.8335
▁ribs	-11.8341
▁decidedly	-11.8342
▁odious	-11.8343
▁Wheeler	-11.8344
▁familiarity	-11.8344
▁hovering	-11.8345
▁tho	-11.8346
ny	-11.8347
▁December	-11.8347
▁BANK	-11.835
▁realised	-11.8351
▁Reed	-11.8353
▁robes	-11.8353
▁muscle	-11.8358
▁abyss	-11.836
▁Cause	-11.836
▁actress	-11.8361
▁unreasonable	-11.8361
▁BONNIE	-11.8361
▁destination	-11.8362
▁Gibson	-11.8362
▁tire	-11.8362
ned	-11.8363
▁DUDE	-11.8364
▁torrent	-11.8365
▁handing	-11.8366
▁sweetest	-11.8369
▁endeavouring	-11.837
▁sweeps	-11.8373
▁archdeacon	-11.838
▁shaggy	-11.838
▁dialogue	-11.8384
Mother	-11.8384
▁keeper	-11.8384
▁defense	-11.8386
▁Phoenix	-11.8386
▁screw	-11.8386
▁HI	-11.8386
▁crashing	-11.8392
▁amiss	-11.8394
▁JESSE	-11.8394
▁GENERAL	-11.8395
▁coolly	-11.8396
end	-11.8397
▁yanks	-11.8399
▁temperature	-11.8399
▁imaginary	-11.8399
▁rational	-11.84
▁devils	-11.8401
▁rash	-11.8401
▁Copperfield	-11.8402
▁huddled	-11.8403
▁praised	-11.8403
▁composition	-11.8403
▁Duncan	-11.8408
▁Tai	-11.8409
▁threats	-11.841
▁85	-11.8413
▁churches	-11.8414
▁THOMAS	-11.8415
▁disturbing	-11.8416
▁heathen	-11.8417
▁brethren	-11.8418
▁Department	-11.8418
▁shew	-11.8419
▁Admiral	-11.8423
▁refined	-11.8424
▁Beauty	-11.8426
thou	-11.8427
▁parcel	-11.8428
▁JOEY	-11.8429
▁operations	-11.8432
▁legitimate	-11.8434
▁symptoms	-11.8435
▁toys	-11.8436
▁crawls	-11.8437
▁treachery	-11.8437
▁strode	-11.8437
▁pursuing	-11.8437
▁HAVEN	-11.8438
▁Willow	-11.8438
ALL	-11.8439
▁88	-11.844
JOE	-11.844
▁involuntarily	-11.844
▁falsehood	-11.8441
▁crimes	-11.8442
▁hi	-11.8444
▁courts	-11.8446
▁sacrificed	-11.8447
till	-11.8449
▁bowing	-11.845
▁extravagant	-11.8453
▁identical	-11.8453
▁wheat	-11.8455
▁Tracy	-11.8456
▁bestow	-11.8457
▁4.	-11.8458
▁ENID	-11.8459
▁swaying	-11.846
ya	-11.8461
▁da	-11.8464
▁Hilary	-11.8475
▁luncheon	-11.8475
▁evenings	-11.8475
▁soap	-11.8477
BILL	-11.8478
▁98	-11.8482
▁states	-11.8483
▁indulged	-11.8484
▁procure	-11.8486
▁cute	-11.8486
▁dire	-11.8486
▁therein	-11.8487
▁goodbye	-11.8488
▁historical	-11.8491
▁Phyllis	-11.8494
▁ungrateful	-11.8494
▁Truman	-11.8494
▁Mickey	-11.8494
▁pinned	-11.8494
▁omitted	-11.8494
▁leaders	-11.8494
▁Plis	-11.8494
▁horribly	-11.8495
▁convent	-11.8496
▁Reverend	-11.8498
John	-11.8498
▁moustache	-11.8499
▁honoured	-11.8499
▁Santa	-11.8499
▁CUP	-11.85
▁practised	-11.85
ECKER	-11.8509
▁git	-11.8509
▁refrain	-11.851
▁conspicuous	-11.851
▁scrap	-11.8512
▁Republic	-11.8512
▁uncertainty	-11.8513
▁Baker	-11.8514
▁Believe	-11.8514
▁enclosed	-11.8515
▁rattle	-11.8516
▁Across	-11.8517
▁scholar	-11.8518
▁butcher	-11.8518
▁STAGE	-11.8521
▁plead	-11.8523
▁charmed	-11.8525
sh	-11.8529
▁Ronnie	-11.8532
▁Brion	-11.8532
▁RESTAURANT	-11.8533
▁namely	-11.8538
▁helplessly	-11.8542
▁tramp	-11.8543
quite	-11.8544
tu	-11.8548
▁explodes	-11.8548
▁hush	-11.8549
▁NEVILLE	-11.8551
▁Farm	-11.8552
▁ACROSS	-11.8556
Horror	-11.8556
▁twisting	-11.8557
▁gasp	-11.8564
▁74	-11.8568
▁Servadac	-11.857
▁inhabited	-11.8572
▁Benjamin	-11.8572
▁controlled	-11.8578
▁MOLLY	-11.8581
Aye	-11.8582
▁Rock	-11.8583
▁kin	-11.8583
▁shells	-11.8583
▁Post	-11.8589
▁skies	-11.859
▁Gentlemen	-11.859
▁frowned	-11.8594
▁decorated	-11.8595
▁sour	-11.8595
BACK	-11.8596
▁BRIAN	-11.8596
Alas	-11.8597
▁factory	-11.8598
▁shifting	-11.8599
▁bathed	-11.86
▁sly	-11.8601
▁ridicule	-11.8602
▁customer	-11.8603
▁der	-11.8603
▁function	-11.8604
▁Happy	-11.8606
▁71	-11.8607
▁carriages	-11.8607
▁withered	-11.8608
▁visions	-11.8611
▁hides	-11.8613
▁collapses	-11.8615
Sci	-11.8616
RY	-11.8619
▁gasps	-11.8622
▁Glen	-11.8627
▁Murphy	-11.8628
▁admission	-11.8628
▁Saul	-11.8628
▁Teddy	-11.8628
▁oppose	-11.8629
▁ruled	-11.863
▁bruised	-11.8631
ised	-11.8631
Father	-11.8634
▁thicket	-11.8637
▁duly	-11.8637
▁differently	-11.8637
▁gazes	-11.8639
▁assert	-11.8639
bar	-11.8641
IT	-11.8644
▁hinder	-11.8645
▁Glascock	-11.8647
▁Glendinning	-11.8647
▁fluid	-11.8647
▁Jeffard	-11.8647
▁Strickland	-11.8649
▁Colin	-11.8649
▁CHURCH	-11.8649
▁boiling	-11.865
being	-11.8651
▁snuff	-11.8651
▁liar	-11.8652
▁Crystal	-11.8653
▁manhood	-11.8654
▁bachelor	-11.8655
▁Laurent	-11.8656
▁83	-11.8657
▁largely	-11.8658
▁SO	-11.8661
▁78	-11.8663
▁dew	-11.8665
▁Amadis	-11.8667
▁sheriff	-11.8667
▁tucked	-11.8667
▁helm	-11.8668
▁Nathan	-11.8669
▁Douglas	-11.8669
▁ROCKY	-11.867
▁Barris	-11.8672
▁babe	-11.8672
▁pissed	-11.8673
JIM	-11.8673
▁tangled	-11.8673
▁barrels	-11.8676
▁starve	-11.8677
▁cheat	-11.8678
foot	-11.8679
_--	-11.8683
▁serene	-11.8684
▁Curdie	-11.8686
▁glaring	-11.8686
▁Francisco	-11.8686
▁muddy	-11.8687
▁smashes	-11.8687
▁isolated	-11.8687
▁Noel	-11.8687
▁justly	-11.8695
▁CAT	-11.8697
▁withdrawn	-11.8702
▁LOGAN	-11.8704
ative	-11.8704
▁Syme	-11.8706
▁shopping	-11.8707
▁troop	-11.8708
Stop	-11.8711
▁Pause	-11.8715
▁Brangwen	-11.8725
▁University	-11.8725
▁baffled	-11.8729
▁conquest	-11.8735
▁retreated	-11.8735
▁imposed	-11.8738
too	-11.8741
▁ignore	-11.8744
▁regretted	-11.8745
▁Glaucus	-11.8749
▁repeatedly	-11.8749
▁accounted	-11.8753
▁regularly	-11.8755
▁finer	-11.8755
▁weigh	-11.8756
▁peculiarly	-11.8757
▁harvest	-11.876
▁attendants	-11.8763
▁locker	-11.8763
▁Dunstable	-11.8764
▁oldest	-11.8764
NER	-11.8764
▁refusing	-11.8764
▁Ellinor	-11.8765
▁ELLIE	-11.8768
▁fake	-11.8769
▁une	-11.877
▁79	-11.8772
▁oars	-11.8777
▁moor	-11.8778
▁Trust	-11.8779
▁stray	-11.878
▁hunter	-11.878
▁profile	-11.8783
▁vexation	-11.8784
▁imposing	-11.8784
▁Alfred	-11.8785
▁pearls	-11.8785
▁wrists	-11.8788
▁verses	-11.879
▁Tara	-11.879
▁receipt	-11.8791
▁jar	-11.8791
▁stiffly	-11.8792
▁SALLY	-11.8793
▁suffice	-11.8795
▁crow	-11.8803
▁wearily	-11.8804
▁removing	-11.8805
▁robbery	-11.8805
▁hateful	-11.8807
▁hates	-11.8809
WAY	-11.8809
▁welcomed	-11.8811
CH	-11.8812
nail	-11.8813
MINI	-11.8816
▁adopt	-11.8816
▁CLAIRE	-11.8817
▁suite	-11.8818
▁hopeful	-11.8819
▁overwhelming	-11.8823
▁sequence	-11.8823
▁sparks	-11.8826
▁avoiding	-11.8827
pan	-11.8828
▁twin	-11.8828
▁eastern	-11.8829
away	-11.883
▁scope	-11.883
▁considerations	-11.8838
▁array	-11.8839
▁ED	-11.8841
yet	-11.8842
▁Find	-11.8844
▁BARON	-11.8845
▁treating	-11.8846
▁hose	-11.8847
▁eats	-11.8847
▁HAN	-11.8848
▁associated	-11.8849
▁acute	-11.885
▁association	-11.8851
fully	-11.8853
▁Dockwrath	-11.8862
▁picnic	-11.8862
▁Knightley	-11.8862
▁Pacific	-11.8863
▁boards	-11.8864
▁steering	-11.8865
▁09	-11.8867
▁Want	-11.8868
▁hasten	-11.8869
▁Mc	-11.8869
▁convenience	-11.8871
▁JUST	-11.8874
Sure	-11.8875
▁Link	-11.8878
▁juice	-11.8879
▁doings	-11.888
▁goddess	-11.8883
▁shorter	-11.8884
▁insects	-11.8887
▁Port	-11.8894
▁excitedly	-11.8896
▁wickedness	-11.8896
▁87	-11.89
▁symbol	-11.89
▁astonishing	-11.8901
▁attain	-11.8901
▁Montreville	-11.8902
▁Reardon	-11.8902
▁Hanaud	-11.8902
▁squeeze	-11.8903
▁anti	-11.8906
▁congratulate	-11.8914
▁plump	-11.8917
▁excess	-11.892
▁76	-11.8921
▁ERICA	-11.8923
VOICE	-11.8924
▁uttering	-11.8925
▁wars	-11.8925
▁crowned	-11.893
French	-11.893
▁folding	-11.8931
▁commonly	-11.8933
▁Mind	-11.8937
▁exists	-11.8938
▁mournful	-11.894
▁verdict	-11.8941
▁Bunny	-11.8942
▁ninety	-11.8942
▁rubbish	-11.8943
lar	-11.8943
▁patches	-11.8943
▁confronted	-11.8944
▁GLASS	-11.8947
▁wrinkled	-11.8947
Mystery	-11.895
▁rogue	-11.8951
▁pleases	-11.8952
shaped	-11.8952
▁wider	-11.8952
▁examines	-11.8952
▁schemes	-11.8952
▁WIFE	-11.8956
▁instincts	-11.8961
▁nineteen	-11.8961
▁ale	-11.8963
▁Lloyd	-11.8963
bag	-11.8964
▁sewing	-11.8964
▁Dog	-11.8966
▁gale	-11.8972
▁************	-11.8972
▁straining	-11.8978
▁goal	-11.8981
▁ALLMERS	-11.8981
▁imitation	-11.8981
▁Dashwood	-11.8981
▁baggage	-11.8981
▁BOOM	-11.8984
▁transparent	-11.8986
_]	-11.8986
▁foremost	-11.8988
▁STAR	-11.8988
▁procured	-11.8989
▁discharged	-11.899
▁praying	-11.8992
▁Town	-11.8996
▁93	-11.8997
love	-11.8999
▁84	-11.8999
▁secrecy	-11.9001
▁creek	-11.9001
▁Instantly	-11.9001
▁impact	-11.9002
▁hesitating	-11.9003
▁Traddles	-11.9003
JACOB	-11.9005
▁sentences	-11.9007
while	-11.9008
▁ornaments	-11.9009
▁SIR	-11.9011
▁garment	-11.9016
▁Speak	-11.9016
▁thorough	-11.9018
▁Fi	-11.9018
▁Herr	-11.9019
▁Ellida	-11.9021
▁fancies	-11.9021
▁grandeur	-11.9022
▁commanding	-11.9025
▁consumed	-11.9027
▁contracted	-11.9027
▁penetrated	-11.9028
[	-11.903
▁Dark	-11.903
▁relax	-11.9032
▁BARRIS	-11.9032
▁Neb	-11.9033
▁Mo	-11.9036
▁tortured	-11.9038
▁Poyser	-11.9041
▁Mackel	-11.9042
▁preference	-11.9042
▁Sub	-11.9042
▁filthy	-11.9043
▁admiral	-11.9043
war	-11.9045
▁successfully	-11.905
▁ignores	-11.9054
▁REVEAL	-11.9056
1.	-11.9059
▁survey	-11.906
va	-11.906
▁Inspector	-11.9061
▁abstract	-11.9062
▁exile	-11.9064
▁81	-11.9066
▁Commons	-11.9066
▁shifted	-11.9068
▁likeness	-11.9068
▁matches	-11.9069
▁MILLER	-11.9069
▁ROSENFELD	-11.907
▁CON	-11.9072
▁kinda	-11.9072
▁accusation	-11.9079
▁genre	-11.9081
▁din	-11.9081
▁schooner	-11.9082
▁Darcy	-11.9082
▁enchanted	-11.9082
▁DECK	-11.9082
ure	-11.9083
▁adorned	-11.9083
right	-11.9085
▁Immediately	-11.9086
▁Julius	-11.9086
▁talents	-11.9089
point	-11.9091
▁patron	-11.9091
Which	-11.9092
▁HARVEY	-11.9093
▁joys	-11.91
▁Lane	-11.91
▁sounding	-11.9101
▁cured	-11.9102
▁Venice	-11.9102
▁Germans	-11.9103
▁JO	-11.9106
▁Ex	-11.9112
▁Cardinal	-11.9112
▁elected	-11.9112
▁tops	-11.9115
IL	-11.912
▁ripe	-11.912
▁peek	-11.9121
▁perplexity	-11.9122
▁Partridge	-11.9122
▁Alleyne	-11.9122
▁rounds	-11.9122
▁companionship	-11.9123
post	-11.9124
ac	-11.9126
ak	-11.9127
▁Finch	-11.9127
under	-11.9128
▁heights	-11.9129
▁US	-11.9132
▁production	-11.9134
▁ta	-11.9135
▁Willie	-11.9137
▁bronze	-11.9137
▁dart	-11.9138
▁CRASH	-11.9142
▁Wind	-11.9142
▁Gilliatt	-11.9142
▁solemnity	-11.9143
▁acceptance	-11.9146
▁clicks	-11.9147
▁Il	-11.9149
▁Georges	-11.915
ls	-11.9151
▁extends	-11.9152
▁lust	-11.9157
▁messages	-11.916
▁Godfrey	-11.9163
▁liable	-11.9163
▁Psmith	-11.9163
▁effectually	-11.9164
▁drugs	-11.9164
▁fiction	-11.9167
Fantasy	-11.9174
▁rapture	-11.9174
▁wisely	-11.9181
▁spit	-11.9182
▁duel	-11.9183
▁implied	-11.9183
▁Ireland	-11.9183
▁fulfilled	-11.9184
▁scarf	-11.9184
▁ghosts	-11.9185
▁assuming	-11.9185
▁comic	-11.9186
▁Yellow	-11.9186
▁February	-11.9186
▁register	-11.9191
Twas	-11.9191
▁pitched	-11.9192
▁meals	-11.9197
Yet	-11.9197
▁laden	-11.9198
▁Th	-11.9199
▁halfway	-11.9199
▁Derek	-11.9203
▁acid	-11.9204
▁morality	-11.9204
▁82	-11.9205
▁football	-11.9205
▁HIGHWAY	-11.9208
▁languages	-11.9209
▁madman	-11.921
▁dive	-11.9211
▁excuses	-11.9212
ENNY	-11.9212
▁discern	-11.9214
▁lodged	-11.9216
▁Hush	-11.9216
▁outfit	-11.9218
▁History	-11.9218
▁basin	-11.9224
▁Rudolf	-11.9225
▁assigned	-11.9225
▁discovering	-11.9226
▁Mercy	-11.9227
▁Honey	-11.9228
▁meetings	-11.9229
▁LE	-11.9232
▁Faith	-11.9238
▁AROUND	-11.9244
▁Sowerby	-11.9244
▁wardrobe	-11.9244
▁daresay	-11.9245
▁lance	-11.9245
▁sensations	-11.9246
▁producing	-11.925
▁borough	-11.9251
▁wholesome	-11.9252
▁mayor	-11.9256
▁Gods	-11.9256
General	-11.9257
▁unaware	-11.9257
▁specimen	-11.9257
▁representative	-11.9257
cause	-11.9257
ence	-11.9258
▁vein	-11.926
tell	-11.9261
▁alliance	-11.9262
▁shrewd	-11.9263
ger	-11.9265
▁converted	-11.9267
▁PEOPLE	-11.9268
Two	-11.9269
▁vehicles	-11.9269
▁gallop	-11.927
▁dome	-11.927
▁aloft	-11.9271
▁incidents	-11.9272
TON	-11.9279
air	-11.928
▁sites	-11.9282
▁Maguire	-11.9286
▁Jody	-11.9286
▁believes	-11.9291
▁institution	-11.9291
tion	-11.9293
▁Paradise	-11.9295
▁invalid	-11.9297
ALLISON	-11.9297
▁mocking	-11.9298
▁TYLER	-11.9298
▁upside	-11.9301
▁ankle	-11.9302
ped	-11.9303
▁XIII	-11.9305
▁Cindy	-11.9306
▁abundance	-11.9306
▁pregnant	-11.9306
▁provincial	-11.9306
▁happiest	-11.9306
▁prompted	-11.9309
▁Power	-11.9315
▁Leon	-11.9316
▁Angela	-11.9318
whether	-11.9319
▁elephant	-11.9319
▁Mula	-11.9319
rt	-11.9321
▁dans	-11.9324
▁orderly	-11.9326
▁apparatus	-11.9327
▁fascination	-11.9327
▁Vivian	-11.9327
▁Peterkin	-11.9328
▁Lorraine	-11.9331
▁detached	-11.9331
▁brooding	-11.9333
▁fluttering	-11.9334
▁impress	-11.9338
ANN	-11.9338
▁banker	-11.9339
▁saloon	-11.934
▁exertion	-11.9341
▁reluctance	-11.9348
▁essence	-11.9348
▁frail	-11.9348
▁Rowley	-11.9348
▁Twinkle	-11.9348
▁Price	-11.9348
▁elapsed	-11.9349
▁actors	-11.935
▁fold	-11.9351
▁conclude	-11.9353
▁extend	-11.9353
▁cats	-11.9356
▁brushes	-11.9356
▁pills	-11.9357
▁hound	-11.9365
▁designs	-11.9365
▁GROUND	-11.9366
!!!	-11.9366
▁civility	-11.9369
▁crude	-11.9369
office	-11.9369
▁tickets	-11.9372
▁chatter	-11.9373
▁Air	-11.9374
▁Englishmen	-11.9375
▁joining	-11.9378
▁MOON	-11.9381
▁Jacques	-11.9385
▁discreet	-11.9389
▁behavior	-11.9389
▁nowadays	-11.9389
▁humbly	-11.9389
▁laboratory	-11.9389
INE	-11.9389
▁WAS	-11.939
▁feverish	-11.9391
▁Eleanor	-11.9391
▁wool	-11.9393
▁concentrated	-11.9393
▁flickering	-11.9394
▁contemplated	-11.9394
▁wheeled	-11.9397
▁flatter	-11.9397
▁devote	-11.94
▁artistic	-11.94
ADAM	-11.94
▁scar	-11.9401
▁sweating	-11.9403
▁PRE	-11.9407
ND	-11.9408
▁continual	-11.9408
▁wrap	-11.941
▁Pat	-11.941
▁Gerhardt	-11.941
▁Katharine	-11.941
▁MOTEL	-11.941
▁ENTRANCE	-11.9412
▁STREETS	-11.9413
▁thrilled	-11.9414
▁mistakes	-11.9416
▁HAVE	-11.9417
▁Hills	-11.9418
▁TIGHT	-11.942
Me	-11.9422
▁apologize	-11.9423
▁Dodge	-11.9428
▁swollen	-11.9431
▁vigour	-11.9431
▁CENTER	-11.9431
▁rod	-11.9431
▁crumpled	-11.9432
▁deposited	-11.9433
▁seizing	-11.9433
▁canst	-11.944
▁mouse	-11.9441
▁nicely	-11.9442
▁scans	-11.9444
MELANIE	-11.9445
▁rouse	-11.9445
▁chalk	-11.9445
▁champion	-11.9445
▁Ki	-11.9446
▁unkind	-11.9447
▁stain	-11.9448
▁Bloom	-11.9452
▁junior	-11.9452
▁salvation	-11.9452
▁Monmouth	-11.9452
▁Oak	-11.9454
pp	-11.9456
▁snapping	-11.9457
▁roofs	-11.9458
▁SNOW	-11.9459
▁gaping	-11.9459
▁Abe	-11.946
▁warmed	-11.9462
▁scratch	-11.9464
▁delayed	-11.9466
ALEX	-11.9466
coming	-11.9468
▁Wars	-11.9468
▁percent	-11.9472
▁whiskey	-11.9473
bred	-11.9473
▁EARLY	-11.9473
▁instructed	-11.9475
▁SHOTS	-11.9477
▁needful	-11.948
▁Heav	-11.9481
▁relish	-11.9483
cy	-11.9485
di	-11.9485
▁Davis	-11.9486
Lost	-11.9488
▁slaughter	-11.9491
▁Elenor	-11.9494
▁rugged	-11.9494
▁flee	-11.9498
▁Standing	-11.9498
▁MOVE	-11.9498
▁XV	-11.9501
▁crushing	-11.9503
▁entreat	-11.9503
▁faithfully	-11.9504
▁DOC	-11.9505
▁wa	-11.9505
▁supporting	-11.9508
▁trapper	-11.9509
▁improve	-11.951
▁novels	-11.9513
▁pavilion	-11.9515
▁Samms	-11.9515
▁prosperous	-11.9516
▁insulted	-11.9522
▁Sean	-11.9527
▁fuss	-11.9528
ARD	-11.9529
▁legend	-11.9531
▁Gus	-11.9534
seven	-11.9535
▁SR	-11.9535
▁FOREST	-11.9536
▁Perry	-11.9536
▁grandson	-11.9537
ors	-11.9537
▁tumbling	-11.9537
Yea	-11.9537
▁fling	-11.9537
▁Cecil	-11.9538
▁Parr	-11.954
▁lame	-11.954
ig	-11.9544
qui	-11.9547
CAL	-11.9548
▁husbands	-11.9551
▁obtaining	-11.9552
▁heaps	-11.9554
▁ingenious	-11.9554
▁Chandler	-11.9557
▁Shrek	-11.9557
▁ripped	-11.9557
▁mademoiselle	-11.9558
▁supernatural	-11.9558
▁handwriting	-11.9559
▁worthless	-11.956
▁THEN	-11.956
▁hushed	-11.9561
▁perfume	-11.9561
▁Judy	-11.9561
▁restraint	-11.9562
▁WALT	-11.9563
cat	-11.9564
▁compose	-11.9564
▁CROWD	-11.9565
▁monsters	-11.9566
ol	-11.9566
▁HOLD	-11.9566
▁Against	-11.9568
▁smoothly	-11.9568
▁referring	-11.957
▁compromise	-11.957
▁cheering	-11.9574
▁PAST	-11.9574
▁Hulot	-11.9578
▁pr	-11.9578
▁disappearance	-11.9578
▁baronet	-11.9578
▁troublesome	-11.9581
▁fade	-11.9583
▁biting	-11.9584
▁undertaken	-11.9586
▁somethin	-11.9591
▁hints	-11.9592
Short	-11.9594
▁Hard	-11.9595
▁brisk	-11.9596
▁clubs	-11.9596
▁infernal	-11.9597
▁Junior	-11.9599
▁Wessex	-11.9599
▁Rudy	-11.9599
▁garbage	-11.9599
▁depression	-11.96
▁Board	-11.9602
▁piles	-11.9604
▁slavery	-11.9608
▁slows	-11.9613
▁Taking	-11.9615
cher	-11.9615
▁click	-11.9616
▁Picard	-11.9617
▁HOLMES	-11.9621
▁mechanism	-11.9621
▁Silas	-11.9621
▁oblivious	-11.9622
▁Cabinet	-11.9622
▁EXTERIOR	-11.9622
▁displeased	-11.9623
▁Truth	-11.9626
▁patients	-11.9631
▁Courcy	-11.9637
▁yielding	-11.9637
▁ca	-11.9638
▁harbor	-11.9639
▁improvement	-11.9641
▁Feng	-11.9642
▁inherited	-11.9644
De	-11.9645
▁ultimately	-11.9645
▁Beatrice	-11.9645
▁blades	-11.965
▁Shelly	-11.965
▁Clear	-11.9651
▁Either	-11.9655
▁frowning	-11.9655
▁bounded	-11.9656
▁environment	-11.9656
▁shrug	-11.9659
tte	-11.9659
▁rescued	-11.9661
▁Jake	-11.9662
▁girlfriend	-11.9662
▁Greystock	-11.9663
▁BLUE	-11.9664
▁Year	-11.9665
▁nigger	-11.9665
▁overheard	-11.9667
1**	-11.9668
▁resign	-11.9677
▁loan	-11.9678
▁microphone	-11.968
▁cruelly	-11.968
▁ERIK	-11.9684
▁Carbuncle	-11.9685
▁Dudley	-11.9685
▁congregation	-11.9685
▁FORREST	-11.9685
▁insolence	-11.9685
▁Fitz	-11.9685
▁civilized	-11.9685
▁policemen	-11.9688
▁freed	-11.9689
min	-11.9689
▁glided	-11.9689
▁solely	-11.9691
▁flattering	-11.9692
▁crap	-11.9692
▁CHUCK	-11.9693
▁OMIT	-11.9695
▁FORD	-11.97
▁signify	-11.9701
▁tutor	-11.9703
▁internal	-11.9704
▁commonplace	-11.9704
DIGNAN	-11.9706
▁Milroy	-11.9706
▁Spilett	-11.9706
▁submarine	-11.9706
▁ELIZABETH	-11.9707
may	-11.9707
▁DAN	-11.9707
said	-11.9707
▁Committee	-11.9708
▁nursing	-11.9708
▁Gary	-11.9709
▁sip	-11.9709
▁spies	-11.971
▁grove	-11.9713
▁entertaining	-11.9722
arms	-11.9722
▁ferocious	-11.9725
▁faculty	-11.9728
▁MARTHA	-11.9728
▁Shaggy	-11.9728
▁thrice	-11.9728
▁Warden	-11.9728
▁automatic	-11.973
▁Christine	-11.9734
▁exasperated	-11.9735
▁differ	-11.9737
▁SCOTTY	-11.9739
▁108	-11.9739
▁drown	-11.9739
▁Calvin	-11.9739
▁MASTER	-11.9741
▁wig	-11.9742
▁rounded	-11.9744
▁Detective	-11.9745
▁insolent	-11.9747
▁headache	-11.9748
▁beauties	-11.9749
▁Edith	-11.975
▁Carteret	-11.975
▁Elsbeth	-11.9753
▁lowering	-11.9753
ROBIN	-11.9754
AS	-11.9754
▁preach	-11.9756
▁Bad	-11.9758
▁FRAN	-11.9758
▁According	-11.9759
▁swam	-11.9762
▁lounge	-11.9763
True	-11.9767
▁mainly	-11.9767
▁league	-11.9768
▁Lambert	-11.9771
▁plea	-11.9771
▁luminous	-11.9771
▁torches	-11.9773
▁joking	-11.9773
▁PATRICK	-11.9775
▁POOL	-11.9777
▁maze	-11.9777
▁frowns	-11.9778
▁Cor	-11.9779
▁som	-11.9779
▁lifeless	-11.9783
▁chart	-11.9784
▁GUARDS	-11.9788
WALT	-11.9788
▁senseless	-11.9788
Monsieur	-11.9789
▁clerks	-11.9789
▁minded	-11.979
▁FERGUS	-11.9792
▁university	-11.9792
▁INTERCUT	-11.9795
▁respectfully	-11.9797
▁Station	-11.9798
▁pearl	-11.9799
▁dispose	-11.9799
▁appearances	-11.9802
tan	-11.9804
▁renew	-11.9807
▁horrors	-11.9807
RO	-11.9808
▁fixing	-11.9808
▁overboard	-11.981
▁streak	-11.981
▁prominent	-11.9812
ric	-11.9812
▁lunges	-11.9812
▁BOAT	-11.9812
chi	-11.9814
Animation	-11.9814
▁Avenel	-11.9814
▁arguing	-11.9815
▁pigs	-11.9818
▁perpetually	-11.9819
▁tents	-11.9821
▁wan	-11.9823
▁aft	-11.9824
▁claw	-11.9826
▁cradle	-11.9827
▁scare	-11.9827
▁han	-11.9833
▁compartment	-11.9833
▁LORI	-11.9834
girl	-11.9835
▁AM	-11.9836
▁stride	-11.9836
▁Yule	-11.9837
▁PHIL	-11.9837
▁hops	-11.9837
▁...**	-11.9843
▁boarding	-11.9843
▁Jill	-11.9843
▁quicker	-11.9843
▁cultivated	-11.9843
▁_[	-11.9846
▁revolt	-11.9848
▁growl	-11.9848
▁cows	-11.985
▁ash	-11.9851
▁Da	-11.9852
▁systems	-11.9853
LARGE	-11.9854
▁shirts	-11.9858
▁miniature	-11.9858
▁Burke	-11.9858
▁exaggerated	-11.986
▁DEAR	-11.9861
▁posted	-11.9861
▁Times	-11.9862
covered	-11.9863
Musical	-11.9863
▁Ya	-11.9864
▁jewel	-11.9864
▁Mlle	-11.9865
▁representing	-11.9866
▁Per	-11.9868
▁WADE	-11.9868
gu	-11.987
dog	-11.9874
▁attire	-11.9876
▁excessive	-11.9877
▁RIVER	-11.988
▁Crevel	-11.988
▁Lundie	-11.988
▁inheritance	-11.988
▁prone	-11.9881
▁effected	-11.9882
▁97	-11.9887
▁WOODS	-11.9888
▁Third	-11.9891
▁dwarf	-11.9895
▁hind	-11.9895
Edward	-11.9898
BEAT	-11.9899
before	-11.9899
▁PICARD	-11.9901
▁AIRPORT	-11.9901
▁commotion	-11.9901
▁Gwilt	-11.9901
▁spears	-11.9903
▁Accordingly	-11.9904
▁puzzle	-11.9905
▁insignificant	-11.9906
▁pirate	-11.9908
▁barred	-11.9911
▁101	-11.9913
▁Arab	-11.9914
▁settles	-11.9916
▁speculation	-11.9921
almost	-11.9921
▁Central	-11.9923
▁relating	-11.9923
▁Halbert	-11.9923
▁Enid	-11.9923
▁plaster	-11.9926
▁leagues	-11.9927
▁CLOSER	-11.9927
▁transfer	-11.9929
NICK	-11.993
▁Won	-11.9931
▁Doesn	-11.9933
▁rivers	-11.9936
▁gardener	-11.9937
▁program	-11.9942
▁CHAMBER	-11.9942
South	-11.9943
▁Moscow	-11.9945
▁Aubert	-11.9945
▁Docchi	-11.9945
▁whirling	-11.995
▁caps	-11.9953
RA	-11.9954
▁pinch	-11.996
▁120	-11.9962
▁FOUR	-11.9963
NEFF	-11.9964
▁withal	-11.9964
▁offensive	-11.9965
▁GROUP	-11.9965
▁encouraging	-11.9967
PAULINE	-11.9968
▁Solomon	-11.9969
▁INDY	-11.997
▁arranging	-11.997
▁bailiff	-11.997
▁fading	-11.9972
▁monitors	-11.9973
▁latch	-11.9974
▁Lou	-11.9976
▁89	-11.9976
MA	-11.9982
▁oddly	-11.9983
▁Neo	-11.9983
▁murmuring	-11.9983
▁subsequent	-11.9987
Family	-11.9987
▁precaution	-11.9988
▁proofs	-11.9989
▁Ratcliffe	-11.9989
▁economy	-11.9989
▁GARAGE	-11.9989
▁Merdle	-11.9989
▁Dawson	-11.9989
▁Elaine	-11.999
▁CELL	-11.999
▁tame	-11.999
▁logic	-11.9991
▁Bush	-11.9992
▁surveyed	-11.9993
WAYNE	-11.9993
▁scenery	-11.9993
maid	-11.9997
roul	-11.9997
▁COMPUTER	-11.9998
▁homes	-12.0001
▁curses	-12.0001
▁Know	-12.0002
▁thir	-12.0003
▁glowed	-12.0004
legged	-12.0009
▁chopper	-12.001
▁lui	-12.001
▁wad	-12.001
▁hire	-12.0011
▁Elton	-12.0012
▁realization	-12.0012
form	-12.0013
▁Napoleon	-12.0015
▁crashes	-12.0015
▁angles	-12.0016
▁affectionately	-12.0019
▁knob	-12.0019
▁floats	-12.0021
▁hop	-12.0025
▁ranch	-12.0025
▁ridden	-12.0029
▁HALLE	-12.0029
▁pillars	-12.0031
▁fetched	-12.0031
▁rider	-12.0033
▁Security	-12.0034
▁obstinacy	-12.0034
▁110	-12.0035
rn	-12.0035
▁bees	-12.0038
▁objections	-12.004
▁Commander	-12.004
EMMA	-12.004
▁premises	-12.0045
elle	-12.0045
▁intending	-12.0049
Western	-12.0055
▁reef	-12.0056
▁Brock	-12.0057
▁reluctant	-12.0057
▁ABOVE	-12.0059
▁constructed	-12.006
ut	-12.0061
▁hysterical	-12.0061
▁prompt	-12.0064
▁ignored	-12.0065
▁pang	-12.0067
▁NED	-12.0067
▁surround	-12.0069
▁penetrate	-12.0069
▁conjecture	-12.0069
▁OR	-12.007
▁delicately	-12.007
mm	-12.0077
▁electrical	-12.0078
▁expanse	-12.0078
▁disbelief	-12.0078
▁Coraline	-12.0078
▁endowed	-12.0079
▁stairway	-12.0079
▁shiny	-12.0079
▁poised	-12.0081
▁resolutely	-12.0082
▁blinded	-12.0082
▁Sammy	-12.0083
▁authors	-12.0083
▁defeated	-12.0084
▁swallows	-12.0086
bell	-12.0086
▁research	-12.0086
▁Away	-12.0089
ette	-12.0092
▁weaker	-12.0097
▁THERE	-12.0098
_,"	-12.0099
NBECK	-12.0101
▁starving	-12.0101
▁quarrelled	-12.0101
▁Rhoda	-12.0101
▁Bassett	-12.0102
▁poker	-12.0102
!)	-12.0104
▁stooping	-12.0105
▁handled	-12.0107
▁gentleness	-12.0112
▁tiger	-12.0113
▁hello	-12.0113
▁sneer	-12.0114
Noir	-12.0115
om	-12.0119
▁riot	-12.0121
MOORE	-12.0122
Really	-12.0122
▁DESERT	-12.0122
▁Pancks	-12.0123
▁TESMAN	-12.0123
▁ambulance	-12.0123
▁faltered	-12.0124
▁comforts	-12.0124
▁Meriem	-12.0125
▁Korak	-12.0126
Ch	-12.0126
▁shivered	-12.0126
▁Edmee	-12.0127
▁Ghost	-12.0128
▁howl	-12.0128
▁peered	-12.0128
▁stables	-12.0128
▁Peace	-12.0128
▁Honour	-12.0131
▁Ham	-12.0135
▁realise	-12.0137
▁MURPHY	-12.0138
▁estates	-12.0139
▁data	-12.0139
▁expose	-12.014
TIM	-12.0142
▁tempest	-12.0144
▁Might	-12.0144
▁monks	-12.0145
▁banner	-12.0145
rudatta	-12.0145
▁Dunstan	-12.0145
▁gratification	-12.0145
▁BRIDE	-12.0145
▁Scarlet	-12.0145
▁sped	-12.0146
shot	-12.0147
▁excused	-12.0148
▁bout	-12.0149
▁screens	-12.0151
▁Fa	-12.0153
▁kettle	-12.0154
▁aching	-12.0157
▁Mountains	-12.0158
▁Jen	-12.0159
▁confirm	-12.0159
▁LOVE	-12.016
▁cents	-12.016
▁smells	-12.0163
▁speeds	-12.0165
dozen	-12.0167
▁inevitably	-12.0168
▁twinkling	-12.0168
▁stumbling	-12.0168
▁sunrise	-12.0168
▁floors	-12.0171
▁watchful	-12.0172
▁Mabel	-12.0172
▁reconciled	-12.0175
AR	-12.0176
▁lone	-12.0179
▁acres	-12.0181
▁Laurie	-12.0187
▁razor	-12.019
▁haggard	-12.019
lic	-12.019
▁transferred	-12.0191
▁subjected	-12.0191
▁XVI	-12.0192
▁towering	-12.0192
▁canyon	-12.0193
▁Camilla	-12.0194
▁Fortune	-12.0195
▁undertaking	-12.0196
▁SOLDIER	-12.0196
▁unusually	-12.02
▁Hang	-12.02
▁rewarded	-12.0202
▁lesser	-12.0203
▁Job	-12.0205
▁genial	-12.021
DAY	-12.0213
▁merrily	-12.0213
▁Below	-12.0213
▁habitual	-12.0213
▁colony	-12.0213
▁rapidity	-12.0214
▁SAL	-12.0214
▁proclaimed	-12.0215
▁Bentley	-12.0215
▁feebly	-12.0216
▁detained	-12.0216
▁hurts	-12.0217
▁Valentine	-12.0218
▁Maurice	-12.0219
ANNE	-12.022
▁blossoms	-12.0221
▁barking	-12.0223
▁wink	-12.0224
▁Cop	-12.0226
▁Free	-12.0227
▁burns	-12.0228
▁include	-12.0228
▁cheers	-12.0231
▁random	-12.0234
PAUSE	-12.0236
▁enclosure	-12.0236
▁unlucky	-12.0236
EDWARD	-12.0236
▁madly	-12.0237
▁cherished	-12.0242
▁rim	-12.0243
▁huts	-12.0244
▁Jupiter	-12.0245
▁morals	-12.0246
vi	-12.025
▁mound	-12.025
▁condemn	-12.0251
▁handy	-12.0253
▁tumble	-12.0253
▁bustle	-12.0255
▁squad	-12.0258
▁Weldon	-12.0258
▁desperation	-12.0258
▁insensible	-12.0258
▁Juno	-12.0259
▁treason	-12.0259
▁Donnie	-12.0259
▁director	-12.0261
▁realm	-12.0262
▁tribute	-12.0263
▁gracefully	-12.0265
▁AMY	-12.0267
▁groans	-12.027
▁Sweet	-12.0271
▁Morning	-12.0273
▁CLOSEUP	-12.0276
▁guineas	-12.0278
▁RIPLEY	-12.0278
▁DARCY	-12.0281
▁phenomenon	-12.0281
▁skeleton	-12.0282
▁STORM	-12.0287
▁clearer	-12.0288
▁exercised	-12.0289
▁trusting	-12.0289
▁MONTAGE	-12.029
▁sting	-12.0291
▁saluted	-12.0291
▁widely	-12.0293
▁whereby	-12.0293
▁Bird	-12.0295
▁parade	-12.0297
▁Therese	-12.0298
▁plague	-12.03
▁SYDNEY	-12.03
▁AL	-12.0302
mer	-12.0303
▁clapped	-12.0304
▁Hellboy	-12.0304
▁pretext	-12.0304
▁organization	-12.0305
▁Greshamsbury	-12.0305
▁mo	-12.0305
▁twists	-12.0305
▁fainted	-12.0307
▁scratched	-12.0307
▁EVIL	-12.0308
▁haze	-12.0309
▁Near	-12.0309
leg	-12.0309
ans	-12.031
▁LEADER	-12.0311
▁Nash	-12.0311
▁Full	-12.0312
Ye	-12.0312
▁UNDER	-12.0315
▁banquet	-12.0316
▁pat	-12.0318
▁stoop	-12.0319
▁blindly	-12.0321
▁capsules	-12.0321
Rip	-12.0325
▁weeds	-12.0325
▁Daisy	-12.0327
▁exterior	-12.0327
▁Fairlie	-12.0327
▁Greenow	-12.0327
Film	-12.0327
HILDY	-12.0327
▁weakly	-12.0329
▁errors	-12.033
▁AGAIN	-12.0332
▁flask	-12.0332
▁Victoria	-12.0333
▁embroidered	-12.0333
▁Nugent	-12.0335
Eh	-12.0336
▁searches	-12.0336
sher	-12.0337
▁pans	-12.0337
▁performing	-12.0339
▁phase	-12.0341
▁111	-12.0349
▁jam	-12.0349
▁Halcombe	-12.0349
▁dingy	-12.035
▁climate	-12.035
▁glistening	-12.0351
▁Small	-12.0353
▁hunters	-12.0355
▁springing	-12.0355
▁naughty	-12.0356
▁gleamed	-12.0357
▁mused	-12.0357
▁princes	-12.0361
▁clatter	-12.0364
▁hermit	-12.0366
▁presumed	-12.0366
▁Pro	-12.0369
▁JEFFR	-12.0369
SE	-12.0372
▁Jennings	-12.0372
▁Mozart	-12.0372
▁Sholmes	-12.0372
▁Chase	-12.0373
▁TUNNEL	-12.0375
▁Flora	-12.0376
Link	-12.0377
▁daddy	-12.0377
▁frustrated	-12.0378
EEDY	-12.038
▁sa	-12.0381
▁survived	-12.0382
▁Lila	-12.0382
▁vanish	-12.0385
nine	-12.0389
▁bridle	-12.0389
▁Tears	-12.039
▁stubborn	-12.0392
▁joyful	-12.0395
▁Jonson	-12.0395
▁deference	-12.0396
▁possessions	-12.0396
▁obscurity	-12.0397
▁preacher	-12.0401
▁ignoring	-12.0408
ji	-12.0409
▁Lori	-12.0413
▁JEFF	-12.0415
po	-12.0418
▁Desnoyers	-12.0418
▁brink	-12.0419
▁undone	-12.0419
CONRAD	-12.0419
▁insurance	-12.042
▁occurrence	-12.0421
▁strolled	-12.0422
uff	-12.0423
▁shocking	-12.0425
▁expectations	-12.0426
▁hardened	-12.0426
▁RICHARD	-12.0427
▁Crown	-12.0428
▁immensely	-12.0429
▁TOWN	-12.0429
▁fans	-12.0433
ball	-12.0433
▁Fancy	-12.0437
▁Coming	-12.0438
▁breadth	-12.0441
▁majestic	-12.0441
▁Coupeau	-12.0441
▁Lydia	-12.0442
▁Lionel	-12.0442
▁undertook	-12.0443
▁energetic	-12.0443
stricken	-12.0443
▁banished	-12.0444
▁plantation	-12.0445
▁whipped	-12.0445
▁blinking	-12.0445
▁chasing	-12.0446
▁timidly	-12.0446
▁armies	-12.0449
▁Enough	-12.0456
ator	-12.0458
houses	-12.0461
▁extensive	-12.0462
▁strive	-12.0462
▁loading	-12.0464
▁calamity	-12.0465
▁ANDREW	-12.0465
▁lashes	-12.0466
SAMMY	-12.0467
▁Marjory	-12.0468
▁Pearl	-12.0469
▁alluded	-12.0469
▁moaning	-12.047
▁serpent	-12.0471
▁Aye	-12.0472
▁misses	-12.0472
▁dependent	-12.0473
▁attentions	-12.0476
▁sway	-12.0482
▁threaten	-12.0483
▁vi	-12.0484
▁blasts	-12.0485
▁treacherous	-12.0485
▁activities	-12.0488
▁rattling	-12.0488
▁rebellion	-12.0488
▁Gamp	-12.0488
▁paradise	-12.0488
▁Edna	-12.0489
Exactly	-12.049
▁Public	-12.0492
About	-12.0493
▁decides	-12.05
▁sheltered	-12.0501
▁CHIP	-12.0503
▁ANNOUNCER	-12.0505
▁SLOW	-12.0506
▁102	-12.0508
▁Ricardo	-12.0511
▁Joel	-12.0511
▁Buck	-12.0511
▁softness	-12.0513
▁Silent	-12.0514
▁Walker	-12.0515
▁repaired	-12.0516
▁shutters	-12.0519
▁breed	-12.0527
▁execute	-12.0529
▁groom	-12.0533
▁swarm	-12.0533
▁mattress	-12.0533
▁spur	-12.0534
▁trivial	-12.0534
▁Sebastian	-12.0534
▁reverie	-12.0537
▁opponent	-12.0538
▁select	-12.0539
▁glimpses	-12.0539
▁strains	-12.054
▁Rain	-12.0542
▁singularly	-12.0543
▁swelling	-12.0544
▁corridors	-12.0548
▁understands	-12.055
▁bunk	-12.0551
▁107	-12.0555
▁bang	-12.0557
▁preliminary	-12.0558
▁Harley	-12.0558
▁Vitti	-12.0558
▁antique	-12.0558
ENZO	-12.0559
▁Herrick	-12.0559
Submit	-12.0561
▁Dragon	-12.0561
▁tyrant	-12.0561
▁meditation	-12.0561
gen	-12.0563
▁Ike	-12.0563
▁NEXT	-12.0565
▁coldness	-12.0566
▁MARGE	-12.0567
▁Hand	-12.0572
▁sorrowful	-12.0572
▁peak	-12.0572
▁Ba	-12.0573
▁barber	-12.0574
▁JOSH	-12.0574
▁grieve	-12.0575
▁SG	-12.0577
▁buck	-12.0579
▁PRISON	-12.0581
▁KANE	-12.0581
▁sixth	-12.0581
▁moist	-12.0582
▁idly	-12.0583
▁peep	-12.0584
software	-12.0584
▁terrors	-12.0585
▁entreated	-12.0585
Such	-12.0587
▁reveals	-12.0587
OVER	-12.0595
▁Mini	-12.0596
▁Frances	-12.0598
▁formation	-12.0603
gown	-12.0604
▁Pedro	-12.0605
▁repentance	-12.0605
▁Giles	-12.0605
▁elevated	-12.0606
▁accidentally	-12.0608
▁bicycle	-12.0608
PK	-12.0608
▁expedient	-12.0608
▁Sophie	-12.0609
▁MAR	-12.0611
▁JOHNNY	-12.0611
▁WILSON	-12.0612
▁Gold	-12.0612
▁lama	-12.0612
▁00	-12.0614
▁Southern	-12.0614
Hold	-12.0615
▁atop	-12.0616
▁COLE	-12.0617
▁grate	-12.0618
▁NEWS	-12.0621
▁Juliet	-12.0623
▁cur	-12.0624
▁nut	-12.0624
▁villa	-12.0628
iest	-12.0628
▁commerce	-12.0628
▁Seaton	-12.0629
▁whereof	-12.0629
ze	-12.063
▁Official	-12.063
▁furnace	-12.0632
▁Lost	-12.0633
▁outburst	-12.0636
▁wrecked	-12.0637
▁trains	-12.064
▁core	-12.0641
▁oxygen	-12.0644
dy	-12.0644
▁gig	-12.0644
▁bust	-12.0649
▁scores	-12.0649
▁associate	-12.065
▁tedious	-12.0651
▁Fletcher	-12.0652
▁Mexico	-12.0652
▁granite	-12.0652
Seinfeld	-12.0652
▁Fortunately	-12.0652
▁specific	-12.0652
▁lever	-12.0654
▁fails	-12.0655
PEGGY	-12.0655
▁superstition	-12.0656
▁fluttered	-12.0656
▁melt	-12.0656
▁freak	-12.0659
▁tow	-12.0664
▁savagely	-12.0664
BOD	-12.0664
bound	-12.0664
▁Trim	-12.0665
▁Cup	-12.0666
▁mounting	-12.0666
▁beads	-12.067
▁spurs	-12.0672
▁Ad	-12.0673
▁mystic	-12.0674
▁sandwich	-12.0674
▁vacation	-12.0675
▁heavier	-12.0675
▁saith	-12.0676
▁CAMP	-12.0677
▁mast	-12.068
▁safer	-12.0682
▁tax	-12.0685
▁Act	-12.0689
▁heated	-12.0689
▁veiled	-12.0692
▁pose	-12.0694
▁monarch	-12.0694
▁flicker	-12.0696
▁guides	-12.0697
▁pins	-12.0698
▁conventional	-12.0699
▁DIRK	-12.0699
▁pier	-12.0699
Futurama	-12.0699
▁CASTLE	-12.0699
▁Gilmore	-12.0699
▁4400	-12.0699
▁Kill	-12.07
▁Mon	-12.07
▁movies	-12.0701
▁TURNS	-12.0703
▁deem	-12.0703
▁ripper	-12.0704
▁Friend	-12.0706
▁Around	-12.0706
▁session	-12.0709
▁crowds	-12.071
▁soaked	-12.071
du	-12.0714
▁resort	-12.0719
▁LONDON	-12.0723
▁Sydney	-12.0723
▁consternation	-12.0723
▁guidance	-12.0723
▁ROPER	-12.0723
▁cursing	-12.0724
▁distorted	-12.0726
Think	-12.0728
tempered	-12.0728
▁PETERS	-12.0729
▁Eastern	-12.0731
▁mentally	-12.0734
▁Des	-12.0734
▁whiskers	-12.0736
ko	-12.0738
▁Ro	-12.0743
▁Thwaite	-12.0747
▁emptied	-12.0747
▁Exeter	-12.0747
▁anew	-12.0747
▁Gascoigne	-12.0748
▁crouching	-12.0749
Man	-12.075
▁zero	-12.075
BREAN	-12.0751
called	-12.0751
▁goodly	-12.0752
say	-12.0752
▁freeze	-12.0753
▁powerless	-12.0756
▁LAB	-12.076
▁grasping	-12.0765
▁defy	-12.0765
▁announce	-12.0766
je	-12.0768
▁merciful	-12.077
▁exceeding	-12.077
▁Vanderpoel	-12.0771
▁honours	-12.0771
▁stature	-12.0771
▁EXPLODES	-12.0773
▁boyfriend	-12.0774
▁sometime	-12.0775
▁inquiring	-12.0775
▁exhibition	-12.0776
▁spider	-12.0776
▁launch	-12.0777
▁trumpet	-12.0777
cap	-12.0779
▁Chancellor	-12.078
link	-12.0781
iv	-12.0782
▁Toto	-12.0784
look	-12.0791
▁fabric	-12.0793
▁Lavretsky	-12.0794
▁Ain	-12.0795
UARTERS	-12.0795
▁cling	-12.0797
▁Mill	-12.0797
▁Check	-12.0798
▁JESSICA	-12.0812
ke	-12.0816
▁compound	-12.0816
Isn	-12.0816
▁perilous	-12.0816
▁drill	-12.0816
▁muscular	-12.0818
▁Darwin	-12.0818
▁solicitude	-12.0818
▁substantial	-12.0819
▁honorable	-12.0821
qua	-12.0822
Captain	-12.0824
▁logical	-12.0825
▁ankles	-12.0827
▁Si	-12.0832
ESTAT	-12.0834
▁serves	-12.0834
▁publicly	-12.0834
▁meadows	-12.0835
▁obligations	-12.0836
▁blinks	-12.0842
▁Stangerson	-12.0842
▁sturdy	-12.0842
▁territory	-12.0842
▁Abraham	-12.0842
▁spacious	-12.0843
STEW	-12.0843
▁architecture	-12.0843
▁Lynn	-12.0843
▁Jewish	-12.0843
fire	-12.0844
▁Clotilde	-12.0844
▁incessantly	-12.0844
▁Janet	-12.0845
▁Going	-12.0848
HECTOR	-12.0848
▁Service	-12.0849
▁inwardly	-12.0849
▁Prew	-12.0851
▁WHO	-12.0851
WAN	-12.0851
▁instances	-12.0855
▁noses	-12.0857
▁moi	-12.0857
▁organs	-12.0858
▁canal	-12.0861
KATHLEEN	-12.0867
▁Rouletabille	-12.0867
▁radiance	-12.0867
WOMAN	-12.0867
▁Early	-12.0868
▁Pa	-12.087
▁ascertained	-12.0871
▁shrieked	-12.0871
▁grade	-12.0872
▁contributed	-12.0873
▁toss	-12.0875
▁shares	-12.0875
▁tended	-12.0875
▁merchants	-12.0877
▁resisted	-12.0877
▁Nurse	-12.0878
hall	-12.0879
▁GON	-12.088
▁divide	-12.0882
▁NORMAN	-12.0885
▁Beach	-12.0886
▁YOUR	-12.0887
▁placid	-12.0888
▁marvel	-12.0888
▁Barfoot	-12.0891
▁Wangel	-12.0891
▁plateau	-12.0891
▁contemptuous	-12.0891
▁quivered	-12.0894
▁hillside	-12.0894
▁proves	-12.0895
▁EVAN	-12.0895
▁shark	-12.0896
▁STONE	-12.0896
HOLLY	-12.0897
▁DINING	-12.0897
KO	-12.0898
▁extending	-12.09
▁Chi	-12.09
▁INSERT	-12.0902
▁REVERSE	-12.0906
▁foreigner	-12.0908
▁acquire	-12.0913
▁gait	-12.0915
▁Imperial	-12.0915
▁Valiant	-12.0915
▁Beautrelet	-12.0915
▁inexplicable	-12.0915
▁BASE	-12.0915
▁rustling	-12.0915
▁Middleton	-12.0915
▁titles	-12.0916
▁diminished	-12.0916
▁scramble	-12.0918
▁whirled	-12.0918
▁countless	-12.092
JEFF	-12.0921
▁Whoa	-12.0922
▁wherefore	-12.0922
▁wasting	-12.0922
▁homeward	-12.0927
▁draft	-12.0928
▁109	-12.0935
▁inviting	-12.0937
▁boyish	-12.0937
▁companies	-12.0939
▁MILK	-12.0939
▁Mitch	-12.094
▁comp	-12.0941
▁network	-12.0942
▁Banks	-12.0943
▁plucked	-12.0944
▁Cleves	-12.0945
CALVIN	-12.0946
▁JOAN	-12.0946
▁MANAGER	-12.0946
▁fa	-12.0948
▁teachers	-12.0949
▁Nan	-12.095
▁benches	-12.095
half	-12.0951
▁trout	-12.0952
▁continent	-12.0952
▁Strange	-12.0953
."--"	-12.0955
▁posts	-12.0956
▁Marsh	-12.0961
▁futile	-12.0961
▁Witch	-12.0963
▁rhythm	-12.0963
_."	-12.0964
▁gripped	-12.0964
▁devoured	-12.0966
▁Cape	-12.0966
▁heaving	-12.0967
▁terrifying	-12.0967
▁officials	-12.0968
▁triumphantly	-12.0968
DOUG	-12.097
▁fragment	-12.0971
▁estimate	-12.0972
▁dealer	-12.0973
▁necks	-12.0975
▁desolation	-12.0988
▁rejoicing	-12.0988
▁illustrious	-12.0988
▁Smiley	-12.0989
BY	-12.099
▁LARGE	-12.0991
▁involuntary	-12.0992
▁Freddie	-12.0992
▁perchance	-12.0992
nay	-12.0992
ions	-12.0993
▁KELLY	-12.0994
▁doctrines	-12.0996
▁HAMMOND	-12.0998
▁wot	-12.1
bout	-12.1001
▁marches	-12.1001
▁RIGHT	-12.1001
▁rocket	-12.1002
ay	-12.1002
▁beaming	-12.1006
▁bricks	-12.1008
▁continuous	-12.101
▁Exactly	-12.101
▁DANIEL	-12.1011
▁180	-12.1012
▁Swift	-12.1012
▁Phillip	-12.1013
ROKO	-12.1013
▁afflicted	-12.1013
▁stony	-12.1014
▁outrage	-12.1016
▁rebel	-12.1016
▁cowardly	-12.1018
▁Gale	-12.1018
ever	-12.1018
▁obstacles	-12.1019
▁Turns	-12.1019
▁prairie	-12.102
▁projected	-12.102
▁Spaniard	-12.102
▁connections	-12.1021
▁toes	-12.1021
▁periods	-12.1026
▁trim	-12.1028
▁decay	-12.1029
▁rum	-12.1033
▁Turning	-12.1033
▁costs	-12.1034
▁monotonous	-12.1034
▁reform	-12.1038
▁Morgan	-12.1038
rum	-12.1038
▁Ojo	-12.1039
▁caresses	-12.1039
▁greedy	-12.1039
ja	-12.104
ang	-12.104
keeper	-12.1041
▁suggestions	-12.1042
▁wailing	-12.1042
▁Aren	-12.1043
BA	-12.1043
▁deuce	-12.1044
Bright	-12.1045
Put	-12.1046
▁consists	-12.1047
liness	-12.1048
▁squeezes	-12.105
▁Terran	-12.105
▁crisp	-12.1059
▁International	-12.1061
▁KONG	-12.1061
▁tranquillity	-12.1061
▁STUMP	-12.1061
▁LIONEL	-12.1062
▁stroll	-12.1063
▁concealment	-12.1064
▁Raf	-12.1075
books	-12.1076
▁GET	-12.1076
▁slap	-12.1079
▁coals	-12.1081
tor	-12.1081
▁HANDS	-12.1083
▁Bye	-12.1083
▁circuit	-12.1084
▁Ok	-12.1084
▁fortress	-12.1085
▁SUMMER	-12.1085
▁garrison	-12.1086
▁Natalie	-12.1086
▁bacon	-12.1086
▁scruple	-12.1087
▁alarming	-12.1087
▁battery	-12.1087
▁extinguished	-12.1089
▁Mesty	-12.109
▁swayed	-12.109
▁whereupon	-12.1091
▁flings	-12.1093
▁discomfort	-12.1094
▁SYKES	-12.1094
▁112	-12.1094
▁portal	-12.1097
▁swamp	-12.1098
▁fortunately	-12.1098
▁dick	-12.1098
▁cue	-12.1101
▁chaise	-12.1102
▁GIN	-12.1102
▁Yo	-12.1102
▁Augusta	-12.1105
used	-12.1106
▁drifts	-12.1107
▁queried	-12.1111
▁museum	-12.1111
▁Assistant	-12.1111
▁smote	-12.1112
▁ADAM	-12.1113
▁chattering	-12.1117
▁violin	-12.1117
▁DOG	-12.1117
▁Sitting	-12.1118
CAPTAIN	-12.1119
JACKIE	-12.112
▁notebook	-12.1123
▁CAESAR	-12.1125
▁descends	-12.1129
▁103	-12.1129
▁strewn	-12.113
▁Abigail	-12.1136
▁penalty	-12.1136
▁Patty	-12.1136
▁inconvenience	-12.1136
▁lurking	-12.1137
▁bug	-12.1139
▁sights	-12.114
▁hazard	-12.114
▁essentially	-12.1141
hot	-12.1144
▁episode	-12.1144
▁profoundly	-12.1145
▁freshness	-12.1146
▁Albert	-12.1146
▁proprietor	-12.1146
▁Thirty	-12.1147
▁Save	-12.1147
▁lacked	-12.115
▁injure	-12.1154
skin	-12.1155
▁respective	-12.1159
▁pats	-12.1159
None	-12.116
▁greasy	-12.116
▁promotion	-12.116
▁Marvin	-12.116
▁girdle	-12.1162
▁offspring	-12.1163
▁FIGURE	-12.1164
▁vigorously	-12.1165
▁vines	-12.1167
▁poisoned	-12.1168
▁slopes	-12.1169
DANNY	-12.1169
▁blinding	-12.117
get	-12.1171
▁favoured	-12.1175
any	-12.1177
▁comin	-12.1178
▁whistled	-12.1179
▁prophet	-12.118
▁Pretty	-12.118
▁Staveley	-12.1185
▁desiring	-12.1185
▁sloop	-12.1186
▁150	-12.1187
▁mike	-12.1187
▁digs	-12.1189
▁PRESENT	-12.1194
▁Grantly	-12.1194
!_	-12.1195
▁trucks	-12.1196
▁cot	-12.1201
LI	-12.1204
▁Ione	-12.1206
▁CLICK	-12.1208
▁proceeds	-12.1209
▁cavalry	-12.121
▁Blakeney	-12.121
▁skins	-12.1211
▁115	-12.1211
▁Anti	-12.1212
▁shiver	-12.1213
▁JILL	-12.1213
▁accidents	-12.1213
▁wanders	-12.1215
▁105	-12.1215
▁sane	-12.1216
▁attributed	-12.1216
▁melting	-12.1216
▁differences	-12.1217
▁oaths	-12.1217
▁clears	-12.1218
▁Hedra	-12.1221
);	-12.1222
mother	-12.1222
▁affecting	-12.1222
▁LIKE	-12.1224
▁solve	-12.1224
▁GILLI	-12.1225
▁downright	-12.1225
▁presenting	-12.1226
▁shrinking	-12.1226
tro	-12.1229
▁Yu	-12.1232
▁homage	-12.1235
▁cockpit	-12.1235
▁cluster	-12.1237
▁swearing	-12.1239
▁Sidwell	-12.1239
▁delivery	-12.1243
▁Slow	-12.1243
▁absently	-12.1244
▁richly	-12.1245
▁Persian	-12.1246
VIST	-12.1249
▁mentioning	-12.1249
▁whirl	-12.1249
▁Romeo	-12.1249
KER	-12.125
VO	-12.1254
▁Brooks	-12.1254
ments	-12.1257
▁FINAL	-12.126
▁Farnham	-12.126
▁Steerforth	-12.126
▁approbation	-12.126
▁lagoon	-12.126
▁disinterested	-12.126
lilbutton	-12.126
▁mini	-12.1265
▁prejudices	-12.1266
mi	-12.1266
▁recollected	-12.1267
▁RONNIE	-12.1267
▁sorely	-12.1268
▁Howard	-12.127
▁repetition	-12.127
▁darts	-12.1271
▁dice	-12.1273
▁constable	-12.1274
those	-12.1274
▁candy	-12.1275
▁ALLEY	-12.1276
▁junk	-12.1278
▁JOEL	-12.1278
ugh	-12.1281
▁sk	-12.1281
▁financial	-12.1283
▁RATH	-12.1283
▁TOWER	-12.1283
▁aloof	-12.1285
▁afresh	-12.1285
▁impenetrable	-12.1285
▁accursed	-12.1286
▁Petersburg	-12.1287
▁nurses	-12.1288
▁scatter	-12.129
▁disclosed	-12.1291
▁sands	-12.1294
ui	-12.1295
▁JUNO	-12.1296
DA	-12.1297
▁bites	-12.1298
▁reared	-12.1306
▁vows	-12.1307
▁yon	-12.1307
▁malicious	-12.1308
▁RAIN	-12.1308
uail	-12.1308
DF	-12.131
▁Camperdown	-12.1311
▁endurance	-12.1311
▁splendor	-12.1311
▁gliding	-12.1311
▁exhaustion	-12.1311
▁overtake	-12.1311
▁delights	-12.1311
▁thrusting	-12.1314
▁swelled	-12.1317
▁indignantly	-12.132
▁labours	-12.1321
▁morsel	-12.1321
▁shrieks	-12.1321
▁acknowledgment	-12.1321
▁Stand	-12.1325
▁Mountain	-12.1325
▁Word	-12.1326
▁XVIII	-12.1327
▁Moses	-12.1328
▁feeds	-12.133
▁SPOCK	-12.1331
▁lacking	-12.1332
▁miraculous	-12.1333
▁especial	-12.1333
▁BELL	-12.1333
▁Graeme	-12.1336
▁Almighty	-12.1336
SSUS	-12.1336
▁JASON	-12.1337
▁spotted	-12.1338
▁Scene	-12.1339
▁monkeys	-12.1339
▁MIN	-12.1342
▁befallen	-12.1343
▁DIL	-12.1344
▁fearfully	-12.1346
▁clasp	-12.135
▁Golden	-12.135
▁104	-12.135
▁releases	-12.1352
▁Pre	-12.1354
▁apprehensions	-12.1356
IES	-12.1357
▁Cheesacre	-12.1361
▁fascinating	-12.1361
▁pained	-12.1361
▁theories	-12.1362
▁subsided	-12.1363
▁DOORS	-12.1365
▁crust	-12.1367
▁doubled	-12.1372
▁telescope	-12.1372
ris	-12.1375
▁blinds	-12.1377
▁horsemen	-12.1379
▁comforting	-12.1379
▁trailing	-12.138
CO	-12.1381
▁detect	-12.1382
▁surf	-12.1382
▁Babylon	-12.1385
▁Camera	-12.1386
▁SARA	-12.1386
▁adjacent	-12.1386
▁indispensable	-12.1386
▁Dignan	-12.1387
▁siege	-12.1387
▁novelty	-12.1387
▁caring	-12.1387
▁Lamb	-12.1387
▁breathes	-12.1387
▁eve	-12.1388
▁alighted	-12.1388
▁meek	-12.1389
▁tapped	-12.1389
sar	-12.1389
▁tapping	-12.1389
▁wail	-12.139
Bahr	-12.1391
▁allows	-12.1392
▁Cont	-12.1393
▁Williams	-12.1393
ement	-12.1397
should	-12.1398
▁chariot	-12.1398
▁shovel	-12.1399
coat	-12.1399
▁Mexican	-12.14
▁blocked	-12.1401
mar	-12.1402
ging	-12.1409
▁everlasting	-12.1409
▁Spragg	-12.1412
▁Assingham	-12.1412
▁charging	-12.1412
▁pirates	-12.1414
▁regained	-12.1415
▁hailed	-12.1417
▁adapted	-12.1417
▁Opera	-12.1417
▁Gardens	-12.1417
▁valued	-12.1417
▁provoked	-12.1418
▁menace	-12.1418
▁Than	-12.1419
▁Lucky	-12.142
▁fangs	-12.142
▁boiled	-12.1421
▁Jan	-12.1423
▁heaped	-12.1423
▁consultation	-12.1424
▁transaction	-12.1424
▁spits	-12.1427
▁Talk	-12.1429
▁obscured	-12.1429
?’	-12.143
▁longest	-12.1431
▁blamed	-12.1434
▁instinctive	-12.1435
▁sustain	-12.1437
ARNA	-12.1437
▁Submit	-12.1437
▁benevolence	-12.1437
▁precision	-12.1437
▁Ivanovitch	-12.1437
▁urging	-12.1437
▁Thorpe	-12.1437
▁Meagles	-12.1438
▁pitied	-12.1438
▁DUKE	-12.1438
▁JOHAN	-12.1439
IRVING	-12.1439
▁embraces	-12.144
▁Satan	-12.1441
par	-12.1441
▁coolness	-12.1444
▁mirrors	-12.1448
Nonsense	-12.1449
▁slice	-12.145
▁Scotty	-12.145
▁bathing	-12.1451
▁Move	-12.1453
▁prick	-12.1454
▁KID	-12.1458
▁suck	-12.1461
▁recess	-12.1462
▁linger	-12.1462
▁vest	-12.1462
other	-12.1463
▁diameter	-12.1463
▁Mercedes	-12.1463
▁durst	-12.1463
CORALINE	-12.1463
▁yu	-12.1463
▁drooping	-12.1466
▁mutton	-12.1466
ile	-12.1468
▁SHERIFF	-12.1472
▁ghostly	-12.1473
▁LEWIS	-12.1473
▁mug	-12.1474
▁consulting	-12.1474
▁tavern	-12.1475
▁dungeon	-12.1475
▁warehouse	-12.1475
▁visage	-12.1476
▁dashing	-12.1479
▁reckoning	-12.1479
▁silenced	-12.1482
ground	-12.1485
▁Fergus	-12.1488
▁menacing	-12.1488
▁engaging	-12.1489
▁fragrance	-12.1489
▁melody	-12.1489
▁constrained	-12.1489
▁retirement	-12.1489
▁Franklin	-12.149
▁pronounce	-12.1491
▁develop	-12.1491
▁reigned	-12.1494
▁Caroline	-12.1494
▁Britain	-12.1494
▁perished	-12.1495
▁Science	-12.1495
▁COPS	-12.1497
▁scrambled	-12.1497
▁calmness	-12.1497
▁patrol	-12.15
▁Cooke	-12.1501
▁zone	-12.1502
▁curved	-12.1503
▁AD	-12.1504
▁scrambles	-12.1507
▁slack	-12.1512
▁custody	-12.1514
▁energies	-12.1514
▁tyranny	-12.1514
▁BLOM	-12.1514
▁Scottish	-12.1515
▁slamming	-12.1516
▁partial	-12.1516
ecker	-12.1517
dressed	-12.1517
MARGOT	-12.1519
paper	-12.1524
▁collecting	-12.1524
▁Comrade	-12.1527
▁Often	-12.1528
▁cells	-12.153
▁reconcile	-12.1531
▁employer	-12.1532
▁sire	-12.1533
die	-12.1535
▁twins	-12.1536
▁BOURNE	-12.1538
▁Kevin	-12.154
▁bewilderment	-12.154
▁pondered	-12.1542
▁preceded	-12.1542
▁privileges	-12.1544
▁Send	-12.1545
OS	-12.1547
▁Main	-12.1548
NO	-12.1548
istic	-12.1549
UR	-12.1549
▁hawk	-12.1549
▁LOOKS	-12.1551
▁sarcastic	-12.1553
Fi	-12.1554
▁quiver	-12.1556
AM	-12.1556
▁Whenever	-12.1557
▁glimmer	-12.1557
▁attacking	-12.1557
."]	-12.1558
▁Marvel	-12.1561
know	-12.1561
▁Kent	-12.1561
▁valiant	-12.1563
▁puppy	-12.1566
▁bridegroom	-12.1566
▁Turkish	-12.1566
DO	-12.1566
▁westward	-12.1567
▁administration	-12.1568
▁EARL	-12.1569
▁Guards	-12.157
▁chuckled	-12.1573
▁DARK	-12.1575
▁institutions	-12.1575
▁MOTION	-12.1577
▁CURTI	-12.1578
pa	-12.1579
DETECTIVE	-12.1579
ians	-12.1579
▁forwards	-12.1581
▁flourish	-12.1581
▁Eight	-12.1581
▁SPEED	-12.1583
30	-12.1585
▁prodigious	-12.1589
▁drums	-12.1591
▁Wilkins	-12.1591
▁JUD	-12.1591
▁elegance	-12.1592
▁industrial	-12.1592
▁strife	-12.1592
▁demeanour	-12.1592
▁Carnby	-12.1592
▁DELA	-12.1594
▁resented	-12.1595
▁qualified	-12.1595
▁peeped	-12.1596
▁MO	-12.1596
▁grinding	-12.1596
▁circling	-12.1596
▁jerked	-12.1597
▁Barnes	-12.1597
ations	-12.16
▁fishes	-12.1601
▁Mal	-12.1602
ung	-12.1603
▁handling	-12.1604
ible	-12.1604
▁stem	-12.1605
▁translation	-12.1605
▁advertisement	-12.1606
Like	-12.1606
▁boughs	-12.1608
▁XVII	-12.1608
▁jug	-12.1609
▁SCREAM	-12.161
▁cooked	-12.1615
▁Babe	-12.1618
▁unique	-12.1619
▁Large	-12.1621
▁dismiss	-12.1621
▁loaf	-12.1621
▁aback	-12.1622
▁traversed	-12.1622
▁rice	-12.1623
▁ribbons	-12.1624
▁BUCK	-12.1628
▁tails	-12.1628
▁gathers	-12.1629
▁incredibly	-12.163
▁pledged	-12.1631
▁items	-12.1631
▁flicks	-12.1632
▁reporters	-12.1633
▁Alone	-12.1634
▁splash	-12.1634
▁margin	-12.1634
▁protecting	-12.1635
▁armchair	-12.1636
▁mature	-12.164
▁product	-12.1642
▁passive	-12.1644
▁abominable	-12.1644
▁aristocracy	-12.1644
▁choosing	-12.1644
▁Marmont	-12.1644
▁tubes	-12.1644
▁Sapt	-12.1645
▁GIRLS	-12.1645
▁frankness	-12.1646
▁typical	-12.1649
▁WIN	-12.1653
▁RACIN	-12.1654
▁kindled	-12.1654
lie	-12.1656
▁Eva	-12.1658
▁brushing	-12.1658
▁GORDON	-12.1664
▁wouldst	-12.1665
▁obedient	-12.1667
▁interfered	-12.1668
▁adventurer	-12.1669
▁LESTER	-12.1669
MOZART	-12.167
▁Tyrrel	-12.167
▁foreground	-12.167
▁propped	-12.167
▁bureau	-12.167
▁grabbed	-12.167
▁Atlantic	-12.1671
▁schoolmaster	-12.1672
▁Hermione	-12.1672
▁gum	-12.1673
▁scrape	-12.1675
▁106	-12.1676
▁kindred	-12.1676
sen	-12.1677
▁EDDIE	-12.1679
▁CARL	-12.1679
▁sixpence	-12.1679
▁statues	-12.168
▁CLERK	-12.168
▁echoing	-12.1681
port	-12.1681
▁na	-12.1684
Those	-12.1684
Hush	-12.1684
▁demonstration	-12.1685
▁explore	-12.1686
▁JUDGE	-12.169
▁insight	-12.1691
▁trials	-12.1693
horse	-12.1693
LAND	-12.1693
▁rip	-12.1694
▁apples	-12.1695
▁ALICE	-12.1696
▁MAVERICK	-12.1696
▁cherry	-12.1696
▁cowardice	-12.1696
▁SP	-12.1697
▁BOOTH	-12.1698
▁accidental	-12.1699
▁arches	-12.17
▁Glenvarloch	-12.1701
▁quid	-12.1707
▁defended	-12.1708
▁Converte	-12.1709
▁thirsty	-12.1709
▁blouse	-12.1711
GIRL	-12.1711
especially	-12.1711
▁achieve	-12.1714
TOBY	-12.1717
▁cigars	-12.172
dic	-12.172
▁persistent	-12.172
▁sandy	-12.1721
▁Delamayn	-12.1722
▁mortification	-12.1722
▁BASEMENT	-12.1722
▁Boone	-12.1723
▁crowns	-12.1725
▁Robinson	-12.1727
▁Marya	-12.1727
▁reckoned	-12.1732
▁SUITE	-12.1732
▁squeezed	-12.1733
▁constituted	-12.1735
▁GRANT	-12.1735
OUISA	-12.1735
▁ravine	-12.1737
▁tissue	-12.1738
▁conceit	-12.1739
!_"	-12.174
▁classic	-12.1742
▁accurate	-12.1746
▁SOUNDS	-12.1748
▁Django	-12.1749
▁Scatcherd	-12.1749
▁CHANCE	-12.1749
▁Foster	-12.1749
▁confinement	-12.1749
▁Pickle	-12.175
▁enveloped	-12.1751
▁Ferdinand	-12.1751
▁strengthened	-12.1752
▁ornament	-12.1752
fe	-12.1752
▁yelled	-12.1754
▁Frederic	-12.1755
▁Beck	-12.1755
▁thumbs	-12.1757
▁review	-12.1757
▁Unfortunately	-12.176
RUSTY	-12.1761
▁physically	-12.1761
ANTHONY	-12.1764
Keep	-12.1764
RACHEL	-12.1764
▁YARD	-12.1764
▁soda	-12.1765
▁connect	-12.1766
▁ROBERT	-12.1771
▁maidens	-12.1773
▁Elijah	-12.1775
▁Gadsby	-12.1775
▁TAYLOR	-12.1775
▁Barchester	-12.1775
▁giddy	-12.1775
JULES	-12.1775
▁limo	-12.1775
▁Blake	-12.1776
▁Darkness	-12.1776
▁TA	-12.1777
▁BAY	-12.1777
▁um	-12.1778
ville	-12.1779
▁translated	-12.1779
sk	-12.178
▁confided	-12.1781
▁ICHA	-12.1782
▁esteemed	-12.1784
▁CAMERON	-12.1784
AT	-12.1784
life	-12.1787
▁anon	-12.1788
▁Emil	-12.1789
▁paced	-12.1791
KA	-12.1791
▁OBI	-12.1792
▁clutch	-12.1792
▁Parisian	-12.1793
▁arisen	-12.1794
ane	-12.1796
nes	-12.1796
▁benevolent	-12.1799
▁Askerton	-12.1802
▁decency	-12.1802
▁burial	-12.1802
▁curate	-12.1802
ATION	-12.1804
▁aye	-12.1805
looks	-12.1805
▁journal	-12.1806
▁loveliness	-12.1807
▁quoted	-12.1808
fer	-12.1809
▁golf	-12.1809
▁proportions	-12.1809
▁Mater	-12.181
▁poles	-12.1813
chamber	-12.1815
STEVE	-12.1816
▁coins	-12.1816
▁headlights	-12.1818
▁disguised	-12.1819
▁mayhap	-12.182
▁slam	-12.1822
▁excite	-12.1823
▁PILOT	-12.1823
▁defined	-12.1823
▁soothe	-12.1824
▁syllable	-12.1825
▁Schindler	-12.1828
▁maternal	-12.1828
▁fidelity	-12.1828
▁ruddy	-12.1828
▁scanning	-12.1828
▁barbarous	-12.183
▁Manning	-12.183
▁sharing	-12.1833
▁lawful	-12.1833
ip	-12.1834
▁snowy	-12.1834
▁Marshall	-12.1835
▁STOP	-12.1836
▁chocolate	-12.1844
eur	-12.1846
▁glared	-12.1847
▁era	-12.1847
▁SCOTT	-12.1848
▁viewed	-12.1851
KIT	-12.1854
▁Elsie	-12.1855
ERRIS	-12.1855
▁imprisoned	-12.1855
▁Sonny	-12.1856
▁hairy	-12.1856
▁poems	-12.1857
▁FAMILY	-12.1857
OWELL	-12.1857
▁wearied	-12.186
rous	-12.1861
ET	-12.1863
▁belongings	-12.1863
▁Way	-12.1866
▁smash	-12.1872
▁succeeding	-12.1873
▁constitute	-12.1874
▁occurs	-12.1874
▁Secret	-12.1875
▁salon	-12.1875
▁thigh	-12.1876
▁Tu	-12.1878
▁breeding	-12.1878
▁paternal	-12.1879
▁brakes	-12.188
▁throbbing	-12.1881
▁unmistakable	-12.1881
▁patted	-12.1882
▁whisky	-12.1884
▁china	-12.1886
▁fairies	-12.1886
▁idleness	-12.1887
▁escorted	-12.1887
▁links	-12.1888
▁Lordship	-12.1888
▁tempt	-12.189
▁muzzle	-12.1893
green	-12.1894
▁statements	-12.1895
ick	-12.1896
HUB	-12.1898
BURNS	-12.1898
▁spun	-12.1898
▁refreshment	-12.1898
▁colleague	-12.1898
▁weekend	-12.1899
LES	-12.1903
UP	-12.1905
▁donkey	-12.1905
▁replace	-12.1905
▁200	-12.1906
▁Szpilman	-12.1908
▁Stanley	-12.1908
▁hips	-12.1909
▁Otto	-12.1909
▁Dirk	-12.1909
▁Wild	-12.1909
▁profits	-12.1909
▁SEA	-12.1909
▁VIVIAN	-12.191
▁uproar	-12.191
▁Madeleine	-12.1911
▁sources	-12.1911
▁ministers	-12.1911
▁GLEN	-12.1912
deck	-12.1913
▁transported	-12.1914
▁tormented	-12.1914
▁enraged	-12.1914
wise	-12.1914
▁Twice	-12.1914
▁CINDY	-12.1916
▁dunno	-12.1917
▁trot	-12.1919
ab	-12.1919
▁conclusions	-12.1921
▁Lu	-12.1922
HOUSE	-12.1928
▁org	-12.1934
▁Read	-12.1934
▁unfit	-12.1934
▁Fischer	-12.1935
▁Greece	-12.1935
▁enlightened	-12.1936
▁consistent	-12.1937
▁Deep	-12.1937
▁fertile	-12.1939
▁glee	-12.1941
▁coughing	-12.1942
▁CAB	-12.1942
▁widen	-12.1943
▁summon	-12.1944
▁collapse	-12.1945
▁bandage	-12.1946
▁Pop	-12.1947
▁Mor	-12.1951
▁Fear	-12.1952
▁candidate	-12.1952
▁concealing	-12.1957
▁hoofs	-12.1958
vis	-12.1959
DE	-12.1961
▁contradict	-12.1962
▁Melanie	-12.1962
▁scrutiny	-12.1962
▁superstitious	-12.1962
▁Crofts	-12.1962
▁fraud	-12.1962
▁plank	-12.1962
▁blossom	-12.1962
▁kneel	-12.1966
▁CHIEF	-12.1966
▁Apparently	-12.1966
▁Left	-12.1968
▁gilt	-12.1968
▁DODGE	-12.1969
▁Blade	-12.1969
▁writ	-12.197
▁moan	-12.1972
▁cheered	-12.1972
▁flare	-12.1972
▁provinces	-12.1972
▁Numa	-12.1972
▁ascend	-12.1977
▁petition	-12.1977
▁LOOKING	-12.1979
▁apparition	-12.1979
Suppose	-12.1979
sky	-12.198
fish	-12.198
▁guarantee	-12.1981
Even	-12.1981
▁destroying	-12.1985
▁chased	-12.1988
▁heiress	-12.1988
▁sleeps	-12.1989
▁conspiracy	-12.1989
▁invasion	-12.1989
▁jammed	-12.1989
▁SET	-12.1989
tus	-12.1989
ther	-12.1989
▁climax	-12.1991
▁embarrassing	-12.1993
▁Frederick	-12.1993
▁Divine	-12.1994
▁Frog	-12.1995
▁adored	-12.1996
▁arena	-12.1997
▁drain	-12.1999
▁shameful	-12.1999
▁Sister	-12.2002
▁repay	-12.2002
▁counts	-12.201
ap	-12.2011
cr	-12.2011
▁tremulous	-12.2013
▁cameras	-12.2014
▁veranda	-12.2014
▁forefinger	-12.2016
▁velocity	-12.2016
▁audacity	-12.2016
▁beckoned	-12.2016
▁brightened	-12.2017
gy	-12.2018
▁antagonist	-12.2021
▁seasons	-12.2022
▁Hunter	-12.2023
▁rectory	-12.2025
▁stump	-12.2027
rville	-12.2028
▁114	-12.2029
▁orphan	-12.203
▁Rae	-12.2032
IAN	-12.2032
▁deliberation	-12.2034
school	-12.2034
▁prostrate	-12.2036
▁Tomorrow	-12.2037
▁HELICOPTER	-12.2038
Every	-12.2038
▁("	-12.2039
▁HAS	-12.2043
▁integrity	-12.2043
▁Glegg	-12.2043
▁Benedict	-12.2044
incomprehensible	-12.2045
ERTIE	-12.2046
▁berth	-12.2046
▁doubting	-12.2048
▁pouch	-12.2049
▁explanations	-12.2051
▁magazines	-12.2052
▁hopelessly	-12.2052
▁silhouette	-12.2053
▁regain	-12.2054
▁groaning	-12.2054
▁corrected	-12.2055
▁import	-12.2056
▁CAROL	-12.2057
▁snakes	-12.2057
▁spreads	-12.2059
▁infamous	-12.2059
▁bubble	-12.206
ISH	-12.2065
▁owners	-12.2066
▁appreciated	-12.2067
▁stirs	-12.2067
▁disgraced	-12.2069
▁Revolution	-12.207
▁frustration	-12.207
▁verily	-12.207
▁Samuel	-12.207
▁diving	-12.2071
▁trance	-12.2071
▁defiant	-12.2072
▁LILA	-12.2072
▁Tropile	-12.2072
▁undergone	-12.2073
▁launched	-12.2074
▁spine	-12.2076
▁Sounds	-12.2076
▁dove	-12.2077
▁leisurely	-12.2078
▁superb	-12.2084
▁peaks	-12.2093
▁frontier	-12.2095
▁giants	-12.2096
▁ammunition	-12.2097
▁unaccountable	-12.2097
▁penetrating	-12.2097
▁laundry	-12.2097
▁Robbie	-12.2097
▁grating	-12.2098
▁circus	-12.2098
▁taller	-12.2098
▁Summer	-12.2098
JEANNE	-12.2098
▁Greer	-12.2099
▁foreseen	-12.21
▁invent	-12.21
▁Aline	-12.2101
▁GATES	-12.2103
▁crop	-12.2104
▁stations	-12.2104
za	-12.2105
ps	-12.2105
LMUT	-12.2107
▁proving	-12.211
Scripts	-12.2116
▁Us	-12.2117
net	-12.2118
▁FLASHBACK	-12.2118
▁GOOD	-12.2119
▁starved	-12.2119
▁adequate	-12.2122
▁grievous	-12.2122
▁COCKPIT	-12.2125
▁Elzevir	-12.2125
▁felicity	-12.2125
▁reverend	-12.2125
▁Clarence	-12.2125
▁pulpit	-12.2125
▁Thompson	-12.2127
▁BLOOD	-12.2127
▁Hyde	-12.2127
▁evils	-12.2127
▁Edmund	-12.2129
▁ascending	-12.213
“	-12.2131
▁eminent	-12.2133
▁sucking	-12.2137
▁Walk	-12.2138
▁parchment	-12.2144
▁halls	-12.2144
▁insect	-12.2145
▁detain	-12.2145
▁sighing	-12.2146
▁pensive	-12.2149
think	-12.2151
▁sordid	-12.2151
▁hurl	-12.2151
▁Forest	-12.2152
▁HARDCASTLE	-12.2152
▁ingenuity	-12.2152
▁Adrian	-12.2152
▁removal	-12.2152
▁Carson	-12.2153
▁deceased	-12.2154
▁Eugene	-12.2155
▁sucked	-12.2156
▁wary	-12.2156
▁cheerfulness	-12.2156
▁Cripps	-12.2156
▁cushions	-12.2157
▁bangs	-12.216
▁NEO	-12.2163
▁governed	-12.2163
▁Somehow	-12.2165
▁loop	-12.2165
▁Huns	-12.2165
RAY	-12.2166
▁badge	-12.2166
▁rein	-12.2167
KUMAR	-12.2171
▁Voice	-12.2172
Maybe	-12.2172
▁lime	-12.2177
▁uniforms	-12.2178
▁impertinent	-12.2179
CROIX	-12.218
▁vehemence	-12.218
▁concentration	-12.218
▁Knights	-12.218
▁BRAD	-12.2181
ORDELL	-12.2181
▁scanty	-12.2182
▁staggering	-12.2183
▁enlarged	-12.2184
▁directing	-12.2184
▁ruler	-12.2184
▁jobs	-12.2187
▁trips	-12.2192
▁confront	-12.2196
▁possessing	-12.2198
▁chant	-12.2199
▁coincidence	-12.2199
▁appealing	-12.2201
▁inspire	-12.2202
▁tangle	-12.2202
ery	-12.2203
▁puff	-12.2204
▁luxurious	-12.2204
▁prettiest	-12.2207
▁Rigby	-12.2207
▁WOMEN	-12.221
▁Clem	-12.221
▁6.7	-12.2211
ks	-12.2211
▁funds	-12.2212
▁Woody	-12.2213
▁dancers	-12.2217
ford	-12.2218
▁ACT	-12.222
▁abused	-12.2221
pose	-12.2226
▁Follow	-12.2232
their	-12.2232
PRECIOUS	-12.2235
▁Omnium	-12.2235
▁Viktor	-12.2235
▁aversion	-12.2235
▁retiring	-12.2235
▁corruption	-12.2235
▁creeps	-12.2236
▁HOW	-12.2238
▁smashing	-12.224
▁Same	-12.2241
▁binoculars	-12.2241
▁whale	-12.2242
▁harshly	-12.2242
▁mildly	-12.2243
▁judging	-12.2243
ney	-12.2247
▁moods	-12.225
cloth	-12.225
▁LIGHTS	-12.225
▁sexy	-12.2254
LONGFELLOW	-12.2254
uit	-12.2254
hi	-12.2255
▁retreating	-12.2255
▁damsel	-12.2255
▁KNOCK	-12.2257
▁leapt	-12.2258
▁Bat	-12.2261
▁convincing	-12.2261
▁ferocity	-12.2262
▁Pascal	-12.2262
▁Utah	-12.2262
▁deafening	-12.2262
▁Geoff	-12.2263
▁Martian	-12.2263
▁knitting	-12.2263
than	-12.2263
▁Heron	-12.2264
▁selection	-12.2265
UIN	-12.2267
▁MACHINE	-12.2269
▁TRUE	-12.2269
▁Otherwise	-12.2269
▁implored	-12.227
▁vine	-12.2271
▁hooked	-12.2272
▁TILLE	-12.2273
▁pictured	-12.2273
▁departing	-12.2275
▁owl	-12.2276
▁holidays	-12.2278
▁LAZARUS	-12.228
▁trench	-12.2281
Since	-12.2283
SEAN	-12.2283
▁Money	-12.2286
▁untouched	-12.229
▁kills	-12.2291
▁grunted	-12.2293
▁jag	-12.2294
Le	-12.2295
▁strips	-12.2296
▁metallic	-12.2296
▁Apollo	-12.2296
▁!?	-12.2299
▁divers	-12.2299
▁scales	-12.2301
▁socks	-12.2301
▁Rubb	-12.2301
▁Takes	-12.2302
▁lapse	-12.2306
▁stab	-12.2306
▁FEMALE	-12.2307
▁wand	-12.2308
▁Today	-12.2309
▁fashioned	-12.231
CK	-12.2311
▁napkin	-12.2311
▁fondly	-12.2312
▁Sh	-12.2313
▁Own	-12.2317
▁Bargeton	-12.2318
▁corral	-12.2318
▁Langham	-12.2318
▁Alvy	-12.2318
▁Langdon	-12.2318
▁butterfly	-12.2318
▁influences	-12.2319
▁righteous	-12.232
akr	-12.2322
▁calculations	-12.2322
▁Di	-12.2323
▁inflicted	-12.2325
▁Search	-12.2325
▁Senor	-12.2326
▁dial	-12.2328
▁trifles	-12.2329
▁wronged	-12.233
▁VIDEO	-12.2333
▁snatch	-12.2336
▁accompanying	-12.2337
▁tact	-12.2337
▁dump	-12.234
▁spaces	-12.234
▁Ms	-12.234
▁battles	-12.234
▁Commissioner	-12.2341
▁Del	-12.2344
▁emerging	-12.2346
▁sensibility	-12.2346
▁Osborne	-12.2346
▁Westhaven	-12.2346
▁Stacy	-12.2346
▁sneak	-12.2349
▁bail	-12.2349
▁pots	-12.2351
▁Hands	-12.2351
VADA	-12.2352
▁125	-12.2353
▁sooth	-12.2354
▁dates	-12.2355
▁bass	-12.2357
▁rattled	-12.2357
▁exhibit	-12.2359
▁SKY	-12.2362
▁pairs	-12.2364
control	-12.2364
▁rumour	-12.2365
▁Garden	-12.2367
▁beseech	-12.2369
▁flown	-12.237
▁rustic	-12.2371
▁Horn	-12.2372
▁critic	-12.2373
▁Dennis	-12.2373
▁Myrtle	-12.2374
▁Chaffanbrass	-12.2374
▁wrung	-12.2374
▁MCU	-12.2375
▁Kingdom	-12.2375
▁Abbey	-12.2376
▁artists	-12.2377
▁firmness	-12.238
▁Strong	-12.2381
▁DETECTIVE	-12.2381
▁Allen	-12.2384
▁soothed	-12.2386
▁118	-12.2388
ROOM	-12.239
▁gettin	-12.239
VE	-12.2391
▁glitter	-12.2394
▁ordering	-12.2395
▁hairs	-12.2399
▁amounted	-12.24
▁facility	-12.2402
▁writhing	-12.2402
▁mockery	-12.2402
▁XIX	-12.2403
▁Paulette	-12.2403
▁calf	-12.2403
▁precautions	-12.2404
▁LIFE	-12.2406
▁airport	-12.2406
▁cleaned	-12.2408
▁dresser	-12.2409
▁Tree	-12.2411
ties	-12.2412
▁worrying	-12.2413
KYLE	-12.2416
▁speeding	-12.2421
▁cracking	-12.2421
▁dinners	-12.2422
▁assumption	-12.2424
▁refinement	-12.2424
▁ache	-12.2425
ral	-12.2425
▁habitation	-12.2426
▁Gate	-12.2429
▁imp	-12.243
▁Trent	-12.243
▁DARWIN	-12.243
▁Glyde	-12.243
▁accuracy	-12.243
▁doubly	-12.243
▁vegetation	-12.243
▁reduce	-12.243
▁Marsham	-12.2431
▁noiselessly	-12.2432
▁experiments	-12.2435
▁sexual	-12.2436
▁magistrates	-12.2437
▁stored	-12.2438
▁blackened	-12.2439
▁comb	-12.2439
▁lass	-12.2439
DALE	-12.244
▁blankly	-12.2441
▁sage	-12.2445
▁PART	-12.2446
▁damaged	-12.2447
▁lists	-12.2452
▁Meag	-12.2457
▁Adelina	-12.2458
▁Hildy	-12.2458
▁TARLETON	-12.2458
▁choir	-12.2459
▁Hartill	-12.2459
▁elders	-12.2459
▁signified	-12.2459
▁tenant	-12.2461
▁Berlin	-12.2463
▁sparkled	-12.2464
▁knots	-12.2465
▁erected	-12.2467
Tar	-12.2468
every	-12.247
▁despairing	-12.247
▁softer	-12.247
▁vices	-12.247
▁Fan	-12.2472
ek	-12.2474
▁attach	-12.2474
▁telegraph	-12.2475
▁conductor	-12.2478
▁arched	-12.2479
▁lining	-12.248
▁Whom	-12.2483
▁yearning	-12.2485
▁fund	-12.2485
▁devices	-12.2485
▁ARCHIE	-12.2487
▁Bashwood	-12.2487
▁Delmar	-12.2487
▁orchestra	-12.2487
▁tattered	-12.2488
▁Ready	-12.2489
▁ensued	-12.249
▁laser	-12.249
▁WHICH	-12.249
▁slew	-12.249
turning	-12.249
▁consisting	-12.2491
▁cushion	-12.2492
des	-12.2493
▁defensive	-12.2493
▁vividly	-12.2493
▁commented	-12.2495
▁LI	-12.25
▁overlooking	-12.25
▁THIRD	-12.2501
▁Margot	-12.2501
▁Citizen	-12.2501
▁Laz	-12.2509
▁Spring	-12.2509
]:	-12.251
▁estimation	-12.2515
▁disconcerted	-12.2516
▁Sophy	-12.2516
▁BROWN	-12.2516
▁Family	-12.2518
▁Christie	-12.2518
▁Forgive	-12.2519
▁Hasar	-12.252
▁preached	-12.252
▁prose	-12.2521
_!"	-12.2527
seeing	-12.2528
▁Guess	-12.2534
stand	-12.2535
▁calculation	-12.2539
party	-12.2542
▁carpenter	-12.2542
▁DORANTE	-12.2544
▁OCEAN	-12.2544
▁excellence	-12.2544
▁Ferris	-12.2544
▁seventh	-12.2544
▁Warren	-12.2544
▁ejaculated	-12.2544
▁gallantry	-12.2544
▁Nostromo	-12.2545
▁Bourne	-12.2546
▁meditated	-12.2548
▁tha	-12.2548
▁chiefs	-12.255
▁scratching	-12.2551
▁enquired	-12.2551
▁SOLDIERS	-12.2552
▁graciously	-12.2553
▁113	-12.2554
▁Carr	-12.2555
rooms	-12.2556
▁Venus	-12.2556
▁Par	-12.2558
▁disgusting	-12.2559
▁jack	-12.2562
lay	-12.2562
▁assuredly	-12.2563
▁blessings	-12.2564
▁countrymen	-12.2568
▁roast	-12.2569
▁bearded	-12.2569
▁traditions	-12.2569
▁imperfect	-12.2569
▁Marley	-12.2572
▁worshipped	-12.2573
▁Middle	-12.2573
▁patent	-12.2573
▁aliens	-12.2573
▁heartless	-12.2575
▁GREAT	-12.2576
tra	-12.2577
▁screwed	-12.2577
▁pursuits	-12.2579
_!	-12.2579
▁straightway	-12.2579
▁Ko	-12.258
▁pa	-12.2581
▁recollections	-12.2581
pit	-12.2584
▁Hear	-12.2584
▁farthing	-12.2585
▁shields	-12.2586
...**	-12.2586
▁Tess	-12.2587
▁steaming	-12.2588
▁resemble	-12.2589
▁homely	-12.2592
▁blur	-12.2595
▁blocking	-12.2596
CABLE	-12.2597
▁automobile	-12.2597
▁phantom	-12.2597
▁compel	-12.2599
▁Terminator	-12.2601
▁contemplating	-12.2601
▁unbroken	-12.2601
▁engrossed	-12.2601
▁tug	-12.2602
▁sundry	-12.2603
▁females	-12.2603
▁Hooker	-12.2605
▁stung	-12.2606
▁creating	-12.2606
▁monument	-12.2609
UN	-12.2612
BARTON	-12.2612
▁strap	-12.2616
▁valleys	-12.2618
▁lanes	-12.2618
▁mortals	-12.262
SUE	-12.2624
▁Bon	-12.2626
▁innocently	-12.2627
▁exclusive	-12.2629
▁FAUST	-12.263
▁Schaefer	-12.263
▁unnoticed	-12.263
▁HUGE	-12.263
▁Boldwood	-12.263
▁119	-12.263
▁Ram	-12.263
▁describing	-12.263
▁Maxwell	-12.2631
▁stupidity	-12.2631
▁clasping	-12.2635
ep	-12.2635
▁rustle	-12.2637
▁contemptuously	-12.2637
▁adds	-12.2638
▁apes	-12.2639
▁specimens	-12.2641
▁flows	-12.2642
▁Andor	-12.2642
▁buzz	-12.2644
▁gin	-12.2644
▁Erica	-12.2648
▁Spaniards	-12.2649
▁implore	-12.2651
▁SHADOW	-12.2652
VICK	-12.2654
▁demanding	-12.2656
▁130	-12.2657
▁slab	-12.2657
▁artillery	-12.2658
▁Marneffe	-12.2658
▁Moggs	-12.2658
▁improbable	-12.2658
▁unspeakable	-12.2658
▁Campbell	-12.2659
▁casket	-12.2659
▁chatting	-12.2659
▁tennis	-12.2659
▁wheelchair	-12.266
▁DICK	-12.266
▁invested	-12.2661
▁HARD	-12.2662
▁layer	-12.2662
▁thickly	-12.2663
▁Nadia	-12.2663
▁vowed	-12.2664
▁miracles	-12.2664
▁awakening	-12.2664
▁cocked	-12.2666
▁Grandma	-12.2669
▁partners	-12.267
▁bee	-12.2673
▁sucks	-12.2674
▁talkin	-12.2674
▁chickens	-12.2678
ica	-12.2678
ELVIN	-12.2679
RANDAL	-12.2683
WILLARD	-12.2683
MITCH	-12.2684
▁persuasion	-12.2684
▁vegetable	-12.2684
▁obliging	-12.2685
▁channels	-12.2686
▁awed	-12.2686
▁impudence	-12.2687
▁masculine	-12.2687
▁identify	-12.2687
▁agency	-12.2688
▁CATES	-12.2688
▁Carlton	-12.2689
▁recourse	-12.2689
▁Zenobia	-12.269
▁Kyle	-12.269
▁sleek	-12.269
▁wretchedness	-12.2692
▁bolted	-12.2695
▁Rod	-12.2699
▁gratefully	-12.2701
▁CHILD	-12.2705
▁hilt	-12.2707
▁Flor	-12.2708
▁rap	-12.2711
▁airs	-12.2712
JENNY	-12.2713
always	-12.2713
▁graces	-12.2715
▁Cambridge	-12.2716
▁SOMERSET	-12.2716
▁perspective	-12.2716
▁perspiration	-12.2716
▁PAYTON	-12.2716
▁livid	-12.2716
▁quickened	-12.2718
▁MOORE	-12.2718
▁exposure	-12.2719
▁garb	-12.2722
▁rely	-12.2723
▁richer	-12.2724
▁deception	-12.2726
▁LEOPOLD	-12.2729
▁misty	-12.2731
▁hurting	-12.2732
▁116	-12.2735
▁Thought	-12.2736
▁yea	-12.2737
▁investigate	-12.2738
▁congratulations	-12.2741
Right	-12.2743
▁superficial	-12.2743
▁BROOKS	-12.2745
▁Treves	-12.2745
▁hostility	-12.2746
▁Eugenie	-12.2746
▁intercom	-12.2746
▁discoveries	-12.2747
▁complaining	-12.2747
▁Dalgard	-12.2748
▁announcing	-12.2748
▁deceit	-12.2749
▁binding	-12.275
▁XX	-12.2754
ero	-12.2755
▁Powers	-12.2757
UARE	-12.276
▁associations	-12.2762
much	-12.2765
▁Real	-12.2766
▁shuddering	-12.2766
▁rebuke	-12.2767
▁choke	-12.2768
▁Allah	-12.277
KALE	-12.2771
▁stark	-12.2771
▁Beside	-12.2774
▁unhappiness	-12.2775
▁sinner	-12.2775
che	-12.2777
▁inhuman	-12.2778
▁Clarissa	-12.2778
▁chips	-12.2782
vous	-12.2789
▁suggesting	-12.2793
▁needless	-12.2794
▁grudge	-12.2796
▁appalling	-12.2801
ets	-12.2804
▁Dunbar	-12.2804
▁impossibility	-12.2804
▁Wentworth	-12.2804
▁Xander	-12.2804
▁BUDDY	-12.2804
▁miserably	-12.2804
▁replies	-12.2804
hill	-12.2806
▁Rand	-12.2808
▁silvery	-12.281
▁clip	-12.281
▁preaching	-12.2811
▁dated	-12.2813
▁elephants	-12.2814
poor	-12.2816
▁127	-12.2819
▁convictions	-12.2819
▁rendering	-12.282
sp	-12.2823
▁projects	-12.2825
▁Nine	-12.2828
LL	-12.2829
wa	-12.2831
▁inscription	-12.2831
▁emperor	-12.2831
▁olive	-12.2832
GANDHI	-12.2833
▁Effingham	-12.2833
▁cemetery	-12.2833
▁ROOF	-12.2833
▁Trinity	-12.2833
▁Granite	-12.2833
▁typing	-12.2833
▁Beneath	-12.2833
▁Neff	-12.2833
▁Mitchell	-12.2835
▁orchard	-12.2835
▁hovered	-12.2835
UVIA	-12.2835
▁lookin	-12.2836
▁Wa	-12.2837
▁wretches	-12.2837
▁DESK	-12.2837
▁Carthage	-12.2838
▁chop	-12.2839
▁drowning	-12.284
▁ham	-12.2841
▁prints	-12.2842
▁observer	-12.2844
▁au	-12.2844
▁BAM	-12.2845
▁Yea	-12.285
▁Roby	-12.285
▁scruples	-12.2852
▁imitate	-12.2853
shop	-12.2853
▁practise	-12.2855
▁enquire	-12.2855
▁Sundays	-12.2859
HAROLD	-12.286
[...]
