<unk>	0
<s>	0
</s>	0
▁	-2.71976
s	-2.84825
,	-3.16996
▁the	-3.28324
▁.	-3.50506
▁to	-3.77931
▁and	-3.79296
▁a	-3.97837
▁of	-4.24801
ing	-4.25514
ed	-4.42744
▁in	-4.5703
▁is	-4.58686
▁his	-4.67185
y	-4.78973
▁her	-4.9906
▁that	-5.0017
▁he	-5.00814
e	-5.01256
ly	-5.0221
▁with	-5.02725
d	-5.0975
▁s	-5.24019
▁him	-5.36939
▁by	-5.36979
▁for	-5.37043
m	-5.45637
▁on	-5.48627
▁The	-5.48732
-	-5.55555
▁who	-5.62452
▁)	-5.69551
(	-5.69789
▁she	-5.70808
▁but	-5.77185
▁fro	-5.8023
▁has	-5.87374
▁be	-5.87655
▁an	-5.88529
▁as	-5.88909
a	-5.8946
▁at	-5.94199
▁are	-6.01843
▁their	-6.04734
▁it	-6.0829
▁they	-6.12427
▁He	-6.12891
on	-6.20514
.	-6.23269
▁not	-6.24197
er	-6.2792
n	-6.31062
▁into	-6.34147
t	-6.37157
▁out	-6.377
▁was	-6.41536
▁them	-6.47373
▁up	-6.50484
▁A	-6.58342
▁find	-6.58846
▁w	-6.62015
▁In	-6.63507
▁kill	-6.65634
▁when	-6.70483
;	-6.71019
▁after	-6.7239
r	-6.74678
hich	-6.74761
▁will	-6.74952
es	-6.75099
▁where	-6.75998
▁take	-6.77592
▁have	-6.7829
▁one	-6.81134
▁had	-6.81757
▁return	-6.82002
▁then	-6.84057
o	-6.85121
▁tell	-6.85631
▁She	-6.8746
about	-6.87956
l	-6.92716
been	-6.96831
▁After	-6.97063
▁two	-6.97071
▁become	-6.97861
▁other	-6.99205
▁all	-7.02923
▁this	-7.03075
▁leave	-7.05901
an	-7.06536
▁can	-7.07279
▁back	-7.07531
▁When	-7.07931
▁father	-7.09135
▁time	-7.1181
▁whil	-7.12759
us	-7.13845
▁home	-7.14291
▁himself	-7.14462
st	-7.16088
▁love	-7.16499
▁C	-7.16946
▁get	-7.17711
▁see	-7.1877
▁They	-7.19033
▁life	-7.194
▁before	-7.20165
▁reveal	-7.20412
▁again	-7.20666
▁man	-7.20677
▁also	-7.21343
▁over	-7.21924
▁S	-7.21971
▁'	-7.24658
▁family	-7.25349
al	-7.25379
▁escape	-7.25488
▁discover	-7.25514
en	-7.25839
ion	-7.27067
▁As	-7.28267
▁some	-7.28291
▁house	-7.28994
▁meet	-7.29122
▁day	-7.29386
▁year	-7.30525
:	-7.30536
▁through	-7.3115
▁being	-7.32073
▁call	-7.32164
ce	-7.32719
or	-7.32735
▁off	-7.33226
▁death	-7.34048
▁help	-7.34806
▁so	-7.34806
▁first	-7.36075
ever	-7.36503
▁un	-7.37485
man	-7.38695
▁mother	-7.39612
later	-7.39994
▁new	-7.41043
▁no	-7.42724
▁come	-7.42954
▁attempt	-7.43875
▁wife	-7.44129
▁arrive	-7.4512
in	-7.45315
▁name	-7.45405
ie	-7.4765
▁more	-7.50568
▁down	-7.50689
▁attack	-7.50787
▁son	-7.51927
▁or	-7.52353
▁learn	-7.53483
▁give	-7.54146
▁John	-7.54312
▁how	-7.5473
away	-7.54783
▁live	-7.55661
▁there	-7.55992
▁end	-7.5617
▁I	-7.56222
▁At	-7.56488
▁own	-7.56492
▁Mr	-7.56589
ch	-7.56846
▁young	-7.57697
▁go	-7.57715
▁now	-7.58066
▁night	-7.58068
le	-7.58245
▁daughter	-7.59136
▁fall	-7.59242
▁ask	-7.59319
▁friend	-7.59389
ies	-7.59546
h	-7.59864
▁does	-7.62399
i	-7.62434
ther	-7.63115
▁story	-7.63732
cause	-7.64869
▁car	-7.65285
▁decide	-7.65871
▁goes	-7.66008
▁De	-7.66302
▁under	-7.68007
▁make	-7.68818
having	-7.69316
if	-7.69352
ity	-7.69381
▁begins	-7.69496
nother	-7.69915
able	-7.70057
▁money	-7.70325
▁plan	-7.71129
▁order	-7.71443
▁men	-7.71542
▁visit	-7.71817
▁de	-7.72899
one	-7.73142
een	-7.73685
▁turn	-7.74349
▁play	-7.75236
▁On	-7.75526
▁show	-7.75858
▁next	-7.76007
▁would	-7.7601
▁P	-7.7602
ry	-7.7603
ment	-7.76439
▁final	-7.76487
▁woman	-7.76808
▁say	-7.77231
▁F	-7.77684
▁use	-7.77728
▁police	-7.78138
▁what	-7.78533
▁B	-7.78568
▁ship	-7.78962
▁work	-7.79123
th	-7.79821
▁lead	-7.80667
▁way	-7.80698
▁trie	-7.8223
▁group	-7.84028
out	-7.84779
▁room	-7.85237
▁set	-7.85721
▁children	-7.85914
k	-7.86654
▁were	-7.86785
▁dur	-7.86906
▁old	-7.88565
▁both	-7.88765
▁force	-7.89111
▁Whil	-7.89796
▁do	-7.90292
▁murder	-7.90652
▁T	-7.91374
▁place	-7.91467
▁E	-7.91685
▁start	-7.92148
’	-7.925
▁near	-7.93569
▁Dr	-7.93714
▁betw	-7.93842
▁film	-7.95301
▁brother	-7.9584
each	-7.96318
son	-7.96468
▁fight	-7.9658
▁run	-7.96916
▁three	-7.97049
▁long	-7.97101
▁Jack	-7.97927
▁well	-7.9794
▁child	-7.97955
▁New	-7.98112
▁than	-7.98694
▁still	-7.99082
▁soon	-7.99519
▁O	-7.9971
▁offer	-7.9982
▁whi	-8.00238
▁believe	-8.00337
▁M	-8.00934
▁dead	-8.00989
side	-8.01257
▁part	-8.01364
▁eventual	-8.01554
▁break	-8.02245
▁marry	-8.02423
▁Tom	-8.02475
▁people	-8.02638
whil	-8.02703
	-8.0296
▁its	-8.03039
▁last	-8.0304
▁head	-8.03215
▁world	-8.03292
▁realize	-8.04419
▁open	-8.04426
ness	-8.04572
by	-8.05019
▁appear	-8.05113
▁Joe	-8.05218
▁town	-8.05667
and	-8.05671
▁D	-8.05887
▁every	-8.06082
▁fire	-8.06099
▁just	-8.06869
▁school	-8.06879
▁novel	-8.07016
▁To	-8.07581
▁Mrs	-8.07672
▁friends	-8.07747
▁secret	-8.08567
▁never	-8.08981
is	-8.09377
ton	-8.09519
▁girl	-8.09546
▁try	-8.09739
▁crew	-8.10016
▁sister	-8.10177
▁It	-8.10762
▁explain	-8.11387
▁Dur	-8.1186
▁agree	-8.1194
ation	-8.12008
▁herself	-8.12466
▁allow	-8.12583
▁husband	-8.13502
▁book	-8.13694
▁enter	-8.13698
ley	-8.13764
▁marriage	-8.14336
▁His	-8.1524
▁makes	-8.15316
▁remain	-8.15344
less	-8.15564
▁left	-8.15681
▁convince	-8.15813
▁U	-8.16115
▁move	-8.16115
ance	-8.16354
▁like	-8.1705
▁leav	-8.17233
▁R	-8.173
▁Sam	-8.17591
▁Mary	-8.17969
as	-8.18147
▁encounter	-8.18184
▁save	-8.18235
▁same	-8.18504
▁G	-8.19241
▁several	-8.1929
▁rescue	-8.19338
▁refuses	-8.19417
▁bring	-8.1957
▁know	-8.19797
▁team	-8.19977
▁any	-8.2012
stead	-8.20594
▁look	-8.20601
▁local	-8.21039
▁former	-8.21299
▁Mean	-8.2142
▁follow	-8.21427
▁One	-8.21504
▁unti	-8.21952
▁city	-8.22303
▁stay	-8.22561
spite	-8.22958
ver	-8.23061
▁human	-8.2318
▁With	-8.23622
▁flee	-8.24546
▁King	-8.2508
▁wh	-8.25471
▁even	-8.26017
▁found	-8.26212
I	-8.26239
▁free	-8.2649
▁join	-8.27029
▁shoot	-8.2712
▁includ	-8.28001
▁Thi	-8.2823
▁hand	-8.28376
▁body	-8.28544
ne	-8.28567
age	-8.28626
▁send	-8.28806
▁dies	-8.28886
▁real	-8.28953
▁How	-8.29086
▁destroy	-8.29468
▁stop	-8.30433
▁relationship	-8.30662
et	-8.307
▁must	-8.31214
▁drive	-8.32083
▁scene	-8.32292
dy	-8.32308
▁most	-8.32333
▁second	-8.32335
▁Edward	-8.32704
▁travel	-8.32914
▁arrest	-8.33116
▁killing	-8.33141
▁accept	-8.3316
▁power	-8.34551
▁continue	-8.3462
taken	-8.34658
▁arm	-8.34772
▁many	-8.34969
old	-8.36162
▁confront	-8.36454
▁much	-8.36505
▁re	-8.37437
▁us	-8.3756
'	-8.37736
▁George	-8.3786
made	-8.37937
▁party	-8.3811
ting	-8.38948
▁London	-8.39088
ve	-8.393
▁keep	-8.39417
el	-8.3979
▁close	-8.39963
▁married	-8.4079
▁living	-8.40912
ic	-8.41053
na	-8.41447
to	-8.4151
▁Al	-8.4179
â	-8.41985
▁though	-8.4208
toge	-8.42178
▁put	-8.42234
▁Frank	-8.42285
▁along	-8.42963
▁walk	-8.43117
▁job	-8.43124
A	-8.43185
▁officer	-8.43197
though	-8.433
▁claim	-8.43345
▁Paul	-8.43601
p	-8.43925
▁Si	-8.44122
▁boy	-8.44499
▁large	-8.44507
▁high	-8.44516
▁wants	-8.4458
▁die	-8.44609
▁La	-8.44819
▁train	-8.44902
known	-8.44904
▁Will	-8.45063
▁David	-8.4544
▁face	-8.45896
▁around	-8.45945
▁manage	-8.46324
▁gun	-8.46723
▁business	-8.47331
▁too	-8.47592
ey	-8.47734
land	-8.48007
▁Lad	-8.48042
▁inform	-8.48273
at	-8.48822
ty	-8.49284
▁los	-8.49286
thing	-8.49293
▁great	-8.49323
▁once	-8.49634
▁capture	-8.499
ard	-8.50021
▁apartment	-8.50261
uch	-8.50475
ves	-8.5055
very	-8.50669
▁York	-8.50741
▁Peter	-8.50819
▁di	-8.5094
—	-8.51101
▁throw	-8.51264
▁talk	-8.52344
▁begin	-8.52675
▁actual	-8.52746
▁wealth	-8.52775
▁change	-8.53803
▁search	-8.53827
▁Man	-8.53973
▁good	-8.54375
go	-8.54503
▁case	-8.54506
om	-8.54597
ra	-8.54745
▁receive	-8.54855
year	-8.54905
▁result	-8.55793
▁morning	-8.56335
▁Lor	-8.5646
hind	-8.56852
▁point	-8.57618
▁few	-8.59021
▁door	-8.59107
▁Henr	-8.59423
▁war	-8.59466
▁island	-8.59652
ary	-8.59773
▁f	-8.59943
▁wound	-8.60099
z	-8.60157
way	-8.60221
▁caus	-8.60225
▁parents	-8.603
S	-8.60307
▁spend	-8.60614
▁American	-8.61003
▁L	-8.61086
ia	-8.61292
▁sent	-8.61708
▁shot	-8.61773
▁al	-8.62353
▁grow	-8.62574
ught	-8.62603
▁steal	-8.62746
▁heart	-8.63056
▁base	-8.63476
▁small	-8.63722
▁seek	-8.64374
▁Nick	-8.64513
ive	-8.64516
▁present	-8.64569
▁battle	-8.64579
B	-8.64656
▁pass	-8.64832
▁Harry	-8.65124
ant	-8.65268
▁water	-8.6532
▁But	-8.65525
ough	-8.65858
▁past	-8.66124
▁demand	-8.66186
▁Michael	-8.66208
▁Ben	-8.66255
▁Re	-8.66444
▁!	-8.66763
▁toward	-8.66785
▁dream	-8.671
▁since	-8.67335
▁narrator	-8.67347
▁Earth	-8.67351
▁let	-8.676
▁Ma	-8.67828
▁act	-8.6809
▁win	-8.68457
▁women	-8.68629
▁Martin	-8.68819
▁feel	-8.68898
▁due	-8.69157
▁prison	-8.69424
g	-8.70152
▁need	-8.70202
▁event	-8.70403
▁control	-8.70699
▁could	-8.70906
ine	-8.71085
▁think	-8.71528
ich	-8.71605
▁court	-8.717
ful	-8.71852
▁land	-8.72066
▁previous	-8.72121
▁fail	-8.72131
▁meeting	-8.72298
▁cause	-8.72518
▁couple	-8.72738
▁safe	-8.7288
▁country	-8.7295
▁Sara	-8.73113
▁Mar	-8.73186
▁W	-8.73322
ian	-8.73345
▁threaten	-8.73401
▁rest	-8.73582
▁Engl	-8.73851
▁There	-8.73974
▁sex	-8.74427
▁following	-8.74522
▁hospital	-8.74593
▁hotel	-8.74604
men	-8.7462
▁affair	-8.74623
▁promise	-8.74754
▁quick	-8.75143
▁H	-8.75414
▁God	-8.75525
▁mak	-8.75765
▁recover	-8.75927
▁watch	-8.76003
▁air	-8.76371
company	-8.76428
▁short	-8.76497
▁Max	-8.76505
▁tak	-8.76517
▁did	-8.76687
ish	-8.76944
▁seem	-8.77016
▁abandon	-8.77138
▁black	-8.77205
▁crime	-8.77208
▁support	-8.77496
▁bar	-8.77687
▁creature	-8.77812
▁form	-8.78015
▁Billy	-8.78401
▁An	-8.78423
▁Charlie	-8.78433
▁future	-8.78441
ally	-8.78845
▁soldier	-8.79161
▁Anna	-8.79208
▁interest	-8.79251
▁king	-8.79465
▁t	-8.79578
▁wait	-8.79619
▁English	-8.79761
▁Queen	-8.80242
▁you	-8.80369
▁earlier	-8.80408
te	-8.80413
▁intend	-8.80451
▁may	-8.80494
▁warn	-8.80574
▁William	-8.80642
cross	-8.80643
▁month	-8.80666
▁plot	-8.80699
▁inside	-8.80754
▁Howe	-8.80826
▁working	-8.80974
▁letter	-8.81585
aptain	-8.81918
▁War	-8.82557
alone	-8.82564
w	-8.8311
▁able	-8.83112
▁four	-8.8323
▁protect	-8.83292
ship	-8.83358
▁guard	-8.83541
▁building	-8.83926
up	-8.84032
▁Be	-8.84058
▁right	-8.84208
▁insist	-8.84533
▁going	-8.84594
▁miss	-8.84741
msel	-8.84805
▁should	-8.84872
ous	-8.84882
▁Miss	-8.84991
ist	-8.85078
▁share	-8.85233
▁attend	-8.85313
ir	-8.8538
▁little	-8.8549
coming	-8.85498
▁speak	-8.85537
given	-8.85898
▁Her	-8.86118
▁game	-8.8664
▁trip	-8.86711
true	-8.86801
re	-8.86987
▁village	-8.87277
▁mean	-8.8735
▁full	-8.87512
▁suspect	-8.87996
▁immediate	-8.87996
▁Richard	-8.87999
▁pay	-8.8809
▁Lat	-8.88148
▁reach	-8.88216
▁release	-8.88321
▁Robert	-8.88743
▁pull	-8.88861
▁half	-8.88869
▁character	-8.88901
▁Ro	-8.89167
ham	-8.8921
▁contact	-8.89441
▁question	-8.89449
▁doctor	-8.89457
▁Mark	-8.89551
cy	-8.89617
▁Adam	-8.89626
▁best	-8.89867
ually	-8.90068
▁suicide	-8.90329
ll	-8.90467
▁hide	-8.90503
▁read	-8.90578
ten	-8.9058
▁consider	-8.90685
f	-8.90698
ney	-8.90729
▁experience	-8.90823
▁late	-8.90839
▁Con	-8.90956
▁station	-8.90983
▁fact	-8.91111
▁boat	-8.91188
▁admit	-8.91399
▁defeat	-8.91647
▁moment	-8.91655
▁State	-8.91739
▁hope	-8.91789
▁injur	-8.92047
▁entire	-8.92393
tic	-8.92403
▁Event	-8.92416
▁Scott	-8.92418
▁deal	-8.92473
x	-8.92751
▁pursue	-8.92875
▁persuade	-8.92983
▁Up	-8.93505
▁seen	-8.93576
▁Louis	-8.93675
▁window	-8.93906
▁phone	-8.93961
▁Paris	-8.93965
ge	-8.93971
▁mission	-8.94108
▁Emil	-8.94255
▁J	-8.94467
▁office	-8.94597
▁fortune	-8.94681
▁Fred	-8.95008
red	-8.95008
▁notice	-8.95225
est	-8.95754
▁chase	-8.9605
▁stole	-8.96217
ar	-8.96335
▁V	-8.96943
▁sea	-8.97009
▁pick	-8.9708
▁hit	-8.97095
▁Charles	-8.97216
▁want	-8.97416
um	-8.97523
ter	-8.97617
▁White	-8.97952
▁wedding	-8.98605
▁Jane	-8.98656
▁blood	-8.98681
▁cover	-8.98997
ster	-8.99139
▁dog	-8.9915
▁sudden	-8.99372
▁number	-8.99374
▁among	-8.99613
▁ex	-8.99654
▁invite	-8.99666
▁social	-9.00449
▁Lee	-9.00589
c	-9.00637
▁contain	-9.00678
▁light	-9.01133
▁complete	-9.01245
▁St	-9.01572
▁public	-9.01777
▁mysterious	-9.01812
▁French	-9.01814
tory	-9.0184
▁brief	-9.01841
▁Mike	-9.01847
▁Eric	-9.02186
▁prepare	-9.0265
▁apparent	-9.02671
▁Dorothy	-9.02833
▁Lind	-9.02866
▁space	-9.02896
▁bank	-9.02956
▁action	-9.02988
▁word	-9.0306
▁buy	-9.03164
time	-9.03274
▁white	-9.03297
ville	-9.03446
▁drink	-9.03471
▁German	-9.03487
▁ca	-9.03505
▁That	-9.03508
▁estate	-9.03537
▁gang	-9.03583
▁track	-9.03683
▁state	-9.03747
▁charge	-9.03859
▁burn	-9.0386
▁lover	-9.03917
▁members	-9.03998
▁For	-9.04086
read	-9.04226
▁Anne	-9.04372
▁forc	-9.04404
▁exchange	-9.0457
▁Red	-9.04742
▁clear	-9.05005
▁initial	-9.05199
▁develop	-9.05381
▁prevent	-9.06013
▁slave	-9.06419
▁Jim	-9.06432
▁Bo	-9.0658
▁self	-9.067
▁personal	-9.06748
▁British	-9.06876
▁knock	-9.06909
▁successful	-9.06923
▁society	-9.0698
▁marrie	-9.07133
▁suggests	-9.07247
▁alien	-9.07348
▁Kirk	-9.07755
▁cut	-9.07913
▁Thom	-9.07945
▁K	-9.07949
il	-9.07967
▁hold	-9.08058
▁drug	-9.08273
▁person	-9.08454
hood	-9.0862
▁cousin	-9.08624
▁Smith	-9.08629
▁James	-9.08652
▁Bill	-9.08733
▁nothing	-9.08747
▁sign	-9.08787
fer	-9.0881
ether	-9.09068
formation	-9.09544
▁fear	-9.09864
▁suffer	-9.09868
▁alive	-9.09925
▁Dann	-9.10215
▁Carter	-9.10386
▁beat	-9.10554
▁Oz	-9.10613
▁position	-9.10629
▁en	-9.10747
▁Tar	-9.10758
▁Ted	-9.11007
nnie	-9.1102
ought	-9.11084
▁disappear	-9.11653
▁feeling	-9.11701
▁problem	-9.1221
▁things	-9.12219
▁Unit	-9.12222
▁captain	-9.12226
▁No	-9.12273
▁Carl	-9.12317
▁storm	-9.12658
▁Jimm	-9.12684
▁arrange	-9.13039
▁street	-9.13128
giving	-9.1315
▁identity	-9.13255
ner	-9.13273
▁And	-9.13383
▁original	-9.13401
▁front	-9.13485
▁Se	-9.13574
▁prove	-9.13929
▁19	-9.14046
▁avoid	-9.14064
▁castle	-9.14081
▁accidental	-9.14193
de	-9.14194
▁Emma	-9.14226
▁â	-9.1452
ca	-9.14638
▁leader	-9.1474
▁main	-9.14868
board	-9.15016
▁journey	-9.15025
▁care	-9.1527
▁Jenni	-9.15345
▁write	-9.1546
▁figure	-9.1562
▁depart	-9.1589
▁led	-9.15908
achel	-9.16032
▁box	-9.16071
▁May	-9.16194
▁camp	-9.16267
▁engage	-9.16728
▁wear	-9.16785
b	-9.16876
▁Lo	-9.17
▁career	-9.17086
▁servant	-9.17267
▁agent	-9.17467
▁Dick	-9.17693
▁store	-9.1777
▁Har	-9.17917
▁surprise	-9.18816
▁revenge	-9.1882
▁deliver	-9.18855
▁boss	-9.18869
▁uncle	-9.19058
▁planet	-9.1917
▁met	-9.19348
▁announce	-9.19571
▁recognize	-9.19702
▁evidence	-9.19798
▁gain	-9.19825
▁So	-9.19894
▁Black	-9.19902
▁system	-9.20035
▁Alex	-9.20118
▁church	-9.2018
▁wall	-9.20203
▁works	-9.20263
▁shock	-9.20408
▁record	-9.20458
▁Maggi	-9.20522
ng	-9.20597
▁victim	-9.20787
▁reject	-9.20788
▁possibl	-9.20803
▁struggle	-9.20816
▁beautiful	-9.20826
▁almost	-9.20854
▁Jud	-9.21079
▁Los	-9.21269
▁Jas	-9.21438
▁reluctant	-9.21793
▁Stephen	-9.21833
house	-9.22061
▁bomb	-9.22071
▁Indian	-9.22184
ily	-9.22241
▁Ja	-9.22414
▁line	-9.22799
▁baby	-9.22814
▁fellow	-9.22981
▁perform	-9.23529
onto	-9.23576
▁characters	-9.23579
ers	-9.23626
▁stand	-9.23637
▁truth	-9.23646
co	-9.23665
▁owner	-9.2377
ok	-9.23796
▁ruin	-9.23818
▁mountain	-9.23818
▁situation	-9.23821
▁further	-9.23824
▁million	-9.23837
▁race	-9.2395
▁involve	-9.23964
ma	-9.24005
▁command	-9.24013
▁happen	-9.24087
▁sell	-9.2412
▁survive	-9.24194
▁disguise	-9.24224
▁bed	-9.2442
▁mind	-9.2446
▁ill	-9.24469
▁kind	-9.24532
▁Jer	-9.24614
▁partner	-9.24665
▁All	-9.24675
▁happ	-9.2478
▁gold	-9.24842
▁government	-9.24851
▁chance	-9.24862
ling	-9.24938
▁machine	-9.2508
▁six	-9.25158
▁Jones	-9.25168
▁sleep	-9.25487
▁p	-9.25552
▁Prince	-9.25578
▁separate	-9.25776
▁idea	-9.25801
▁plann	-9.25879
▁Jeff	-9.25895
▁pair	-9.25944
▁class	-9.26088
▁floor	-9.26149
thus	-9.26292
▁President	-9.26297
▁killer	-9.26412
aid	-9.26462
▁kiss	-9.26472
ice	-9.26519
the	-9.26611
▁Ann	-9.26806
▁desert	-9.26945
▁girlfriend	-9.27339
u	-9.27431
▁Don	-9.27525
▁propose	-9.27805
▁believ	-9.27859
ur	-9.27894
▁Ralph	-9.28006
▁club	-9.28007
▁betray	-9.28008
▁animal	-9.28062
▁seri	-9.28208
▁board	-9.28212
▁assist	-9.28353
▁Phil	-9.28388
ite	-9.28397
▁Ed	-9.2841
▁Rose	-9.28485
▁birth	-9.28488
▁Eli	-9.28571
▁Leo	-9.28676
▁Bart	-9.28734
▁side	-9.28827
▁Un	-9.28832
▁lose	-9.29078
▁various	-9.29082
▁might	-9.29086
▁Arthur	-9.29124
▁age	-9.29163
▁Car	-9.2922
▁retrieve	-9.29411
▁tree	-9.29572
▁strong	-9.2958
▁Lucy	-9.29593
▁West	-9.296
▁Late	-9.29613
▁Ash	-9.29746
▁Sa	-9.29767
▁Moll	-9.29977
▁accident	-9.30037
nce	-9.3015
▁concern	-9.30168
▁condition	-9.30169
▁destroyed	-9.30181
▁attention	-9.30186
▁recent	-9.30201
▁gift	-9.30212
▁process	-9.30219
▁test	-9.30289
▁carry	-9.30404
▁pregnan	-9.30822
▁assume	-9.30957
▁success	-9.31173
▁subsequent	-9.31267
▁inherit	-9.31267
▁guest	-9.31269
▁World	-9.31313
▁Rick	-9.31414
▁N	-9.31453
▁gone	-9.31496
efore	-9.31547
▁hands	-9.3167
▁hears	-9.31739
▁hunt	-9.31742
▁hour	-9.32093
self	-9.32189
▁Cha	-9.32243
▁detail	-9.32381
told	-9.32453
▁blow	-9.32513
▁create	-9.32739
▁describe	-9.32911
▁Do	-9.32951
▁Am	-9.33025
▁course	-9.33049
▁five	-9.33072
▁younger	-9.33456
▁Robin	-9.3349
▁lawyer	-9.33504
▁Duke	-9.3351
▁hire	-9.33526
▁abilit	-9.3353
▁better	-9.33536
▁Helen	-9.33549
▁guilt	-9.33565
ck	-9.33789
head	-9.33858
hose	-9.33983
▁draw	-9.34063
older	-9.34141
▁Ne	-9.34175
▁truck	-9.3426
rmy	-9.34357
▁provide	-9.34465
▁France	-9.34494
▁Count	-9.34661
▁Laur	-9.35156
▁Finn	-9.35301
C	-9.35473
lin	-9.35606
▁Mi	-9.35625
▁involv	-9.3563
▁aid	-9.35653
▁road	-9.35792
▁park	-9.35811
▁Walter	-9.35864
▁happi	-9.35914
▁area	-9.35977
▁Mac	-9.36607
▁investigate	-9.36636
▁ring	-9.3672
▁securit	-9.3682
▁discuss	-9.36851
▁Ru	-9.36942
▁criminal	-9.36952
▁location	-9.36965
▁c	-9.37121
▁Ali	-9.37139
ah	-9.37156
▁military	-9.37175
▁Hav	-9.37214
▁adventure	-9.37458
no	-9.3768
▁confesse	-9.37693
▁report	-9.3787
▁beg	-9.37963
▁Dean	-9.37983
▁general	-9.38254
▁yet	-9.38297
▁respect	-9.38383
▁Wil	-9.38542
▁plane	-9.38548
▁crash	-9.38552
▁brothers	-9.38563
▁Hell	-9.38713
▁Wood	-9.38954
like	-9.38997
▁Cit	-9.39024
▁jealous	-9.39318
▁succeed	-9.39318
ro	-9.39345
▁elder	-9.39353
▁Sid	-9.39416
▁romantic	-9.39447
▁view	-9.39467
▁account	-9.39553
▁trouble	-9.39581
▁wake	-9.39743
▁soul	-9.39746
▁different	-9.39863
▁far	-9.3994
▁alway	-9.39952
▁Co	-9.40023
▁forest	-9.40072
▁ride	-9.40212
▁Z	-9.40387
▁stage	-9.40432
▁Bourne	-9.40536
▁defend	-9.40552
▁dress	-9.40588
▁enem	-9.40636
▁Angeles	-9.40647
▁post	-9.40717
▁Tomm	-9.40906
▁service	-9.40934
rom	-9.4096
▁awaken	-9.40966
▁member	-9.40989
▁transform	-9.4108
▁desire	-9.41144
▁approache	-9.41183
▁rule	-9.4163
▁arrival	-9.41778
▁survivor	-9.41789
▁Mo	-9.4179
▁news	-9.421
▁band	-9.42105
▁declare	-9.42147
ke	-9.4223
▁thought	-9.42245
▁nature	-9.42293
▁sexual	-9.42327
▁slow	-9.42349
▁Hall	-9.42389
▁broken	-9.42402
id	-9.42427
▁Their	-9.4248
▁Arm	-9.42504
▁proceed	-9.42762
stone	-9.42801
held	-9.42893
▁ground	-9.42893
▁imprison	-9.42976
▁request	-9.42978
▁evil	-9.42981
▁strange	-9.43112
▁Kim	-9.43152
▁finding	-9.43282
V	-9.43386
▁wishe	-9.43461
ach	-9.43475
ends	-9.43552
▁understand	-9.43554
▁sentence	-9.44049
▁divorce	-9.44082
▁widow	-9.44173
▁spirit	-9.44226
▁ghost	-9.44226
▁role	-9.44238
▁pretend	-9.44248
used	-9.44442
▁hiding	-9.44466
her	-9.44495
▁Matt	-9.44632
▁Rip	-9.44797
▁poor	-9.44799
▁sense	-9.44838
▁worker	-9.44846
▁Mile	-9.44885
ose	-9.44972
▁witness	-9.45238
▁House	-9.45533
▁locate	-9.45543
▁Christian	-9.45581
▁nam	-9.45615
▁food	-9.45632
▁treat	-9.45668
▁per	-9.45681
ill	-9.45789
▁Eve	-9.45833
▁encourage	-9.45899
▁reason	-9.45906
▁blame	-9.45988
▁prisoner	-9.46145
▁lack	-9.46156
day	-9.46215
worth	-9.46723
▁South	-9.46762
da	-9.46772
▁effort	-9.46774
▁obtain	-9.46774
▁garden	-9.46776
▁native	-9.46777
▁poison	-9.46786
▁knowledge	-9.46827
▁Julia	-9.47074
▁...	-9.47155
▁grave	-9.47165
mer	-9.47204
▁star	-9.47331
▁political	-9.47362
▁h	-9.47456
▁boyfriend	-9.47461
▁Sand	-9.47565
▁Che	-9.4762
idden	-9.4767
▁hop	-9.47811
▁We	-9.47832
line	-9.47995
D	-9.48033
ure	-9.48058
▁argument	-9.48082
▁hostage	-9.48093
▁vampire	-9.48109
▁engagement	-9.48135
▁ra	-9.48144
▁Gre	-9.48174
▁note	-9.48179
▁writing	-9.48231
▁strike	-9.48619
▁approach	-9.48716
▁top	-9.48774
▁direct	-9.4926
▁conclude	-9.49261
ially	-9.493
▁Li	-9.49324
▁aunt	-9.49344
▁neighbor	-9.49377
▁interrupt	-9.49389
▁enjoy	-9.49398
▁major	-9.49442
ble	-9.4948
▁single	-9.4949
▁Jacob	-9.49491
cca	-9.49525
▁answer	-9.49532
▁farm	-9.49546
▁Green	-9.49569
▁middle	-9.49638
▁Kat	-9.49714
▁con	-9.49785
▁matter	-9.49811
▁writ	-9.4986
▁spot	-9.50063
▁remove	-9.50078
▁bro	-9.50152
▁Bob	-9.50303
▁By	-9.50576
▁wrong	-9.50701
▁message	-9.50726
▁vision	-9.50814
ff	-9.50937
▁crowd	-9.5099
▁Star	-9.50992
▁Pip	-9.51095
▁cat	-9.51196
▁Hanna	-9.512
cher	-9.51553
▁challenge	-9.51579
law	-9.51761
▁student	-9.51914
▁plant	-9.52034
espec	-9.52073
▁advice	-9.52074
▁increasing	-9.52128
▁ever	-9.52174
▁Ba	-9.52216
▁Earl	-9.52265
▁Act	-9.52487
▁count	-9.52722
▁committ	-9.52853
▁Barne	-9.52946
▁Kate	-9.5298
▁foot	-9.53201
▁shop	-9.53403
▁dinner	-9.53448
▁conversation	-9.53448
wood	-9.5345
▁Island	-9.53453
▁beginning	-9.5346
▁friendship	-9.53544
▁hang	-9.53667
▁reunite	-9.5388
▁early	-9.53911
▁carrie	-9.54154
ism	-9.54391
▁mid	-9.54516
▁river	-9.54584
▁peace	-9.54812
ither	-9.54829
▁corpse	-9.54841
▁remember	-9.54888
▁anything	-9.54922
▁ball	-9.54938
▁Alice	-9.54941
▁Gale	-9.54977
▁Marc	-9.54985
▁Su	-9.55063
▁flight	-9.55116
▁Kell	-9.55174
field	-9.5544
▁restore	-9.5553
▁fly	-9.55583
▁Maria	-9.55647
▁neck	-9.55719
▁Day	-9.55841
ible	-9.55887
▁Anton	-9.55918
▁anger	-9.56128
▁trap	-9.56148
▁attract	-9.56172
▁Ko	-9.56178
▁Charlotte	-9.56241
▁else	-9.56245
▁befriend	-9.56256
▁funera	-9.56278
▁surface	-9.56298
▁jump	-9.56394
▁rich	-9.56403
▁bad	-9.56409
sky	-9.56474
▁reconcile	-9.56694
ence	-9.56698
▁Ver	-9.56759
be	-9.56908
▁Van	-9.56928
▁magic	-9.56963
▁Vincen	-9.56977
▁hear	-9.5698
▁master	-9.57078
▁San	-9.57538
▁project	-9.57598
▁Little	-9.57669
▁Two	-9.57671
▁detective	-9.57677
▁audience	-9.57684
▁severe	-9.57812
▁Po	-9.57821
▁Lis	-9.57835
▁heir	-9.57993
▁match	-9.58053
▁Princess	-9.58175
▁commit	-9.58238
▁Sal	-9.58385
▁turned	-9.58509
▁paper	-9.5854
▁captur	-9.58663
▁weeks	-9.58666
▁Patric	-9.58903
▁agents	-9.58942
▁teacher	-9.58966
▁fighting	-9.59046
▁dark	-9.59054
▁date	-9.59081
▁Sea	-9.59108
▁cell	-9.59118
▁third	-9.59119
▁memory	-9.59123
▁camera	-9.59136
▁Cobb	-9.5914
▁particular	-9.59177
▁General	-9.59177
▁nurse	-9.59181
ber	-9.59661
▁advance	-9.5977
▁law	-9.59992
port	-9.60021
▁co	-9.60046
▁jail	-9.60371
▁Rebe	-9.6045
▁contract	-9.60524
▁eyes	-9.60549
▁helicopter	-9.60589
▁opportunit	-9.60589
▁interview	-9.60589
▁adopt	-9.6059
▁prompt	-9.6059
▁transport	-9.6059
▁Bishop	-9.60593
▁college	-9.60597
▁Some	-9.60618
▁communit	-9.60662
▁rival	-9.6075
▁Though	-9.60812
▁Clar	-9.60822
▁build	-9.60991
▁cross	-9.61203
▁health	-9.61284
▁hard	-9.61535
▁evening	-9.61605
▁deep	-9.6161
▁Ra	-9.61911
▁assault	-9.62082
▁speech	-9.62085
▁whole	-9.62123
▁Le	-9.62232
▁Oliv	-9.62234
▁intelligen	-9.62244
▁intention	-9.62326
▁Roman	-9.62374
▁mention	-9.62404
▁Ho	-9.62549
▁we	-9.62594
▁resolve	-9.62666
▁catche	-9.6276
▁driv	-9.62887
2	-9.62946
▁Sant	-9.62973
▁introduce	-9.63279
▁bear	-9.63408
▁Pat	-9.63425
▁Profess	-9.63452
▁propert	-9.63555
▁Pete	-9.63588
▁computer	-9.63597
▁difficult	-9.63597
▁voice	-9.63597
▁unconscious	-9.63613
▁similar	-9.63618
▁choose	-9.63645
▁climb	-9.63668
ella	-9.63734
▁Kel	-9.63735
▁field	-9.63817
▁lady	-9.63875
riff	-9.63917
▁violent	-9.6394
ial	-9.63958
▁watche	-9.64013
▁hair	-9.64174
▁El	-9.64245
▁Bon	-9.64386
▁week	-9.64422
▁tape	-9.64506
▁br	-9.6481
rry	-9.64863
▁America	-9.64949
per	-9.64982
▁Ar	-9.65026
▁bridge	-9.65053
▁Steve	-9.65057
▁Soviet	-9.65135
▁priest	-9.65135
▁August	-9.65139
▁financial	-9.65157
▁behavior	-9.65184
▁Bobb	-9.65189
▁Erik	-9.6521
▁wood	-9.65297
▁Stan	-9.65316
▁falling	-9.65351
ld	-9.65419
▁—	-9.65521
▁corrupt	-9.65579
▁Pre	-9.65803
▁private	-9.65815
▁runn	-9.65875
▁Els	-9.66065
▁holding	-9.66119
▁17	-9.66187
▁lock	-9.66319
▁Zo	-9.6656
▁period	-9.6656
▁collect	-9.66606
well	-9.66658
▁chapter	-9.66698
▁Colonel	-9.66762
▁sound	-9.66778
ius	-9.66788
▁fake	-9.66932
▁reput	-9.67115
▁sub	-9.67196
▁debt	-9.67236
more	-9.6736
▁Old	-9.67565
ical	-9.67613
▁Baron	-9.67734
▁18	-9.67866
▁weapon	-9.67894
▁wish	-9.67947
unt	-9.67974
▁explode	-9.68035
▁Pen	-9.68196
latter	-9.68199
▁forgive	-9.68206
▁video	-9.68285
▁incident	-9.68285
▁regard	-9.68286
▁victor	-9.68288
▁skill	-9.68316
▁Cat	-9.68376
▁pre	-9.68431
▁angr	-9.68437
▁horse	-9.68458
▁serious	-9.6848
▁gather	-9.68485
▁operation	-9.68511
▁Chica	-9.68524
▁sail	-9.68527
▁presen	-9.68595
▁witnesse	-9.68609
▁van	-9.68648
▁Wad	-9.68686
▁Connor	-9.68696
▁doing	-9.68735
▁player	-9.6877
▁step	-9.68807
▁done	-9.68836
▁Barba	-9.69115
▁gas	-9.69225
▁Ge	-9.69248
▁becom	-9.69267
than	-9.69327
▁buri	-9.69339
▁states	-9.69603
▁centur	-9.69654
hi	-9.69659
E	-9.69679
▁often	-9.69724
▁knowing	-9.69807
▁assign	-9.69831
▁giant	-9.69899
▁include	-9.69899
▁sneak	-9.69899
▁queen	-9.69907
▁Roger	-9.69912
▁retire	-9.69989
▁desperate	-9.6999
▁Norman	-9.70011
▁piece	-9.7006
▁stories	-9.70087
▁sit	-9.70149
▁Other	-9.70161
came	-9.70205
▁Mon	-9.70248
▁decision	-9.70302
▁ultimate	-9.70319
erry	-9.70511
▁Dan	-9.70645
▁host	-9.70778
▁physical	-9.70868
▁fill	-9.71108
it	-9.71132
K	-9.71278
▁Brand	-9.71299
▁research	-9.71303
▁bus	-9.71405
▁argue	-9.71453
▁radio	-9.71498
▁remote	-9.71537
▁Elizabeth	-9.71537
▁device	-9.71542
▁title	-9.7155
▁overhear	-9.71561
▁relative	-9.71563
▁vow	-9.71609
▁seemingly	-9.71612
J	-9.71625
▁Holm	-9.71646
▁female	-9.71716
▁kidnapp	-9.7172
▁Fox	-9.71738
▁warning	-9.71774
▁students	-9.71797
▁bird	-9.72048
▁term	-9.7207
▁emotional	-9.72098
▁heads	-9.72159
▁clothe	-9.72161
▁upset	-9.72336
▁pressure	-9.72347
▁McCa	-9.72371
bbie	-9.72397
7	-9.72613
▁Di	-9.72613
▁Claudi	-9.72727
▁X	-9.73077
▁determine	-9.73078
▁Ton	-9.73164
▁realiz	-9.73181
▁Enterprise	-9.73204
▁movie	-9.73204
▁purpose	-9.73204
▁target	-9.73204
▁firm	-9.73205
▁drown	-9.73205
▁Chip	-9.73221
▁cap	-9.7325
▁newspaper	-9.73273
▁coast	-9.73274
pent	-9.73293
▁Tim	-9.73368
ngry	-9.73455
▁cold	-9.73475
ctor	-9.73502
▁resist	-9.73502
▁author	-9.73511
▁address	-9.73555
▁introduc	-9.73761
town	-9.73813
nor	-9.7388
boy	-9.73894
▁Jak	-9.73926
▁establish	-9.74037
▁legal	-9.74138
▁key	-9.74166
▁art	-9.74281
▁These	-9.74316
▁Virginia	-9.74487
dom	-9.74527
▁music	-9.74638
▁drunk	-9.74826
▁Caesar	-9.74899
▁Malcolm	-9.74899
▁furious	-9.74901
▁trial	-9.74943
▁important	-9.74944
▁pilot	-9.74967
▁credit	-9.74991
▁Ashe	-9.75
▁saving	-9.7505
▁assistant	-9.75137
ford	-9.75178
▁actor	-9.75374
▁seven	-9.75387
▁hearing	-9.75548
tion	-9.75835
▁surviv	-9.75847
▁weapons	-9.75867
tt	-9.76016
▁scheme	-9.76032
▁Ned	-9.76189
▁Jun	-9.76409
▁wild	-9.76461
ory	-9.76468
▁Christin	-9.76474
▁California	-9.76623
▁monster	-9.76623
▁study	-9.76625
▁pursuit	-9.76627
▁Susan	-9.76632
▁Thor	-9.76648
▁Chief	-9.76674
▁youth	-9.76732
▁Luc	-9.76799
▁chief	-9.76897
▁passe	-9.76997
▁serve	-9.77058
▁copy	-9.77153
▁twin	-9.77154
lly	-9.77172
▁Kan	-9.77235
▁Yu	-9.7726
▁Bow	-9.77281
off	-9.77343
▁Ray	-9.77672
▁Del	-9.77742
▁Francis	-9.77759
▁reache	-9.77964
▁creat	-9.78011
▁freed	-9.78011
me	-9.78252
▁damage	-9.78362
▁danger	-9.78376
▁Three	-9.78379
▁knight	-9.78381
▁remind	-9.78405
▁summon	-9.78407
▁Philip	-9.78446
▁restaurant	-9.78448
▁conduct	-9.78449
▁Madam	-9.78462
▁Blue	-9.78466
room	-9.78483
▁sink	-9.78605
▁Final	-9.78634
▁collapse	-9.78675
▁effect	-9.78793
▁Vitt	-9.78867
face	-9.78942
ious	-9.79025
led	-9.79046
▁Pa	-9.79183
ta	-9.79187
▁fate	-9.79307
▁Isabel	-9.79324
za	-9.79368
fore	-9.79369
▁saw	-9.79403
▁design	-9.79483
▁Angel	-9.7962
▁Na	-9.79621
▁US	-9.79691
▁Viol	-9.79801
▁leg	-9.7985
▁stab	-9.79906
▁rock	-9.79949
▁Ele	-9.79959
▁Africa	-9.79974
▁ago	-9.80005
ollowing	-9.80116
▁confirm	-9.80163
▁mirror	-9.80163
▁unsuccessful	-9.80164
▁niece	-9.80165
▁Bloom	-9.80173
▁influence	-9.80182
▁mansion	-9.80218
▁finish	-9.80231
▁Grant	-9.80272
▁quiet	-9.80361
▁Mason	-9.8038
▁Jew	-9.80509
▁Jessi	-9.80571
▁II	-9.80574
ground	-9.80702
rek	-9.80748
▁rushe	-9.80849
sleep	-9.80864
1	-9.80961
▁current	-9.80979
▁emerge	-9.80979
ez	-9.81076
ick	-9.81115
▁Luk	-9.81137
▁kidnap	-9.81642
nt	-9.81681
aware	-9.81711
▁clean	-9.81847
▁sword	-9.81954
▁experiment	-9.81981
▁Jeffrey	-9.81982
▁protagonist	-9.81982
▁Short	-9.81982
▁Fredd	-9.81996
▁moving	-9.82193
▁North	-9.82279
▁setting	-9.82317
▁check	-9.82434
▁letters	-9.82564
▁Jenn	-9.82665
▁dance	-9.82735
▁raid	-9.82768
ps	-9.82804
▁seduce	-9.82903
point	-9.82936
▁famous	-9.8296
▁Mariann	-9.82975
▁Go	-9.83057
▁Du	-9.83339
▁Log	-9.83353
▁trick	-9.83495
▁panic	-9.83701
▁object	-9.83732
▁except	-9.83761
▁Hal	-9.83772
▁distract	-9.83775
▁sun	-9.83809
▁First	-9.83833
▁campaign	-9.83833
▁Now	-9.83834
▁blind	-9.83834
▁shelter	-9.83834
▁Gordon	-9.83837
▁Snow	-9.83837
▁unexpected	-9.83861
▁Long	-9.83876
▁Rome	-9.83891
▁zombie	-9.83902
▁frequent	-9.83909
▁Alien	-9.84019
craft	-9.84534
▁came	-9.84767
▁got	-9.84928
▁born	-9.85
▁Jacki	-9.85145
▁Archi	-9.85154
▁b	-9.85165
▁Josh	-9.85227
▁Rob	-9.8545
▁accuse	-9.85479
ium	-9.85606
▁Europe	-9.85649
▁threat	-9.85649
▁Gra	-9.85677
▁Lieutenant	-9.8572
▁document	-9.8572
▁explosion	-9.8572
▁Russian	-9.8577
▁Grace	-9.85788
▁language	-9.85796
▁replie	-9.85812
▁trust	-9.85818
▁duel	-9.85845
▁noble	-9.85874
▁Lori	-9.85888
▁ending	-9.85895
▁appearance	-9.85895
▁mask	-9.85926
▁spy	-9.86153
▁cast	-9.86248
he	-9.86288
▁dealer	-9.8631
ington	-9.8645
▁my	-9.86532
▁Jam	-9.86589
low	-9.86643
▁Th	-9.86959
ri	-9.87066
▁Over	-9.87198
▁Mont	-9.87398
▁represent	-9.87642
▁Tyler	-9.87643
▁extreme	-9.87644
▁Vaugh	-9.87644
▁resign	-9.87645
▁Harriet	-9.87659
▁beaut	-9.87662
▁sacrifice	-9.87669
▁Afterward	-9.87726
▁scream	-9.87742
▁Bar	-9.87842
▁responsib	-9.87965
▁cave	-9.87993
▁bag	-9.88057
▁comfort	-9.88188
gan	-9.88392
▁litera	-9.88482
▁magical	-9.88585
v	-9.88595
▁trappe	-9.88597
▁authorit	-9.887
▁Gan	-9.88712
▁tru	-9.8881
▁Beth	-9.8892
▁Victor	-9.89067
mour	-9.8911
▁Ch	-9.89186
▁Vi	-9.892
▁Julian	-9.89466
9	-9.89526
▁custod	-9.89604
▁Cecil	-9.89604
▁constant	-9.89604
▁fictional	-9.8961
▁Italian	-9.89616
▁birthday	-9.89618
▁access	-9.89685
▁brutal	-9.89688
▁Back	-9.89699
▁ga	-9.89751
Neil	-9.89758
▁risk	-9.8978
▁me	-9.89816
▁engag	-9.89834
▁Steven	-9.89862
▁apart	-9.89882
▁Allie	-9.89887
▁denie	-9.8989
▁Ana	-9.89896
▁Simon	-9.89942
▁Ri	-9.89966
▁low	-9.90276
▁fatal	-9.90311
▁tale	-9.90341
▁loss	-9.90362
aught	-9.90485
▁none	-9.90535
▁ten	-9.90611
▁Les	-9.90615
▁Kyl	-9.9067
▁afterwards	-9.90671
▁secure	-9.90696
ak	-9.9073
ow	-9.90766
▁Was	-9.90777
▁honor	-9.90799
▁mental	-9.90975
▁Edd	-9.9098
don	-9.91227
▁unknow	-9.91332
▁pain	-9.91353
kin	-9.91419
zan	-9.91579
▁roof	-9.91603
▁associate	-9.91604
▁wreck	-9.91604
▁Douglas	-9.91605
▁Leonard	-9.91605
▁Darwin	-9.91606
▁televis	-9.91608
▁grant	-9.91619
▁missile	-9.91621
pool	-9.91628
▁flie	-9.91652
▁source	-9.91716
▁lie	-9.91723
▁senior	-9.91727
▁Suz	-9.91742
▁lion	-9.91784
▁drop	-9.92094
▁writer	-9.92128
ler	-9.92146
over	-9.92271
▁normal	-9.92281
▁expos	-9.92391
dale	-9.92406
▁fr	-9.92414
▁Far	-9.9246
▁Mick	-9.92568
▁ambush	-9.92846
▁Home	-9.92918
▁Grand	-9.92949
▁books	-9.92955
▁shooting	-9.92969
ile	-9.9299
▁pit	-9.93067
▁standing	-9.93196
lor	-9.93227
▁sight	-9.93257
▁troop	-9.93333
▁rape	-9.93436
▁Mc	-9.93497
▁catch	-9.93624
▁maintain	-9.93646
▁flashback	-9.93647
izard	-9.93659
▁Da	-9.93667
▁snow	-9.93683
Emper	-9.93698
▁Agent	-9.93719
▁suspicious	-9.93755
▁manner	-9.93822
▁Death	-9.93907
▁arrived	-9.93928
▁observe	-9.94102
▁Hill	-9.94412
▁male	-9.94412
▁Han	-9.94415
▁decline	-9.94442
▁Doct	-9.94487
▁rise	-9.94624
▁occur	-9.94624
mont	-9.94858
P	-9.94943
▁Karen	-9.95082
5	-9.95154
vin	-9.9529
▁artist	-9.95312
▁Nu	-9.95399
O	-9.95487
▁celebrate	-9.9552
▁assassin	-9.95535
▁Park	-9.9557
ncient	-9.95579
▁20	-9.95609
▁realise	-9.95691
▁Marth	-9.95696
▁recruit	-9.95728
▁false	-9.95728
▁Through	-9.95729
▁retreat	-9.95729
▁palace	-9.95731
▁Arab	-9.95738
▁Meyer	-9.9574
▁cabin	-9.95749
▁tower	-9.95814
▁narrative	-9.95814
▁mere	-9.95829
▁exile	-9.95849
▁Chang	-9.95853
▁popular	-9.9586
▁Stu	-9.9593
▁cheat	-9.95963
berg	-9.9597
▁memori	-9.96117
▁reporter	-9.96177
▁Joan	-9.96188
▁Brad	-9.96235
▁treasure	-9.96375
▁Brook	-9.96405
▁repeated	-9.96489
cious	-9.96871
uff	-9.969
▁driver	-9.97182
▁confide	-9.97201
▁sick	-9.97334
ture	-9.97527
ably	-9.97557
la	-9.97603
▁grab	-9.97671
water	-9.97727
▁tunnel	-9.97857
▁certain	-9.97857
▁trail	-9.9786
▁Lect	-9.97861
▁acquaintance	-9.97861
▁Andrew	-9.97862
▁proposal	-9.97868
▁corner	-9.97877
▁insult	-9.97895
▁overcome	-9.97899
▁subject	-9.97942
han	-9.97946
▁mad	-9.98056
▁huge	-9.98079
▁knife	-9.98089
lake	-9.98152
▁Both	-9.98167
ker	-9.98173
▁your	-9.98267
ather	-9.98319
▁route	-9.9833
▁medica	-9.98382
▁Barry	-9.98399
▁feed	-9.98481
▁hero	-9.98487
▁big	-9.9867
▁Julie	-9.98737
▁Tin	-9.98783
▁perfect	-9.9882
▁refus	-9.98843
light	-9.9885
▁Mu	-9.98887
▁card	-9.98937
▁Val	-9.98993
▁Mars	-9.99094
▁promis	-9.99502
▁raise	-9.99752
ga	-9.9981
▁instruct	-9.99891
▁double	-9.99971
▁advise	-10.0001
▁individual	-10.0003
▁Church	-10.0003
▁accompany	-10.0003
class	-10.0003
▁Kevin	-10.0003
▁regular	-10.0003
kept	-10.0004
▁neighborhood	-10.0005
▁Shake	-10.0005
▁Ca	-10.0005
▁Joseph	-10.0012
▁Ramon	-10.0012
▁plead	-10.0018
M	-10.0032
▁reality	-10.0038
▁depress	-10.0041
▁summer	-10.0046
▁practice	-10.0053
▁Bat	-10.0053
▁Dun	-10.0055
▁education	-10.0059
trio	-10.008
▁Land	-10.009
▁raised	-10.0097
▁code	-10.0101
▁Christm	-10.0102
ina	-10.0111
▁Meg	-10.0123
▁En	-10.0124
▁crashe	-10.0145
▁Qua	-10.0156
ux	-10.0173
▁6	-10.0175
▁Win	-10.0179
▁red	-10.0181
▁listen	-10.0191
▁Evi	-10.0199
scar	-10.0216
▁wonder	-10.0224
▁grandfather	-10.0225
▁Police	-10.0225
▁Priest	-10.0226
▁household	-10.0226
▁bedroom	-10.0227
▁Pe	-10.0227
▁eat	-10.0229
patr	-10.0229
▁Lar	-10.0229
▁connection	-10.0231
▁passage	-10.0233
▁Snake	-10.0234
▁electric	-10.0238
▁moral	-10.0242
wal	-10.0243
▁bath	-10.0248
any	-10.0249
▁employ	-10.025
ward	-10.0256
▁Benedic	-10.0256
▁bare	-10.0258
▁Margar	-10.0266
lie	-10.0269
les	-10.0273
▁Kath	-10.0275
▁thank	-10.0276
▁spread	-10.0282
▁rain	-10.0282
▁wire	-10.0283
▁file	-10.0285
▁lure	-10.0285
▁Marie	-10.0295
▁Dionys	-10.0301
▁inde	-10.0304
down	-10.0308
▁song	-10.0315
▁ti	-10.0315
▁Cleo	-10.0315
▁natural	-10.0315
▁favor	-10.0323
▁receiv	-10.0323
▁page	-10.0326
▁shore	-10.0328
▁lot	-10.0328
▁Fa	-10.0359
▁Tell	-10.0363
▁companion	-10.0363
▁fears	-10.0369
▁tear	-10.0384
▁stone	-10.0404
▁nu	-10.0415
▁epi	-10.0421
speare	-10.044
▁Mel	-10.0449
▁regain	-10.0452
▁respond	-10.0452
▁grandmother	-10.0453
▁protest	-10.0453
▁investigation	-10.0457
▁repair	-10.0457
hington	-10.046
▁escort	-10.0462
▁favour	-10.0465
▁reading	-10.0465
▁Well	-10.0465
▁Gus	-10.0469
▁innocent	-10.0473
shire	-10.0481
▁flower	-10.0487
▁maid	-10.0495
▁Abe	-10.0497
▁Rock	-10.0499
clear	-10.0513
▁mis	-10.0534
▁Glen	-10.0543
▁Nin	-10.0549
▁keeps	-10.0559
▁tribe	-10.0577
▁suggest	-10.0578
▁Ry	-10.059
▁th	-10.0594
▁pen	-10.0596
▁Jul	-10.0609
▁197	-10.0624
▁press	-10.0636
▁1	-10.0643
▁guide	-10.0646
tte	-10.0647
king	-10.0656
ade	-10.0657
▁Or	-10.066
▁Ka	-10.0675
▁suit	-10.0685
▁Gabriel	-10.0685
▁suspicion	-10.0685
▁task	-10.0685
▁increase	-10.0686
▁employee	-10.0686
▁chest	-10.0686
▁egg	-10.0687
▁rid	-10.0687
▁scientist	-10.0688
▁affection	-10.0688
▁Kirst	-10.0691
▁modern	-10.0694
▁gradual	-10.0695
▁direction	-10.0697
▁Stone	-10.0699
▁Robinson	-10.0705
▁Zed	-10.0711
au	-10.0711
▁attach	-10.0726
▁tour	-10.0747
▁You	-10.0752
▁Holly	-10.0756
▁Tay	-10.076
▁staff	-10.076
▁Cole	-10.0761
▁Nazi	-10.0762
▁mob	-10.0769
▁via	-10.0797
bar	-10.081
▁beach	-10.0812
▁Rand	-10.0816
▁Bets	-10.0818
ny	-10.0823
raig	-10.0823
,000	-10.083
ide	-10.0834
▁hat	-10.0834
▁Mill	-10.0839
▁ensu	-10.0839
▁Nor	-10.084
▁eight	-10.0852
▁program	-10.0867
▁construct	-10.0881
▁Bella	-10.0881
▁populat	-10.0882
▁center	-10.0887
▁trade	-10.0893
▁chamber	-10.0898
went	-10.0898
ently	-10.0905
▁publish	-10.0919
▁settle	-10.092
▁ritual	-10.0923
▁client	-10.0923
▁conflict	-10.0923
▁Morris	-10.0923
▁Felix	-10.0923
▁version	-10.0923
▁elevator	-10.0923
▁empty	-10.0923
▁University	-10.0924
▁robot	-10.0924
▁vote	-10.0925
▁Albert	-10.0925
▁Berg	-10.0928
▁illness	-10.0931
▁nephew	-10.0933
▁sailor	-10.0933
▁Wolf	-10.0934
▁judge	-10.0934
▁background	-10.0935
▁3	-10.0936
▁apologize	-10.094
6	-10.0942
▁If	-10.0942
▁value	-10.0949
▁Bartle	-10.0958
▁powers	-10.096
▁rage	-10.096
tchen	-10.0962
▁ensue	-10.0963
▁speed	-10.0965
after	-10.0967
▁Bod	-10.0967
lace	-10.0969
▁kick	-10.0972
lios	-10.0974
▁refuse	-10.0977
ise	-10.0978
▁Polly	-10.0982
▁robbery	-10.0988
▁round	-10.0989
▁pirates	-10.0996
▁purchase	-10.0997
body	-10.0998
ities	-10.1021
▁9	-10.1026
▁Ross	-10.1034
▁Four	-10.1041
▁fell	-10.1042
▁content	-10.1048
▁upper	-10.1051
▁univers	-10.106
▁Ky	-10.1078
▁Jesse	-10.1083
▁Kal	-10.1096
▁expect	-10.1097
▁Jen	-10.1103
▁Bri	-10.1111
▁prince	-10.1131
ural	-10.1144
▁photograph	-10.1154
▁shut	-10.1166
▁Chinese	-10.1167
▁diamond	-10.1167
▁mercenar	-10.1167
▁Jordan	-10.1168
▁devastat	-10.1168
▁bullet	-10.1168
▁voyage	-10.1168
▁Curtis	-10.1168
▁alert	-10.1169
▁dangerous	-10.1169
▁failure	-10.117
▁warm	-10.1172
▁Air	-10.1179
▁director	-10.1183
mi	-10.1184
sha	-10.1189
▁stranger	-10.1191
▁launch	-10.1203
▁eye	-10.1208
▁Bridge	-10.1209
▁meaning	-10.1213
▁connect	-10.1222
▁equip	-10.1229
▁adult	-10.1236
▁Me	-10.1239
ol	-10.1242
▁ways	-10.1243
▁fit	-10.1244
▁slip	-10.1247
ond	-10.1252
some	-10.1253
right	-10.1254
▁loved	-10.1255
▁Maur	-10.1255
▁impress	-10.1271
▁ignore	-10.1292
▁seize	-10.1293
▁hole	-10.1298
▁arriv	-10.1301
R	-10.1303
▁earn	-10.1304
pock	-10.1307
▁Nicole	-10.1317
▁level	-10.1318
▁Johnn	-10.1321
▁suffering	-10.1321
▁seat	-10.1328
▁thing	-10.1342
▁torture	-10.1342
▁2	-10.135
▁lake	-10.1384
ember	-10.1388
▁anti	-10.139
▁moon	-10.1398
▁East	-10.1398
▁possession	-10.1405
▁quit	-10.1406
▁orphan	-10.1416
▁compound	-10.1417
▁embarrass	-10.1417
▁article	-10.1417
▁blackmail	-10.1417
▁resent	-10.1417
▁royal	-10.1417
raid	-10.1418
▁Witch	-10.1419
bald	-10.1423
▁Matthew	-10.1427
▁Mother	-10.1428
▁throne	-10.1429
▁gentleman	-10.143
▁chose	-10.1431
▁Dead	-10.1434
▁add	-10.1436
▁Gold	-10.1436
▁drunken	-10.1438
▁Cal	-10.1439
▁Boy	-10.1443
▁twenty	-10.1445
▁captive	-10.1451
▁Not	-10.1452
▁reader	-10.1455
▁bill	-10.1457
▁minute	-10.1462
born	-10.147
rin	-10.1474
▁Alf	-10.1475
▁list	-10.1488
mar	-10.1492
▁colon	-10.1498
▁glass	-10.1501
▁drugs	-10.1504
▁Neo	-10.1507
8	-10.1508
▁statu	-10.1508
▁Nell	-10.1517
▁sold	-10.1518
▁exist	-10.1522
▁manager	-10.1529
ries	-10.1546
▁belonging	-10.1556
▁Bett	-10.1565
▁Unc	-10.1592
▁lo	-10.1605
▁casino	-10.161
mber	-10.1631
ov	-10.1634
▁bond	-10.1635
sworth	-10.1652
▁super	-10.166
▁spare	-10.1661
hand	-10.1663
▁Bruce	-10.1673
▁vessel	-10.1673
▁circumstance	-10.1674
▁Brown	-10.1675
▁kingdom	-10.1675
▁punishment	-10.1676
▁Lang	-10.1677
▁Year	-10.1685
▁winter	-10.1686
▁Swan	-10.1686
▁push	-10.1686
▁mistake	-10.1695
▁shall	-10.1699
▁Tess	-10.1699
▁shield	-10.1702
▁performance	-10.1709
▁Ken	-10.171
▁produce	-10.1722
▁Cast	-10.1733
▁Milt	-10.1734
▁farmer	-10.1736
▁Wend	-10.1738
▁color	-10.1741
▁fee	-10.176
▁Berli	-10.1761
F	-10.1765
▁poet	-10.1765
▁Prim	-10.1773
▁forward	-10.1775
▁dat	-10.1784
▁recording	-10.1788
bi	-10.1796
▁Carr	-10.1799
▁map	-10.1801
▁grown	-10.1809
wife	-10.1814
▁belong	-10.1818
▁site	-10.182
▁stat	-10.1825
ated	-10.1826
▁15	-10.1839
L	-10.1845
▁gar	-10.185
▁insan	-10.1852
▁wanted	-10.1853
▁heat	-10.1855
art	-10.1861
▁pos	-10.1862
▁Sali	-10.1868
▁Paulin	-10.1873
▁stopp	-10.1877
▁residents	-10.1884
▁wind	-10.1898
iter	-10.1899
▁Bean	-10.1902
▁Just	-10.1913
cker	-10.1913
▁engine	-10.1918
▁accompani	-10.1918
▁Time	-10.1926
advert	-10.1936
▁neighbour	-10.1937
▁nickname	-10.1937
▁warrior	-10.1937
▁prospect	-10.1937
▁sequence	-10.1937
▁poem	-10.1937
▁goodbye	-10.1937
▁Daniel	-10.1937
▁Night	-10.1937
▁Major	-10.1937
▁abduct	-10.1938
▁combat	-10.1939
▁patient	-10.194
▁reward	-10.194
▁cruel	-10.1943
hief	-10.1944
▁mock	-10.1944
▁metal	-10.1944
▁10	-10.1946
▁5	-10.1947
▁choice	-10.1947
▁Jacque	-10.1947
▁chair	-10.1948
▁passengers	-10.1952
▁Tyr	-10.1957
ID	-10.1959
▁Miller	-10.1959
ping	-10.1962
▁Scar	-10.1964
▁extend	-10.1964
▁African	-10.1965
▁Kid	-10.1966
▁model	-10.1974
▁prostitute	-10.1978
▁bound	-10.1985
▁official	-10.1987
▁kid	-10.1993
▁ensure	-10.1994
▁196	-10.1997
▁Eth	-10.1998
▁Vad	-10.2005
▁Nav	-10.2023
▁intervene	-10.2027
▁teaching	-10.2031
4	-10.204
▁dragon	-10.2041
▁dismisse	-10.2048
lock	-10.2067
▁mouth	-10.2078
▁Harris	-10.2079
▁cop	-10.2089
▁abuse	-10.2091
▁Catheri	-10.2095
▁table	-10.2098
ith	-10.2103
▁Gin	-10.2108
▁sky	-10.2121
▁Mat	-10.2129
▁Arch	-10.2146
▁curse	-10.2149
▁drops	-10.2149
▁aware	-10.2157
▁expresse	-10.2167
▁lea	-10.2167
▁skin	-10.2169
▁Ital	-10.218
kov	-10.218
pe	-10.2184
00	-10.2187
▁transfer	-10.2195
▁Way	-10.2197
yke	-10.2199
yne	-10.2199
▁Us	-10.22
▁length	-10.2207
▁vault	-10.2207
▁element	-10.2207
▁expedition	-10.2207
▁potential	-10.2208
▁less	-10.2208
▁Nix	-10.2209
▁Martian	-10.221
▁Good	-10.2211
▁librar	-10.2212
basti	-10.2213
▁immortal	-10.2218
▁professional	-10.2219
▁Under	-10.2221
▁attorney	-10.2226
▁Hu	-10.2231
▁Pop	-10.2231
▁Den	-10.2232
▁Camer	-10.2232
▁Manh	-10.2233
▁Mil	-10.2237
▁humanity	-10.2242
▁non	-10.2246
▁More	-10.2251
tah	-10.2252
▁hundred	-10.2256
▁dropp	-10.226
▁rescu	-10.226
▁render	-10.2262
ater	-10.228
ted	-10.2281
▁Lest	-10.2281
é	-10.2284
▁serving	-10.2291
▁path	-10.2293
egan	-10.2303
iz	-10.232
▁factor	-10.2328
▁Jod	-10.2348
▁rebel	-10.2358
ent	-10.2378
▁stock	-10.2382
▁welcome	-10.2383
W	-10.2384
▁Kurt	-10.2405
▁east	-10.2409
▁gate	-10.2415
▁Let	-10.2425
ady	-10.2426
▁Lenn	-10.2431
ssex	-10.2434
loved	-10.244
where	-10.2442
laine	-10.2451
▁Marine	-10.246
▁colleague	-10.2485
▁temple	-10.2485
▁hurt	-10.2485
▁governess	-10.2485
▁inhabitant	-10.2485
rvis	-10.2485
▁Austin	-10.2485
▁Justice	-10.2486
▁Saint	-10.2486
▁romance	-10.2487
▁portal	-10.249
▁III	-10.2493
▁Spanish	-10.2496
▁Ellen	-10.2497
▁statue	-10.2508
▁material	-10.2515
▁cry	-10.2517
▁Macre	-10.2517
▁express	-10.2519
of	-10.252
▁Valentine	-10.2523
▁newly	-10.2527
▁forget	-10.2529
den	-10.2532
▁easi	-10.2535
▁Dale	-10.2537
anor	-10.2551
▁Walt	-10.256
▁identifie	-10.2563
▁Key	-10.2569
▁witch	-10.2569
▁Sonn	-10.259
▁bribe	-10.2591
gar	-10.2591
▁Lauren	-10.26
bert	-10.2605
▁Bel	-10.2608
▁despair	-10.2612
how	-10.2616
ied	-10.263
loses	-10.2632
▁danc	-10.2637
▁unit	-10.2645
▁supplie	-10.2648
▁emotion	-10.2674
istic	-10.2675
▁Brooks	-10.2679
▁Py	-10.2688
ix	-10.2697
▁r	-10.2703
aire	-10.2708
▁Col	-10.2708
▁fair	-10.2713
▁Falco	-10.2715
▁buil	-10.2716
work	-10.2721
▁Ren	-10.2728
▁surge	-10.274
▁common	-10.2742
▁Hunt	-10.2751
tuffe	-10.2761
lum	-10.2769
▁ocean	-10.277
▁flood	-10.277
▁Gilbert	-10.277
▁trigger	-10.2771
▁Agnes	-10.2771
▁recall	-10.2771
▁narrow	-10.2771
▁civilization	-10.2771
▁motel	-10.2771
▁massive	-10.2772
▁touch	-10.2773
▁advantage	-10.2773
▁River	-10.2776
▁execution	-10.2776
▁distance	-10.2778
cent	-10.278
▁amount	-10.278
▁rifle	-10.2782
▁alarm	-10.2783
▁frustrate	-10.2783
▁confrontation	-10.2791
▁Gi	-10.2791
▁Jo	-10.2794
▁Lew	-10.2798
▁crush	-10.28
▁Rosali	-10.28
attan	-10.2801
▁block	-10.2802
oyd	-10.2802
merald	-10.2803
▁journalist	-10.2804
▁bid	-10.2826
▁Ha	-10.2829
hap	-10.2838
▁pack	-10.2839
logue	-10.2849
▁fund	-10.2856
▁effective	-10.2866
cles	-10.2874
▁clue	-10.288
stasi	-10.2883
▁fairy	-10.2885
▁happens	-10.2892
▁style	-10.2893
▁issue	-10.2898
ped	-10.2919
▁rob	-10.2929
▁Flor	-10.2931
gi	-10.2946
▁Lily	-10.2948
▁Ju	-10.2949
long	-10.2956
yard	-10.2974
orda	-10.2975
▁scare	-10.2976
▁dis	-10.2978
▁existen	-10.2979
▁signal	-10.2987
▁pai	-10.2989
▁Ta	-10.2999
half	-10.2999
strom	-10.3
▁wine	-10.3002
▁ceremon	-10.3008
ja	-10.3032
▁destructi	-10.3032
▁drag	-10.3034
bo	-10.3036
▁Ya	-10.3038
▁g	-10.3054
▁strength	-10.3056
▁Clay	-10.3063
▁200	-10.3064
▁Anthony	-10.3064
▁grief	-10.3064
▁example	-10.3065
▁exact	-10.3065
▁haunt	-10.3065
▁revelation	-10.3065
▁Boston	-10.3065
▁acquire	-10.3067
afia	-10.3067
▁duty	-10.3067
▁Greek	-10.3067
▁Hard	-10.3067
▁exit	-10.3067
▁shark	-10.3068
smith	-10.3068
▁mourn	-10.3071
▁suitor	-10.3073
▁calm	-10.3073
▁Luck	-10.3079
▁Jup	-10.308
alley	-10.3083
▁Union	-10.3083
▁picture	-10.3091
▁tire	-10.3092
▁lower	-10.3098
inda	-10.3108
▁convict	-10.3111
▁decided	-10.3112
▁Sha	-10.3115
racle	-10.312
der	-10.3123
lyde	-10.3126
▁infiltrate	-10.3129
ray	-10.3132
▁pocket	-10.314
▁print	-10.3143
▁doubt	-10.3161
▁From	-10.3164
▁Ga	-10.3175
▁presum	-10.3179
ki	-10.3195
▁painting	-10.3201
uther	-10.3201
▁regret	-10.3214
▁confess	-10.3217
▁Ark	-10.3225
▁seal	-10.3228
▁Hay	-10.3239
▁pill	-10.3249
▁expose	-10.3255
rix	-10.3259
▁Mul	-10.3273
ison	-10.3275
▁rent	-10.3281
▁fashion	-10.329
elope	-10.3306
ett	-10.3309
▁robber	-10.331
▁murderer	-10.331
un	-10.3346
▁religio	-10.3349
▁Juliet	-10.3352
▁depict	-10.336
▁Dutch	-10.3361
oth	-10.3362
▁Griffi	-10.3365
▁Pearl	-10.3367
▁Return	-10.3367
▁horror	-10.3367
▁absence	-10.3367
▁Hugh	-10.3368
▁burst	-10.3368
▁Hollywood	-10.3368
▁superior	-10.3369
erloc	-10.337
▁henchmen	-10.337
▁Neville	-10.3371
▁rans	-10.3373
N	-10.3373
▁bet	-10.3376
▁pursu	-10.3377
▁Master	-10.3378
▁spring	-10.338
▁proper	-10.3381
stein	-10.3382
▁mark	-10.3387
▁teenage	-10.3389
▁Frederic	-10.339
▁stabb	-10.3393
▁president	-10.3398
bra	-10.3399
▁terrorist	-10.3403
▁lesson	-10.3404
▁Ur	-10.3407
▁Dud	-10.3408
▁prepar	-10.3412
▁Bal	-10.3413
▁fish	-10.3413
ea	-10.3425
▁Bear	-10.3426
▁supposedly	-10.3433
▁theft	-10.3447
car	-10.3451
▁Trev	-10.3452
▁primar	-10.3453
bur	-10.3462
▁Wat	-10.3465
what	-10.3483
▁execut	-10.3503
▁serial	-10.3503
▁focus	-10.3506
▁deeply	-10.3506
worker	-10.3509
▁traveling	-10.3513
▁194	-10.3525
▁ape	-10.354
cal	-10.3541
▁Jean	-10.3556
lo	-10.3559
▁distan	-10.3561
▁Pi	-10.3573
▁Rod	-10.3583
nji	-10.3601
▁Mack	-10.3614
▁special	-10.3614
▁supposed	-10.3624
▁extra	-10.364
▁jewel	-10.3649
crow	-10.3658
▁Lola	-10.3661
quite	-10.3663
▁pushe	-10.3665
▁Gregor	-10.3671
▁flirt	-10.3676
▁illegitima	-10.368
▁Ghost	-10.368
▁escaping	-10.368
▁portrait	-10.368
▁trunk	-10.368
▁surrender	-10.368
▁above	-10.368
▁cottage	-10.368
biga	-10.368
▁Ernest	-10.368
▁Vega	-10.368
▁Chuck	-10.3681
▁rabbit	-10.3681
▁Know	-10.3681
▁National	-10.3683
▁headquarter	-10.3683
▁Power	-10.3684
▁chao	-10.3684
▁Got	-10.3685
▁Cind	-10.3685
▁Hank	-10.3686
▁heavily	-10.3687
▁intellectual	-10.369
▁Ven	-10.369
▁treatment	-10.3691
▁showing	-10.3691
▁What	-10.3691
▁consult	-10.3691
iff	-10.3691
▁pistol	-10.3692
▁reappear	-10.3692
▁submarine	-10.3693
▁clerk	-10.3693
▁assert	-10.3695
▁talent	-10.3696
▁loan	-10.3698
▁swear	-10.3698
▁Ni	-10.3699
▁Six	-10.3703
▁determin	-10.3704
▁belief	-10.3706
▁safely	-10.3708
▁Never	-10.3708
▁Roy	-10.3713
otr	-10.3715
▁engineer	-10.3715
▁Turk	-10.3722
▁dragg	-10.3725
▁Dunca	-10.3726
tery	-10.3727
▁bodi	-10.3728
ath	-10.3733
▁Jackson	-10.3733
▁Stree	-10.3759
▁nose	-10.3774
▁refuge	-10.3774
op	-10.3788
▁ki	-10.3816
▁boarding	-10.3821
▁Margo	-10.383
hart	-10.383
▁fine	-10.3832
▁Jed	-10.3833
▁30	-10.3836
bed	-10.3849
▁Terr	-10.385
▁Reali	-10.3854
▁Fo	-10.3855
▁charm	-10.3862
▁Mart	-10.3863
▁Force	-10.3863
▁Ward	-10.3866
▁election	-10.3869
ette	-10.3884
▁tricks	-10.3895
▁India	-10.3898
▁media	-10.3905
▁personalit	-10.3916
▁nei	-10.3926
▁paint	-10.3927
▁Doug	-10.3934
▁Bert	-10.3934
witt	-10.3934
▁activate	-10.3936
iving	-10.3941
keeper	-10.3942
▁Benn	-10.3948
▁prior	-10.3959
▁Az	-10.396
▁travell	-10.3979
▁improve	-10.398
▁du	-10.3983
▁consist	-10.3984
▁Ll	-10.3985
▁Sil	-10.3986
▁reflect	-10.3996
▁Ve	-10.3996
▁Tod	-10.3996
▁worth	-10.3997
book	-10.4
▁energ	-10.4001
▁response	-10.4003
▁Nikki	-10.4003
▁Summer	-10.4003
▁dismay	-10.4003
▁honest	-10.4003
▁Court	-10.4003
▁Emmeline	-10.4003
▁merchant	-10.4003
▁passionate	-10.4003
▁region	-10.4003
night	-10.4003
▁instant	-10.4003
▁actress	-10.4004
▁Cliff	-10.4004
▁closing	-10.4004
▁Big	-10.4005
▁renew	-10.4006
▁appeal	-10.4006
▁Nome	-10.4007
▁Orgo	-10.4008
▁weak	-10.4008
▁Marian	-10.4008
▁Gu	-10.4009
▁heal	-10.4009
▁emergency	-10.401
▁convert	-10.401
▁Cox	-10.4014
▁bride	-10.4015
▁cure	-10.4016
▁settlement	-10.4017
▁Saxon	-10.4017
nthia	-10.402
▁Viv	-10.4021
▁feature	-10.4024
▁assassination	-10.4024
▁Bur	-10.4026
▁link	-10.4029
inhead	-10.4032
▁Catholic	-10.4038
▁frame	-10.404
▁explosives	-10.4042
▁pet	-10.4046
▁Marin	-10.4056
▁profit	-10.4063
▁commander	-10.4065
▁mortally	-10.4066
▁hostil	-10.4067
▁kne	-10.4086
▁demon	-10.4087
0,000	-10.4087
▁Book	-10.4088
▁Jon	-10.4089
▁Guy	-10.409
▁trace	-10.4093
▁Hi	-10.4093
▁Sinc	-10.4099
▁alter	-10.4105
▁embrace	-10.4116
maker	-10.4124
▁Moon	-10.413
▁Shi	-10.4135
▁physically	-10.4137
▁god	-10.4155
▁possessed	-10.4155
tle	-10.4162
▁companions	-10.4166
▁Len	-10.417
▁capital	-10.4172
▁kisse	-10.4184
mission	-10.4186
▁addict	-10.4195
▁wander	-10.42
▁deduce	-10.42
▁defense	-10.4203
▁cris	-10.4213
▁Mau	-10.4233
▁sure	-10.4234
▁Mari	-10.4242
▁Kr	-10.4249
▁hi	-10.4257
▁unusual	-10.4265
▁crow	-10.4267
▁hate	-10.4272
form	-10.4287
▁bury	-10.4287
▁Ke	-10.4288
▁fianc	-10.4291
▁Bul	-10.4294
▁Thorn	-10.4301
▁fel	-10.4301
▁gods	-10.4303
▁replace	-10.4303
▁Stark	-10.4307
▁lands	-10.4313
▁mine	-10.4315
▁complain	-10.4318
▁enrag	-10.4329
▁Chris	-10.433
▁flat	-10.4333
▁crie	-10.4335
▁enormous	-10.4336
▁Oxford	-10.4336
▁jungle	-10.4336
▁Twee	-10.4336
▁expert	-10.4336
▁vehicle	-10.4336
▁enlist	-10.4336
▁withdraw	-10.4336
▁Wigand	-10.4336
▁farewell	-10.4336
ral	-10.4337
▁Arnold	-10.4337
▁frighten	-10.4337
▁taunt	-10.4337
▁Crawf	-10.4338
▁Young	-10.4338
▁Hamil	-10.4338
▁cash	-10.4338
nodo	-10.4338
▁politic	-10.4339
▁edition	-10.4339
▁numer	-10.434
▁Israel	-10.4343
▁lord	-10.4344
▁hot	-10.4345
▁contrast	-10.4353
win	-10.4357
▁Sh	-10.4361
▁shift	-10.4363
▁won	-10.4364
▁Cran	-10.4368
▁employer	-10.4373
ev	-10.4373
▁clone	-10.4377
▁residen	-10.4385
▁extract	-10.4387
▁sort	-10.4388
ru	-10.4389
▁Bernie	-10.4394
▁shadow	-10.4396
▁princess	-10.4398
▁Doc	-10.4403
▁fuel	-10.4409
itch	-10.441
▁lab	-10.4421
ule	-10.4423
▁load	-10.4445
▁failing	-10.4455
▁chas	-10.4458
▁Kin	-10.4465
▁fast	-10.4465
▁surrounding	-10.4468
▁cliff	-10.447
▁Nanc	-10.4471
▁locks	-10.4472
jo	-10.4472
ad	-10.4475
▁16	-10.448
▁aristocrat	-10.4484
▁puzzle	-10.4527
▁dismiss	-10.4534
▁releas	-10.4537
▁simple	-10.4542
▁injure	-10.4544
ango	-10.4551
▁Carol	-10.4551
▁Fran	-10.4551
ob	-10.4554
▁Juli	-10.4562
▁Blo	-10.4568
▁Flori	-10.4569
▁Sor	-10.4589
▁origin	-10.4591
▁Cy	-10.4594
▁Georgi	-10.4598
▁Doroth	-10.4599
▁Dar	-10.4599
▁mortal	-10.4614
aux	-10.4617
▁cook	-10.4621
▁hill	-10.4627
▁require	-10.4629
ba	-10.4643
▁facilit	-10.465
illa	-10.4652
▁Sobe	-10.4664
▁screen	-10.4669
▁Mexic	-10.4672
▁technolog	-10.4675
▁lay	-10.4677
▁minor	-10.4677
▁Octo	-10.4679
arijuana	-10.4681
▁Percival	-10.4681
▁nightclub	-10.4681
▁virgin	-10.4681
▁volunteer	-10.4681
▁awkward	-10.4681
▁Middle	-10.4681
▁unwilling	-10.4681
▁testimon	-10.4681
▁consent	-10.4681
▁manuscript	-10.4681
▁briefcase	-10.4681
▁Alexander	-10.4681
▁communication	-10.4681
▁silver	-10.4681
▁greet	-10.4682
▁lifestyle	-10.4682
▁professor	-10.4683
nda	-10.4684
▁episode	-10.4684
▁hint	-10.4685
▁horrifi	-10.4686
▁celebration	-10.4686
▁Claire	-10.4689
▁grand	-10.469
▁insurance	-10.4694
▁complex	-10.4695
▁thousand	-10.4695
▁mill	-10.4695
▁image	-10.4697
▁oil	-10.4701
nior	-10.4705
▁Port	-10.4709
▁Trist	-10.4709
▁devot	-10.4709
▁descend	-10.4713
▁Thu	-10.4714
▁Parker	-10.4714
▁follower	-10.4715
▁Most	-10.4716
▁miles	-10.4717
▁Raven	-10.4722
▁green	-10.4722
▁Solar	-10.473
▁provid	-10.4735
imply	-10.4736
▁necessar	-10.4744
▁mistress	-10.4744
▁chain	-10.4748
ging	-10.4749
▁199	-10.475
▁elect	-10.4755
▁intense	-10.4762
▁investigat	-10.4762
▁Kit	-10.4765
aven	-10.4768
▁sad	-10.4769
▁Clau	-10.4772
▁squire	-10.4772
▁froze	-10.4778
▁Reach	-10.481
▁photo	-10.4818
▁Y	-10.4834
▁ice	-10.4837
▁demonstrate	-10.4843
quire	-10.4843
▁evade	-10.4847
▁Out	-10.4851
▁hunter	-10.4865
▁execute	-10.487
▁remov	-10.487
▁laugh	-10.4873
ram	-10.4883
▁times	-10.489
▁narrate	-10.4892
▁assure	-10.4897
▁cult	-10.4908
▁impossibl	-10.4926
▁refer	-10.4926
▁See	-10.494
rving	-10.4947
▁lett	-10.4949
▁Bea	-10.495
do	-10.4951
▁shar	-10.4952
bury	-10.4958
▁our	-10.4963
▁spell	-10.4963
▁Holl	-10.497
dmund	-10.4983
ala	-10.4984
▁swim	-10.4999
▁Fann	-10.5009
▁wrot	-10.5013
▁heist	-10.5025
itting	-10.5031
▁violen	-10.5036
▁Penguin	-10.5038
▁succumb	-10.5038
▁method	-10.5038
▁Miami	-10.5038
▁unhapp	-10.5038
▁Conrad	-10.5038
▁conclusion	-10.5038
▁nervous	-10.5038
▁overwhelm	-10.5038
▁spiritual	-10.5038
▁Raoul	-10.5038
▁disease	-10.5038
▁proud	-10.5038
▁Merrick	-10.5038
▁Yellow	-10.5038
irdre	-10.5038
▁Scotland	-10.5039
▁Dalton	-10.5039
▁section	-10.5039
▁specific	-10.5039
▁relay	-10.504
▁villagers	-10.5041
▁China	-10.5042
▁Richie	-10.5042
▁Ferri	-10.5042
▁MacR	-10.5043
▁wipe	-10.5047
▁suggestion	-10.5049
▁resume	-10.5049
▁customer	-10.5051
▁surrogate	-10.5052
▁await	-10.5052
▁Armand	-10.5055
▁Dall	-10.5055
▁science	-10.5058
▁ambition	-10.5059
▁mass	-10.5074
▁traditional	-10.5077
▁damag	-10.5081
▁passion	-10.5083
▁winning	-10.5084
▁Sey	-10.5088
▁Still	-10.509
▁Lilli	-10.5091
▁temporar	-10.5095
foot	-10.5101
▁lair	-10.5108
▁relate	-10.511
▁psychiatri	-10.5135
▁critical	-10.5142
▁pose	-10.5153
ball	-10.5153
▁ward	-10.5156
▁Pent	-10.516
▁Valle	-10.5161
▁wave	-10.5166
▁Die	-10.5167
▁Lion	-10.5175
▁steps	-10.5176
▁Shaw	-10.5179
▁Ire	-10.5196
▁Kenne	-10.5197
▁resembl	-10.52
come	-10.52
tor	-10.5223
▁afterward	-10.5228
▁flame	-10.5245
▁Rit	-10.5248
▁surround	-10.5273
▁Cain	-10.5274
hill	-10.5286
▁repeat	-10.5288
▁reunit	-10.529
▁Beck	-10.5299
▁Ti	-10.5301
▁Hawke	-10.5302
alo	-10.5306
mond	-10.5307
▁earl	-10.5313
▁cloth	-10.5314
oon	-10.5318
▁controll	-10.5322
▁Tak	-10.5324
▁teache	-10.5331
▁Crow	-10.5348
aster	-10.5349
▁invasi	-10.5354
▁Ad	-10.5354
ize	-10.5364
▁12	-10.5367
▁addition	-10.5368
▁disc	-10.5384
gun	-10.5384
▁harm	-10.5385
▁south	-10.5394
til	-10.5399
▁alcohol	-10.5406
▁distra	-10.5407
▁faith	-10.5407
nfortunate	-10.5408
▁Schindler	-10.5408
▁Secret	-10.5408
▁thirty	-10.5408
▁virtue	-10.5408
▁Hippolyt	-10.5408
▁Nichol	-10.5408
▁Fergus	-10.5408
▁Picard	-10.5408
▁disgust	-10.5408
▁intercept	-10.5408
▁Britain	-10.5408
▁vicar	-10.5408
▁thwart	-10.5408
▁display	-10.5409
▁Shre	-10.5409
▁quarter	-10.5409
▁studie	-10.5409
▁brain	-10.5409
▁estrange	-10.5409
▁Chapter	-10.5409
▁tension	-10.5409
▁strand	-10.5409
▁implie	-10.5409
▁Nathan	-10.541
▁activities	-10.541
▁Senator	-10.5411
▁traitor	-10.5414
ndless	-10.5414
▁alcoholic	-10.5415
▁Buck	-10.5415
▁delight	-10.5416
▁atmosphere	-10.5417
▁swimm	-10.5417
▁Castor	-10.5418
▁Cor	-10.5419
mo	-10.5421
▁loose	-10.5421
▁hanging	-10.5422
▁Need	-10.5423
▁bottom	-10.5423
▁Command	-10.5423
▁8	-10.5425
▁dramatic	-10.5426
▁famili	-10.5428
▁circle	-10.5428
▁religion	-10.5432
▁tin	-10.5433
▁Lester	-10.5441
ger	-10.5442
▁Arti	-10.5444
▁shape	-10.5445
▁Carlo	-10.5447
▁Kenn	-10.5452
▁edge	-10.5456
▁Rima	-10.546
▁Love	-10.5465
nd	-10.5465
nail	-10.5467
▁Va	-10.5471
▁sample	-10.5471
▁undergo	-10.5472
back	-10.5474
▁depth	-10.5476
AL	-10.5484
ac	-10.5515
▁Gar	-10.5515
▁Jesu	-10.552
▁Nig	-10.5521
iness	-10.5525
lies	-10.5529
▁tank	-10.553
▁admitt	-10.5535
▁Rosa	-10.5539
mpire	-10.5547
▁Babe	-10.5564
ties	-10.5566
▁Barr	-10.5568
▁k	-10.557
sburg	-10.5575
▁slight	-10.5577
anna	-10.558
▁luck	-10.558
▁venture	-10.5585
▁market	-10.5588
▁Sta	-10.5588
▁dump	-10.5589
▁Mad	-10.5591
▁Becke	-10.5592
die	-10.5592
gu	-10.5594
▁wor	-10.5595
eus	-10.5606
abilit	-10.5614
ot	-10.5616
▁Ever	-10.5627
▁sports	-10.563
gren	-10.5649
▁describ	-10.565
▁dece	-10.566
3	-10.5668
▁Wall	-10.5678
▁circu	-10.5678
ex	-10.5685
▁Eni	-10.569
▁Doe	-10.5692
▁explore	-10.5694
leg	-10.5696
▁citizens	-10.5696
▁Christ	-10.5699
rose	-10.5711
▁fix	-10.5715
ell	-10.5718
▁Par	-10.5722
▁Dew	-10.5728
ianca	-10.5729
▁roll	-10.5733
bow	-10.5735
leasant	-10.574
oise	-10.5749
▁worse	-10.577
▁innocen	-10.5776
▁nation	-10.578
▁behavio	-10.5781
▁intent	-10.5787
ggie	-10.5788
▁Geoffrey	-10.5793
▁honour	-10.5793
▁infatuat	-10.5793
▁telephone	-10.5793
▁veteran	-10.5793
▁identify	-10.5793
▁borrow	-10.5793
▁Department	-10.5793
▁editor	-10.5793
▁ticket	-10.5793
▁football	-10.5794
▁Life	-10.5794
▁rope	-10.5794
▁illegal	-10.5795
▁patron	-10.5795
▁Mount	-10.5795
▁chorus	-10.5795
▁Percy	-10.5795
▁cool	-10.5796
▁executive	-10.5797
▁cellar	-10.5797
▁Drew	-10.5797
▁blast	-10.5798
moto	-10.5798
▁visibl	-10.58
▁Milk	-10.58
▁heavy	-10.5801
▁Lake	-10.5802
▁confession	-10.5802
▁chang	-10.5803
▁Huds	-10.5807
▁invisib	-10.5809
▁meant	-10.581
▁strain	-10.5811
▁probabl	-10.5811
T	-10.5812
▁attractive	-10.5813
saw	-10.5817
Morph	-10.5818
▁Bath	-10.582
▁accompanies	-10.582
▁Allen	-10.5822
▁Bell	-10.5822
▁sometime	-10.5825
▁spear	-10.5828
dela	-10.583
▁Huns	-10.5834
▁accus	-10.5839
lan	-10.5839
▁Pri	-10.5857
▁Tan	-10.5861
▁Jr	-10.5861
▁Jona	-10.5863
sta	-10.5863
rising	-10.5864
▁bene	-10.587
uzz	-10.5872
▁Stew	-10.5879
gate	-10.5884
▁smile	-10.5885
▁item	-10.5887
▁inter	-10.5888
▁script	-10.5893
▁drawing	-10.5897
▁Burt	-10.59
stairs	-10.5919
Day	-10.592
heim	-10.5921
life	-10.5922
▁cage	-10.5925
▁pipe	-10.5926
lway	-10.5929
desk	-10.593
American	-10.5931
▁Dai	-10.5937
▁Law	-10.5938
kind	-10.5938
▁text	-10.5942
▁season	-10.5944
truck	-10.5945
irk	-10.5949
▁coach	-10.5951
ning	-10.5954
▁Shell	-10.5962
▁centr	-10.5963
▁subdue	-10.5963
▁disable	-10.5966
▁Lup	-10.5968
▁Daw	-10.5975
anie	-10.5981
▁Dwa	-10.5998
▁occurr	-10.6002
gent	-10.6012
▁impresse	-10.6014
▁Soo	-10.6027
ay	-10.6028
ekk	-10.6032
▁Kitt	-10.6033
▁angel	-10.6037
▁Lu	-10.6044
▁Chitr	-10.6058
▁proof	-10.6063
▁tea	-10.6079
▁Jan	-10.6079
set	-10.6082
▁type	-10.6099
▁Fr	-10.6103
▁iron	-10.6109
▁cost	-10.6115
aged	-10.6128
▁Bibl	-10.6129
dead	-10.6134
▁sin	-10.6135
jun	-10.6137
▁appoint	-10.6142
▁Jay	-10.6144
▁culture	-10.6147
▁Dant	-10.6159
▁Mann	-10.6165
ep	-10.6171
▁Mitch	-10.6177
▁clima	-10.618
thinking	-10.6187
▁punish	-10.6189
▁robb	-10.6191
▁Cassandra	-10.6193
▁Parliament	-10.6193
▁genuine	-10.6193
▁burglar	-10.6193
▁scholar	-10.6193
▁Glauc	-10.6193
▁Governor	-10.6193
▁possibilit	-10.6193
▁Inspect	-10.6193
▁fault	-10.6193
▁minister	-10.6194
▁champion	-10.6194
▁Revolution	-10.6195
▁Brent	-10.6195
▁Lazar	-10.6195
▁invitation	-10.6196
▁monkey	-10.6196
▁Wh	-10.6197
▁otherwise	-10.6197
▁comment	-10.6197
▁Comte	-10.6197
▁dirt	-10.6197
▁handsome	-10.6198
▁infant	-10.6199
▁rocket	-10.6199
▁Willow	-10.62
lept	-10.6201
▁Ivan	-10.6202
▁plantation	-10.6203
▁weekend	-10.6204
▁Madele	-10.6207
▁viru	-10.6209
▁teenager	-10.6209
▁bloody	-10.621
▁Chau	-10.6211
rewer	-10.6211
▁Tread	-10.6211
▁Felici	-10.6213
▁villain	-10.6215
▁attitude	-10.6215
ignan	-10.6217
▁crown	-10.6225
▁mo	-10.6233
▁Clementin	-10.6233
▁Allan	-10.6234
▁ruler	-10.6234
▁Art	-10.6234
▁Cam	-10.6244
▁Lyd	-10.625
▁destin	-10.6252
▁fence	-10.6262
▁float	-10.6267
▁earth	-10.6273
▁Cap	-10.6275
▁Lok	-10.628
izing	-10.6283
▁Liz	-10.6283
erald	-10.6291
▁Mal	-10.6292
▁obsess	-10.6298
▁Nico	-10.63
▁Macke	-10.6303
▁Em	-10.6315
▁cart	-10.6319
▁Every	-10.6326
▁referr	-10.6329
cover	-10.6334
▁Free	-10.6335
▁select	-10.6345
▁Ku	-10.6346
▁switch	-10.6347
ush	-10.6356
▁Box	-10.6356
▁tomb	-10.6371
ord	-10.6376
▁proclaim	-10.6385
▁clan	-10.6397
▁march	-10.6399
▁Kent	-10.6403
▁Stac	-10.6405
master	-10.6412
▁Ger	-10.6418
▁Randal	-10.6427
▁Butch	-10.6428
▁Cenobites	-10.6432
▁duti	-10.6435
▁Dragon	-10.6437
▁guardian	-10.6446
▁remark	-10.6446
▁Vik	-10.6467
▁hir	-10.6488
ike	-10.649
▁Morti	-10.6492
▁complet	-10.6496
ong	-10.6508
let	-10.6517
▁worrie	-10.6528
▁eating	-10.6541
▁tend	-10.656
▁daughters	-10.6561
tz	-10.6562
nassu	-10.6564
▁teach	-10.6566
▁Ear	-10.6567
lec	-10.658
▁Coh	-10.6582
▁realm	-10.6583
▁struggl	-10.6597
lia	-10.6604
▁disturb	-10.6606
▁elde	-10.6607
▁Columb	-10.6608
▁Harle	-10.6609
▁Elle	-10.6609
▁shipwreck	-10.661
▁Beaucaire	-10.661
▁Lincoln	-10.661
▁Rasputin	-10.661
▁Dorrit	-10.661
▁principal	-10.661
▁railroad	-10.661
▁split	-10.661
▁venge	-10.661
▁resort	-10.661
▁border	-10.661
▁studio	-10.661
▁Detective	-10.661
▁relat	-10.661
▁Hulot	-10.661
▁snake	-10.661
▁Veronica	-10.661
▁flash	-10.661
▁foster	-10.661
▁annoy	-10.661
▁plat	-10.6611
▁Michel	-10.6611
▁odd	-10.6611
▁rapid	-10.6611
▁multiple	-10.6611
▁shotgun	-10.6611
▁baseball	-10.6612
▁physician	-10.6612
▁promotion	-10.6612
▁Roberts	-10.6613
▁Tower	-10.6613
▁Elliot	-10.6615
▁reactor	-10.6615
▁gangster	-10.6616
▁myster	-10.6616
▁Dark	-10.6617
▁clinic	-10.6617
▁selfish	-10.6618
▁Hooker	-10.6619
▁terrible	-10.662
▁Carne	-10.662
▁Scarlet	-10.6622
▁Evan	-10.6622
▁smoke	-10.6623
▁spoil	-10.6627
▁Aubr	-10.6627
▁department	-10.6629
▁European	-10.663
▁Irish	-10.663
▁development	-10.6631
▁Com	-10.6632
▁instruction	-10.6632
▁orbit	-10.6632
▁deliberate	-10.6634
▁Sky	-10.6634
im	-10.6637
▁Turi	-10.664
▁golden	-10.664
▁independent	-10.6644
▁according	-10.6644
▁Cur	-10.6645
▁mistaken	-10.6648
▁Willi	-10.6661
▁Royal	-10.6661
▁thro	-10.6664
gg	-10.6666
▁Je	-10.6672
▁Mini	-10.6676
▁statement	-10.6678
▁Fear	-10.668
▁Murdoc	-10.6685
oid	-10.6688
▁dislike	-10.6697
▁Spa	-10.6706
expected	-10.6714
▁loud	-10.6716
mund	-10.6717
▁singer	-10.672
live	-10.6732
▁Phel	-10.6733
tel	-10.6734
▁tie	-10.6737
▁Wa	-10.6743
▁Mag	-10.6748
▁Trac	-10.676
▁ideal	-10.6766
▁Rhe	-10.677
▁tail	-10.6771
▁equal	-10.6778
ag	-10.6782
▁pleas	-10.6783
rmed	-10.6787
▁union	-10.679
▁Winter	-10.6796
trick	-10.6797
▁communicate	-10.6798
▁gambl	-10.6803
mouth	-10.6815
aco	-10.6816
broken	-10.6819
▁Ny	-10.683
▁Luci	-10.6848
▁Wester	-10.6865
▁favorit	-10.6875
▁198	-10.6876
▁wise	-10.6881
▁rush	-10.6883
▁invade	-10.6887
▁woo	-10.691
▁pirate	-10.6917
▁distress	-10.692
▁Fair	-10.6921
▁25	-10.6925
▁willing	-10.6929
▁Charle	-10.6934
▁Treve	-10.6935
▁imagine	-10.6936
▁north	-10.6947
▁pro	-10.6948
▁corresponden	-10.6949
▁shame	-10.695
raged	-10.6953
▁surve	-10.6953
con	-10.6959
ache	-10.6964
cut	-10.6969
ski	-10.697
am	-10.7008
enea	-10.7013
▁High	-10.7014
ung	-10.7029
not	-10.7031
▁fantas	-10.7034
▁civil	-10.7038
▁Ace	-10.7042
▁scandal	-10.7043
▁Muslim	-10.7044
▁bachelor	-10.7044
▁disrupt	-10.7044
▁eccentric	-10.7044
▁guitar	-10.7044
▁opponent	-10.7044
▁reunion	-10.7044
▁mutual	-10.7044
▁messenger	-10.7044
▁bottle	-10.7044
▁paranoi	-10.7044
▁lift	-10.7044
▁permanent	-10.7044
▁Dashwood	-10.7044
▁Medea	-10.7044
▁Bedford	-10.7044
▁Abraham	-10.7045
▁cloud	-10.7045
▁prize	-10.7045
▁Forrest	-10.7045
▁rebuff	-10.7045
▁Somerset	-10.7045
▁pride	-10.7045
▁responsibilit	-10.7045
▁Ivanov	-10.7045
▁price	-10.7045
▁Centr	-10.7045
▁Speed	-10.7045
▁consciousness	-10.7045
▁Zucker	-10.7045
▁Bunny	-10.7045
▁twice	-10.7046
▁Darcy	-10.7046
▁crack	-10.7046
▁governor	-10.7046
▁Christoph	-10.7047
▁hallucination	-10.7047
▁fulfill	-10.7048
▁Jerem	-10.7048
▁humiliate	-10.7049
▁operator	-10.7049
▁Strickl	-10.7049
▁Like	-10.7049
▁Lizz	-10.705
▁respective	-10.7051
▁Dj	-10.7051
▁reaction	-10.7051
▁Judge	-10.7051
▁legend	-10.7051
▁reported	-10.7054
▁rightful	-10.7055
▁Canada	-10.7056
▁Compan	-10.7058
▁objection	-10.7061
▁mentor	-10.7061
▁monitor	-10.7062
▁limit	-10.7062
▁significant	-10.7064
ddu	-10.7065
▁Ow	-10.7065
▁anonymous	-10.7067
▁confused	-10.7069
▁payment	-10.7071
▁Burn	-10.7072
▁Penny	-10.7073
pp	-10.7075
erson	-10.7076
▁Nora	-10.7079
▁celebrat	-10.7082
▁Camill	-10.7082
▁conceal	-10.7093
▁Damon	-10.7096
▁wolf	-10.7104
▁vice	-10.7105
▁Moor	-10.7106
▁opera	-10.7106
▁bi	-10.7106
▁doom	-10.7108
▁Lav	-10.7111
▁wide	-10.7115
▁recognise	-10.7122
▁af	-10.7122
▁landscape	-10.7124
▁Bud	-10.7126
bia	-10.7131
▁Pierre	-10.7137
▁occasional	-10.7151
▁unna	-10.7157
▁21	-10.7157
▁Dave	-10.7159
urne	-10.7165
▁reverse	-10.7172
▁praise	-10.7179
▁entr	-10.7182
nny	-10.7182
▁Pu	-10.7187
tub	-10.7198
▁sabotage	-10.7198
▁nor	-10.72
ague	-10.7214
▁continu	-10.7218
▁avail	-10.722
▁indicat	-10.7221
nn	-10.7229
▁tool	-10.7237
▁Furio	-10.7241
pol	-10.7241
▁riot	-10.7262
anus	-10.7265
▁rough	-10.7266
▁Dane	-10.7274
found	-10.7276
▁mate	-10.7276
▁Ex	-10.7284
▁lad	-10.7292
▁resemble	-10.7296
woman	-10.7298
▁confine	-10.7303
▁nine	-10.7303
acro	-10.7306
▁gra	-10.7313
▁plac	-10.732
▁closes	-10.733
▁Hans	-10.7334
quett	-10.7336
▁range	-10.7366
▁Elli	-10.7369
eem	-10.738
▁Trum	-10.7381
▁Hil	-10.7387
▁Mand	-10.7388
▁Yo	-10.7388
▁exploit	-10.7397
▁Und	-10.7403
▁11	-10.7406
shore	-10.7408
▁My	-10.7419
▁Hawk	-10.7423
▁lights	-10.7424
▁kidnapping	-10.7426
▁Cora	-10.7433
▁Fis	-10.7448
bodie	-10.7458
▁allies	-10.7459
ika	-10.7459
fled	-10.7464
zing	-10.7464
▁pray	-10.747
▁eliminate	-10.7472
iel	-10.7475
▁bit	-10.7475
▁admire	-10.748
elia	-10.7485
▁Honey	-10.7493
H	-10.7493
▁interpret	-10.7495
elebrit	-10.7498
▁Knight	-10.7498
▁Coriol	-10.7499
▁Déroul	-10.7499
▁Szpilman	-10.7499
▁apprentice	-10.7499
▁consequence	-10.7499
▁holiday	-10.7499
▁faint	-10.7499
▁Arsaces	-10.7499
▁broadcast	-10.7499
▁Small	-10.7499
▁stumble	-10.7499
▁yacht	-10.7499
▁harsh	-10.7499
▁Sylv	-10.7499
▁motive	-10.7499
▁network	-10.7499
▁session	-10.7499
▁thug	-10.7499
▁firing	-10.7499
▁Republic	-10.75
▁recount	-10.75
▁Abbott	-10.75
kvi	-10.75
▁Rowlandson	-10.7501
▁mobster	-10.7501
▁tearful	-10.7502
▁Lama	-10.7503
leaf	-10.7505
▁guy	-10.7505
▁Ranger	-10.7506
▁spaceship	-10.7507
▁bitter	-10.7508
▁employment	-10.7508
▁Buff	-10.7508
▁Forest	-10.751
holm	-10.7512
▁centuries	-10.7514
▁Rudy	-10.7515
▁Storm	-10.7516
▁Ambros	-10.7518
▁vacation	-10.7518
▁Texa	-10.752
▁attraction	-10.7521
▁doll	-10.7522
▁Cork	-10.7522
▁leak	-10.7524
▁assignment	-10.7525
clock	-10.7525
▁ceme	-10.7526
▁Stry	-10.7527
▁fourth	-10.7528
▁acknowledge	-10.7528
▁Five	-10.7532
▁Believ	-10.7532
▁Parad	-10.7542
▁stroke	-10.755
▁Initia	-10.7555
▁mount	-10.7555
▁Fall	-10.7557
▁Russel	-10.7559
bor	-10.7561
lphi	-10.7561
▁Weiss	-10.7566
▁Sun	-10.7573
▁Donni	-10.7573
▁Mur	-10.7576
▁Lui	-10.7579
▁Oh	-10.7579
▁charit	-10.7588
▁torn	-10.7591
▁Marl	-10.7594
▁opposit	-10.76
▁Jess	-10.7614
▁NS	-10.7618
▁progress	-10.7621
▁graduate	-10.7626
raham	-10.7627
▁cable	-10.7627
new	-10.7657
▁Gl	-10.7658
uck	-10.7666
core	-10.7667
▁Timm	-10.7671
▁goal	-10.7678
▁hu	-10.7682
ester	-10.7683
val	-10.7683
▁detonate	-10.7691
▁Congress	-10.7711
▁Fau	-10.7729
▁row	-10.7737
▁imagin	-10.7741
▁secretar	-10.7741
▁scar	-10.7748
▁Gray	-10.7751
▁Peri	-10.7758
▁plate	-10.7759
▁spott	-10.776
fight	-10.7769
▁Bla	-10.7773
▁Imper	-10.7773
tan	-10.7775
▁Real	-10.7777
▁fleet	-10.7777
▁rose	-10.7786
ravers	-10.7787
boat	-10.779
▁Rut	-10.7792
girlfriend	-10.7795
▁Marshal	-10.7795
▁relations	-10.7802
issa	-10.7811
▁declar	-10.7814
wan	-10.7815
lyn	-10.7818
▁Tru	-10.7826
▁Maud	-10.7834
▁Phillip	-10.7835
▁grounds	-10.7841
▁Sch	-10.7846
▁comfortabl	-10.7864
hearted	-10.7876
agen	-10.7879
▁Herman	-10.7897
ox	-10.7899
▁Aven	-10.7909
ogue	-10.7919
▁Rami	-10.7941
▁sympath	-10.7944
▁Gun	-10.7945
▁forge	-10.7953
▁shower	-10.7954
▁affect	-10.7968
▁lonel	-10.7969
▁detect	-10.7973
▁Egypt	-10.7973
▁foreign	-10.7974
▁Hero	-10.7974
▁Phoeni	-10.7975
▁Hoffman	-10.7975
▁twelve	-10.7975
▁Bramble	-10.7975
▁Lombard	-10.7975
▁motorcycle	-10.7975
▁tragic	-10.7975
▁disgrace	-10.7975
▁lunch	-10.7975
▁eager	-10.7975
▁Marvel	-10.7975
▁Service	-10.7975
▁nightmare	-10.7975
▁Temple	-10.7975
▁classmate	-10.7975
▁Doyle	-10.7976
▁substantial	-10.7976
▁approve	-10.7976
▁Raymond	-10.7976
▁jet	-10.7976
▁Marjor	-10.7976
▁Adrian	-10.7977
▁bright	-10.7977
▁genetic	-10.7977
▁Crash	-10.7977
▁committee	-10.7977
▁description	-10.7978
▁Guid	-10.7978
▁Cooper	-10.7978
▁Marlow	-10.798
▁cheer	-10.7981
▁sibling	-10.7981
▁Schu	-10.7983
▁react	-10.7983
▁Devil	-10.7983
▁predict	-10.7984
▁Auri	-10.7986
▁Zeno	-10.7987
▁fame	-10.7987
▁resurrect	-10.7988
▁conquer	-10.7988
▁stuck	-10.7989
guel	-10.799
▁Lila	-10.799
▁Rex	-10.799
▁basket	-10.7996
▁highway	-10.7996
▁inspire	-10.7997
▁Pink	-10.7997
▁Troy	-10.8
▁probe	-10.8002
▁devise	-10.8004
▁videotape	-10.8004
omis	-10.8004
▁carriage	-10.8005
▁discussion	-10.8005
▁Bane	-10.8005
▁Cover	-10.8009
CP	-10.801
▁dai	-10.8013
▁producer	-10.802
sula	-10.802
▁mayor	-10.8024
▁Shar	-10.8025
▁Beatri	-10.8027
▁coffin	-10.8029
▁fighter	-10.8029
▁Valeria	-10.8033
▁Kum	-10.8035
▁lodge	-10.8035
▁movement	-10.8036
▁Whit	-10.8045
▁diar	-10.8045
▁sever	-10.8048
▁ear	-10.8049
▁Ap	-10.8058
▁supply	-10.8064
▁Raff	-10.8067
eur	-10.8067
▁Norma	-10.8072
▁Qu	-10.8083
▁promote	-10.8086
ourne	-10.8088
▁Narrat	-10.8088
▁wo	-10.8094
▁pod	-10.8096
▁Thorne	-10.8102
▁100	-10.8104
nie	-10.8106
▁national	-10.811
▁sympathetic	-10.8134
▁Thé	-10.8136
▁loyal	-10.8139
▁Nov	-10.8148
▁Ice	-10.8148
▁Pala	-10.8161
asha	-10.8163
▁Ham	-10.8164
glio	-10.8165
▁drift	-10.817
▁Bride	-10.8174
▁please	-10.8175
▁Bate	-10.8179
▁Hy	-10.818
titude	-10.8187
▁burie	-10.8189
▁rus	-10.819
court	-10.8195
lu	-10.8199
▁fac	-10.8204
99	-10.8246
▁Dor	-10.8251
▁coma	-10.8253
▁Dian	-10.8267
und	-10.8281
▁contemplate	-10.8281
▁expens	-10.8292
tra	-10.8296
top	-10.8306
▁pitch	-10.831
▁Did	-10.831
▁coat	-10.8317
ito	-10.8318
ome	-10.8319
bird	-10.8319
strict	-10.8326
box	-10.8327
yles	-10.8331
▁4	-10.8333
▁sale	-10.8341
▁interrogate	-10.8348
▁breath	-10.8356
▁invit	-10.8361
gue	-10.8366
▁Emili	-10.8377
▁intrigue	-10.8386
enter	-10.8402
▁Lilia	-10.8411
▁explosive	-10.8413
j	-10.8419
▁pictures	-10.8429
wn	-10.8431
▁miser	-10.8433
▁50	-10.8448
▁rat	-10.846
▁medi	-10.846
▁awake	-10.8468
ub	-10.8468
▁Rac	-10.8471
▁monk	-10.8473
▁Arc	-10.8474
▁poverty	-10.8475
▁According	-10.8475
▁Cardinal	-10.8475
▁Council	-10.8475
▁Samantha	-10.8475
▁Scrooge	-10.8475
▁bankrupt	-10.8475
▁council	-10.8475
▁mathematic	-10.8475
▁opinion	-10.8475
▁peasant	-10.8475
▁uncertain	-10.8475
▁virtual	-10.8475
▁lodging	-10.8475
▁relax	-10.8475
▁supernatural	-10.8475
▁steel	-10.8475
▁explanation	-10.8475
▁Commission	-10.8475
▁Morgan	-10.8475
▁mutant	-10.8475
▁plague	-10.8475
▁license	-10.8476
▁Cristin	-10.8476
▁Trent	-10.8476
▁Hillyer	-10.8476
▁reckless	-10.8476
▁Mountain	-10.8476
▁dispute	-10.8476
▁Dennis	-10.8476
▁correct	-10.8476
▁silent	-10.8477
▁hook	-10.8477
▁Gloria	-10.8477
▁Brett	-10.8478
▁Kazan	-10.8479
▁orphanage	-10.848
▁sniper	-10.848
▁partial	-10.8481
▁peaceful	-10.8481
▁ladies	-10.8482
▁torment	-10.8482
▁replacement	-10.8482
▁rare	-10.8482
▁Among	-10.8483
▁uncover	-10.8483
▁Alban	-10.8486
▁delay	-10.8486
▁Charm	-10.8487
▁Mexican	-10.8488
▁envelop	-10.8489
▁interior	-10.8489
▁Smi	-10.8492
▁Syd	-10.8494
▁accomplice	-10.8496
▁Serge	-10.8496
▁complicate	-10.8496
▁disaster	-10.8496
▁Bradley	-10.8498
gie	-10.8498
▁traveler	-10.8502
▁Peck	-10.8504
ress	-10.8506
▁deck	-10.8507
▁slaughter	-10.8507
▁merc	-10.8509
▁stuff	-10.8513
▁possess	-10.8513
▁Tree	-10.8519
▁parent	-10.852
▁shutt	-10.8521
▁Puss	-10.8521
▁overpower	-10.8524
▁Rich	-10.8526
▁greed	-10.8528
▁raptor	-10.8533
▁Rent	-10.8534
ier	-10.854
▁Simm	-10.8542
▁avenge	-10.8543
▁billion	-10.8546
▁worm	-10.8548
▁Veron	-10.8551
▁Samm	-10.8556
▁Dil	-10.8557
▁Fort	-10.8566
▁heaven	-10.8567
▁fan	-10.858
▁wilder	-10.8586
▁swing	-10.8593
▁bin	-10.8593
▁Sp	-10.8593
▁port	-10.8601
▁Osbo	-10.8626
▁Von	-10.8627
▁Lei	-10.8627
ock	-10.8627
ron	-10.8632
aked	-10.8635
▁consume	-10.8651
lot	-10.8653
ndler	-10.8654
▁Bald	-10.8664
ucker	-10.8669
jam	-10.8671
▁Zu	-10.8674
ul	-10.8675
▁rap	-10.8675
ica	-10.8681
▁Ye	-10.869
rich	-10.8702
dia	-10.8711
▁Las	-10.874
▁fever	-10.8744
▁urge	-10.8749
destruct	-10.8752
▁solve	-10.8755
▁Case	-10.8756
▁nut	-10.876
▁Marg	-10.876
▁stars	-10.8772
witch	-10.8778
rian	-10.8787
track	-10.8793
ret	-10.8796
▁citi	-10.8796
▁attacker	-10.8803
▁Za	-10.8811
▁Cler	-10.8813
▁tri	-10.8819
▁simpl	-10.8821
fast	-10.8842
osi	-10.8852
▁separat	-10.8858
▁fu	-10.8869
ena	-10.8872
▁faithful	-10.8873
▁Ari	-10.8875
vast	-10.8877
brother	-10.8886
G	-10.8887
▁interfere	-10.8888
isha	-10.8898
▁Te	-10.8904
inter	-10.8907
▁Simone	-10.8914
all	-10.8916
ridge	-10.892
▁launche	-10.8923
▁revive	-10.8924
▁Carve	-10.8927
▁Valentin	-10.8928
▁award	-10.8933
▁v	-10.8936
▁Pin	-10.894
▁Poll	-10.8942
▁gathering	-10.8948
▁Ram	-10.8948
▁unp	-10.8948
▁dig	-10.8954
▁VI	-10.8955
▁journal	-10.896
etta	-10.896
Wan	-10.8961
▁isolate	-10.8962
ark	-10.8963
▁Yor	-10.8965
▁preserve	-10.8966
▁Orde	-10.8973
▁Sol	-10.8983
▁beside	-10.8983
▁passenger	-10.8993
roy	-10.8993
▁cow	-10.8996
coll	-10.8997
▁relent	-10.9
▁luxur	-10.9001
▁Dimple	-10.9001
▁Predator	-10.9001
▁apprehend	-10.9001
▁convincing	-10.9001
▁penguin	-10.9001
▁perspective	-10.9001
▁unleash	-10.9001
▁Magdalen	-10.9001
▁rumor	-10.9001
▁hyper	-10.9001
▁Mercedes	-10.9001
▁exhibit	-10.9002
▁valuable	-10.9002
stomach	-10.9002
▁install	-10.9002
▁routine	-10.9002
▁Club	-10.9002
▁curious	-10.9002
▁costume	-10.9002
▁Otis	-10.9002
▁museum	-10.9002
▁bail	-10.9002
▁pleasure	-10.9002
▁Guard	-10.9003
▁organization	-10.9003
▁Gibbon	-10.9003
▁Knot	-10.9003
▁entrance	-10.9004
▁shout	-10.9005
▁belt	-10.9005
▁historical	-10.9005
▁destination	-10.9005
▁Davis	-10.9007
▁Champ	-10.9007
phy	-10.9008
▁Bank	-10.9009
▁Albatros	-10.9009
▁Jonah	-10.901
lkov	-10.901
▁investigator	-10.9012
▁Gallo	-10.9012
▁hell	-10.9014
▁oppose	-10.9015
▁Sera	-10.9018
▁dub	-10.9021
▁competiti	-10.9022
▁Kimb	-10.9026
ora	-10.9026
▁Station	-10.9027
▁Crain	-10.9029
▁Hick	-10.9029
roll	-10.9029
▁Sc	-10.903
▁attendant	-10.903
▁Vali	-10.9032
▁devote	-10.9042
▁Myers	-10.9042
▁BB	-10.9042
▁inmate	-10.9044
rman	-10.9047
Ry	-10.9048
▁shootout	-10.9057
▁freeze	-10.9058
▁confusi	-10.9063
▁Barris	-10.9064
▁Corali	-10.9065
▁Laurie	-10.9067
▁prom	-10.9073
▁Pug	-10.9075
▁Bala	-10.9075
▁Ol	-10.9076
emper	-10.9077
▁brave	-10.9079
▁massacre	-10.9079
▁Grey	-10.9079
▁creation	-10.9083
▁mixed	-10.9084
▁Cors	-10.9088
▁names	-10.9095
maid	-10.9096
onne	-10.91
▁Pro	-10.9101
gency	-10.9111
▁elope	-10.9113
▁Joann	-10.912
▁Thing	-10.9122
ggy	-10.9133
▁Oak	-10.9137
▁tow	-10.914
everal	-10.9149
▁Gam	-10.9155
▁arrang	-10.9161
▁Eye	-10.9163
▁identifi	-10.9164
▁Jeann	-10.9171
akin	-10.9177
▁difference	-10.9178
essa	-10.9179
▁league	-10.9179
▁Rain	-10.918
▁Victoria	-10.918
▁Duc	-10.9183
▁mentally	-10.919
punches	-10.9197
▁active	-10.92
▁cit	-10.9208
▁happening	-10.9215
▁temper	-10.9222
▁Call	-10.9236
iana	-10.9238
▁Isabell	-10.9257
▁Abb	-10.9259
▁Donn	-10.9261
▁Cait	-10.9272
lle	-10.9274
▁busy	-10.9281
▁dispatch	-10.9285
▁Tog	-10.929
▁enchant	-10.9293
wolf	-10.9302
bel	-10.9303
▁bow	-10.9305
lance	-10.9305
▁impo	-10.9317
▁waters	-10.9318
▁possesse	-10.9326
▁Alexa	-10.9334
▁operate	-10.9342
bout	-10.9343
▁dispose	-10.9353
mother	-10.9359
▁Au	-10.9364
▁prefer	-10.9367
kan	-10.9377
ization	-10.9383
▁Pr	-10.939
▁claimed	-10.9402
folk	-10.9408
▁Lon	-10.9422
▁Blai	-10.9423
fic	-10.9434
▁Dec	-10.9443
▁Cle	-10.9445
weight	-10.9448
▁Tai	-10.945
but	-10.9453
ternational	-10.9454
▁reference	-10.9455
▁Clot	-10.9456
▁participate	-10.9456
▁Harke	-10.9466
▁Ze	-10.9466
▁decepti	-10.9468
▁Mus	-10.9469
pack	-10.9482
▁Sudd	-10.9483
▁Juda	-10.9485
▁Calvin	-10.9486
ast	-10.9486
heus	-10.9491
▁counter	-10.95
▁rac	-10.9507
who	-10.9514
▁philosoph	-10.9523
mb	-10.9525
▁shoes	-10.9525
▁Mer	-10.9529
▁Cuba	-10.9539
▁Allis	-10.954
ikh	-10.9547
▁Din	-10.9548
▁Sul	-10.9549
▁Pad	-10.9549
ved	-10.9551
▁disappoint	-10.9552
dden	-10.9553
rt	-10.9554
▁Flint	-10.9556
▁Crystal	-10.9557
▁Isaac	-10.9557
▁Lantenac	-10.9557
▁Reynold	-10.9557
▁disinherit	-10.9557
▁pyramid	-10.9557
▁ruthless	-10.9557
▁tournament	-10.9557
▁Lebowski	-10.9557
▁column	-10.9557
▁domestic	-10.9557
▁accost	-10.9557
▁landlord	-10.9557
▁benefit	-10.9557
▁fresh	-10.9557
▁intervention	-10.9557
▁debate	-10.9557
▁testify	-10.9557
▁Special	-10.9557
▁yellow	-10.9557
▁laborator	-10.9557
▁Left	-10.9557
▁portray	-10.9557
▁disillusion	-10.9557
▁exhaust	-10.9558
▁fiancé	-10.9558
▁repay	-10.9558
▁Dimm	-10.9558
▁root	-10.9558
▁Disney	-10.9558
▁Spencer	-10.9558
▁Charteris	-10.9558
▁retain	-10.9558
▁Horn	-10.9558
▁Satan	-10.9558
▁foolish	-10.9558
▁Clear	-10.9558
▁theatre	-10.9558
▁Ballard	-10.9559
▁reign	-10.9559
▁Brother	-10.956
▁Garden	-10.956
▁Magic	-10.956
▁Modest	-10.956
▁Grail	-10.9561
sniff	-10.9561
▁Kiv	-10.9561
▁Knightley	-10.9561
▁Canter	-10.9561
▁interrogation	-10.9561
▁Dudley	-10.9562
▁Nat	-10.9563
▁elaborate	-10.9563
▁Cr	-10.9563
▁tube	-10.9566
▁Leg	-10.9567
▁Flee	-10.9569
▁reflection	-10.9569
lity	-10.9571
▁EV	-10.9574
▁Hubb	-10.9574
▁sewer	-10.9575
▁inject	-10.9575
▁dealing	-10.9578
▁structure	-10.958
▁aggressive	-10.958
▁Myr	-10.9581
▁survival	-10.9581
▁Office	-10.9582
▁coin	-10.9586
▁Button	-10.9588
▁alleged	-10.9589
▁warhead	-10.959
▁fond	-10.9591
▁anyway	-10.9592
▁Silver	-10.9592
▁Ten	-10.9601
▁sole	-10.9601
▁Claud	-10.9604
▁Roderi	-10.9605
▁Fairy	-10.9609
▁Pegg	-10.9622
▁Pasc	-10.9624
▁pastor	-10.9624
▁altar	-10.963
▁Bain	-10.964
▁Kik	-10.9641
▁habit	-10.9641
▁produc	-10.9643
éni	-10.9649
▁bowl	-10.9655
venue	-10.9656
▁score	-10.9658
▁spin	-10.9662
chan	-10.9663
▁boot	-10.9666
math	-10.9667
▁limb	-10.9667
western	-10.967
▁mail	-10.9671
▁Bai	-10.9679
obel	-10.9679
▁ran	-10.9687
▁Jameson	-10.9693
▁examine	-10.9698
▁constructi	-10.9701
▁occupie	-10.9704
▁Gand	-10.9706
▁Nic	-10.9713
▁producti	-10.9718
▁Rev	-10.972
▁quest	-10.9721
▁tortur	-10.9727
justice	-10.9727
▁visitor	-10.9729
va	-10.973
▁Iv	-10.9737
▁sum	-10.974
▁Robbi	-10.9742
Tok	-10.9754
▁Clark	-10.9763
▁Here	-10.9767
ut	-10.977
star	-10.9776
▁Bird	-10.9793
fire	-10.9796
ael	-10.9798
▁dreamer	-10.9803
▁Burk	-10.9804
▁eject	-10.9805
▁Are	-10.9805
ril	-10.9807
▁beast	-10.9823
rath	-10.9826
▁Gen	-10.9832
▁tribes	-10.9841
▁Casa	-10.9852
married	-10.9861
▁Dog	-10.9863
▁mole	-10.9878
▁pin	-10.9881
mak	-10.9885
▁Fly	-10.9888
▁Lyn	-10.9896
▁Wild	-10.9901
▁assassinate	-10.9902
ollege	-10.9903
▁tap	-10.9911
az	-10.9911
iah	-10.9915
lander	-10.9917
▁revolution	-10.9927
▁Fe	-10.9936
▁Tha	-10.9941
que	-10.9948
▁Nant	-10.9957
▁vanish	-10.9965
▁shell	-10.9965
thos	-10.9967
otl	-10.997
▁replica	-10.9978
fflin	-10.999
▁adulter	-11.0004
▁Tam	-11.0015
▁scrap	-11.0016
▁Bre	-11.0021
▁advanc	-11.0025
conscious	-11.0026
▁identit	-11.0029
▁waste	-11.0032
▁Gr	-11.004
▁starv	-11.0044
edro	-11.0047
▁Crus	-11.005
▁patrol	-11.0056
fall	-11.0057
▁quarrel	-11.0064
hole	-11.0065
bora	-11.0066
▁Edit	-11.0067
ump	-11.0069
▁artificial	-11.0073
▁Winni	-11.0079
arian	-11.0081
▁revolve	-11.0087
▁stalk	-11.0088
piece	-11.0088
act	-11.009
▁bell	-11.0096
shift	-11.0097
father	-11.0099
▁clergym	-11.0099
world	-11.01
reason	-11.0101
▁divin	-11.0104
▁Base	-11.0105
proving	-11.011
▁tapes	-11.011
▁wolve	-11.0125
aley	-11.0126
urges	-11.0127
▁im	-11.0128
▁fun	-11.0129
▁erupt	-11.0138
▁Due	-11.0141
▁soft	-11.0142
llic	-11.0143
▁Eug	-11.0143
▁Glomgold	-11.0145
▁Vasanta	-11.0145
▁aspect	-11.0145
▁bizarre	-11.0145
▁candidate	-11.0145
▁cocaine	-11.0145
▁condemn	-11.0145
▁exercise	-11.0145
▁procedure	-11.0145
▁Marguer	-11.0145
▁Second	-11.0145
▁Shepherd	-11.0145
▁People	-11.0145
▁embark	-11.0145
▁honeymoon	-11.0145
▁engulf	-11.0145
▁trash	-11.0145
▁fool	-11.0146
▁coffee	-11.0146
▁console	-11.0146
▁inspect	-11.0146
ceiling	-11.0146
▁pardon	-11.0146
▁foil	-11.0146
▁acid	-11.0146
▁essential	-11.0146
▁Alcest	-11.0146
▁error	-11.0146
▁Polish	-11.0146
▁Joker	-11.0146
▁pump	-11.0146
▁René	-11.0147
RT	-11.0147
martial	-11.0147
▁prominent	-11.0148
▁bike	-11.0148
▁weather	-11.0148
▁humanoid	-11.0149
▁Sunday	-11.0149
▁Bicker	-11.0149
▁Scout	-11.015
▁Palmer	-11.015
▁generation	-11.015
▁package	-11.0151
▁tenant	-11.0151
▁antique	-11.0152
▁mariner	-11.0153
▁Lyle	-11.0153
▁remainder	-11.0153
▁preparation	-11.0153
▁Australia	-11.0154
▁breakdown	-11.0154
▁Tugg	-11.0154
▁sharp	-11.0155
melia	-11.0155
▁Shu	-11.0157
▁Karl	-11.0158
shop	-11.0159
▁scorn	-11.016
▁Federat	-11.016
▁locat	-11.016
▁Chance	-11.0161
▁Shann	-11.0161
▁anxious	-11.0163
▁Davie	-11.0163
▁telepathic	-11.0165
latest	-11.0165
▁maiden	-11.0165
vier	-11.0166
▁Devon	-11.0166
verish	-11.0167
▁Find	-11.0168
▁distraction	-11.0168
▁industr	-11.0169
▁sustain	-11.0169
▁Twink	-11.017
▁crocodile	-11.017
▁Japanese	-11.017
▁betroth	-11.017
▁economic	-11.017
▁suburb	-11.0171
▁collection	-11.0172
▁Amid	-11.0173
▁practical	-11.0174
▁Brun	-11.0174
▁engraving	-11.0177
▁leap	-11.0177
▁Hau	-11.0178
▁Spoo	-11.0178
▁isolat	-11.0178
▁concert	-11.018
▁Thai	-11.0182
▁Baby	-11.0183
▁forcibl	-11.0188
▁silence	-11.0189
▁Creed	-11.0189
kull	-11.0191
▁offend	-11.0193
▁insight	-11.0193
▁Eden	-11.0199
▁Vane	-11.0199
ate	-11.0216
▁22	-11.022
▁educate	-11.022
▁Byron	-11.0223
▁arise	-11.0228
▁experienc	-11.0238
lai	-11.0241
istan	-11.0242
lova	-11.0244
tial	-11.0244
ndez	-11.0249
▁Marlen	-11.025
agreement	-11.0258
ight	-11.0259
aron	-11.026
▁Dicki	-11.0262
▁amend	-11.0262
▁weight	-11.0268
▁Rath	-11.0272
▁Weld	-11.0273
▁Wi	-11.0283
▁product	-11.0283
ltz	-11.0291
lov	-11.0292
▁considerabl	-11.0294
▁ju	-11.03
▁devil	-11.0304
▁Stre	-11.0306
usually	-11.0308
▁possessions	-11.031
▁brand	-11.0313
▁miserabl	-11.0314
▁Poo	-11.033
▁assum	-11.0336
▁7	-11.034
▁organize	-11.0344
▁deactivate	-11.0344
▁Fal	-11.035
▁ban	-11.0355
▁west	-11.0363
▁revolutionar	-11.0368
▁ho	-11.037
▁laughing	-11.0395
▁formal	-11.0396
▁Chase	-11.0396
▁jack	-11.0398
▁Age	-11.0399
▁Brod	-11.0404
SS	-11.0405
▁End	-11.0406
▁negotiate	-11.0418
▁finance	-11.0425
▁angels	-11.0426
▁sand	-11.043
etti	-11.0448
▁remarkabl	-11.0451
▁knee	-11.0454
▁solution	-11.0455
▁Harv	-11.0458
oli	-11.0461
▁evacuate	-11.0461
▁prey	-11.0466
bound	-11.047
mart	-11.0472
▁14	-11.0474
po	-11.0491
▁begg	-11.0494
▁notori	-11.0504
stard	-11.0508
cation	-11.051
▁restor	-11.0526
▁cutt	-11.0529
iser	-11.0532
▁handle	-11.0536
run	-11.0538
ckh	-11.0548
tty	-11.0549
▁joke	-11.0549
cadem	-11.0553
ates	-11.0567
▁Curt	-11.0568
▁Dunst	-11.0568
sure	-11.0582
▁Lamb	-11.059
di	-11.059
rence	-11.0593
zi	-11.0593
ryl	-11.0595
▁Bark	-11.0595
▁Face	-11.0599
▁Gerar	-11.0604
llis	-11.0607
▁plain	-11.0611
▁occasion	-11.0617
▁oppos	-11.0619
▁hall	-11.0621
▁disapprove	-11.0625
mé	-11.0626
▁relie	-11.063
▁inquir	-11.0652
heart	-11.0658
▁abus	-11.0665
corporate	-11.0665
alon	-11.0668
▁initiate	-11.0675
ambur	-11.068
▁Lin	-11.0684
nova	-11.0684
▁critic	-11.0703
tense	-11.0708
▁boun	-11.0709
von	-11.0716
infected	-11.0717
▁Lili	-11.0721
▁Gall	-11.0724
▁heroin	-11.0724
▁symbol	-11.0726
▁tradition	-11.0727
▁joy	-11.0728
ren	-11.0729
vain	-11.0742
▁Radi	-11.0743
▁labor	-11.0744
▁McKen	-11.0747
▁posse	-11.0749
siege	-11.0751
▁Wink	-11.0754
▁McGi	-11.0757
▁Hog	-11.0757
▁speci	-11.0761
▁environment	-11.0763
wick	-11.0765
▁Vietnam	-11.077
▁Director	-11.077
▁audition	-11.077
▁balcon	-11.077
▁evident	-11.077
▁oxygen	-11.077
▁phrase	-11.077
▁principle	-11.077
▁straight	-11.077
▁flesh	-11.077
▁Hendricks	-11.077
▁Teufelsdr	-11.077
▁concept	-11.077
▁guise	-11.077
▁monaster	-11.077
sensitiv	-11.077
▁swallow	-11.077
▁Reuben	-11.077
▁devour	-11.077
▁squad	-11.077
▁magazine	-11.077
▁ordeal	-11.077
▁capsule	-11.077
▁landowner	-11.077
▁Matsu	-11.0771
▁Learn	-11.0771
▁brawl	-11.0771
▁expel	-11.0771
play	-11.0771
▁signature	-11.0771
Project	-11.0771
▁rejoin	-11.0771
▁drill	-11.0771
▁luna	-11.0771
▁forbidden	-11.0771
▁Mumble	-11.0771
▁Leigh	-11.0771
▁Phy	-11.0771
▁bodyguard	-11.0772
▁Kirby	-11.0772
▁Blanche	-11.0772
▁Sofi	-11.0772
▁wrist	-11.0772
▁glow	-11.0772
scilla	-11.0772
▁observation	-11.0773
▁Raph	-11.0773
▁Craven	-11.0773
▁Claver	-11.0773
▁blue	-11.0773
▁clever	-11.0773
▁Dobr	-11.0774
▁generous	-11.0774
litary	-11.0775
▁Set	-11.0775
▁Single	-11.0775
▁Lung	-11.0775
▁Epp	-11.0776
▁abortion	-11.0776
▁Renai	-11.0777
▁Eugen	-11.0778
rene	-11.0779
▁wicked	-11.0779
▁Nex	-11.078
▁McCull	-11.078
▁Near	-11.078
▁glad	-11.0781
▁institution	-11.0781
▁taste	-11.0784
phone	-11.0785
▁weaken	-11.0785
▁Monsi	-11.0785
▁Costa	-11.0786
▁Agath	-11.0787
▁size	-11.0788
▁dia	-11.0788
▁Arr	-11.0789
▁dorm	-11.079
▁craft	-11.0794
▁nest	-11.0794
▁Sentinel	-11.0796
▁schedule	-11.0796
▁branch	-11.0796
▁implant	-11.0796
▁sweetheart	-11.0796
▁argu	-11.08
com	-11.0803
▁Kara	-11.0806
▁Akash	-11.0808
▁Turn	-11.0809
▁excite	-11.081
▁bleed	-11.081
▁Latin	-11.0812
▁mall	-11.0815
▁identi	-11.0817
leen	-11.0819
▁Doo	-11.0819
▁painter	-11.0821
▁ambitio	-11.0822
▁cargo	-11.0828
▁claws	-11.083
ulet	-11.0832
▁Gal	-11.0832
▁faction	-11.0833
▁function	-11.0834
trude	-11.0835
▁Balth	-11.0835
▁Murray	-11.0842
agger	-11.0847
▁Qui	-11.0849
▁outlaw	-11.0855
▁Even	-11.0856
▁Lance	-11.0858
ular	-11.0859
▁heroine	-11.086
▁manag	-11.0864
▁deny	-11.0865
▁Apollo	-11.0868
▁requir	-11.087
▁ba	-11.0871
▁Gro	-11.0872
▁hung	-11.0873
mon	-11.0874
▁Sophi	-11.0881
robe	-11.0886
nty	-11.0892
▁international	-11.0892
erly	-11.0894
▁Weston	-11.0898
▁Kro	-11.09
▁casual	-11.0902
zar	-11.0904
▁guid	-11.0904
▁Fla	-11.0905
iance	-11.0908
rbert	-11.0909
▁Lami	-11.0925
▁smuggl	-11.0931
▁armor	-11.0933
▁hug	-11.094
▁bored	-11.0942
ue	-11.0945
rick	-11.0945
▁strict	-11.0963
ash	-11.0965
▁Avi	-11.0965
mine	-11.097
▁commission	-11.0978
pit	-11.0982
▁defect	-11.0988
▁Madma	-11.101
▁Tara	-11.1024
itia	-11.1025
▁settl	-11.1032
▁gay	-11.1036
▁Gree	-11.1043
▁bombing	-11.1057
rsch	-11.1068
▁Denis	-11.1073
eth	-11.1075
▁Salv	-11.1076
▁achieve	-11.1081
▁dollar	-11.1081
▁Men	-11.1088
▁divide	-11.109
▁Carolin	-11.1091
▁Tab	-11.1097
figurati	-11.1098
atterson	-11.1105
walk	-11.1108
▁Bern	-11.111
▁flag	-11.1112
▁despise	-11.1131
▁dive	-11.1134
▁Bang	-11.1135
▁plato	-11.1142
▁closet	-11.1144
iston	-11.1145
▁spite	-11.1157
▁axe	-11.116
▁photos	-11.1173
▁Cape	-11.1183
▁Rosi	-11.1186
esha	-11.1193
▁Lan	-11.1196
▁Williams	-11.1197
▁compos	-11.12
▁trad	-11.1205
ane	-11.1209
▁loyalt	-11.121
upert	-11.1211
▁endure	-11.1214
▁Phila	-11.122
▁Vit	-11.1228
▁Margi	-11.1231
▁terror	-11.1247
▁Eri	-11.1255
▁strip	-11.1262
▁importan	-11.1262
▁hence	-11.1266
▁Oakl	-11.1283
▁bigge	-11.1283
▁reside	-11.1329
mus	-11.1329
▁hid	-11.1335
ehouse	-11.1343
▁indicate	-11.1344
▁reli	-11.1359
▁Cyr	-11.1363
ake	-11.1369
klin	-11.137
▁Pres	-11.1373
tler	-11.1378
lent	-11.138
▁wash	-11.1381
▁Br	-11.1386
▁traffic	-11.1386
▁Casp	-11.1387
▁leaders	-11.1398
▁Canto	-11.1413
▁rip	-11.1416
▁invent	-11.1418
erine	-11.1421
▁compar	-11.1422
Bright	-11.1426
▁confident	-11.1427
▁inspir	-11.1428
▁Ball	-11.1431
▁Eva	-11.1431
▁triumph	-11.1435
ltimate	-11.1436
▁courage	-11.1436
rudatta	-11.1437
▁DNA	-11.1437
▁Euripides	-11.1437
▁Jocelyn	-11.1437
▁Pyramid	-11.1437
▁Springbok	-11.1437
▁Stéphan	-11.1437
▁Unbeknown	-11.1437
▁Undershaft	-11.1437
▁abroad	-11.1437
▁abrupt	-11.1437
▁degree	-11.1437
▁savage	-11.1437
▁Vardanes	-11.1437
▁contemporar	-11.1437
▁violin	-11.1437
▁gesture	-11.1437
▁cigarette	-11.1437
▁parole	-11.1437
▁Kipps	-11.1437
▁Ohio	-11.1437
▁Scene	-11.1437
▁terminal	-11.1437
mitri	-11.1437
▁amnesia	-11.1437
▁overdose	-11.1437
▁extensive	-11.1437
▁tutor	-11.1437
▁clash	-11.1438
▁commercial	-11.1438
▁Blood	-11.1438
▁launder	-11.1438
▁review	-11.1438
▁cynic	-11.1438
▁Duchess	-11.1438
▁League	-11.1438
▁Faith	-11.1438
▁pub	-11.1438
rtig	-11.1438
▁thrill	-11.1439
▁combine	-11.1439
▁Georgia	-11.1439
▁tantr	-11.1439
▁Duroy	-11.1439
▁familiar	-11.1439
▁horribl	-11.144
minent	-11.144
olychrom	-11.1441
▁thick	-11.1441
▁frantic	-11.1441
▁territor	-11.1442
▁balloon	-11.1442
▁melt	-11.1442
▁coward	-11.1443
ktra	-11.1443
▁festiv	-11.1443
▁accusation	-11.1443
▁Magnet	-11.1445
▁Gondo	-11.1445
▁Cleve	-11.1447
▁deposit	-11.1448
▁finger	-11.1449
▁Reck	-11.145
▁Zara	-11.145
▁impend	-11.145
▁hijacker	-11.1451
▁Estell	-11.1451
▁Magua	-11.1452
▁IR	-11.1452
▁Yv	-11.1453
▁compare	-11.1453
fleet	-11.1453
▁discusse	-11.1454
▁Shif	-11.1455
▁democra	-11.1455
owes	-11.1457
▁autobiograph	-11.1457
subo	-11.1458
wide	-11.146
▁comet	-11.1462
screen	-11.1462
▁Deb	-11.1463
▁backward	-11.1464
▁excuse	-11.1464
▁astronaut	-11.1465
▁fraud	-11.1466
▁pound	-11.1466
▁noise	-11.1467
credit	-11.1467
▁Sept	-11.1468
▁pure	-11.1468
writer	-11.1468
▁contractor	-11.1469
▁Quint	-11.1469
▁Montre	-11.1469
▁strangle	-11.147
▁Holland	-11.1471
▁Doone	-11.1472
people	-11.1472
med	-11.1472
nzon	-11.1474
▁infidelit	-11.1476
▁compell	-11.1476
▁Contro	-11.1482
▁23	-11.1482
▁Roth	-11.1484
▁trapper	-11.1484
▁useful	-11.1485
ple	-11.1486
▁gentle	-11.1488
rina	-11.1493
ire	-11.1494
▁Carli	-11.1497
▁conscien	-11.1502
▁Bland	-11.1506
▁restrain	-11.151
▁additional	-11.1511
▁therapist	-11.1513
▁Selen	-11.1516
▁divorc	-11.1516
▁Vice	-11.1519
▁Eile	-11.1522
▁shake	-11.1526
▁stress	-11.1527
bridge	-11.1527
ope	-11.153
▁ranch	-11.153
▁meal	-11.1536
▁operative	-11.1542
▁proceeding	-11.1557
▁explor	-11.1557
▁Trin	-11.156
▁Surprise	-11.1561
fare	-11.1563
▁dimension	-11.1564
Flemm	-11.157
▁Falcon	-11.1571
▁spie	-11.1573
▁Xa	-11.1574
ou	-11.1575
▁penni	-11.1577
▁washed	-11.1581
▁elit	-11.1586
echt	-11.1594
chool	-11.1595
▁kidnapper	-11.1598
▁enable	-11.1601
▁Cl	-11.1605
▁perceive	-11.1605
arry	-11.1605
▁Leav	-11.1632
▁Gary	-11.1634
▁Post	-11.1645
▁Tul	-11.1648
▁barn	-11.1648
Ago	-11.1648
▁Katsu	-11.1649
▁oversee	-11.1662
▁Ayl	-11.1665
winner	-11.1667
▁finishe	-11.1671
▁Cavo	-11.1674
▁jokes	-11.1679
gin	-11.1682
nel	-11.1683
▁Bor	-11.1694
▁schem	-11.1694
▁Sar	-11.17
idy	-11.17
rlock	-11.1703
▁scale	-11.1707
▁Orle	-11.1709
ailing	-11.1713
▁reduc	-11.1733
▁eras	-11.1736
▁Fri	-11.1737
▁Mess	-11.1742
▁Offi	-11.1744
▁decid	-11.175
▁Angelic	-11.1758
ini	-11.1758
onkey	-11.1769
▁195	-11.1775
ig	-11.1778
▁Edi	-11.1788
▁Woo	-11.179
▁bull	-11.179
elina	-11.179
▁Trott	-11.1791
pins	-11.1792
▁Gil	-11.1794
▁com	-11.18
▁literal	-11.1808
ha	-11.182
▁Core	-11.1832
▁resident	-11.1834
nois	-11.1844
▁dine	-11.1861
▁Lucia	-11.1867
▁masquerade	-11.1873
flo	-11.1875
▁Frances	-11.1882
nita	-11.1884
▁Arb	-11.1884
▁fat	-11.1892
ura	-11.1896
rift	-11.1897
▁guns	-11.19
stage	-11.1904
inkle	-11.191
▁Bay	-11.1916
▁Seven	-11.1916
rthern	-11.1918
▁Hills	-11.1919
▁Hild	-11.1944
mir	-11.1954
ern	-11.1958
lain	-11.1961
▁fur	-11.1968
laid	-11.1976
▁doors	-11.1994
▁zon	-11.201
▁admir	-11.2015
▁chains	-11.2016
boo	-11.2025
▁Gor	-11.203
aker	-11.2031
▁arouse	-11.2033
▁Georges	-11.2037
▁tall	-11.2048
lastic	-11.2049
▁40	-11.206
▁imp	-11.2066
BA	-11.2072
▁Bus	-11.208
▁horn	-11.2094
cora	-11.2095
agne	-11.2096
▁Peters	-11.2099
ned	-11.2101
human	-11.2103
ave	-11.2105
▁Kor	-11.2105
eign	-11.2113
▁Bot	-11.2114
▁decapitate	-11.2116
▁integr	-11.2122
▁harvest	-11.2124
▁Russia	-11.2133
▁hack	-11.2134
▁Medi	-11.2134
puta	-11.2138
▁scienti	-11.2143
▁flow	-11.2146
▁recommend	-11.2148
▁contest	-11.215
▁abort	-11.215
▁contempt	-11.2151
▁approval	-11.2151
▁Ventid	-11.2151
▁boulder	-11.2151
▁cricket	-11.2151
▁frustration	-11.2151
▁swamp	-11.2151
▁Colombia	-11.2151
▁shatter	-11.2151
▁obvious	-11.2151
▁suspend	-11.2151
▁goddess	-11.2151
▁persecut	-11.2151
▁pharmac	-11.2151
▁shaft	-11.2151
▁shepherd	-11.2151
▁Cotton	-11.2151
▁sweep	-11.2151
▁burden	-11.2151
▁elephant	-11.2151
▁Fuego	-11.2151
▁Travi	-11.2151
▁Candie	-11.2151
▁Mayflower	-11.2151
▁ancestor	-11.2151
▁Dalgar	-11.2151
▁convoy	-11.2151
▁unwitting	-11.2151
▁absent	-11.2151
▁Blackadder	-11.2151
▁enforce	-11.2151
▁brillian	-11.2151
▁Khali	-11.2152
▁Chichi	-11.2152
▁polite	-11.2152
▁Newcomer	-11.2152
▁Rosmer	-11.2152
▁Enzo	-11.2152
▁legitimate	-11.2152
▁composition	-11.2152
▁pagan	-11.2152
▁intimate	-11.2152
▁absolute	-11.2152
▁afford	-11.2152
▁parish	-11.2152
▁barrel	-11.2153
▁reception	-11.2153
▁cub	-11.2153
▁parlor	-11.2153
▁contestant	-11.2153
▁prosper	-11.2153
▁Eugenia	-11.2153
▁Again	-11.2153
▁trapping	-11.2153
▁Egyptian	-11.2154
▁Midian	-11.2154
▁dinosaur	-11.2154
▁descendant	-11.2155
▁fierce	-11.2155
▁civilian	-11.2155
▁politician	-11.2155
▁cruise	-11.2156
▁piano	-11.2156
▁salvage	-11.2157
▁option	-11.2157
▁budd	-11.2157
▁Helium	-11.2157
▁painful	-11.2157
▁lament	-11.2157
kins	-11.2159
misunderstanding	-11.2159
▁Fuzz	-11.2159
▁amateur	-11.2159
▁collide	-11.216
▁contradict	-11.216
▁snap	-11.216
▁musician	-11.2161
▁policy	-11.2161
▁Parson	-11.2162
ative	-11.2163
▁inhabit	-11.2163
▁immun	-11.2164
▁Pitt	-11.2164
▁Sugar	-11.2164
▁Haddon	-11.2166
▁Blake	-11.2167
▁conviction	-11.2168
▁stunn	-11.2169
▁Water	-11.2169
▁racis	-11.2169
▁somewhere	-11.217
▁Broom	-11.2172
gen	-11.2173
▁Terminat	-11.2175
▁Keat	-11.2177
▁Nua	-11.2177
▁rear	-11.2178
▁dust	-11.2179
horn	-11.2179
▁worship	-11.2184
▁Nation	-11.2185
▁hesitat	-11.2186
▁Space	-11.2188
▁conventional	-11.2188
▁vain	-11.2191
▁admirer	-11.2195
▁Bree	-11.2196
rivate	-11.2196
nnam	-11.2196
▁eve	-11.2199
▁Who	-11.2201
▁dish	-11.2201
▁Sel	-11.2201
▁Colo	-11.2203
▁Phaed	-11.2203
▁Skylar	-11.2204
▁Ahme	-11.2205
▁Elise	-11.2207
▁Hast	-11.2207
▁Ebb	-11.2208
▁Stella	-11.2214
▁trader	-11.2215
▁qualit	-11.2224
Fairy	-11.2224
oe	-11.2227
bilit	-11.2233
▁Fanc	-11.2233
Gregor	-11.2234
leader	-11.2234
▁Herr	-11.2236
deline	-11.2239
▁bully	-11.224
oga	-11.2241
place	-11.2241
▁internal	-11.2244
▁Lutha	-11.2244
▁lone	-11.2245
▁Hart	-11.2255
▁Yel	-11.2255
arious	-11.2256
▁Albr	-11.2257
▁musical	-11.2257
ana	-11.2276
averin	-11.2276
near	-11.228
▁Sk	-11.2282
centur	-11.2286
▁Alley	-11.2287
▁fisherm	-11.2288
▁Ocean	-11.2288
▁yell	-11.2288
▁Camp	-11.2291
ury	-11.2292
nx	-11.2294
▁helpless	-11.2295
▁Tama	-11.2299
▁Rust	-11.2304
▁covert	-11.2315
▁Slee	-11.2317
olverine	-11.2319
▁Pass	-11.2323
▁la	-11.2323
▁smok	-11.2326
▁Turne	-11.2331
▁citizen	-11.2336
gh	-11.2337
Writ	-11.2338
main	-11.2353
27	-11.236
anza	-11.2361
ai	-11.2366
erland	-11.2372
▁banish	-11.2375
▁500	-11.2378
▁partners	-11.2392
urd	-11.2393
▁smaller	-11.2396
joy	-11.2403
▁Berth	-11.2407
▁nav	-11.2415
▁Dina	-11.242
▁Tull	-11.242
sibl	-11.2421
py	-11.2426
▁dominate	-11.243
gment	-11.243
pache	-11.2431
▁stairs	-11.2436
▁Wallac	-11.2442
lus	-11.2442
eme	-11.2446
▁Myc	-11.2448
eath	-11.2449
▁Ul	-11.2449
▁lip	-11.2457
rah	-11.246
killer	-11.2462
▁manipulate	-11.2469
▁24	-11.247
▁cur	-11.2481
▁Cher	-11.2489
▁Cid	-11.2489
▁Nil	-11.2506
▁supporter	-11.2506
schy	-11.2507
▁Amad	-11.2507
▁rescuer	-11.2513
rel	-11.2519
anne	-11.2525
▁Ki	-11.2525
▁seduc	-11.2529
▁Fink	-11.253
▁Dominic	-11.2538
▁Trot	-11.2547
olf	-11.2548
▁Abu	-11.2549
▁Donald	-11.2551
tre	-11.256
▁Cas	-11.2564
▁Prey	-11.2564
▁Cu	-11.2566
mpress	-11.257
▁excelle	-11.2575
▁bite	-11.2577
eak	-11.2579
▁Yank	-11.2583
▁Liza	-11.2585
mina	-11.2596
▁beating	-11.2604
▁Lou	-11.2604
ister	-11.2612
▁stick	-11.2618
▁blam	-11.2624
▁Civil	-11.2625
vit	-11.2629
▁punch	-11.2639
opens	-11.2643
▁mostly	-11.2653
▁ignor	-11.2655
▁centre	-11.2657
▁Winst	-11.2657
rew	-11.2674
chi	-11.268
▁Tal	-11.2686
▁refugee	-11.2689
▁dash	-11.2693
▁Ron	-11.2697
▁griev	-11.2698
nia	-11.2711
▁Paramo	-11.2713
▁Wor	-11.2718
▁abusi	-11.2724
labell	-11.2724
▁sales	-11.2725
eaten	-11.2733
▁terrifi	-11.2753
ilit	-11.2763
ano	-11.2766
▁Battl	-11.2774
▁Hat	-11.2789
▁Plan	-11.2792
cta	-11.2798
je	-11.28
▁porn	-11.282
ni	-11.2822
▁Mid	-11.2826
ives	-11.2842
▁vest	-11.2853
▁Kra	-11.2854
rode	-11.2862
enzie	-11.2865
▁rag	-11.2867
uel	-11.2872
jor	-11.2874
▁exam	-11.2881
▁Xanth	-11.2882
▁Ging	-11.2895
vous	-11.2895
▁reform	-11.2896
▁rug	-11.2896
éri	-11.2903
▁mini	-11.2907
▁Hook	-11.2911
bend	-11.2911
▁fla	-11.2914
▁accomplish	-11.2916
▁solid	-11.2916
▁harass	-11.2916
▁Brito	-11.2917
▁fruit	-11.2917
▁quote	-11.292
nsylvania	-11.292
▁sweet	-11.292
▁pattern	-11.292
▁tattoo	-11.292
▁Ainslie	-11.292
▁Delamere	-11.292
▁Spaniard	-11.292
▁artifact	-11.292
▁collision	-11.292
▁grateful	-11.292
▁neglect	-11.292
▁revolt	-11.292
▁satellite	-11.292
cuba	-11.292
▁Federal	-11.292
▁crawl	-11.292
▁instinct	-11.292
▁Kemp	-11.292
▁benefact	-11.292
▁volume	-11.292
▁Field	-11.292
▁appall	-11.292
▁yield	-11.292
▁oblige	-11.292
▁granddaughter	-11.292
▁Swayz	-11.292
▁discharge	-11.2921
▁disregard	-11.2921
▁astonish	-11.2921
▁harbor	-11.2921
▁Alfio	-11.2921
▁exclusive	-11.2921
▁Tasso	-11.2921
▁psychological	-11.2921
▁fragment	-11.2921
▁Democra	-11.2921
▁fugitive	-11.2921
▁Rouge	-11.2921
▁criticize	-11.2921
▁biological	-11.2921
▁Tropic	-11.2921
▁dawn	-11.2921
▁prologue	-11.2921
▁imply	-11.2921
▁Carthag	-11.2922
▁hail	-11.2922
▁Merlin	-11.2922
▁Raquin	-11.2922
▁whisper	-11.2922
▁oath	-11.2922
▁intruder	-11.2922
▁celebrit	-11.2922
▁roommate	-11.2923
▁unique	-11.2923
▁variet	-11.2923
▁psychic	-11.2923
▁Brum	-11.2923
▁Brenda	-11.2923
▁Mor	-11.2923
▁dolphin	-11.2923
▁inspiration	-11.2924
▁stake	-11.2924
▁Franz	-11.2925
▁brick	-11.2925
mead	-11.2925
▁Madden	-11.2925
▁brace	-11.2925
▁endanger	-11.2925
▁golf	-11.2925
▁influen	-11.2926
▁skeleton	-11.2926
▁traged	-11.2926
▁Mosco	-11.2927
▁cancer	-11.2927
aynard	-11.2928
▁annual	-11.2928
shirt	-11.2928
▁criticism	-11.2928
▁Drake	-11.2928
▁grenade	-11.2928
▁Clayton	-11.2929
▁henchm	-11.2929
▁Minister	-11.293
▁worry	-11.2931
▁dug	-11.2932
▁weep	-11.2933
▁Member	-11.2933
▁portion	-11.2935
▁boil	-11.2935
▁careful	-11.2935
▁alternate	-11.2936
▁Crich	-11.2936
everend	-11.2936
▁unlock	-11.2939
▁glor	-11.2941
▁Venus	-11.2942
▁Lotte	-11.2943
▁Mow	-11.2944
▁bitte	-11.2944
▁breach	-11.2944
▁warden	-11.2945
skew	-11.2945
▁behave	-11.2946
▁motor	-11.2946
▁analys	-11.2946
▁Thanks	-11.2948
wie	-11.2952
▁hopeless	-11.2953
▁thirst	-11.2953
▁tentacle	-11.2953
▁Deput	-11.2953
magne	-11.2958
▁cooperate	-11.296
▁Worm	-11.296
cycle	-11.2961
▁Léon	-11.2963
zzar	-11.2963
▁independen	-11.2963
▁Bush	-11.2964
finn	-11.2967
▁Strans	-11.2968
▁Diana	-11.2971
▁troubles	-11.2975
▁panick	-11.2979
▁Kau	-11.2981
ulf	-11.2981
ippi	-11.2982
▁stealth	-11.2982
▁alias	-11.2985
▁lecture	-11.2987
▁collector	-11.2988
▁stall	-11.2992
▁Wes	-11.2993
fman	-11.2993
▁Mass	-11.3
▁Scro	-11.3005
▁Sophie	-11.3005
yward	-11.3011
▁laws	-11.3011
▁Equa	-11.3011
spirited	-11.3013
▁Nemo	-11.3021
▁Dame	-11.3023
min	-11.3023
▁Rah	-11.3026
AT	-11.3028
▁Bump	-11.3028
▁Famil	-11.3031
▁nann	-11.3032
net	-11.3037
▁measure	-11.3039
▁urg	-11.3042
▁Spl	-11.3042
sorcerer	-11.3043
▁Eas	-11.3043
▁crossing	-11.3046
▁Vos	-11.3047
appointment	-11.3052
▁asset	-11.3055
▁furni	-11.3055
-4	-11.306
aka	-11.3062
▁participat	-11.3064
▁ski	-11.3067
Brick	-11.3071
girl	-11.3071
teacher	-11.3073
door	-11.3073
▁Born	-11.3074
Z	-11.3075
▁fanc	-11.3079
▁baron	-11.308
▁Roa	-11.3082
hall	-11.3086
▁retaliate	-11.3088
oney	-11.3093
▁Min	-11.3096
▁mess	-11.3098
quin	-11.31
loo	-11.3104
river	-11.3106
▁Keit	-11.3117
▁anticipat	-11.312
pan	-11.3124
▁sufficient	-11.3128
▁renounce	-11.3131
look	-11.3137
▁cab	-11.314
▁Joel	-11.3149
▁Kha	-11.316
▁stair	-11.3165
ita	-11.3166
▁Bran	-11.317
▁operat	-11.3188
ult	-11.3195
▁copie	-11.3205
▁Joy	-11.321
▁Hand	-11.3219
riar	-11.3225
use	-11.3239
mela	-11.3242
▁conceive	-11.3245
▁ambushe	-11.3251
▁Patro	-11.3252
▁imaginati	-11.3255
▁Er	-11.3256
liant	-11.326
fe	-11.3263
▁assemble	-11.3264
witz	-11.327
dda	-11.3288
▁lama	-11.329
▁forgot	-11.3296
▁Rat	-11.3298
▁repent	-11.3304
eri	-11.3309
▁generat	-11.3319
▁Barone	-11.3322
leigh	-11.3332
▁thie	-11.3351
▁val	-11.3354
▁Vo	-11.3354
▁seiz	-11.3356
▁compet	-11.3363
▁Cath	-11.3364
▁Stro	-11.337
▁Harr	-11.3373
▁towns	-11.3377
istance	-11.3378
▁Oog	-11.3383
understanding	-11.3383
azar	-11.3388
▁Shan	-11.3393
▁motion	-11.3399
▁Jare	-11.3401
▁60	-11.3402
▁McCo	-11.3414
ota	-11.3423
adne	-11.3425
▁Kill	-11.344
▁empir	-11.344
catcher	-11.3449
▁decades	-11.3455
▁arrangements	-11.3456
burger	-11.3458
arada	-11.346
aunt	-11.3465
alia	-11.347
cord	-11.3473
▁domin	-11.3477
owl	-11.3482
▁Sadi	-11.3492
▁thin	-11.3493
▁Samu	-11.3496
▁den	-11.3496
ware	-11.3499
▁banishe	-11.35
▁Lars	-11.3508
▁suitabl	-11.3515
▁rais	-11.3522
bb	-11.3525
▁demons	-11.3529
▁cath	-11.3536
▁advertis	-11.3537
tive	-11.3538
▁prank	-11.3549
▁disclose	-11.3554
▁Santo	-11.3558
▁detaine	-11.357
▁Dat	-11.3577
▁ambu	-11.3582
term	-11.3592
▁Ac	-11.3593
tu	-11.3596
▁amuse	-11.36
▁Jar	-11.36
▁recogni	-11.3607
▁socially	-11.3618
▁Shir	-11.3627
crosse	-11.363
▁classic	-11.3639
andro	-11.3644
▁semi	-11.3647
iers	-11.3647
ream	-11.3659
tress	-11.3663
▁Ob	-11.3663
▁trans	-11.3664
▁cord	-11.3664
▁broke	-11.3665
ories	-11.3667
rizon	-11.3673
▁din	-11.3674
▁Main	-11.3675
▁batter	-11.3676
▁seclu	-11.3676
▁hol	-11.3685
▁medic	-11.3704
ically	-11.3705
▁Per	-11.3705
ntero	-11.3706
ook	-11.3707
tican	-11.3711
onic	-11.3713
nachron	-11.3717
▁convention	-11.3717
▁entertain	-11.3718
anity	-11.3719
▁log	-11.372
▁custom	-11.3721
▁Athen	-11.3728
▁secre	-11.3729
▁tip	-11.3731
actic	-11.3731
▁apolog	-11.3733
tump	-11.3744
▁counsel	-11.3746
▁convent	-11.3747
▁prophec	-11.3747
lous	-11.3748
elein	-11.3749
▁multi	-11.3751
allow	-11.3751
▁disdain	-11.3752
▁remorse	-11.3752
▁strateg	-11.3754
▁Desperate	-11.3754
▁Dietrich	-11.3754
▁Gauvain	-11.3754
▁Ishmael	-11.3754
▁Lectroid	-11.3754
▁Securit	-11.3754
▁guarantee	-11.3754
▁handcuff	-11.3754
▁picnic	-11.3754
▁prairie	-11.3754
▁remnant	-11.3754
▁striking	-11.3754
▁technique	-11.3754
▁Diamond	-11.3754
▁federal	-11.3754
▁landlady	-11.3754
▁uncomfortabl	-11.3754
▁recapture	-11.3754
▁scarab	-11.3754
▁mattress	-11.3754
▁syringe	-11.3754
▁automobile	-11.3754
▁disorder	-11.3754
▁entrust	-11.3754
▁Naomi	-11.3754
▁detach	-11.3754
▁mistreat	-11.3754
▁unfortunate	-11.3754
▁Otto	-11.3754
▁exclaim	-11.3754
▁steward	-11.3754
▁fifteen	-11.3754
▁Wonder	-11.3754
▁assailant	-11.3754
▁technical	-11.3754
ghast	-11.3754
▁lawsuit	-11.3754
▁sinister	-11.3754
▁Lambert	-11.3754
▁radical	-11.3754
▁droid	-11.3754
▁decay	-11.3754
▁verbal	-11.3754
▁regiment	-11.3754
▁Knut	-11.3754
▁Channard	-11.3754
▁cavern	-11.3755
▁redeem	-11.3755
▁bait	-11.3755
▁Iris	-11.3755
▁Jensen	-11.3755
▁Staff	-11.3755
▁feast	-11.3755
▁veil	-11.3756
▁Toulou	-11.3756
▁Evanthe	-11.3756
▁Tartar	-11.3756
▁Bernard	-11.3756
▁rehearsal	-11.3757
▁surf	-11.3757
▁tug	-11.3757
▁Gulf	-11.3757
▁continually	-11.3757
▁grue	-11.3757
gatt	-11.3757
▁Maynard	-11.3757
▁twist	-11.3758
▁Gib	-11.3758
▁apply	-11.3759
▁colonist	-11.3759
▁courtyard	-11.3759
oombe	-11.3759
▁bandit	-11.3759
▁monstro	-11.3759
▁Ferd	-11.3759
▁lamp	-11.376
▁Jester	-11.3761
▁PG	-11.3761
▁rampage	-11.3761
▁Building	-11.3761
▁Arrak	-11.3761
▁loot	-11.3762
▁invention	-11.3763
▁skeptical	-11.3763
▁cattle	-11.3763
▁Stock	-11.3763
▁smell	-11.3763
▁starship	-11.3764
▁lung	-11.3764
▁Creon	-11.3764
▁passport	-11.3765
▁Chev	-11.3765
▁nerve	-11.3765
▁Cross	-11.3766
▁cease	-11.3766
ring	-11.3767
▁simultaneous	-11.3767
▁grace	-11.3767
▁jur	-11.3768
▁Natalie	-11.3768
▁Dodger	-11.3769
▁Zero	-11.3769
▁eighteen	-11.377
▁Alph	-11.377
▁incriminat	-11.377
▁hideous	-11.3772
▁Puff	-11.3772
▁fade	-11.3774
▁globe	-11.3775
▁trauma	-11.3775
▁wallet	-11.3776
tyana	-11.3777
ffee	-11.3778
▁commitment	-11.378
▁Look	-11.3781
▁scam	-11.3783
ulcan	-11.3784
weller	-11.3784
▁Admi	-11.3784
▁eas	-11.3785
outhern	-11.3788
▁wield	-11.3789
▁fifth	-11.379
▁transmission	-11.379
▁lethal	-11.379
▁Belgi	-11.3792
▁digging	-11.3792
▁wheel	-11.3793
bush	-11.3793
▁inventor	-11.3794
▁counte	-11.3795
ernell	-11.3796
▁Senat	-11.3797
▁Canton	-11.3797
▁Mitchell	-11.3797
▁quarr	-11.3798
▁Borg	-11.38
▁Fire	-11.3802
▁Glend	-11.3803
▁dynami	-11.3806
▁Pall	-11.3808
▁coal	-11.3808
▁Charly	-11.3811
for	-11.3812
Stephan	-11.3813
riam	-11.3815
▁Squa	-11.3821
▁alternati	-11.3821
▁replac	-11.383
ovan	-11.383
race	-11.3833
▁Ira	-11.3834
▁lifetime	-11.3835
▁Dami	-11.3837
▁calculat	-11.3839
▁Dell	-11.384
far	-11.3843
▁Party	-11.3844
▁cla	-11.3844
res	-11.3846
▁Durand	-11.3848
spoken	-11.3848
▁motivate	-11.3849
▁vulnerab	-11.3851
▁pale	-11.3859
▁reassure	-11.3871
▁Zan	-11.3873
▁Tra	-11.3874
▁shy	-11.3876
▁optimis	-11.3877
▁ascend	-11.3883
▁reviv	-11.3884
nburg	-11.3894
lloq	-11.3896
▁Gross	-11.3896
▁blessing	-11.3896
▁chemical	-11.3898
▁bind	-11.39
ending	-11.3902
stitute	-11.3905
▁poster	-11.3909
lig	-11.391
▁Plant	-11.3918
▁pretens	-11.392
▁hungry	-11.3922
▁Barb	-11.3922
▁Chilt	-11.3927
allah	-11.393
bath	-11.3934
▁bless	-11.3935
▁Watch	-11.3936
▁bat	-11.3937
▁burnt	-11.3937
will	-11.3938
▁prett	-11.3939
▁total	-11.3942
breed	-11.3948
▁Made	-11.3948
onald	-11.3956
faithful	-11.3968
▁grands	-11.3972
▁freak	-11.3974
fashion	-11.3976
▁plea	-11.3978
▁Octavi	-11.3982
Queen	-11.3983
▁Rhode	-11.3984
hour	-11.399
othy	-11.3992
▁Part	-11.3992
▁Mae	-11.4004
▁Lambe	-11.4007
ologist	-11.4009
▁Dev	-11.4011
uncer	-11.4018
▁readers	-11.4021
▁vanishe	-11.4027
fen	-11.4028
▁mor	-11.4031
eract	-11.4033
ducation	-11.4035
▁impal	-11.4037
▁Garc	-11.4037
▁Web	-11.4042
uz	-11.4048
▁rigg	-11.405
▁decade	-11.4062
▁educat	-11.4064
▁Chap	-11.4073
oko	-11.4081
▁Belt	-11.4081
▁Rogu	-11.4086
▁relation	-11.4087
tro	-11.4091
▁arrangement	-11.4104
▁Verge	-11.411
▁Loui	-11.4112
▁Nan	-11.4114
ois	-11.4117
▁fort	-11.4118
▁descen	-11.4124
▁Rugg	-11.4127
▁Fen	-11.4127
▁Mach	-11.4128
▁ma	-11.4131
▁wandering	-11.4144
▁privately	-11.4144
▁Tr	-11.4147
▁Pol	-11.4155
▁charming	-11.4157
arily	-11.4158
▁Tia	-11.416
▁yard	-11.417
Gon	-11.4171
cific	-11.4173
▁Persia	-11.4175
▁Kayl	-11.4182
▁Kur	-11.4184
▁Nolan	-11.4185
▁assur	-11.4186
uvia	-11.419
ease	-11.4192
▁Lovel	-11.4192
▁ignit	-11.4195
▁sides	-11.42
▁arts	-11.4201
ud	-11.4204
unge	-11.4206
▁Havi	-11.4206
fel	-11.4208
▁Rey	-11.421
▁divid	-11.4211
ero	-11.4211
▁Math	-11.4225
▁analyze	-11.423
▁types	-11.423
▁Gunn	-11.4242
arras	-11.4246
▁slap	-11.4248
▁wrestl	-11.4249
▁Tour	-11.4259
▁Fam	-11.4261
lon	-11.4267
▁congratulate	-11.4274
▁concentrate	-11.4289
ze	-11.4295
gl	-11.4296
▁Swede	-11.4303
▁Judit	-11.431
▁mature	-11.4323
▁div	-11.4324
▁Pan	-11.4327
▁Wer	-11.4332
▁dock	-11.4339
▁focuse	-11.4339
▁13	-11.4341
via	-11.4348
▁positi	-11.4356
▁Ey	-11.4356
▁Og	-11.4356
▁Newt	-11.4367
▁appreciate	-11.4367
▁Bra	-11.4367
▁Kant	-11.437
▁impale	-11.4371
ander	-11.4372
▁retriev	-11.4377
▁Arn	-11.4389
sole	-11.4392
▁Asia	-11.4398
▁lur	-11.4401
▁Drav	-11.4406
▁bio	-11.4406
▁Nabo	-11.4412
tribution	-11.4416
ardo	-11.4416
aban	-11.4417
most	-11.4429
▁label	-11.4429
ttie	-11.4429
▁Rene	-11.4429
iller	-11.443
▁Mate	-11.4432
vett	-11.4433
▁Hear	-11.444
▁Stamp	-11.4446
▁casting	-11.4455
▁Beau	-11.4457
▁Sw	-11.4463
▁touche	-11.4467
▁Locke	-11.4472
hreck	-11.4486
▁submit	-11.4487
▁announc	-11.4495
▁missionar	-11.4495
▁idol	-11.4496
Y	-11.4503
▁raft	-11.4504
size	-11.4507
▁lov	-11.4512
las	-11.4514
▁stoo	-11.4519
▁gre	-11.452
aces	-11.4524
dder	-11.4527
▁Horsem	-11.4533
93	-11.4534
▁Moni	-11.4535
ccount	-11.4542
▁mix	-11.4549
amurai	-11.4559
▁reanimate	-11.456
▁Blackb	-11.4567
▁culminat	-11.4582
stro	-11.4582
▁slay	-11.4583
▁brown	-11.4584
▁junk	-11.4588
▁mog	-11.4591
▁Stev	-11.4594
▁Mos	-11.4594
gio	-11.4603
raft	-11.462
▁nurs	-11.4626
▁Wy	-11.463
ante	-11.4634
rocer	-11.4637
▁firefight	-11.4642
▁pond	-11.4645
lbatros	-11.4649
bbot	-11.4651
▁feud	-11.4655
▁Hunts	-11.4657
▁disagree	-11.4658
▁manifest	-11.4659
stoun	-11.4662
▁tempt	-11.4662
▁Immortal	-11.4663
▁homosexual	-11.4663
▁Eustace	-11.4663
▁Hospital	-11.4663
▁Subsequent	-11.4663
▁Tancred	-11.4663
▁apparatus	-11.4663
▁attribute	-11.4663
▁chagrin	-11.4663
▁curiosit	-11.4663
▁hesitant	-11.4663
▁inexplicabl	-11.4663
▁jilt	-11.4663
▁lieutenant	-11.4663
▁motivation	-11.4663
▁perpetrator	-11.4663
▁surprising	-11.4663
▁unjust	-11.4663
scrupulous	-11.4663
▁Bernardino	-11.4663
▁Lapham	-11.4663
▁entitle	-11.4663
▁premature	-11.4663
▁Addams	-11.4663
▁squirrel	-11.4663
▁Hopkins	-11.4663
▁counterfeit	-11.4663
▁crystal	-11.4663
▁fingerprint	-11.4663
▁parasite	-11.4663
▁province	-11.4663
▁parallel	-11.4663
▁expand	-11.4663
▁rumour	-11.4663
▁temperament	-11.4663
▁electronic	-11.4663
▁Crocker	-11.4663
▁snobb	-11.4663
▁discourage	-11.4663
▁HIV	-11.4663
▁Knox	-11.4663
▁bluff	-11.4663
▁genius	-11.4663
▁dozen	-11.4663
▁Spider	-11.4663
▁subplot	-11.4663
▁vicious	-11.4663
▁Carlisle	-11.4663
▁gunshot	-11.4663
▁blond	-11.4663
▁compass	-11.4663
▁osten	-11.4663
▁Zagon	-11.4663
▁homicid	-11.4664
▁fascinat	-11.4664
▁rebellion	-11.4664
▁Gudmund	-11.4664
▁android	-11.4664
▁random	-11.4664
▁limo	-11.4664
rado	-11.4664
▁Yaka	-11.4664
▁Luft	-11.4664
▁Irk	-11.4664
▁illusion	-11.4664
▁chicken	-11.4664
▁bunker	-11.4664
▁Cedar	-11.4664
▁conservative	-11.4664
▁Brock	-11.4664
▁warrant	-11.4664
▁Feather	-11.4664
▁Throg	-11.4664
▁rude	-11.4664
▁Overdo	-11.4665
▁stroll	-11.4665
▁confidant	-11.4665
▁stamen	-11.4665
▁Simp	-11.4665
▁advertisement	-11.4665
▁Candy	-11.4665
▁medicine	-11.4665
▁booby	-11.4666
▁lobby	-11.4666
▁cheerful	-11.4666
▁grip	-11.4666
▁lesion	-11.4666
▁progressive	-11.4666
▁Further	-11.4666
▁appropriate	-11.4666
▁intoxicat	-11.4667
▁naive	-11.4667
▁characteristic	-11.4667
▁Dream	-11.4668
▁Illi	-11.4668
▁beggar	-11.4668
▁narration	-11.4668
▁Eliza	-11.4668
▁sponsor	-11.4668
▁Frith	-11.4669
▁lust	-11.4669
▁incomplete	-11.4669
▁Royalton	-11.467
▁Steel	-11.467
▁medication	-11.467
▁amaz	-11.467
▁Half	-11.467
▁Cutter	-11.4672
▁Distra	-11.4672
▁Gusta	-11.4673
▁Demon	-11.4675
▁mastermind	-11.4677
wbac	-11.4677
▁Devi	-11.4677
▁Ayr	-11.4677
▁Maxim	-11.4677
ubor	-11.4677
▁conspira	-11.4678
▁lifeboat	-11.4679
ank	-11.4679
▁expectation	-11.4679
▁Virtue	-11.4679
▁cup	-11.468
ellar	-11.4681
▁Darling	-11.4682
▁Elton	-11.4682
quha	-11.4684
▁Circu	-11.4685
▁Brain	-11.4688
▁Grim	-11.4688
▁castaway	-11.469
▁firefighter	-11.4691
▁Spu	-11.4693
inald	-11.4693
▁Where	-11.4694
quet	-11.4699
saber	-11.4701
▁gap	-11.4701
▁embodie	-11.4702
▁parachute	-11.4702
▁flaw	-11.4703
▁Turtle	-11.4704
▁rally	-11.4705
▁obey	-11.4705
hard	-11.4705
-3	-11.4706
▁Jee	-11.4706
▁mystic	-11.4707
▁decapitat	-11.4708
achi	-11.4709
marita	-11.471
▁eternal	-11.4712
▁spar	-11.4713
▁Coff	-11.4713
▁offensive	-11.4713
▁unlike	-11.4714
solate	-11.4716
ttler	-11.4718
ci	-11.4718
▁invader	-11.472
▁CD	-11.4721
ladi	-11.4723
▁attain	-11.4724
▁expression	-11.4727
▁interact	-11.473
▁loop	-11.4733
rapy	-11.4734
▁sanctu	-11.4734
▁adviser	-11.4735
▁bo	-11.4735
▁explorer	-11.4736
▁Door	-11.4737
▁pinn	-11.474
▁None	-11.4741
▁convers	-11.4745
▁grabb	-11.4747
▁sack	-11.4749
▁Payn	-11.4752
▁Blanc	-11.4752
▁Fl	-11.4755
range	-11.4755
▁data	-11.4763
▁plunge	-11.4766
▁Liber	-11.4767
▁adventurer	-11.4768
umn	-11.477
▁gravit	-11.477
▁comical	-11.4772
▁dwell	-11.4772
drun	-11.4774
hoe	-11.4776
▁Dol	-11.4776
▁glimpse	-11.478
rd	-11.4782
requite	-11.4783
▁divulge	-11.4783
lis	-11.4784
▁Rem	-11.4789
▁administrati	-11.4793
▁opt	-11.4796
▁deed	-11.4797
▁valid	-11.4797
▁Lead	-11.4802
▁15-	-11.4812
▁IV	-11.4812
▁Easter	-11.4813
▁comrades	-11.4814
▁preferr	-11.4815
▁Heather	-11.4816
▁Rosal	-11.4817
▁Audr	-11.4823
▁dancer	-11.4828
lade	-11.483
▁Strang	-11.483
iard	-11.4836
▁absorb	-11.484
iberg	-11.4841
▁Sym	-11.4844
▁initiat	-11.4847
▁housekeep	-11.4852
▁Industri	-11.4855
▁Crai	-11.4857
13	-11.4857
▁Sher	-11.486
vian	-11.4872
▁boxer	-11.4876
UR	-11.4879
served	-11.4879
cock	-11.4888
▁vial	-11.489
▁interrogat	-11.4895
chard	-11.49
▁disfigure	-11.49
▁lit	-11.4909
tact	-11.491
▁Bann	-11.4911
▁behead	-11.4914
▁Hol	-11.4916
tious	-11.4919
▁inevitabl	-11.4919
▁bonds	-11.4923
▁Silvi	-11.4929
yo	-11.4931
▁Mir	-11.4933
▁distressed	-11.4935
▁stain	-11.4936
pupp	-11.4936
▁Fre	-11.4937
▁sew	-11.4938
▁Marla	-11.4939
▁balance	-11.4951
▁disintegrate	-11.4953
▁para	-11.4959
wise	-11.496
keep	-11.4963
▁Norri	-11.4965
▁Alv	-11.4968
▁enrage	-11.4971
proof	-11.4972
▁Fore	-11.4976
bot	-11.4977
▁reduce	-11.4982
white	-11.4983
husband	-11.4984
break	-11.4984
guard	-11.4987
26	-11.5007
▁Boo	-11.5007
▁dives	-11.5009
▁Crom	-11.5019
▁Cass	-11.502
▁consum	-11.5023
burn	-11.5024
eod	-11.5029
plet	-11.5054
▁hatch	-11.5056
▁spit	-11.5056
▁wet	-11.5065
idt	-11.5067
coat	-11.5068
fill	-11.5071
▁Cenobite	-11.5071
▁Mot	-11.5073
ug	-11.5078
▁preced	-11.5078
och	-11.5078
mann	-11.5079
▁Bennet	-11.5083
▁Gup	-11.5086
▁taxi	-11.5086
▁dispos	-11.5097
▁Bro	-11.5101
rrow	-11.5102
pic	-11.5104
▁organ	-11.5105
▁tease	-11.5108
oline	-11.5113
ould	-11.5119
ood	-11.512
▁dispatche	-11.5133
▁Baske	-11.5143
▁smashe	-11.5158
ias	-11.5162
scription	-11.5165
ago	-11.518
▁Domin	-11.5183
ydon	-11.5187
era	-11.5191
▁Pet	-11.5204
▁halt	-11.5204
▁presse	-11.5211
▁profile	-11.5217
▁milit	-11.522
▁Winters	-11.5225
going	-11.5227
▁Para	-11.523
▁Swi	-11.5232
▁Genes	-11.5236
▁emb	-11.5239
dell	-11.524
▁earning	-11.5245
▁Yanko	-11.5248
▁Balti	-11.5251
ille	-11.5252
▁Mose	-11.5257
▁Hogg	-11.5258
▁tent	-11.5259
▁Bli	-11.5267
▁deput	-11.5277
▁Tu	-11.5283
eacon	-11.5284
▁seru	-11.5284
mph	-11.5298
ju	-11.5305
oni	-11.5309
▁hallucinat	-11.531
▁Gorma	-11.5312
io	-11.5316
▁unite	-11.5316
▁Vill	-11.5317
▁aspir	-11.5319
nov	-11.5327
demic	-11.5328
▁chop	-11.5336
▁Azu	-11.5338
▁Down	-11.5338
say	-11.5343
▁defi	-11.5349
tom	-11.5352
iar	-11.5353
▁Farm	-11.5371
▁rank	-11.538
sham	-11.5389
▁ark	-11.5391
burg	-11.5396
▁exten	-11.5396
▁Verd	-11.5398
lar	-11.5407
▁Merc	-11.5407
mill	-11.541
sco	-11.5425
ows	-11.5426
iger	-11.5431
Hara	-11.5433
▁architect	-11.5437
▁par	-11.5439
▁breed	-11.5439
▁chape	-11.5444
▁retaliat	-11.5446
una	-11.5448
▁Hale	-11.5454
▁bother	-11.547
tender	-11.5472
chor	-11.5475
▁cha	-11.5476
▁Vel	-11.5478
▁ugl	-11.5485
▁arrow	-11.5486
▁interfer	-11.5486
▁mar	-11.5486
▁Alexandr	-11.5487
▁Pal	-11.5489
hey	-11.5491
nger	-11.5493
▁secur	-11.5493
▁Caspa	-11.5493
▁mistak	-11.5495
rio	-11.5503
hu	-11.5504
▁190	-11.5504
▁tir	-11.5506
rank	-11.5507
▁intens	-11.5508
ink	-11.5513
▁crab	-11.5517
pike	-11.552
▁disarm	-11.552
▁captiv	-11.5524
▁evolution	-11.5524
▁ent	-11.5527
▁gig	-11.5535
▁shak	-11.5542
aimed	-11.5542
▁Wo	-11.5549
▁startl	-11.5552
ociety	-11.5567
▁comic	-11.5567
▁forbid	-11.558
hermit	-11.5581
12	-11.5583
itz	-11.5584
▁Fra	-11.5604
▁sacrific	-11.561
▁Dana	-11.5613
▁liquid	-11.5622
mong	-11.5622
▁mechanic	-11.5623
▁vent	-11.5627
arrow	-11.5629
ego	-11.5635
▁invalid	-11.5636
▁contra	-11.5644
▁environmental	-11.5649
▁Tibet	-11.5653
▁Suga	-11.5654
▁por	-11.5655
▁marine	-11.5656
wynne	-11.5656
▁activit	-11.5657
▁Lil	-11.5658
▁rig	-11.5658
▁Rowland	-11.5659
▁adapt	-11.5659
orrifie	-11.5661
▁Opera	-11.5662
▁profession	-11.5663
▁Amphitryon	-11.5663
▁Antarctic	-11.5663
▁Mephisto	-11.5663
▁Michigan	-11.5663
▁Napoleon	-11.5663
▁Suspect	-11.5663
▁Zambinella	-11.5663
▁continent	-11.5663
▁dissipate	-11.5663
▁earthquake	-11.5663
▁horrify	-11.5663
▁incarcerat	-11.5663
▁negative	-11.5663
▁occupant	-11.5663
▁predicament	-11.5663
▁procure	-11.5663
▁reservation	-11.5663
▁talisman	-11.5663
▁telegram	-11.5663
▁Brazil	-11.5663
▁Schuyler	-11.5663
▁collaborat	-11.5663
▁vigorous	-11.5663
▁wheelchair	-11.5663
▁Odysse	-11.5663
▁Trojan	-11.5663
▁syndicate	-11.5663
▁uniform	-11.5663
▁unintentional	-11.5663
▁velvet	-11.5663
▁courier	-11.5663
▁sophisticat	-11.5663
▁Connecti	-11.5663
▁Dauphin	-11.5663
▁Government	-11.5663
▁Tripod	-11.5663
▁pizz	-11.5663
▁tropic	-11.5663
▁scuff	-11.5663
▁complication	-11.5663
▁hurl	-11.5663
▁pigeon	-11.5663
▁menacing	-11.5663
▁incarnat	-11.5663
▁tyrann	-11.5663
▁Touchwood	-11.5663
▁joking	-11.5663
▁congregation	-11.5663
▁blunt	-11.5663
▁1990	-11.5663
▁archaeologist	-11.5663
▁Tension	-11.5663
▁playwright	-11.5663
▁representative	-11.5664
▁Vikram	-11.5664
▁chimney	-11.5664
illan	-11.5664
▁Forestier	-11.5664
▁memoir	-11.5664
▁reconnect	-11.5664
▁divert	-11.5664
▁vital	-11.5664
▁Super	-11.5664
▁treacher	-11.5664
▁luxurious	-11.5664
▁implication	-11.5664
▁rooftop	-11.5664
▁Mammon	-11.5664
▁Japan	-11.5664
▁Dicta	-11.5664
▁excessive	-11.5664
▁eleven	-11.5664
▁bump	-11.5664
▁pig	-11.5665
▁Hobb	-11.5665
▁Brut	-11.5665
▁Moreau	-11.5665
▁puppet	-11.5665
▁Yankee	-11.5665
▁spill	-11.5665
▁radiation	-11.5666
▁detonator	-11.5666
fidi	-11.5666
evir	-11.5666
▁cannon	-11.5666
▁Regina	-11.5667
▁temptation	-11.5667
▁obsessive	-11.5667
▁potion	-11.5667
▁gear	-11.5668
▁specialist	-11.5668
▁adventurous	-11.5668
▁dull	-11.5668
▁elsewhere	-11.5668
▁insect	-11.5668
▁solicit	-11.5668
▁shun	-11.5669
▁swap	-11.5669
▁Marrow	-11.5669
▁incest	-11.567
▁pile	-11.567
▁solar	-11.567
▁inexperience	-11.567
▁demonic	-11.567
blaz	-11.567
▁Goose	-11.567
▁interaction	-11.5671
▁Walker	-11.5671
▁psychologi	-11.5671
▁Peru	-11.5671
▁disappointment	-11.5672
▁Myster	-11.5672
raine	-11.5672
▁Burgo	-11.5673
▁hardship	-11.5674
▁wagon	-11.5674
▁setback	-11.5674
▁essay	-11.5674
▁Thern	-11.5674
▁Alaska	-11.5675
▁injection	-11.5676
▁Mun	-11.5676
▁barrier	-11.5676
▁Town	-11.5677
esponden	-11.5677
▁shallow	-11.5679
▁Canad	-11.5679
achuset	-11.5679
▁merge	-11.5679
▁Discover	-11.568
▁Spur	-11.568
▁Wick	-11.568
uous	-11.568
mption	-11.5681
▁frontier	-11.5681
▁spark	-11.5682
▁Islam	-11.5682
▁fearful	-11.5683
▁Tato	-11.5683
▁Dora	-11.5684
▁fantastic	-11.5685
▁barricade	-11.5685
▁Twenty	-11.5686
▁unha	-11.5688
▁Volume	-11.5688
▁Derm	-11.5689
▁Pino	-11.5689
▁Rox	-11.569
▁deem	-11.569
▁Gaea	-11.569
▁Spring	-11.569
▁impression	-11.5691
▁verse	-11.5692
▁Raz	-11.5693
▁anchor	-11.5694
▁gagg	-11.5695
▁basic	-11.5697
entity	-11.5697
▁tribute	-11.5698
▁intimidate	-11.5703
ngler	-11.5703
▁creator	-11.5703
▁publication	-11.5706
▁inflict	-11.5706
▁disciplin	-11.5706
▁riddle	-11.5707
▁Weav	-11.5707
▁Hollow	-11.5709
▁Theatr	-11.5709
-10	-11.5711
▁Korea	-11.5712
▁sinner	-11.5715
▁rebuild	-11.5715
▁Milo	-11.5716
▁craz	-11.5717
▁fiction	-11.5719
▁sober	-11.572
▁Dah	-11.5721
▁drugg	-11.5721
▁Show	-11.5724
▁GE	-11.5727
▁Furt	-11.5728
▁Ida	-11.5728
ert	-11.5729
▁skipp	-11.5729
▁Bowl	-11.573
▁Mayhe	-11.5731
▁Dust	-11.5731
▁Andro	-11.5731
▁Ferrar	-11.5732
▁Harman	-11.5733
▁tactic	-11.5736
▁worsen	-11.5736
▁dedicated	-11.574
▁Zab	-11.574
▁speculate	-11.574
▁bann	-11.574
▁ancestr	-11.5741
▁button	-11.5741
▁recit	-11.5742
▁pla	-11.5744
▁rehab	-11.5751
▁Sé	-11.5755
▁Ventur	-11.576
▁peril	-11.5761
▁sport	-11.5761
▁Whi	-11.5762
zel	-11.5763
▁Krak	-11.5765
▁Palmyra	-11.5768
▁Giz	-11.5769
aughter	-11.5771
▁Adm	-11.5773
▁phase	-11.5774
▁rash	-11.5774
▁Wald	-11.5777
▁Bog	-11.5779
▁heroic	-11.578
▁Corneli	-11.5781
▁voluntar	-11.5782
▁hound	-11.5783
rative	-11.5784
▁height	-11.5785
▁Justin	-11.5787
▁crosse	-11.5789
▁lend	-11.5789
▁beam	-11.579
▁Wu	-11.5794
▁Floren	-11.5794
gale	-11.5797
▁string	-11.5797
▁Hadd	-11.5801
loy	-11.5814
▁Tre	-11.5817
egin	-11.5817
▁teen	-11.5822
nning	-11.5827
▁rede	-11.5829
SA	-11.5831
mura	-11.5833
U	-11.5835
▁Roll	-11.5842
▁pop	-11.5842
mez	-11.5844
▁anarchist	-11.5851
▁impersonate	-11.5853
▁Patt	-11.5854
▁Khle	-11.5854
▁Sau	-11.5865
▁Low	-11.5869
till	-11.587
▁Wr	-11.5873
▁Belle	-11.5873
▁Dolla	-11.5875
uta	-11.5875
usion	-11.5877
▁webs	-11.5878
wai	-11.5879
▁dry	-11.5882
etus	-11.5887
eval	-11.589
▁persuad	-11.589
▁correspond	-11.5892
▁fiance	-11.5892
▁Minne	-11.5893
▁terrifie	-11.5896
▁ironic	-11.5904
▁disapprov	-11.5904
▁vi	-11.5906
▁SS	-11.5909
▁Head	-11.5912
ejo	-11.5916
lla	-11.5919
▁slit	-11.5927
▁tax	-11.5931
ben	-11.5934
▁acquaint	-11.5936
▁stripp	-11.5938
▁Bet	-11.5939
▁era	-11.5953
rates	-11.5971
▁shard	-11.5972
▁framed	-11.5979
▁Ant	-11.5981
ris	-11.5984
20	-11.5984
▁rep	-11.5987
▁193	-11.5987
▁li	-11.5988
▁conc	-11.5992
▁Mook	-11.5994
▁expense	-11.5994
state	-11.6005
▁Cory	-11.6012
ressed	-11.6014
▁Manly	-11.6019
▁dil	-11.6022
▁Ame	-11.6026
▁sw	-11.6028
mede	-11.6032
etic	-11.6035
▁brag	-11.6041
▁cor	-11.6044
▁Tri	-11.6045
▁flu	-11.6046
▁Ska	-11.6051
▁Nim	-11.6057
ature	-11.606
agon	-11.6062
ebo	-11.6066
▁Lock	-11.6067
▁emba	-11.6078
level	-11.6079
uri	-11.6081
defense	-11.6085
ordina	-11.6086
▁activat	-11.6088
paper	-11.6091
▁commence	-11.6099
course	-11.6101
announce	-11.6103
tley	-11.6108
▁Hade	-11.6119
identifie	-11.612
▁Scot	-11.6124
unch	-11.6126
▁scout	-11.6128
▁Peac	-11.6133
tal	-11.614
▁MacL	-11.6144
▁slum	-11.6145
▁candle	-11.6147
▁phenomen	-11.6147
lando	-11.6148
▁Gene	-11.615
orsch	-11.616
▁wis	-11.6161
stick	-11.6165
▁Poe	-11.6166
▁300	-11.6167
▁Cru	-11.6168
sister	-11.6172
lation	-11.6175
▁stash	-11.6176
▁Flo	-11.6179
▁pal	-11.618
bie	-11.6187
▁rams	-11.619
▁Terri	-11.619
▁notion	-11.619
▁Band	-11.6205
bes	-11.6222
ax	-11.6225
▁grade	-11.6228
wry	-11.6239
▁Mah	-11.6242
ivo	-11.6242
remen	-11.6245
▁Tig	-11.6245
lick	-11.6246
▁Kiri	-11.625
▁strea	-11.6261
rover	-11.6267
sea	-11.6269
▁suite	-11.627
alty	-11.6271
32	-11.6272
vo	-11.6281
▁ridicule	-11.6285
elon	-11.6285
▁180	-11.6293
neas	-11.6293
▁repentan	-11.6295
▁disabl	-11.6296
▁marked	-11.6302
pin	-11.6305
▁Trade	-11.6309
▁pan	-11.6316
▁disguis	-11.6319
▁na	-11.6321
elling	-11.6325
nder	-11.6326
▁Edu	-11.6326
▁disappearing	-11.6327
▁bay	-11.6334
▁interst	-11.6334
▁Bron	-11.6339
▁hatche	-11.634
▁terminate	-11.6342
ayton	-11.635
▁Ib	-11.6353
▁Rosam	-11.6363
onymous	-11.6372
shed	-11.6373
▁forgiven	-11.6377
▁sta	-11.6377
motion	-11.6385
urora	-11.6387
▁Paz	-11.6389
our	-11.6393
▁barone	-11.6396
▁syn	-11.6401
▁pilla	-11.6404
▁glasse	-11.6406
sex	-11.6429
▁Vince	-11.6431
cognit	-11.6432
▁promot	-11.6447
▁mud	-11.6447
▁deteriorate	-11.6455
85	-11.6471
AP	-11.6474
▁Hamm	-11.6476
▁complie	-11.6478
▁Stand	-11.6486
▁Chet	-11.6492
▁forth	-11.6497
onica	-11.6502
own	-11.6511
▁Wom	-11.6517
▁Marcon	-11.6519
▁Budd	-11.652
▁tr	-11.653
▁gent	-11.6534
▁flam	-11.6538
▁su	-11.6545
▁observ	-11.6553
▁auto	-11.6571
▁robe	-11.6579
logical	-11.6579
ador	-11.6579
▁Constan	-11.6587
▁fetch	-11.6593
▁Lac	-11.6597
▁net	-11.66
▁Eu	-11.6602
▁luc	-11.6608
▁rail	-11.6611
▁Pur	-11.6616
▁sheet	-11.6617
lett	-11.6621
ition	-11.6623
▁preach	-11.6627
osaur	-11.663
▁Grove	-11.6635
▁plu	-11.6637
lves	-11.6645
cat	-11.665
eff	-11.6651
▁legion	-11.6668
▁Cai	-11.6687
▁Pai	-11.6691
▁satisfact	-11.6695
▁outrage	-11.6695
▁Ruf	-11.6697
lston	-11.6699
▁fog	-11.6702
▁attache	-11.6702
▁antic	-11.6703
▁CE	-11.6703
▁prostitut	-11.6705
▁desperat	-11.6708
74	-11.6712
▁Rhod	-11.672
▁etern	-11.6722
ew	-11.6724
▁hous	-11.6726
▁cove	-11.6728
rante	-11.6729
unit	-11.6729
▁Spar	-11.6729
▁reconcili	-11.6735
▁Pere	-11.6737
▁ripp	-11.6737
fold	-11.6741
▁Chit	-11.6744
azza	-11.6745
minded	-11.6746
▁Nau	-11.6748
▁Clemen	-11.6752
▁Amaz	-11.6753
▁extort	-11.6765
mobile	-11.6767
▁Lag	-11.6768
scribe	-11.6769
▁cra	-11.677
▁agitat	-11.6771
▁Tropi	-11.6773
gnosi	-11.6774
▁pseudo	-11.6774
▁Comanche	-11.6774
▁Fletcher	-11.6774
▁Gaveston	-11.6774
▁Intelligen	-11.6774
▁Pluto	-11.6774
▁Public	-11.6774
▁Scientist	-11.6774
▁Wentworth	-11.6774
▁apparition	-11.6774
▁chauffeur	-11.6774
▁choir	-11.6774
▁disciple	-11.6774
▁distrust	-11.6774
▁embryo	-11.6774
▁explicit	-11.6774
▁goblin	-11.6774
▁harbour	-11.6774
▁misfortune	-11.6774
▁mutilate	-11.6774
▁obstacle	-11.6774
▁premonition	-11.6774
▁prevail	-11.6774
▁privilege	-11.6774
▁propriet	-11.6774
▁shrimp	-11.6774
▁virtuous	-11.6774
▁bargain	-11.6774
▁reprimand	-11.6774
▁ribbon	-11.6774
▁unsuspect	-11.6774
munition	-11.6774
▁Gervais	-11.6774
▁malfunction	-11.6774
▁Dakota	-11.6774
▁wreak	-11.6774
▁blossom	-11.6774
▁enhance	-11.6774
▁ominous	-11.6774
▁Phoeb	-11.6774
▁Soldier	-11.6774
▁compartment	-11.6774
▁occupy	-11.6774
▁Dollmann	-11.6774
▁Narciss	-11.6774
▁rebellious	-11.6774
▁allegiance	-11.6774
▁premiere	-11.6774
▁convey	-11.6774
▁telegraph	-11.6774
▁coincidental	-11.6774
▁miracle	-11.6774
▁pearl	-11.6774
▁swarm	-11.6774
▁square	-11.6774
▁Walsh	-11.6774
▁courtesan	-11.6774
▁Girl	-11.6774
rophon	-11.6774
▁Collins	-11.6774
▁SEAL	-11.6774
▁coincidence	-11.6774
▁maneuver	-11.6774
▁gyps	-11.6774
▁Kristoff	-11.6774
▁reclaim	-11.6774
▁conquest	-11.6774
▁Harkonnen	-11.6774
▁Remember	-11.6774
▁Dodge	-11.6774
▁Broad	-11.6774
▁awful	-11.6775
▁profound	-11.6775
▁paternal	-11.6775
▁vague	-11.6775
▁basis	-11.6775
▁Section	-11.6775
▁Citizen	-11.6775
▁bookstore	-11.6775
▁prolong	-11.6775
▁1980	-11.6775
▁conference	-11.6775
▁unorthodox	-11.6775
▁Ameri	-11.6775
▁chastise	-11.6775
▁unmask	-11.6775
▁unhappi	-11.6775
▁Hamp	-11.6775
▁register	-11.6775
▁Rabb	-11.6775
▁incapa	-11.6775
▁crook	-11.6776
▁mishap	-11.6776
▁inferior	-11.6776
asket	-11.6776
▁moonlight	-11.6776
▁Eight	-11.6776
▁Canal	-11.6776
▁thou	-11.6776
▁Joad	-11.6777
▁drain	-11.6777
▁trench	-11.6777
▁Hinkle	-11.6777
▁division	-11.6777
frey	-11.6777
▁Selenite	-11.6777
▁cancel	-11.6777
▁reinforcement	-11.6777
▁forehead	-11.6778
▁evict	-11.6778
borg	-11.6778
▁rogue	-11.6778
▁verge	-11.6778
▁valet	-11.6779
▁Guardian	-11.6779
▁hospitaliz	-11.6779
▁Romulan	-11.6779
▁Iraqi	-11.6779
▁demonstration	-11.6779
▁Hawai	-11.6779
▁fifty	-11.6779
▁fireplace	-11.6779
▁Caspak	-11.678
▁outpost	-11.678
▁exploration	-11.678
▁discard	-11.6781
▁prosecution	-11.6781
vada	-11.6781
▁overthrow	-11.6781
▁Necro	-11.6781
bock	-11.6781
▁troll	-11.6782
toxic	-11.6782
▁Pride	-11.6783
▁jeweller	-11.6783
▁panel	-11.6783
▁Duma	-11.6783
▁counselor	-11.6783
▁McCrea	-11.6783
▁ash	-11.6785
aturin	-11.6785
▁arrogant	-11.6785
▁sacr	-11.6787
▁Lumber	-11.6788
▁Cras	-11.6789
▁anxiety	-11.6789
▁Eng	-11.679
▁spurn	-11.679
▁dissolve	-11.6791
▁anthropo	-11.6791
▁Syria	-11.6792
▁lap	-11.6792
▁resurrection	-11.6792
▁Brinker	-11.6793
▁Plum	-11.6793
omb	-11.6794
nesia	-11.6794
uchot	-11.6795
▁Northern	-11.6795
▁Grie	-11.6795
▁scold	-11.6795
▁Edge	-11.6795
▁wrapp	-11.6796
▁bliss	-11.6796
▁Southern	-11.6797
▁Paw	-11.6797
▁Zach	-11.6798
▁outspoken	-11.6798
▁stern	-11.6799
▁merry	-11.6802
▁prot	-11.6803
▁Bette	-11.6804
▁traumatiz	-11.6804
▁Alc	-11.6806
▁Order	-11.6806
▁Honor	-11.6806
▁Raf	-11.6807
▁Dolor	-11.6808
▁Wenne	-11.6809
▁bold	-11.6809
uitcase	-11.681
▁Swee	-11.6811
▁purported	-11.6811
▁Lucien	-11.6812
▁careless	-11.6813
▁Of	-11.6815
▁Clan	-11.6816
▁Sex	-11.6817
▁surfer	-11.6818
▁trance	-11.6819
▁Zeal	-11.682
▁saint	-11.6821
▁pupil	-11.6823
▁unicorn	-11.6823
▁cloak	-11.6824
▁adjust	-11.6824
▁Chill	-11.6826
▁tooth	-11.6827
▁Columbia	-11.6828
▁Rham	-11.6828
usins	-11.683
olation	-11.683
▁decorat	-11.6833
drid	-11.6833
▁patch	-11.6834
▁dread	-11.6835
▁Room	-11.6836
▁adamant	-11.6837
grot	-11.6839
▁dad	-11.684
▁academic	-11.6841
▁Hagg	-11.6841
▁Shao	-11.6848
▁Amand	-11.685
lines	-11.6852
hild	-11.6856
▁Mira	-11.6856
af	-11.6859
du	-11.686
gging	-11.6862
▁Roche	-11.6865
▁mild	-11.6866
▁bone	-11.6871
▁bor	-11.6872
vig	-11.6873
ternal	-11.6878
▁soil	-11.6878
verage	-11.6881
▁11-	-11.6882
election	-11.6882
▁Gremlins	-11.6888
▁mare	-11.689
olphin	-11.689
▁Carrie	-11.6892
▁Dilling	-11.6895
▁Christo	-11.6895
▁Philo	-11.6898
-5	-11.69
▁profess	-11.69
▁sheep	-11.69
▁Conce	-11.6903
qui	-11.6909
▁foe	-11.691
▁publisher	-11.6911
▁foul	-11.6911
▁Robes	-11.6912
▁rocks	-11.6913
orphic	-11.6914
▁traveller	-11.6914
▁blade	-11.6914
asia	-11.6914
▁Page	-11.6915
irline	-11.6935
▁confiscate	-11.6936
althy	-11.6937
▁preserv	-11.694
▁galle	-11.6941
cester	-11.6942
▁amid	-11.6942
▁despi	-11.6943
ween	-11.6945
hei	-11.6946
▁locker	-11.6948
▁Donal	-11.6949
▁widower	-11.6951
▁ja	-11.6953
ocket	-11.6956
▁Rio	-11.6966
▁enslave	-11.6966
▁induce	-11.6966
▁Graves	-11.6975
▁Bev	-11.6976
ingham	-11.6983
▁automatic	-11.6988
▁cryptic	-11.6989
▁shoe	-11.699
▁distribute	-11.6995
ryn	-11.6997
▁mil	-11.7001
▁Him	-11.7006
cer	-11.7012
▁Rack	-11.7015
eeling	-11.7016
▁mom	-11.7019
▁Calla	-11.7028
▁specializ	-11.7031
▁Bl	-11.7033
▁worri	-11.7038
uji	-11.7039
auk	-11.7042
▁substan	-11.7043
ume	-11.7045
▁homestead	-11.7047
▁Ashb	-11.7053
▁grass	-11.7055
▁repuls	-11.7071
▁Hold	-11.7071
ape	-11.7072
▁Ring	-11.7075
roo	-11.7076
▁electrocut	-11.7077
▁Last	-11.7078
lith	-11.7079
▁Inde	-11.7079
▁pier	-11.7083
▁Mayb	-11.7084
▁mouse	-11.7086
hest	-11.7088
▁prosecut	-11.7089
▁arous	-11.7089
nine	-11.7094
▁wager	-11.7096
▁Chu	-11.7099
▁Garbe	-11.7104
tors	-11.7118
▁Isle	-11.7121
works	-11.7121
▁utter	-11.7127
▁Ste	-11.7129
▁undo	-11.7129
▁gunne	-11.7129
▁invad	-11.713
▁jam	-11.714
ashi	-11.7152
dog	-11.7157
eep	-11.7162
ji	-11.7166
▁Fest	-11.7175
eeth	-11.7175
tten	-11.7176
▁Nicola	-11.7177
▁Beaut	-11.7179
▁reminiscen	-11.7181
▁summar	-11.7185
ucas	-11.7188
▁sphere	-11.7191
ph	-11.72
▁consummate	-11.7201
▁Aren	-11.7202
▁Nort	-11.7205
lack	-11.7207
get	-11.7217
lover	-11.7221
▁cran	-11.7227
▁Lim	-11.7227
▁chast	-11.723
odor	-11.7231
ven	-11.7233
▁prime	-11.7236
▁stor	-11.724
▁examin	-11.7252
rant	-11.7255
▁posit	-11.7256
mise	-11.7256
▁honorabl	-11.7257
▁centers	-11.7258
rollo	-11.726
▁Byr	-11.7261
nic	-11.7265
forth	-11.7271
▁regime	-11.7275
▁nun	-11.728
▁Dis	-11.7281
▁Missi	-11.7286
▁shoulder	-11.7289
▁Seam	-11.7291
▁duke	-11.7292
tain	-11.7293
revel	-11.7296
hamberlain	-11.7311
halt	-11.7314
▁trades	-11.7314
dan	-11.7317
16	-11.7318
The	-11.7319
▁Gala	-11.7323
▁Alg	-11.7324
ierre	-11.7325
being	-11.7327
▁joint	-11.7329
▁Heart	-11.7333
▁Lightnin	-11.7338
famous	-11.7341
boyfriend	-11.7343
adventure	-11.7344
▁pett	-11.7345
speak	-11.735
▁inquire	-11.735
enchant	-11.7352
▁stable	-11.7357
ides	-11.7358
stance	-11.7373
olog	-11.7374
▁Wis	-11.7375
five	-11.7376
Ren	-11.7377
cli	-11.7382
person	-11.7383
▁realis	-11.7387
watch	-11.7387
▁moor	-11.7387
▁smash	-11.7389
Jas	-11.7394
imita	-11.7394
riz	-11.7394
▁Marcel	-11.7397
▁infuriat	-11.7402
▁supervis	-11.7409
delle	-11.7411
base	-11.7412
Ger	-11.7414
▁desir	-11.7417
▁evad	-11.7418
▁Tas	-11.7419
▁Light	-11.7427
▁pregnanc	-11.7428
50	-11.7429
▁Salt	-11.7433
▁Strac	-11.7435
▁poorly	-11.7444
cott	-11.7446
belle	-11.745
▁Ellis	-11.7458
▁revel	-11.7462
▁Gag	-11.747
satisfy	-11.747
erge	-11.7471
▁str	-11.7473
ogen	-11.7481
enen	-11.7481
ude	-11.7489
▁Poly	-11.7495
▁provoke	-11.7501
rned	-11.7501
▁touching	-11.7517
▁ordina	-11.7525
otter	-11.753
jay	-11.7531
▁ficti	-11.7536
▁berate	-11.7546
▁canal	-11.755
▁crippl	-11.7557
▁recogniz	-11.7564
▁Il	-11.7564
▁wage	-11.7565
▁loser	-11.7575
▁Strange	-11.7576
▁Carro	-11.7577
late	-11.7577
▁wit	-11.7583
mire	-11.7584
▁Bash	-11.7589
rang	-11.7592
▁Fat	-11.7592
▁libert	-11.7595
llman	-11.7603
ada	-11.7607
reacher	-11.7608
▁organiz	-11.761
éodor	-11.7612
▁Cloo	-11.7613
ttle	-11.7613
air	-11.7613
0	-11.7617
▁Kes	-11.7618
▁rever	-11.7619
▁sp	-11.7625
50,000	-11.7629
▁Centur	-11.7638
▁helm	-11.7639
▁rekindle	-11.767
nium	-11.7677
▁progresse	-11.7678
▁Henri	-11.7681
fons	-11.7683
akov	-11.7686
iko	-11.7686
▁smo	-11.769
▁Wilm	-11.7692
▁simulat	-11.7693
wi	-11.7696
▁Patri	-11.7703
▁pledge	-11.7703
cil	-11.7722
wain	-11.7726
▁evolve	-11.7733
dvance	-11.7734
▁mutate	-11.7738
iner	-11.7751
▁Mist	-11.7753
key	-11.7754
▁Lys	-11.7756
▁Hur	-11.776
ria	-11.7763
homet	-11.7764
enme	-11.7766
▁cata	-11.7768
rrick	-11.7769
▁destitut	-11.7773
▁hike	-11.7778
▁vet	-11.778
▁Wolve	-11.7781
▁crypt	-11.7786
▁Child	-11.7789
q	-11.7791
▁Cou	-11.7802
▁enabl	-11.7809
ooper	-11.781
▁impersonat	-11.7811
▁chimp	-11.7825
▁aim	-11.7826
▁operatives	-11.7827
▁battles	-11.7833
heba	-11.7836
▁Linn	-11.7837
avoc	-11.784
▁translat	-11.7841
▁summ	-11.7843
▁fram	-11.7848
destine	-11.786
ula	-11.7866
▁Ah	-11.7876
▁sorcere	-11.7878
▁Maid	-11.7885
▁lik	-11.7895
▁Que	-11.7896
phan	-11.7898
mate	-11.7899
wit	-11.79
▁boo	-11.7917
▁Sai	-11.7919
amo	-11.792
waite	-11.792
▁depend	-11.7924
sight	-11.7924
anctu	-11.7925
03	-11.793
▁recite	-11.793
▁publishe	-11.7931
hias	-11.7945
▁marquis	-11.7946
▁compel	-11.7951
ving	-11.7952
▁Seat	-11.7957
▁Til	-11.7957
▁deceiv	-11.7961
ological	-11.7969
▁econom	-11.797
antic	-11.7973
vy	-11.7975
trim	-11.7979
ho	-11.7984
▁debri	-11.7985
▁Whate	-11.7987
▁Surr	-11.7989
▁undertake	-11.7995
ace	-11.7995
▁clo	-11.7997
▁Im	-11.8004
▁convenien	-11.8006
▁volcan	-11.8011
▁republic	-11.8014
▁genero	-11.8015
rustrate	-11.8016
▁amaze	-11.8019
▁Electr	-11.802
apid	-11.802
▁Spec	-11.8021
ervo	-11.8021
▁Barsoom	-11.8022
ampton	-11.8022
▁resource	-11.8022
▁intima	-11.8022
arbas	-11.8023
ommittee	-11.8023
▁SQUID	-11.8024
▁occupation	-11.8024
▁vomit	-11.8024
▁Désirs	-11.8024
▁Higgin	-11.8024
▁Kafir	-11.8024
▁activis	-11.8024
▁competitor	-11.8024
▁ecsta	-11.8024
▁embezzle	-11.8024
▁grotesque	-11.8024
▁lavish	-11.8024
▁mischievous	-11.8024
▁scissor	-11.8024
▁thirteen	-11.8024
▁unfamiliar	-11.8024
▁combination	-11.8024
▁gossip	-11.8024
▁monarch	-11.8024
▁Maitland	-11.8024
▁application	-11.8024
▁outnumber	-11.8024
▁exotic	-11.8024
▁squeez	-11.8024
▁marvel	-11.8024
▁Minute	-11.8024
▁mechanism	-11.8024
▁LeMarc	-11.8024
▁Sloan	-11.8024
▁Campbell	-11.8024
▁ambiguous	-11.8024
▁Phra	-11.8024
▁consolation	-11.8024
▁bystander	-11.8024
▁chariot	-11.8024
▁Tassel	-11.8024
▁fourteen	-11.8024
▁charisma	-11.8024
▁regroup	-11.8024
budget	-11.8024
▁caution	-11.8024
▁Beetle	-11.8024
▁Molina	-11.8024
▁financier	-11.8024
▁Demetri	-11.8024
▁derelict	-11.8024
▁laundry	-11.8024
▁eavesdrop	-11.8024
▁judgment	-11.8024
▁creep	-11.8024
▁reproach	-11.8024
▁echo	-11.8024
▁applie	-11.8024
▁perception	-11.8024
▁labour	-11.8024
▁steadfast	-11.8024
▁miraculous	-11.8024
▁bureau	-11.8024
▁transaction	-11.8024
▁Lipnick	-11.8025
▁boast	-11.8025
▁humorous	-11.8025
▁Oligarch	-11.8025
▁glove	-11.8025
▁Littlewit	-11.8025
▁cashier	-11.8025
▁enigma	-11.8025
▁hobo	-11.8025
▁endorsement	-11.8025
▁premise	-11.8025
angeli	-11.8025
▁spree	-11.8025
▁Operation	-11.8025
▁Vampire	-11.8025
▁Championship	-11.8025
COM	-11.8025
▁Team	-11.8025
▁crucifix	-11.8025
▁Daemon	-11.8025
▁vagrant	-11.8025
rstr	-11.8025
▁Blithe	-11.8025
▁navigation	-11.8025
▁Confederate	-11.8025
▁Herku	-11.8025
▁seduction	-11.8025
ucci	-11.8025
▁email	-11.8026
▁brood	-11.8026
▁botche	-11.8026
▁incense	-11.8026
▁peep	-11.8026
▁treacherous	-11.8026
▁grasp	-11.8026
▁tolerate	-11.8026
▁Eam	-11.8026
▁Ground	-11.8026
▁defiant	-11.8026
▁divers	-11.8026
▁Shaki	-11.8027
▁Chlo	-11.8027
▁perpetual	-11.8027
▁theatrical	-11.8027
▁improvise	-11.8027
▁unemploy	-11.8027
▁Derby	-11.8027
▁Think	-11.8027
▁vacan	-11.8027
▁Quick	-11.8027
▁occurrence	-11.8027
▁notebook	-11.8027
▁revision	-11.8028
▁Belding	-11.8028
▁Universal	-11.8029
▁Att	-11.8029
▁preface	-11.8029
▁Guilla	-11.8029
ourage	-11.8029
▁Kapl	-11.803
timid	-11.803
▁Loam	-11.803
▁intensif	-11.803
▁Strat	-11.803
▁sca	-11.8031
▁mood	-11.8031
▁investor	-11.8031
▁relentless	-11.8031
▁unnerv	-11.8032
▁Copper	-11.8032
▁Ludo	-11.8032
▁Third	-11.8032
▁cl	-11.8032
▁pawn	-11.8032
▁feign	-11.8033
▁indirect	-11.8033
▁unchar	-11.8033
▁invest	-11.8034
▁Shang	-11.8034
ccent	-11.8034
▁Runner	-11.8035
nomic	-11.8035
▁headache	-11.8036
▁terroriz	-11.8036
▁overlook	-11.8037
▁Chime	-11.8037
▁oar	-11.8037
▁weakness	-11.8038
▁Parthian	-11.8038
▁implor	-11.8039
▁indulge	-11.8039
▁epic	-11.8039
▁outcast	-11.8039
▁deposition	-11.804
▁seventeen	-11.804
▁Roulet	-11.804
▁Fairies	-11.8041
▁Thiba	-11.8041
topia	-11.8042
▁magician	-11.8042
▁Prat	-11.8042
▁meat	-11.8043
▁Jemi	-11.8043
▁sketch	-11.8044
▁Solo	-11.8044
▁Ork	-11.8045
ken	-11.8046
▁Gilli	-11.8047
▁obsession	-11.8047
▁Libya	-11.8047
▁Luna	-11.8048
▁Grow	-11.8048
▁theorize	-11.8048
▁Cadi	-11.8049
▁persistent	-11.8049
▁Bap	-11.8051
▁rate	-11.8051
▁prof	-11.8052
▁Cash	-11.8052
plug	-11.8053
▁Leona	-11.8053
▁confidential	-11.8054
ect	-11.8054
▁certif	-11.8055
avern	-11.8055
▁overnight	-11.8056
uhl	-11.8056
▁alley	-11.8057
▁freezer	-11.8057
▁dart	-11.8057
▁Stripe	-11.8059
▁battleship	-11.806
▁biker	-11.8061
▁incompetent	-11.8061
gym	-11.8063
▁highest	-11.8065
xter	-11.8065
▁keen	-11.8065
▁instructor	-11.8066
▁weigh	-11.8066
▁incite	-11.8067
▁seance	-11.8068
▁strapp	-11.8069
▁strap	-11.807
▁garb	-11.8071
▁upbr	-11.8072
▁graz	-11.8073
inus	-11.8073
▁mechanical	-11.8075
▁trainee	-11.8075
▁venti	-11.8077
▁chemist	-11.808
▁sixteen	-11.808
▁boom	-11.808
▁colour	-11.808
▁proposition	-11.808
▁suffocat	-11.808
▁sixth	-11.808
▁Pav	-11.8081
cela	-11.8081
▁cheek	-11.8082
▁Yard	-11.8082
▁steam	-11.8083
▁Winkie	-11.8083
▁translation	-11.8087
▁vigilante	-11.8088
▁avert	-11.8088
▁Squi	-11.8089
▁projection	-11.809
▁restless	-11.8091
aissa	-11.8095
▁EN	-11.8096
▁swift	-11.8097
archa	-11.8099
▁Sicil	-11.8101
▁fier	-11.8102
▁petition	-11.8103
eta	-11.8103
▁smuggler	-11.8106
carlet	-11.8109
▁dissolut	-11.811
▁prayer	-11.8114
jm	-11.8114
▁defin	-11.8114
reek	-11.8115
▁layer	-11.8116
▁Cushing	-11.8116
▁capo	-11.8117
▁Tor	-11.812
▁Titani	-11.8122
▁adore	-11.8124
fa	-11.8125
▁clergy	-11.8126
▁graduat	-11.8126
▁growth	-11.813
PO	-11.8138
▁culminate	-11.8138
▁Pierc	-11.814
▁Alm	-11.8142
▁fist	-11.8144
zes	-11.8145
▁orang	-11.8147
▁bug	-11.8147
-8	-11.8148
▁choke	-11.8148
▁dresse	-11.815
RE	-11.8159
▁Alth	-11.816
▁autop	-11.816
▁Studi	-11.8162
▁callous	-11.8163
▁Butter	-11.8168
▁stretch	-11.8169
▁miscarri	-11.817
▁blank	-11.8175
broker	-11.8176
▁1960	-11.8178
▁corporation	-11.8179
flag	-11.8179
▁Mission	-11.8181
▁tramp	-11.8181
▁derive	-11.8184
orizon	-11.8184
MS	-11.8185
▁groom	-11.8185
▁Cup	-11.8187
kut	-11.8188
▁Johann	-11.8189
▁Tink	-11.8191
▁Syb	-11.8192
▁spi	-11.8193
▁Weh	-11.8195
▁convenient	-11.8196
▁Reev	-11.8199
▁grim	-11.8202
llor	-11.8203
▁Tat	-11.8209
mur	-11.8211
▁Carna	-11.8212
▁morph	-11.8215
▁cling	-11.8219
▁jailer	-11.8224
tcliff	-11.8227
step	-11.8227
▁trooper	-11.8228
▁gala	-11.8232
▁endless	-11.8239
agan	-11.8239
▁Choi	-11.8241
mid	-11.8241
▁Stain	-11.8244
▁salar	-11.8246
▁racial	-11.8248
▁enamo	-11.8249
otta	-11.8251
▁animate	-11.8251
iliar	-11.8254
▁400	-11.8256
▁Noel	-11.8256
▁Zord	-11.8259
▁excited	-11.8261
pac	-11.8261
▁Tham	-11.8263
▁mal	-11.8263
▁Nebr	-11.8264
therland	-11.8264
hallenge	-11.8264
▁28	-11.8268
▁Lucie	-11.827
▁propos	-11.8273
▁irritat	-11.8284
▁Heller	-11.8285
▁transmitt	-11.8296
▁token	-11.8297
▁Kir	-11.8299
▁Bu	-11.8305
▁diploma	-11.831
artill	-11.8312
Goo	-11.8316
ference	-11.832
▁unusually	-11.8321
▁Jeanni	-11.8328
ncourt	-11.833
▁Wyn	-11.8332
mbo	-11.8335
nym	-11.8343
▁Ein	-11.8344
▁Dunn	-11.8345
lane	-11.8348
▁goat	-11.835
aternal	-11.8351
▁26	-11.8357
▁Roqu	-11.8357
▁Ang	-11.836
▁Mala	-11.8364
addam	-11.8366
▁coerce	-11.8377
▁viewer	-11.8379
▁Eag	-11.8379
lier	-11.8386
▁Selde	-11.8386
▁overturn	-11.8387
roe	-11.8393
▁Horse	-11.8395
▁improved	-11.8396
roving	-11.84
87	-11.8401
ko	-11.8407
▁tryst	-11.8419
nosaur	-11.8423
otel	-11.8424
itude	-11.8424
▁Shay	-11.8429
onstitution	-11.8434
▁usual	-11.8436
▁Regis	-11.844
▁undete	-11.8446
▁wa	-11.8447
▁Lysi	-11.8447
▁Fion	-11.8452
▁Kua	-11.8455
▁grieve	-11.8459
▁Downe	-11.846
▁denounce	-11.8468
orde	-11.8476
▁cru	-11.8479
▁Penn	-11.8482
▁Curr	-11.8485
▁enthusiastic	-11.8498
▁remarrie	-11.8503
zy	-11.8506
▁pie	-11.8506
▁Read	-11.8507
sque	-11.8509
▁McC	-11.851
▁sculpt	-11.8514
▁Viking	-11.8516
▁biograph	-11.8519
▁Nebu	-11.8523
licit	-11.8526
rnia	-11.853
▁antagonist	-11.8534
▁appreciati	-11.8538
▁Linu	-11.8539
24	-11.8545
▁contemplat	-11.8545
▁Helm	-11.8547
ctic	-11.8552
▁Theo	-11.8564
rench	-11.8564
lli	-11.8566
▁gr	-11.8568
imou	-11.8571
▁challeng	-11.8577
har	-11.8579
▁span	-11.8579
▁Sens	-11.8582
▁Voo	-11.8583
▁wand	-11.8584
▁sh	-11.859
ider	-11.8591
▁minds	-11.8598
▁las	-11.8605
iam	-11.8607
▁ridicul	-11.8609
▁coax	-11.861
▁compromise	-11.8613
▁Molo	-11.8614
aving	-11.8614
▁Wel	-11.8618
shine	-11.8622
▁rub	-11.8623
Rei	-11.8632
▁Marti	-11.8643
▁riches	-11.8648
▁molest	-11.8661
ku	-11.8663
▁keeper	-11.8669
▁incapacitate	-11.8672
Bri	-11.8672
count	-11.8683
▁bend	-11.8691
▁Galli	-11.8703
grade	-11.8705
▁Pie	-11.8718
▁ignite	-11.8718
ali	-11.872
▁locke	-11.8723
▁reliev	-11.8725
ston	-11.8727
educat	-11.873
fil	-11.8732
little	-11.8738
with	-11.8742
▁Marn	-11.8744
▁Cook	-11.8746
▁Bio	-11.8748
▁inner	-11.8749
▁distinguish	-11.8751
dollar	-11.8753
fr	-11.8754
Donald	-11.8755
▁achiev	-11.8756
▁forger	-11.8756
rdain	-11.8759
X	-11.8761
proclaim	-11.8762
aria	-11.8765
market	-11.8766
nter	-11.877
birth	-11.8772
Martin	-11.8774
strong	-11.8775
▁relieve	-11.8775
17	-11.8776
plot	-11.8778
▁Scots	-11.8779
different	-11.8779
case	-11.878
▁Clare	-11.8782
storm	-11.8785
owa	-11.8787
▁Dent	-11.8787
▁Clo	-11.8794
ubbin	-11.8795
▁Move	-11.8795
▁Harve	-11.8798
▁Mori	-11.8806
▁Dre	-11.8807
moor	-11.8808
scrap	-11.8809
19	-11.8811
asca	-11.8819
Man	-11.8822
march	-11.8823
▁Glenn	-11.8828
nature	-11.8832
30	-11.8832
▁conform	-11.8834
triker	-11.8835
opper	-11.8836
▁conspire	-11.8844
ka	-11.8852
amine	-11.8855
▁salt	-11.8882
▁Magu	-11.8884
ack	-11.8888
have	-11.8893
ap	-11.8896
▁dare	-11.8899
orporation	-11.8901
▁Gran	-11.8902
tire	-11.8903
icit	-11.8914
tha	-11.8919
▁Ern	-11.8922
▁Ald	-11.8923
current	-11.8924
▁Rei	-11.8928
▁graduati	-11.8931
▁heredit	-11.8931
▁Vic	-11.8943
cus	-11.8949
ulliv	-11.8952
▁Laws	-11.8952
thal	-11.8959
tches	-11.8962
▁Levi	-11.8963
pot	-11.8966
▁cannibal	-11.8974
▁kinsm	-11.8974
abil	-11.8982
mark	-11.8982
▁smuggle	-11.8989
11	-11.9003
war	-11.9012
▁tender	-11.9013
ement	-11.9016
abrin	-11.9021
▁reclus	-11.9024
▁Una	-11.9025
▁pupp	-11.9027
▁frog	-11.9029
yle	-11.9038
▁slashe	-11.9041
▁etc	-11.9052
▁ro	-11.9072
▁Fu	-11.9072
▁Fan	-11.9081
▁perceiv	-11.9088
umbr	-11.9093
▁chat	-11.9096
omen	-11.9099
▁Vala	-11.911
lama	-11.9112
holo	-11.9112
▁Dori	-11.9113
untle	-11.9118
▁aux	-11.9122
kas	-11.9123
ears	-11.9123
▁Fish	-11.913
▁Ab	-11.9133
▁anticipate	-11.9133
duct	-11.9134
emm	-11.9148
▁Fro	-11.9151
iver	-11.9152
inosaur	-11.9153
costa	-11.9154
dote	-11.9155
upper	-11.9163
ij	-11.9164
oire	-11.9174
aga	-11.9177
ebru	-11.9179
▁Beg	-11.9182
▁summari	-11.9182
▁establishe	-11.9184
▁addresse	-11.9187
zio	-11.9192
▁mode	-11.9192
▁Trad	-11.9194
▁emerg	-11.9203
▁Rho	-11.9205
▁Legio	-11.9209
▁Lens	-11.9212
▁casualt	-11.9221
tree	-11.9226
valle	-11.9229
octrine	-11.924
ft	-11.9244
cque	-11.9249
EA	-11.925
▁Marco	-11.9253
▁Krist	-11.9254
idge	-11.9258
▁conversi	-11.9261
ila	-11.9262
erous	-11.9263
ltar	-11.9265
▁professe	-11.9271
eau	-11.9278
▁Tit	-11.9283
▁propel	-11.9287
15	-11.929
▁carniv	-11.9296
▁crushe	-11.9301
▁scalp	-11.9304
▁Pyr	-11.9313
esser	-11.9315
▁Spirit	-11.9316
▁penetrate	-11.9322
doo	-11.9325
slave	-11.9336
▁Mem	-11.9338
▁Steph	-11.9349
▁arch	-11.935
▁Phi	-11.9351
luck	-11.9352
▁Lando	-11.9353
▁shin	-11.9355
▁featur	-11.9356
ht	-11.9358
▁Pl	-11.9361
▁Kn	-11.9364
né	-11.9368
riot	-11.9369
▁Garb	-11.9369
horfin	-11.9373
▁unrest	-11.938
▁drama	-11.9382
▁necessit	-11.9386
▁braver	-11.9387
urst	-11.9396
ssistant	-11.9399
▁swor	-11.94
▁advis	-11.9404
▁intellect	-11.9406
▁wak	-11.941
▁Ple	-11.941
velin	-11.9414
venant	-11.9415
▁spoke	-11.9415
levo	-11.9421
rchy	-11.9422
▁psycho	-11.9424
allies	-11.9426
▁villa	-11.9428
▁trait	-11.9428
▁cri	-11.943
▁Wale	-11.9434
▁readi	-11.9434
aska	-11.9434
▁impro	-11.9435
steps	-11.944
modo	-11.9441
▁Fitz	-11.9442
▁govern	-11.9442
▁Psycho	-11.9443
pecul	-11.9443
▁Titan	-11.9446
▁marsh	-11.9446
ilde	-11.9446
▁Salam	-11.9447
▁Brink	-11.9447
▁badge	-11.9447
▁reinforce	-11.9448
▁skate	-11.9451
▁crucifi	-11.9451
▁feat	-11.9451
▁excess	-11.9451
terrane	-11.9452
ienne	-11.9452
mptu	-11.9452
mmediate	-11.9452
▁reconn	-11.9452
Ques	-11.9452
urname	-11.9452
▁Afghan	-11.9452
▁Cochran	-11.9452
▁DVD	-11.9452
▁Graboid	-11.9452
▁Hardcastle	-11.9452
▁Kittredge	-11.9452
▁Picture	-11.9452
▁Rigazzi	-11.9452
▁Virgil	-11.9452
▁Yusuf	-11.9452
▁administrator	-11.9452
▁adolescen	-11.9452
▁bourgeois	-11.9452
▁concubine	-11.9452
▁decisive	-11.9452
▁endeavour	-11.9452
▁facehugger	-11.9452
▁flamethrower	-11.9452
▁hypocris	-11.9452
▁insomnia	-11.9452
▁instrument	-11.9452
▁nanomite	-11.9452
▁pamphlet	-11.9452
▁participant	-11.9452
▁predecessor	-11.9452
▁provincial	-11.9452
▁qualify	-11.9452
▁reconsider	-11.9452
▁rupture	-11.9452
▁sarcastic	-11.9452
▁terrify	-11.9452
▁Nesbit	-11.9452
▁accumulat	-11.9452
▁administer	-11.9452
▁athlete	-11.9452
▁autopilot	-11.9452
▁concoct	-11.9452
▁transvesti	-11.9452
▁Fortunat	-11.9452
▁bequeath	-11.9452
▁collateral	-11.9452
▁illuminat	-11.9452
▁Prophet	-11.9452
▁appetite	-11.9452
▁cardinal	-11.9452
▁genteel	-11.9452
▁Antioch	-11.9452
▁detour	-11.9452
▁Clasky	-11.9452
▁Minneapolis	-11.9452
▁Snark	-11.9452
▁bucket	-11.9452
▁cocktail	-11.9452
▁ravine	-11.9452
▁embroi	-11.9452
▁Tudor	-11.9452
▁chef	-11.9452
▁sentiment	-11.9452
▁impulsive	-11.9453
▁devout	-11.9453
▁mutin	-11.9453
▁twentie	-11.9453
▁Marquis	-11.9453
▁abundant	-11.9453
▁Open	-11.9453
▁immigrant	-11.9453
▁dilemma	-11.9453
▁trivial	-11.9453
▁Treverton	-11.9453
▁bundle	-11.9453
▁staunch	-11.9453
▁turtle	-11.9453
▁benevolen	-11.9453
ravag	-11.9453
▁module	-11.9453
▁Regula	-11.9453
▁decompress	-11.9453
▁pilgrim	-11.9453
▁disconnect	-11.9453
▁Asgard	-11.9453
▁thermal	-11.9453
▁bloom	-11.9453
▁ghetto	-11.9453
▁Mental	-11.9453
▁Abdul	-11.9453
▁glee	-11.9453
▁reef	-11.9453
▁vegetable	-11.9453
▁satire	-11.9453
▁tendenc	-11.9453
▁haul	-11.9453
▁deliri	-11.9453
▁prejudice	-11.9453
▁Watergate	-11.9453
▁reassign	-11.9453
▁testifie	-11.9453
▁Centaur	-11.9453
▁subterrane	-11.9453
▁context	-11.9453
▁corral	-11.9453
▁Septim	-11.9453
utsk	-11.9453
▁Deetz	-11.9453
▁Mulbridge	-11.9453
▁civilisation	-11.9453
▁straw	-11.9453
▁Beaumont	-11.9453
▁pour	-11.9453
▁hollow	-11.9453
▁Hussein	-11.9453
▁1970	-11.9453
▁fulfilment	-11.9453
▁discredit	-11.9454
▁plunder	-11.9454
▁earring	-11.9454
▁Forsyth	-11.9454
▁refine	-11.9454
▁Prize	-11.9454
▁Shadow	-11.9454
Fitzwill	-11.9454
▁dissatisf	-11.9454
▁deploy	-11.9454
▁1950	-11.9454
▁Ascani	-11.9454
▁coronet	-11.9454
▁horizon	-11.9454
igne	-11.9454
▁Foot	-11.9454
▁crude	-11.9455
▁Blunder	-11.9455
▁astound	-11.9455
▁erratic	-11.9455
▁Frog	-11.9455
▁tongue	-11.9455
▁Issus	-11.9455
▁sequel	-11.9455
▁railway	-11.9455
▁thrust	-11.9455
libi	-11.9455
▁cinema	-11.9456
▁Sedge	-11.9456
▁courageous	-11.9456
▁slim	-11.9456
▁paralyz	-11.9456
▁meditation	-11.9457
▁bolt	-11.9457
▁prick	-11.9457
▁Wal	-11.9457
▁suppress	-11.9457
▁Austrian	-11.9457
▁toilet	-11.9457
▁enroll	-11.9457
▁hallway	-11.9458
▁possessive	-11.9458
▁idle	-11.9458
▁fruitless	-11.9458
▁manifestation	-11.9459
▁Flam	-11.9459
▁nomad	-11.946
▁recommendation	-11.946
▁donation	-11.946
▁Pirate	-11.9461
▁supervisor	-11.9461
▁Right	-11.9461
hiri	-11.9461
▁disagreement	-11.9461
▁hairdr	-11.9461
▁unfold	-11.9462
▁guess	-11.9462
▁soap	-11.9462
▁deaf	-11.9462
▁Teton	-11.9463
grine	-11.9463
▁stow	-11.9463
▁Fern	-11.9463
▁handgun	-11.9463
ibbe	-11.9463
▁republican	-11.9463
▁declaration	-11.9464
▁bestow	-11.9464
▁zoo	-11.9464
▁Fishb	-11.9464
cue	-11.9464
▁affluen	-11.9464
▁frank	-11.9465
▁restart	-11.9465
▁Tuck	-11.9465
rolet	-11.9466
dang	-11.9466
▁peer	-11.9467
gaud	-11.9467
▁Bristo	-11.9468
▁philosophical	-11.9468
▁Former	-11.9469
▁collective	-11.947
▁filmmaker	-11.947
gallow	-11.947
try	-11.9471
▁canister	-11.9471
▁Dadd	-11.9472
▁Skull	-11.9472
▁Osnom	-11.9472
llac	-11.9472
▁hover	-11.9472
▁reserved	-11.9472
▁mono	-11.9473
▁creative	-11.9474
▁stir	-11.9475
▁backfire	-11.9475
▁Ridd	-11.9477
▁Naj	-11.9477
adua	-11.9477
▁programmer	-11.9477
▁patien	-11.9477
▁stunt	-11.9478
▁advisor	-11.9478
▁dwarf	-11.9479
▁Armada	-11.948
▁maul	-11.9481
duke	-11.9481
▁mast	-11.9481
▁Clean	-11.9482
▁Leban	-11.9483
▁acquitt	-11.9483
▁Swanson	-11.9483
▁disk	-11.9483
▁Sleep	-11.9485
▁Jung	-11.9485
▁Hort	-11.9485
▁Dix	-11.9486
▁cough	-11.9486
▁canoe	-11.9487
▁outlook	-11.9487
▁revert	-11.9488
▁substitute	-11.9489
▁sensor	-11.9489
▁pause	-11.949
rake	-11.9492
▁Palo	-11.9493
▁barge	-11.9494
▁Terran	-11.9495
▁warship	-11.9497
▁airplane	-11.9497
Connell	-11.9497
phis	-11.9498
▁Carteret	-11.9498
▁Schre	-11.9498
▁deport	-11.95
▁Murd	-11.9503
icate	-11.9503
▁afterlife	-11.9503
kaya	-11.9503
▁satisfie	-11.9506
▁lurk	-11.9509
▁Cuban	-11.9509
laughter	-11.9509
▁distinct	-11.951
▁Kay	-11.9511
▁recuperate	-11.9512
▁Valor	-11.9512
▁Portug	-11.9513
▁Sister	-11.9514
▁Tiggy	-11.9515
▁Bright	-11.9515
▁broad	-11.9516
▁Phan	-11.9516
wing	-11.9517
▁cautious	-11.9518
▁Kuwait	-11.9518
▁delusion	-11.9518
▁typical	-11.952
▁void	-11.952
▁obligation	-11.952
▁2000	-11.9521
▁Zi	-11.9522
▁tether	-11.9524
oru	-11.9524
▁breast	-11.9525
▁amiabl	-11.9529
▁doctrine	-11.9532
▁colonel	-11.9533
▁coven	-11.9533
▁complaint	-11.9535
rove	-11.9535
▁Rough	-11.9535
▁minim	-11.9536
arcel	-11.9537
▁poll	-11.9539
▁murderous	-11.9542
▁Cary	-11.9544
▁fox	-11.9546
▁dear	-11.9549
▁Clori	-11.955
▁Guin	-11.9551
bearer	-11.9554
▁wealthie	-11.9556
▁Keene	-11.9557
▁mist	-11.9558
▁sorrow	-11.9558
▁transpire	-11.9559
▁Hul	-11.9562
ogan	-11.9562
▁Skar	-11.9565
▁Prior	-11.9567
mad	-11.9567
▁Human	-11.9568
ik	-11.9568
▁Tarle	-11.9576
▁Consul	-11.9582
wall	-11.9585
pre	-11.9586
-11	-11.9586
▁stag	-11.9587
avan	-11.9588
▁periodical	-11.9588
qua	-11.9589
▁Cleon	-11.959
lands	-11.959
▁photographer	-11.9594
▁Test	-11.9595
▁ambassador	-11.9597
▁Cave	-11.9597
▁swords	-11.9598
uth	-11.96
▁Work	-11.96
alize	-11.96
▁chrom	-11.9607
▁Bone	-11.9609
▁battery	-11.9611
▁protector	-11.9611
rise	-11.9617
icy	-11.962
cast	-11.9623
tyco	-11.9624
▁Accompan	-11.9624
▁consequent	-11.9627
▁Buddhis	-11.9627
▁violate	-11.9632
▁gender	-11.9632
▁Thro	-11.9632
▁org	-11.9633
▁timeline	-11.9634
moise	-11.9635
▁pian	-11.9638
tail	-11.9638
iri	-11.9643
▁salv	-11.9644
▁gro	-11.9644
▁Alp	-11.9649
stalker	-11.9659
▁dose	-11.9659
▁Pelo	-11.9662
14	-11.9664
▁lash	-11.9667
ata	-11.9667
WA	-11.9668
▁Parr	-11.9668
gers	-11.9668
▁curs	-11.9671
57	-11.9672
▁ab	-11.968
urney	-11.9681
▁env	-11.9682
lore	-11.9687
▁Rea	-11.9689
tating	-11.969
fragil	-11.9692
▁Rim	-11.9692
▁pa	-11.9693
confiden	-11.9694
▁aide	-11.9694
igate	-11.9699
▁powered	-11.9704
▁tourists	-11.9705
rete	-11.9707
▁somewh	-11.9711
▁whisk	-11.9711
eti	-11.9719
▁rely	-11.972
▁Lero	-11.9723
▁und	-11.9724
▁incorporate	-11.9725
▁evacuati	-11.9733
▁hurrie	-11.9734
▁adj	-11.9745
▁fung	-11.9746
ngton	-11.9755
patia	-11.9755
▁sentenc	-11.9756
▁pants	-11.9757
▁pr	-11.9761
▁chim	-11.9761
▁ta	-11.9763
▁20-	-11.9764
▁ob	-11.9765
hildren	-11.9767
cutt	-11.977
▁crate	-11.9775
▁Kh	-11.9777
dru	-11.9777
▁Dena	-11.978
rmida	-11.9781
taple	-11.9789
▁Sibe	-11.979
▁patrioti	-11.9794
▁suck	-11.9796
▁Wyb	-11.9797
rov	-11.9798
▁Loo	-11.9804
mache	-11.9808
▁import	-11.9814
▁Georgian	-11.9819
orrow	-11.9819
iddler	-11.9821
▁Quar	-11.9825
▁pranks	-11.9826
▁pornograph	-11.983
raw	-11.9832
2-	-11.9833
osto	-11.984
▁Dup	-11.985
▁performer	-11.9853
▁Hacke	-11.9857
▁tight	-11.9859
▁Bull	-11.9868
yson	-11.987
tangle	-11.988
▁deteriorat	-11.9886
▁Fac	-11.9887
▁mythic	-11.9888
thouse	-11.9889
▁incinerate	-11.9894
80	-11.9912
▁slash	-11.9913
omte	-11.9916
▁Psa	-11.9916
▁fo	-11.9918
ovi	-11.9921
▁fend	-11.9921
turned	-11.9923
helm	-11.9946
▁Antoni	-11.9947
▁sat	-11.9957
▁Mom	-11.9961
ingro	-11.9962
▁pursuer	-11.9963
phe	-11.9963
eria	-11.9965
▁pyr	-11.9969
▁aspire	-11.9971
scot	-11.9974
▁rational	-11.9975
▁decre	-11.9989
▁affi	-11.9991
▁humiliati	-11.9992
▁cooperati	-12.0004
ewcomer	-12.0016
▁Tir	-12.0018
▁Ak	-12.0019
▁cam	-12.0024
▁Gates	-12.0029
▁McG	-12.003
▁proven	-12.0031
school	-12.0031
▁concentrat	-12.0032
▁matur	-12.0033
aud	-12.0038
eparation	-12.005
ques	-12.0055
▁cre	-12.0063
zz	-12.0063
▁rust	-12.0067
wart	-12.0068
▁Aye	-12.0069
▁Dic	-12.0071
rendel	-12.008
wed	-12.008
vil	-12.0095
▁imperi	-12.0097
▁Virgini	-12.01
▁compete	-12.0103
lk	-12.0106
▁Dragons	-12.0107
▁evacuat	-12.0115
oc	-12.0118
bus	-12.012
mie	-12.0123
lti	-12.0127
▁Winds	-12.0129
page	-12.013
▁Zor	-12.0132
▁Nel	-12.0137
▁physici	-12.0143
▁Forge	-12.0143
▁Stor	-12.015
▁Cre	-12.0151
ama	-12.0155
▁Blu	-12.0157
▁disbelie	-12.0157
thetic	-12.0157
meter	-12.0163
▁Bac	-12.0167
▁Haw	-12.0169
mec	-12.0169
aw	-12.0177
dolf	-12.0182
ckey	-12.0183
reat	-12.0186
elle	-12.0191
▁Mysti	-12.0199
dows	-12.0208
bat	-12.0213
▁conscript	-12.0224
▁Dunwi	-12.0228
40	-12.0229
lay	-12.0232
▁dro	-12.0236
▁Greysto	-12.024
▁poke	-12.0248
▁fieldwork	-12.0251
tala	-12.0264
▁depriv	-12.0265
▁MI	-12.0273
are	-12.0287
▁bl	-12.0289
▁Chop	-12.0295
mac	-12.0298
▁preache	-12.0312
temper	-12.0316
▁ye	-12.0317
▁illustrat	-12.0318
▁Fur	-12.0329
▁ep	-12.033
▁demonstrat	-12.0332
examin	-12.0334
▁phenomena	-12.0336
historic	-12.0336
boro	-12.0338
skinn	-12.0338
mele	-12.0341
▁thr	-12.0343
▁esp	-12.0345
▁erase	-12.0352
rcher	-12.0362
▁dedicati	-12.0364
CB	-12.0366
mpas	-12.0369
▁Zoo	-12.0371
▁bac	-12.0382
▁Heroin	-12.0384
▁Carre	-12.0386
▁salesm	-12.0388
wear	-12.0389
regime	-12.0391
tag	-12.0392
rational	-12.0392
waiter	-12.0394
MI	-12.0405
laba	-12.0406
▁Ore	-12.0412
apping	-12.0416
▁Pit	-12.0416
▁industrial	-12.0417
hold	-12.0417
▁solv	-12.0417
unny	-12.042
▁Bee	-12.0425
beast	-12.0426
uggin	-12.0429
Bride	-12.0433
avail	-12.0433
trap	-12.0434
President	-12.0439
church	-12.0439
view	-12.0441
tation	-12.0441
▁compromis	-12.0444
immer	-12.0444
Old	-12.0446
debt	-12.0447
command	-12.0447
protect	-12.0448
explain	-12.0448
standing	-12.0462
hem	-12.0463
▁brib	-12.0464
coach	-12.0465
finish	-12.0466
▁Bi	-12.0467
text	-12.0467
▁Kla	-12.0468
convince	-12.0474
mach	-12.0475
cio	-12.0475
jack	-12.0489
▁surmise	-12.0489
month	-12.0499
itt	-12.0502
hn	-12.0504
earing	-12.051
notice	-12.0514
▁Kni	-12.0519
tis	-12.052
▁ram	-12.0522
▁cliffs	-12.0522
▁Rub	-12.0522
▁reminisce	-12.0522
ola	-12.0524
▁amus	-12.0528
54	-12.0531
▁Diony	-12.0536
equal	-12.0541
mulat	-12.0549
▁Chi	-12.0553
▁encourag	-12.0557
eject	-12.0557
servant	-12.0558
▁Gate	-12.056
fail	-12.057
onia	-12.0571
▁cro	-12.0572
naka	-12.0576
▁Sen	-12.0582
erman	-12.0582
drift	-12.0585
▁condo	-12.0587
▁chor	-12.0592
jaz	-12.0594
▁187	-12.0595
ction	-12.0598
ept	-12.06
▁Wind	-12.0612
style	-12.0615
int	-12.062
▁whal	-12.0624
▁infect	-12.0631
▁submissi	-12.0632
pend	-12.0633
▁Tere	-12.0641
bell	-12.0642
▁bli	-12.0643
▁Zy	-12.0648
▁Bask	-12.0657
▁electrocute	-12.0668
uc	-12.0677
handed	-12.0677
rso	-12.0678
▁disfigur	-12.0682
ographic	-12.0683
ddie	-12.0689
ip	-12.0696
▁Div	-12.0696
▁excit	-12.0698
rium	-12.07
▁cooperat	-12.073
stable	-12.0731
▁metamorphos	-12.0731
▁Ce	-12.0732
parents	-12.0738
▁splash	-12.074
▁spins	-12.0741
▁diplomat	-12.0743
▁Till	-12.0746
oven	-12.0747
▁neo	-12.0751
Me	-12.0756
has	-12.0766
▁Journ	-12.0769
▁Ola	-12.0774
▁shad	-12.0779
chen	-12.0787
▁Tani	-12.0796
hair	-12.0797
▁parti	-12.0798
▁automat	-12.0802
trophy	-12.0803
erial	-12.0803
holder	-12.0806
▁Barn	-12.0807
▁visual	-12.0817
▁collaps	-12.0819
tech	-12.0823
mira	-12.0827
ique	-12.0829
▁gon	-12.0837
88	-12.0838
▁tempora	-12.0839
▁Panz	-12.0843
▁ap	-12.0843
▁Reform	-12.085
hearing	-12.0852
▁clutche	-12.0861
▁Bold	-12.0865
iction	-12.0865
olo	-12.0873
▁Beat	-12.0877
▁Sak	-12.0877
58	-12.0881
▁improv	-12.0891
▁chopp	-12.0892
▁Off	-12.09
▁Johan	-12.0903
nity	-12.0905
▁Tec	-12.0906
▁hijack	-12.0914
olun	-12.0919
▁Mathe	-12.0922
▁cycl	-12.0922
▁fold	-12.0925
abid	-12.0937
▁Midw	-12.0939
35	-12.0943
cience	-12.0947
tallion	-12.0956
▁Mond	-12.0961
▁Pha	-12.0964
▁Saw	-12.0967
rity	-12.0967
▁Dub	-12.0968
▁Chamber	-12.0973
▁Have	-12.0974
▁tabl	-12.0974
▁accord	-12.0974
shaw	-12.0976
▁enthusias	-12.098
laps	-12.0982
cour	-12.0984
mega	-12.0984
vush	-12.0987
ator	-12.0987
▁gri	-12.099
▁Inter	-12.0992
▁Yan	-12.0994
▁chronic	-12.1004
▁brush	-12.1006
▁exception	-12.1011
▁sue	-12.1012
tine	-12.1014
▁Hen	-12.1019
▁dyna	-12.102
pendi	-12.1021
uspicious	-12.1023
chille	-12.1023
inning	-12.1024
dependent	-12.1024
▁permit	-12.1026
furiate	-12.1029
morous	-12.1029
▁skip	-12.1037
ello	-12.1039
▁sensation	-12.1044
hog	-12.1047
▁Stein	-12.1048
▁Put	-12.1049
▁Wai	-12.105
▁suicid	-12.1052
ource	-12.1054
▁rebuil	-12.1054
▁Minn	-12.1054
▁suppose	-12.1056
tale	-12.1056
gged	-12.1062
▁Aud	-12.1063
nik	-12.1064
enger	-12.1064
▁Ag	-12.1065
ieger	-12.1068
▁Tita	-12.1068
▁snatch	-12.1071
▁slam	-12.1071
mpernel	-12.1075
etting	-12.1075
ower	-12.1076
▁Rudol	-12.1079
▁Lanc	-12.1085
▁persist	-12.1086
▁radi	-12.1086
▁Ferra	-12.1088
ueller	-12.109
ual	-12.1091
▁wrap	-12.1094
▁Communi	-12.1095
ligan	-12.1097
▁Reu	-12.1098
▁Parthia	-12.1099
▁arrogan	-12.1101
▁arc	-12.1102
▁Slate	-12.1103
graph	-12.1103
▁fraterni	-12.1105
tally	-12.1106
ablo	-12.1106
ffle	-12.1107
bud	-12.1109
▁McK	-12.111
▁discre	-12.1111
laric	-12.1111
▁Invi	-12.1111
▁Demi	-12.1112
▁situat	-12.1112
▁Lé	-12.1113
ery	-12.1114
stane	-12.1114
opia	-12.1114
rospero	-12.1115
ountain	-12.1116
▁Sands	-12.1116
▁contriv	-12.1116
▁entangle	-12.1116
▁memo	-12.1116
tli	-12.1117
onservative	-12.1118
testant	-12.1118
▁disgr	-12.1119
▁debauche	-12.1119
▁reincarnat	-12.1119
▁volley	-12.1119
erendipit	-12.1119
▁Additional	-12.1119
▁Atropos	-12.1119
▁Brangwen	-12.1119
▁Component	-12.1119
▁Costaguan	-12.1119
▁Illuminati	-12.1119
▁Inspir	-12.1119
▁Jinxland	-12.1119
▁Jorgensen	-12.1119
▁Lebedev	-12.1119
▁NTI	-12.1119
▁Peggotty	-12.1119
▁Pendleton	-12.1119
▁Puddleby	-12.1119
▁Udolpho	-12.1119
▁Zarathustra	-12.1119
▁abscond	-12.1119
▁acquiesce	-12.1119
▁anecdot	-12.1119
▁caricature	-12.1119
▁corridor	-12.1119
▁culprit	-12.1119
▁disastrous	-12.1119
▁disobey	-12.1119
▁encampment	-12.1119
▁endeavor	-12.1119
▁forfeit	-12.1119
▁handkerchief	-12.1119
▁hitchhik	-12.1119
▁immense	-12.1119
▁liberal	-12.1119
▁melanchol	-12.1119
▁nihilist	-12.1119
▁quarantine	-12.1119
▁raucous	-12.1119
▁reciprocate	-12.1119
▁relinquish	-12.1119
▁spectator	-12.1119
▁torpedo	-12.1119
▁unfair	-12.1119
▁Cadmus	-12.1119
▁Courcy	-12.1119
▁chivalr	-12.1119
▁Intrigue	-12.1119
▁Mumford	-12.1119
▁ensnare	-12.1119
▁Tremor	-12.1119
▁plummet	-12.1119
▁submerg	-12.1119
▁cheap	-12.1119
▁hazard	-12.1119
▁Erlich	-12.1119
▁Hebrew	-12.1119
▁indefinite	-12.1119
▁immoral	-12.1119
▁outburst	-12.1119
▁Joséph	-12.1119
▁instigate	-12.1119
▁Nurse	-12.1119
▁counterpart	-12.1119
▁Polyakov	-12.1119
▁utopia	-12.1119
▁spontaneous	-12.1119
▁burrow	-12.1119
▁scatter	-12.1119
▁abbey	-12.1119
▁thrash	-12.1119
▁Googl	-12.1119
▁Trailmen	-12.1119
▁Puritan	-12.1119
▁exclude	-12.1119
▁dossier	-12.1119
▁historian	-12.1119
▁Weyland	-12.1119
companies	-12.1119
▁Convinc	-12.1119
▁meek	-12.1119
▁specimens	-12.1119
▁geologist	-12.1119
▁usurp	-12.112
▁gloom	-12.112
▁geographical	-12.112
▁Munchkin	-12.112
▁monologue	-12.112
▁maximum	-12.112
▁expulsion	-12.112
▁classifie	-12.112
▁maroon	-12.112
▁Bengt	-12.112
▁capacit	-12.112
▁Stoddard	-12.112
▁offspring	-12.112
▁improper	-12.112
▁transit	-12.112
▁signify	-12.112
▁lenien	-12.112
▁scuttle	-12.112
▁1910	-12.112
▁screenplay	-12.112
▁Pandor	-12.112
▁technician	-12.112
▁Reserv	-12.112
▁veterinarian	-12.112
▁pedest	-12.112
▁Gillikin	-12.112
bulb	-12.112
▁Insect	-12.112
phobi	-12.112
▁Basil	-12.112
▁Talama	-12.112
▁skateboard	-12.112
▁saloon	-12.112
▁apple	-12.1121
rillian	-12.1121
▁Muriel	-12.1121
▁coordinat	-12.1121
▁peddl	-12.1121
▁capsize	-12.1121
▁defence	-12.1121
▁Gruff	-12.1121
▁constitute	-12.1121
▁steep	-12.1121
▁equivalent	-12.1121
▁meteor	-12.1121
▁Fonda	-12.1121
▁Proud	-12.1121
▁feather	-12.1121
▁cluster	-12.1121
▁impostor	-12.1121
▁corro	-12.1121
▁handmaiden	-12.1121
▁puritan	-12.1121
▁resourceful	-12.1122
▁eradicat	-12.1122
▁thaw	-12.1122
▁Point	-12.1122
▁senator	-12.1122
▁Gresham	-12.1122
▁Thark	-12.1122
▁Wilkins	-12.1122
▁mound	-12.1122
▁sedative	-12.1122
▁MiG	-12.1122
▁whirl	-12.1122
▁Hadley	-12.1122
▁lemon	-12.1122
annul	-12.1123
▁commandeer	-12.1123
▁remorseful	-12.1123
▁emigrant	-12.1123
▁blockade	-12.1123
▁blanket	-12.1123
▁initiative	-12.1123
▁Ellida	-12.1123
▁Nabote	-12.1123
▁Kern	-12.1123
▁controvers	-12.1123
roupe	-12.1123
▁neurotic	-12.1123
▁symp	-12.1124
▁compliment	-12.1124
▁Croft	-12.1124
▁beaver	-12.1124
▁Horowi	-12.1124
▁rapist	-12.1124
▁joyful	-12.1124
▁schoo	-12.1125
▁Whig	-12.1125
▁Tsar	-12.1125
▁spectacle	-12.1125
▁waterfall	-12.1125
rishch	-12.1125
UT	-12.1125
elda	-12.1125
▁drone	-12.1125
▁furn	-12.1125
▁Stepan	-12.1125
▁Charter	-12.1126
▁audaci	-12.1126
▁VII	-12.1126
▁Cullen	-12.1126
▁Semp	-12.1127
▁Bloomfield	-12.1127
▁steer	-12.1128
▁Henrik	-12.1128
▁dismissive	-12.1129
ecide	-12.1129
▁modifie	-12.1129
▁entertainment	-12.1129
extraterrestrial	-12.1129
▁Deadite	-12.1129
▁diversion	-12.1129
maginar	-12.1129
▁paddle	-12.1129
▁Week	-12.1129
▁flush	-12.113
sync	-12.113
▁systematic	-12.113
▁smear	-12.113
▁Letter	-12.1131
▁freezing	-12.1131
▁Slave	-12.1131
▁vend	-12.1132
▁Brenner	-12.1132
▁achievement	-12.1132
▁Spot	-12.1132
▁Giovan	-12.1132
▁coup	-12.1133
▁justifi	-12.1133
▁Fight	-12.1133
▁interpretation	-12.1134
▁psychopath	-12.1134
▁calculation	-12.1134
▁Marmont	-12.1135
▁investment	-12.1135
▁enchantment	-12.1135
▁Exten	-12.1135
▁confer	-12.1135
▁Morse	-12.1136
▁McCall	-12.1136
Bamm	-12.1137
▁hip	-12.1137
▁volcano	-12.1137
ckma	-12.1137
▁Rush	-12.1137
▁Esp	-12.1138
▁Livingston	-12.1138
▁preco	-12.1139
▁amass	-12.1139
▁Waz	-12.1139
▁Stop	-12.114
▁chip	-12.114
▁brigand	-12.114
▁Arden	-12.114
▁Drumm	-12.114
▁Champion	-12.1142
▁kite	-12.1142
▁soften	-12.1143
▁Ronan	-12.1144
▁Warri	-12.1144
▁Prison	-12.1145
▁forsake	-12.1146
▁Meet	-12.1147
ertain	-12.1147
skirt	-12.1148
▁Escap	-12.1148
▁Corps	-12.1148
▁Hel	-12.1149
▁barber	-12.115
▁Glas	-12.1151
▁Astra	-12.1153
▁barri	-12.1153
▁faun	-12.1153
▁indigen	-12.1155
▁LC	-12.1156
▁damn	-12.1156
▁Holt	-12.1157
▁Wheel	-12.1157
▁Pont	-12.1159
ird	-12.116
▁courtier	-12.1161
▁Bryan	-12.1161
▁Brit	-12.1162
▁Hope	-12.1162
▁depiction	-12.1162
▁grudging	-12.1162
▁atroci	-12.1163
▁cruiser	-12.1163
▁Graf	-12.1163
▁archive	-12.1163
▁Visit	-12.1165
▁Cock	-12.1165
▁Iron	-12.1165
▁Iran	-12.1166
▁Britt	-12.1167
▁repel	-12.1167
▁playoff	-12.1168
azzl	-12.1169
urgent	-12.1169
ndition	-12.117
auri	-12.1171
▁recreate	-12.1172
idian	-12.1172
▁Glad	-12.1173
▁goad	-12.1173
▁objective	-12.1173
▁Laurence	-12.1175
ggle	-12.1176
▁Axe	-12.1178
▁Hump	-12.1178
▁retake	-12.118
▁Athena	-12.1181
▁stile	-12.1182
gramma	-12.1183
▁Poet	-12.1184
▁Merry	-12.1185
▁baker	-12.1185
rray	-12.1188
▁que	-12.1191
vov	-12.1192
▁Slow	-12.1193
▁extinct	-12.1195
▁catastrophe	-12.1196
▁Bridget	-12.1197
▁comprehend	-12.1197
▁sensual	-12.1197
▁Baptist	-12.1197
▁annex	-12.1197
▁VIII	-12.1198
▁parade	-12.1198
lsewhere	-12.1198
▁adept	-12.1198
▁kneel	-12.1199
attac	-12.1199
▁donate	-12.12
▁Sabre	-12.12
▁dam	-12.12
▁debtor	-12.1201
▁10,000	-12.1203
bet	-12.1203
genet	-12.1206
▁Wilde	-12.1206
▁sugar	-12.1206
athan	-12.1207
▁philosopher	-12.1207
transferr	-12.1208
▁delegate	-12.1209
▁Alexandre	-12.1211
▁longest	-12.1211
▁outcome	-12.1212
liar	-12.1215
▁Ossi	-12.1215
▁Triple	-12.1217
▁puncture	-12.1217
▁Beside	-12.122
nwilling	-12.1223
▁Reno	-12.1223
▁foreigner	-12.1223
atop	-12.1226
▁eliminat	-12.1227
▁prop	-12.1229
▁Rubb	-12.123
wift	-12.123
▁flatter	-12.1233
▁miner	-12.1233
rine	-12.1238
▁stoic	-12.1239
▁association	-12.1239
skat	-12.1241
▁Award	-12.1242
▁Withers	-12.1243
seek	-12.1243
▁forceful	-12.1244
cular	-12.1246
▁Skip	-12.1248
▁Ancient	-12.1249
addle	-12.1253
▁jade	-12.1253
egio	-12.1256
▁distribut	-12.1258
▁Zar	-12.1259
▁urban	-12.1263
▁Mahar	-12.1264
▁Vetal	-12.1266
▁Cooke	-12.1268
▁Polit	-12.1272
imos	-12.1278
▁Cic	-12.1278
zma	-12.1279
volen	-12.128
▁foundation	-12.1283
▁porter	-12.1283
▁brownie	-12.1283
▁hurr	-12.1284
▁mortifi	-12.1288
▁quot	-12.1289
▁Shoe	-12.1291
▁don	-12.1293
▁revolv	-12.1295
appa	-12.1295
ando	-12.1296
▁spike	-12.1298
drew	-12.1298
▁Der	-12.1299
▁stump	-12.1299
lieve	-12.1307
olet	-12.1311
▁Bund	-12.1319
▁Archd	-12.1323
arvar	-12.1329
▁2,000	-12.1337
▁Argon	-12.1338
▁artificially	-12.1338
▁hom	-12.134
▁bookie	-12.1345
▁privateer	-12.1347
▁institute	-12.1352
drive	-12.136
gees	-12.1361
cted	-12.1362
▁30-	-12.1363
pern	-12.1364
IP	-12.1364
▁subtl	-12.1365
ookie	-12.1365
▁translate	-12.1365
▁warp	-12.1366
enior	-12.1374
▁bullie	-12.1374
▁qui	-12.1374
▁researcher	-12.1381
▁Helge	-12.1381
▁spa	-12.1387
▁lawn	-12.1392
▁Zur	-12.1403
cream	-12.1404
▁Bou	-12.1409
▁10-	-12.1412
vat	-12.1415
▁modes	-12.1419
▁Souls	-12.1422
armament	-12.1425
▁muse	-12.1429
urde	-12.1435
orticia	-12.1435
oul	-12.1436
73	-12.1437
oodle	-12.1441
▁Dau	-12.1442
▁incur	-12.1446
▁litter	-12.1448
▁eagle	-12.1451
67	-12.1453
mok	-12.1461
▁conscious	-12.1462
▁clutch	-12.1462
▁auction	-12.1463
▁penn	-12.1472
▁dup	-12.1473
▁smother	-12.1473
nut	-12.1474
▁esteem	-12.1477
▁injustice	-12.148
tter	-12.1482
▁Cyp	-12.1484
▁sadist	-12.1489
adde	-12.1489
▁Weather	-12.149
▁Shin	-12.1493
▁Pam	-12.1495
▁soc	-12.1495
▁sway	-12.1499
▁Guer	-12.1501
▁Desi	-12.1503
33	-12.1506
▁dye	-12.1513
▁dalli	-12.1516
▁owners	-12.1532
▁slide	-12.1534
obb	-12.1535
▁Orl	-12.1538
agos	-12.1541
▁pad	-12.1545
▁twi	-12.1546
▁Dewy	-12.1549
▁sung	-12.1549
▁Gard	-12.1551
anato	-12.1556
▁raz	-12.1567
cant	-12.1569
▁drawer	-12.1571
▁stray	-12.1572
▁Cost	-12.1573
▁obe	-12.1578
▁advertise	-12.1585
▁fil	-12.1589
▁mutat	-12.1589
▁Hurt	-12.1602
ilda	-12.1607
▁folk	-12.161
▁Engle	-12.1613
▁snip	-12.1621
rack	-12.1628
▁Pole	-12.1629
hab	-12.1633
▁Faw	-12.1633
▁cogniti	-12.1634
itter	-12.1646
len	-12.1653
ried	-12.1657
arty	-12.1657
▁Keller	-12.1658
▁Bag	-12.1662
▁Rou	-12.1664
bino	-12.1665
▁Pool	-12.1666
▁standards	-12.1667
urgeon	-12.1669
ednes	-12.1679
▁Cze	-12.1679
albe	-12.168
▁Being	-12.1682
▁Franc	-12.1691
▁min	-12.1693
▁Magn	-12.1699
eckle	-12.1702
rugg	-12.1709
▁compli	-12.1723
51	-12.1732
▁cal	-12.1735
lush	-12.1735
lf	-12.1741
▁Gret	-12.178
azy	-12.1781
azzi	-12.1782
ayas	-12.1785
▁Harmon	-12.1786
▁34	-12.1796
▁Marri	-12.1797
ari	-12.1799
▁Lea	-12.1804
▁Warr	-12.1817
▁Loren	-12.1822
▁Deci	-12.1825
▁Bir	-12.1827
▁Woma	-12.1829
▁ha	-12.1833
▁masquerad	-12.1834
98	-12.1848
▁cruci	-12.1848
▁Mai	-12.1853
▁narrat	-12.1855
▁Memo	-12.1856
▁bee	-12.186
▁pronounc	-12.1872
▁bust	-12.1875
join	-12.1879
cane	-12.1879
34	-12.188
▁Cut	-12.1882
elli	-12.1882
ista	-12.1891
ardon	-12.1894
▁Masse	-12.1894
▁guardians	-12.1897
▁trainer	-12.1902
pon	-12.1905
▁Mikh	-12.1909
▁sane	-12.1917
Roge	-12.1921
yers	-12.1927
▁Leba	-12.194
▁meetings	-12.1943
▁Stubb	-12.1946
▁Imp	-12.1956
▁Row	-12.1956
▁sentien	-12.1958
▁wrestle	-12.1959
▁Wise	-12.1961
▁Aust	-12.1962
ario	-12.1968
▁diagnose	-12.1975
▁intolera	-12.1986
▁Lib	-12.1989
gara	-12.1998
Bras	-12.2004
▁pot	-12.2012
▁brea	-12.2014
matic	-12.2018
owski	-12.2022
▁outline	-12.2025
kni	-12.2025
▁Tro	-12.2027
rie	-12.2027
▁clu	-12.203
▁qua	-12.2033
▁Hot	-12.2037
hems	-12.2037
▁Nata	-12.2043
▁Woods	-12.2045
▁Ric	-12.2045
▁Tars	-12.2045
▁Villa	-12.2048
▁Beer	-12.2058
▁regrett	-12.2063
▁enco	-12.2065
▁scro	-12.2068
▁Esse	-12.207
▁Bass	-12.207
▁35	-12.2075
▁cons	-12.2076
emia	-12.208
▁diagnos	-12.2088
alem	-12.2093
▁Monta	-12.2093
▁Sarge	-12.2096
▁Gom	-12.2101
vich	-12.2101
shawa	-12.2104
ureau	-12.2111
rigg	-12.2113
▁incapacitat	-12.2127
▁financ	-12.2132
▁dumps	-12.2135
▁supervise	-12.2136
▁cad	-12.2137
▁gaz	-12.2153
▁generate	-12.2156
▁Scor	-12.2165
▁Aga	-12.2169
▁humble	-12.2173
▁cosm	-12.2175
▁negotiat	-12.2177
▁candles	-12.2177
active	-12.2194
nkle	-12.2196
▁aristocra	-12.2205
▁Francesc	-12.2206
▁Add	-12.2207
▁Hatt	-12.2207
▁camping	-12.2216
cia	-12.2218
64	-12.2228
gage	-12.2229
▁needles	-12.223
suit	-12.2234
ushk	-12.2237
zzo	-12.2255
▁reproduc	-12.2263
▁Bub	-12.2271
solution	-12.2278
hry	-12.2286
tri	-12.2295
▁restrict	-12.2298
▁Tup	-12.23
normal	-12.2304
▁Mario	-12.2304
▁presume	-12.2308
▁188	-12.231
ib	-12.2314
.7	-12.2315
▁Hoo	-12.2318
▁cr	-12.2321
▁Dam	-12.2323
▁Prest	-12.2324
ban	-12.2328
▁Anders	-12.2332
isco	-12.2334
log	-12.2336
▁Alis	-12.2345
▁Moh	-12.2354
▁assimilat	-12.2357
gal	-12.2359
▁detonat	-12.2359
▁Padd	-12.236
authorize	-12.2362
▁Social	-12.2365
▁32	-12.2368
powered	-12.2376
▁resolv	-12.2377
▁ants	-12.2378
ema	-12.2383
kh	-12.2388
uttle	-12.2389
champ	-12.2396
▁reactivate	-12.241
word	-12.2411
sphere	-12.242
▁Lowe	-12.2423
▁denounc	-12.2423
Bird	-12.2425
difference	-12.2427
pipe	-12.2432
weapon	-12.2434
Nazi	-12.2435
effective	-12.2435
▁comp	-12.2436
dominate	-12.2437
Anne	-12.2438
service	-12.2439
commission	-12.244
awaken	-12.244
▁sham	-12.2441
establish	-12.2442
uncle	-12.2443
▁mag	-12.2443
doubt	-12.2443
matter	-12.2443
country	-12.2447
staff	-12.2447
sympathetic	-12.2447
includ	-12.2448
beat	-12.2449
scale	-12.2449
league	-12.2449
season	-12.2449
develop	-12.2452
arine	-12.2459
path	-12.2463
dragon	-12.2467
controll	-12.2467
owing	-12.247
oud	-12.247
sense	-12.2477
load	-12.2487
▁gen	-12.2489
▁McM	-12.2496
▁wi	-12.2502
etes	-12.2503
▁reconcil	-12.2507
bank	-12.2511
▁incinerat	-12.2515
monia	-12.2526
▁Wen	-12.2528
eline	-12.2532
▁practic	-12.2532
▁Get	-12.2537
▁Batt	-12.2539
uire	-12.2544
vale	-12.2547
olution	-12.2549
dou	-12.2555
tank	-12.2557
▁Friend	-12.2562
▁Winn	-12.2562
daughter	-12.2562
start	-12.259
stabili	-12.2592
▁Inn	-12.2601
▁hypo	-12.2603
▁resolut	-12.2604
band	-12.2605
▁cock	-12.2607
▁standard	-12.2626
ations	-12.2633
rat	-12.2634
▁fi	-12.2637
▁Dom	-12.2641
▁irre	-12.2642
▁Montr	-12.2652
anu	-12.2653
neck	-12.2653
▁waiter	-12.2663
space	-12.2669
▁Gop	-12.2679
▁Had	-12.2682
▁repl	-12.2684
plex	-12.2689
▁hurri	-12.2689
▁switche	-12.2691
▁stun	-12.2695
▁needle	-12.2697
clair	-12.2709
▁Lint	-12.2711
ffer	-12.2715
▁mat	-12.2719
omic	-12.2724
▁meter	-12.2725
▁compensati	-12.2726
▁Twa	-12.2727
fi	-12.2731
▁Hag	-12.2731
oward	-12.274
ugg	-12.2741
▁Vald	-12.2743
utton	-12.275
▁Sho	-12.2764
utter	-12.2769
ians	-12.2774
▁Vinc	-12.2776
cha	-12.2779
▁starve	-12.2795
▁fancie	-12.2804
▁tink	-12.2805
train	-12.2808
▁ledge	-12.2809
induc	-12.2814
ject	-12.2829
▁emigrat	-12.2829
even	-12.2831
▁camps	-12.2831
▁nail	-12.2843
flame	-12.2845
rot	-12.2846
▁reneg	-12.2847
▁berat	-12.2847
uli	-12.2856
itten	-12.2867
▁enthusiast	-12.2872
▁founder	-12.2881
call	-12.2883
▁Cali	-12.289
▁Tutt	-12.2891
▁plung	-12.2892
▁issu	-12.2898
▁Ber	-12.2898
▁loath	-12.2902
thletic	-12.2902
quest	-12.2906
▁prima	-12.2909
raven	-12.291
mbassador	-12.2915
▁Machi	-12.2916
76	-12.293
▁gentlem	-12.2939
▁programm	-12.2949
▁shrink	-12.2949
▁exceed	-12.2951
ronic	-12.2952
lusive	-12.2959
peck	-12.2961
rden	-12.2966
▁sled	-12.2971
▁alleg	-12.2972
open	-12.2975
▁Circ	-12.2977
▁acro	-12.2979
▁deserve	-12.2988
▁Fi	-12.2992
estin	-12.2993
▁commend	-12.2993
▁enslav	-12.2993
dict	-12.2995
chell	-12.3007
▁pine	-12.301
▁Alto	-12.3012
▁Cush	-12.3012
ternation	-12.3016
▁Crim	-12.3017
nocent	-12.3021
▁Twi	-12.3024
children	-12.3025
▁solidif	-12.3025
▁Stern	-12.3026
slaught	-12.3032
row	-12.3034
▁liberat	-12.3034
ishna	-12.3035
▁circl	-12.3035
▁intimidat	-12.3036
▁Tigg	-12.3037
▁applau	-12.3037
▁meth	-12.3039
▁consul	-12.304
hen	-12.3041
▁Satis	-12.3041
▁suspens	-12.3045
aba	-12.3049
awk	-12.3055
▁Rollin	-12.3059
igli	-12.3061
▁bu	-12.3062
▁Beli	-12.3063
raumatize	-12.3063
▁barbe	-12.3065
▁graves	-12.3071
▁Troub	-12.3071
▁Dece	-12.3075
▁oppress	-12.3077
▁Isla	-12.3082
sette	-12.3082
▁Greg	-12.3084
▁dwar	-12.3088
▁corpora	-12.3093
▁Andre	-12.3095
▁bush	-12.3097
doub	-12.3097
▁sigh	-12.3097
▁ego	-12.3098
fection	-12.31
▁Flan	-12.3104
acious	-12.3105
▁Crusade	-12.3105
▁Univers	-12.3107
▁shove	-12.3109
▁Romul	-12.311
roads	-12.3111
minate	-12.3111
migrant	-12.3114
xecutive	-12.3115
avorit	-12.3115
▁monol	-12.3115
tract	-12.3116
▁Caucas	-12.3117
▁fundamental	-12.3117
▁promiscu	-12.3117
velt	-12.3118
▁liqu	-12.3118
surrection	-12.3118
▁enclos	-12.3118
annibal	-12.3119
verwhelm	-12.3119
▁cigar	-12.3119
▁Kukuana	-12.3119
▁Separat	-12.3119
▁parliament	-12.3119
franchise	-12.3119
trophie	-12.3119
▁Auschwitz	-12.3119
▁Awgwa	-12.3119
▁Barzaphernes	-12.3119
▁Birotteau	-12.3119
▁Blinkie	-12.3119
▁Hartrott	-12.3119
▁Mangalore	-12.3119
▁Mohune	-12.3119
▁Poitier	-12.3119
▁Ragnar	-12.3119
▁SprocketHole	-12.3119
▁System	-12.3119
▁Wringhim	-12.3119
▁afflict	-12.3119
▁ambivalen	-12.3119
▁audio	-12.3119
▁cohort	-12.3119
▁component	-12.3119
▁decipher	-12.3119
▁default	-12.3119
▁eclipse	-12.3119
▁exec	-12.3119
▁forewarn	-12.3119
▁genotype	-12.3119
▁guerrilla	-12.3119
▁harpoon	-12.3119
▁impregnat	-12.3119
▁inebriate	-12.3119
▁jettison	-12.3119
▁magistrate	-12.3119
▁metaphor	-12.3119
▁ostraci	-12.3119
▁paramedic	-12.3119
▁primitive	-12.3119
▁protocol	-12.3119
▁recipient	-12.3119
▁reconstruct	-12.3119
▁refrain	-12.3119
▁reprieve	-12.3119
▁repudiate	-12.3119
▁saboteur	-12.3119
▁scooter	-12.3119
▁scramble	-12.3119
▁subjugate	-12.3119
▁succour	-12.3119
▁transplant	-12.3119
▁unravel	-12.3119
▁vehement	-12.3119
▁Pharisee	-12.3119
▁Prairie	-12.3119
▁Schwartz	-12.3119
▁ascertain	-12.3119
▁contemporaneous	-12.3119
▁elegant	-12.3119
▁extravagant	-12.3119
▁fraudulent	-12.3119
▁inappropriate	-12.3119
▁leisure	-12.3119
▁mosquito	-12.3119
▁pimp	-12.3119
▁prestig	-12.3119
▁pubgoer	-12.3119
▁saucer	-12.3119
▁volatil	-12.3119
▁Gilbey	-12.3119
▁Gospel	-12.3119
▁Wyvern	-12.3119
▁sandworm	-12.3119
Goblin	-12.3119
▁Ghul	-12.3119
▁cajole	-12.3119
▁exhume	-12.3119
▁incorrect	-12.3119
▁invincib	-12.3119
▁Matchin	-12.3119
▁gorilla	-12.3119
▁Video	-12.3119
▁Wakem	-12.3119
▁dishonest	-12.3119
▁irregular	-12.3119
▁monetar	-12.3119
▁multitude	-12.3119
▁savior	-12.3119
▁thorough	-12.3119
▁Coupeau	-12.3119
▁schizo	-12.3119
▁Burroughs	-12.3119
▁affirm	-12.3119
▁dismantl	-12.3119
▁Investigati	-12.3119
▁Morocc	-12.3119
▁freight	-12.3119
▁thunderstorm	-12.3119
▁Determin	-12.3119
▁rigorous	-12.3119
▁Moffat	-12.3119
▁Suprem	-12.3119
▁obstetric	-12.3119
▁Klein	-12.3119
▁provision	-12.3119
▁Pompe	-12.3119
▁distort	-12.3119
▁strait	-12.3119
werp	-12.3119
▁Freaks	-12.3119
▁nebula	-12.3119
▁daydream	-12.3119
▁stereo	-12.3119
▁tornado	-12.3119
▁vulgar	-12.3119
▁imprint	-12.3119
▁Adolph	-12.3119
▁prodig	-12.3119
▁nineteen	-12.3119
▁discontent	-12.3119
▁database	-12.3119
▁verify	-12.3119
lanche	-12.3119
▁Canyon	-12.3119
▁emphasis	-12.3119
▁bulk	-12.3119
▁chela	-12.3119
▁mimic	-12.3119
▁adrenaline	-12.3119
▁Thirty	-12.3119
bourg	-12.3119
▁adjourn	-12.3119
▁joust	-12.3119
▁eloquen	-12.3119
▁fitt	-12.3119
▁uncontrollabl	-12.3119
▁harness	-12.3119
▁spawn	-12.3119
volta	-12.3119
▁idio	-12.3119
▁implode	-12.3119
avelli	-12.312
▁fanatic	-12.312
▁monopol	-12.312
▁baptize	-12.312
▁tyrant	-12.312
▁Vietnamese	-12.312
▁carcass	-12.312
▁plaque	-12.312
▁incred	-12.312
▁Film	-12.312
▁Saracen	-12.312
▁forecast	-12.312
patriate	-12.312
uddles	-12.312
▁hamlet	-12.312
▁abomina	-12.312
▁arcade	-12.312
▁shrew	-12.312
▁enlighten	-12.312
▁pathological	-12.312
▁Should	-12.312
▁Apple	-12.312
▁accurate	-12.312
▁spiral	-12.312
▁unreasonabl	-12.312
▁Blythe	-12.312
▁bleak	-12.312
▁Ingle	-12.312
▁Sammael	-12.312
▁diminish	-12.312
▁caretaker	-12.312
▁inclination	-12.312
▁stupid	-12.312
▁detest	-12.312
niversa	-12.312
▁barbarian	-12.312
▁Confront	-12.312
▁propeller	-12.312
▁signifie	-12.312
▁Speak	-12.312
▁Jahad	-12.312
▁ingenu	-12.312
▁Triad	-12.312
▁Volscian	-12.312
▁lumber	-12.312
▁subsist	-12.312
▁spider	-12.312
▁thunder	-12.312
▁1938	-12.312
▁invok	-12.3121
▁punk	-12.3121
▁roam	-12.3121
▁Clint	-12.3121
▁Reindeer	-12.3121
▁Sodomite	-12.3121
▁deflect	-12.3121
▁woodchuck	-12.3121
kinetic	-12.3121
▁Lovat	-12.3121
▁displace	-12.3121
▁exorcis	-12.3121
▁disown	-12.3121
▁rediscover	-12.3121
▁hysterical	-12.3121
▁organism	-12.3121
▁Revol	-12.3121
▁snuff	-12.3121
▁rename	-12.3121
▁fluid	-12.3121
▁Bertram	-12.3121
▁Galile	-12.3121
▁comedian	-12.3121
▁Lipton	-12.3121
▁constitution	-12.3121
▁rib	-12.3121
▁Trotwood	-12.3121
▁curtain	-12.3122
▁navigator	-12.3122
▁complicit	-12.3122
▁tribunal	-12.3122
▁Clift	-12.3122
▁Gungan	-12.3122
▁sorrowful	-12.3122
▁Algeria	-12.3122
phin	-12.3122
▁1984	-12.3122
▁swindle	-12.3122
▁Barsoomian	-12.3122
▁Lundie	-12.3122
▁communist	-12.3123
▁unchang	-12.3123
▁exult	-12.3123
▁jaw	-12.3123
▁stagger	-12.3123
▁exert	-12.3123
▁speculation	-12.3123
▁dictator	-12.3123
▁spacewalk	-12.3124
phren	-12.3124
▁Winsl	-12.3124
▁stitche	-12.3124
▁contribution	-12.3124
▁immatur	-12.3124
▁morose	-12.3124
▁deceit	-12.3124
▁princedom	-12.3124
▁futil	-12.3124
chalk	-12.3124
▁Ridge	-12.3124
▁Record	-12.3124
▁Jagger	-12.3124
▁shopkeeper	-12.3124
▁teammate	-12.3125
▁quotation	-12.3125
▁entanglement	-12.3125
▁stiff	-12.3125
▁strive	-12.3125
▁triumphant	-12.3125
▁serf	-12.3125
▁bash	-12.3125
Dermot	-12.3126
▁Feld	-12.3126
▁manipulation	-12.3126
▁reinstate	-12.3126
nitor	-12.3126
▁banter	-12.3126
▁lease	-12.3126
▁loyalist	-12.3126
▁Cloud	-12.3126
▁physi	-12.3127
▁adaptation	-12.3127
▁catac	-12.3127
▁digger	-12.3127
▁Local	-12.3127
▁mutation	-12.3127
▁elicit	-12.3128
▁stabilize	-12.3128
▁overload	-12.3128
postle	-12.3128
▁Gasco	-12.3128
▁aspiration	-12.3128
▁hornet	-12.3128
▁spur	-12.3128
▁MacM	-12.3128
rcul	-12.3128
▁Spark	-12.3128
▁Bink	-12.3128
▁hoard	-12.3128
▁Hampton	-12.3128
▁illustration	-12.3128
▁schoolgirl	-12.3129
▁dutiful	-12.3129
▁bullfight	-12.3129
▁effe	-12.3129
▁Mign	-12.313
rtaxe	-12.313
▁distinction	-12.313
▁Highway	-12.313
▁Gibra	-12.313
▁Veil	-12.3131
▁mineral	-12.3131
chiro	-12.3131
▁rookie	-12.3132
▁Common	-12.3132
▁harassment	-12.3132
▁Xana	-12.3132
▁earnest	-12.3132
▁parson	-12.3133
08	-12.3133
▁Axi	-12.3133
▁Engineer	-12.3133
▁Lanter	-12.3133
ombre	-12.3133
▁fervent	-12.3133
▁constituent	-12.3134
▁nitrog	-12.3134
tani	-12.3134
▁gaming	-12.3134
▁impressive	-12.3134
▁Heavy	-12.3135
▁decoration	-12.3135
▁advocat	-12.3135
▁disturbance	-12.3136
▁heighten	-12.3136
▁Fé	-12.3137
▁Phara	-12.3137
▁Giant	-12.3138
▁Rubble	-12.3138
▁Watkin	-12.3138
▁Arras	-12.3138
▁Constantin	-12.3139
▁Oska	-12.314
▁Tibetan	-12.314
▁Peg	-12.314
▁rubber	-12.3141
▁Ethel	-12.3142
▁Vernon	-12.3142
▁stup	-12.3143
▁Rosemar	-12.3145
▁flirtatio	-12.3145
▁shovel	-12.3145
▁insert	-12.3145
cchi	-12.3146
▁Chef	-12.3146
▁Vanger	-12.3146
▁eruption	-12.3146
▁Help	-12.3147
▁functional	-12.3147
▁mingle	-12.3147
▁telekinetic	-12.3148
▁assumption	-12.315
▁Paci	-12.3151
▁184	-12.3151
▁LaP	-12.3151
▁crumble	-12.3152
▁Griffith	-12.3152
▁defendant	-12.3153
▁gum	-12.3153
app	-12.3153
▁canyon	-12.3154
uzzle	-12.3154
▁Ilia	-12.3154
Bah	-12.3154
▁stereotype	-12.3155
▁Siam	-12.3155
vort	-12.3155
▁XI	-12.3156
▁Eamon	-12.3156
▁tailor	-12.3157
ropshi	-12.3157
regon	-12.3157
shkov	-12.3157
▁Vig	-12.3158
▁Holo	-12.3158
▁garment	-12.3159
▁couch	-12.316
kes	-12.3161
▁assurance	-12.3162
loqu	-12.3162
▁judgement	-12.3162
otin	-12.3162
▁Nep	-12.3163
▁cartel	-12.3163
▁orchestrate	-12.3163
▁Syn	-12.3163
▁masturbate	-12.3163
▁Chair	-12.3164
▁remed	-12.3164
▁allerg	-12.3165
-33	-12.3168
urine	-12.3168
▁Voge	-12.3169
psis	-12.317
▁syno	-12.317
▁immers	-12.3171
▁Kitten	-12.3174
▁preoccup	-12.3176
▁Serapi	-12.3179
▁strengthen	-12.3179
▁hacker	-12.3179
▁Original	-12.3179
▁Recent	-12.318
▁Sheep	-12.3182
nee	-12.3185
▁Hodge	-12.3185
▁leaning	-12.3185
▁Bunk	-12.3186
▁coron	-12.3187
▁Kaz	-12.3187
▁contention	-12.3188
▁vary	-12.3188
▁hypocrite	-12.3188
▁daring	-12.3189
▁rehears	-12.3191
▁sunbur	-12.3194
▁Atlant	-12.3197
danes	-12.3198
humbprint	-12.3198
▁agon	-12.3201
▁barbed	-12.3201
▁overture	-12.3203
▁usher	-12.3204
▁informant	-12.3204
▁Apa	-12.3204
▁rejoice	-12.3205
utica	-12.3207
endrick	-12.3207
▁Shelb	-12.3207
▁pudding	-12.3208
▁Jia	-12.3211
▁Lum	-12.3211
▁Bagg	-12.3212
▁Minist	-12.3214
arson	-12.3214
neu	-12.3215
▁evaluat	-12.3216
▁renown	-12.3216
▁dispens	-12.3216
▁channel	-12.3216
▁lesbian	-12.3216
▁franc	-12.3216
▁paragraph	-12.3217
▁righteous	-12.3217
uchi	-12.3217
▁organise	-12.3218
▁outlive	-12.3218
▁Want	-12.3218
▁indulgence	-12.3218
▁affectionate	-12.3219
▁NY	-12.3219
FC	-12.3219
▁Thur	-12.3221
▁Chann	-12.3221
▁negotiation	-12.3225
▁mus	-12.3225
▁jamm	-12.3226
▁Dal	-12.3226
soul	-12.3226
ott	-12.3226
▁Jamb	-12.3226
uchess	-12.323
▁Living	-12.3231
dge	-12.3234
▁entice	-12.3235
▁befall	-12.3235
▁permitt	-12.3235
▁Creat	-12.3237
▁Sign	-12.3238
erva	-12.3239
▁Corona	-12.324
▁Genev	-12.3242
▁Euph	-12.3242
ool	-12.3244
▁prosthe	-12.3244
▁Hous	-12.3244
▁exonerate	-12.3247
▁Galu	-12.3247
efit	-12.3247
▁dedicate	-12.3248
useum	-12.325
▁mau	-12.3251
▁Dill	-12.3251
fra	-12.3254
▁derid	-12.3258
▁storyline	-12.3258
▁gambler	-12.3259
rice	-12.3259
eligi	-12.326
▁dignit	-12.3261
▁Nap	-12.3265
▁upright	-12.3269
▁blackout	-12.327
▁cutter	-12.3271
▁trumpe	-12.3271
▁14-	-12.3271
▁Touch	-12.3272
▁Grier	-12.3272
rejo	-12.3279
rael	-12.3279
Have	-12.3284
▁Loch	-12.3285
▁Hanson	-12.3287
▁Baldr	-12.3288
▁Duvall	-12.3289
▁sob	-12.3291
▁plen	-12.3291
▁induct	-12.3296
nted	-12.3303
▁deceive	-12.3304
▁bulli	-12.3307
▁shutter	-12.331
olfe	-12.3314
▁facilitate	-12.3317
▁Partit	-12.3321
▁assembly	-12.3321
▁groupie	-12.3323
rish	-12.3326
▁cleans	-12.3329
▁conclud	-12.3336
▁edit	-12.3342
ulous	-12.3346
china	-12.3353
▁brid	-12.3364
▁Yi	-12.3368
tune	-12.337
▁Pesc	-12.3371
▁pur	-12.3385
▁manic	-12.3386
▁hammer	-12.3389
▁enact	-12.339
▁Hungar	-12.3391
sche	-12.3392
▁Umb	-12.3399
ohemia	-12.3402
▁Alas	-12.3403
hr	-12.3406
▁Break	-12.3406
▁abd	-12.3408
▁Wee	-12.3409
▁quel	-12.341
▁batt	-12.3411
▁Fun	-12.3412
▁Wag	-12.3415
▁Simi	-12.3418
esert	-12.3418
erner	-12.3421
▁sleigh	-12.3424
▁converse	-12.3425
▁Sno	-12.3429
▁Pipt	-12.343
▁luci	-12.343
▁Fift	-12.3432
▁quarrell	-12.3434
▁frenz	-12.3435
.2	-12.3436
agoniz	-12.3443
usen	-12.3444
dam	-12.3449
ogn	-12.345
▁patroll	-12.345
iate	-12.3454
cle	-12.3455
buk	-12.3456
ime	-12.3468
▁Cho	-12.3469
▁explod	-12.3472
▁Dys	-12.3476
▁Fried	-12.3487
▁prod	-12.3488
ngel	-12.3489
▁compose	-12.349
▁figur	-12.3491
▁Lough	-12.3491
▁tackle	-12.3492
▁ditch	-12.3495
▁Farre	-12.3496
rwin	-12.3497
▁Maman	-12.35
▁demean	-12.3501
,500	-12.3502
▁Trun	-12.3502
▁nap	-12.351
ruise	-12.3514
Qa	-12.3516
▁slander	-12.3521
▁Pig	-12.3521
▁Russ	-12.3523
▁carpe	-12.3527
▁cookie	-12.3529
▁prob	-12.3529
▁perish	-12.3537
▁Logi	-12.3544
mier	-12.3548
arz	-12.3551
posed	-12.3553
▁Kre	-12.3554
▁defy	-12.3563
▁Lud	-12.3563
psy	-12.3568
▁gray	-12.3569
nville	-12.357
▁conspirator	-12.3571
▁formula	-12.3571
kla	-12.3573
ooku	-12.3575
▁raider	-12.3575
▁lyric	-12.3576
▁Helg	-12.358
▁inept	-12.3584
▁survey	-12.3585
▁admiring	-12.3593
▁stepp	-12.3594
reel	-12.3596
glo	-12.3603
hase	-12.3605
illy	-12.3616
table	-12.3618
▁detainee	-12.3618
list	-12.3618
jel	-12.362
▁topic	-12.3621
▁omni	-12.3624
▁prec	-12.3625
▁Exe	-12.3626
emec	-12.3629
odolph	-12.3633
ncho	-12.3635
▁Lowr	-12.3638
▁Brin	-12.3642
▁Terrifi	-12.3642
▁Emer	-12.3648
▁Patr	-12.365
▁peck	-12.365
▁Lizard	-12.3651
responsi	-12.3656
▁Franci	-12.3657
shooter	-12.3659
kok	-12.366
▁lega	-12.3667
rest	-12.3669
▁Rest	-12.3673
▁casinos	-12.3682
▁defie	-12.3684
lb	-12.3687
▁sens	-12.369
▁insecur	-12.3693
oke	-12.3697
▁Nine	-12.3698
To	-12.3704
▁gul	-12.3709
▁rott	-12.3709
▁winds	-12.3717
▁coloniz	-12.3731
can	-12.3732
▁hostilit	-12.3733
▁pois	-12.3737
▁authors	-12.3743
▁Fin	-12.3754
▁psycholog	-12.3755
▁persona	-12.3759
racks	-12.3761
▁dissuade	-12.3762
▁Jet	-12.3764
▁Spen	-12.3765
▁seeming	-12.377
▁Nar	-12.377
eighth	-12.3776
ksan	-12.3783
ulga	-12.3784
anga	-12.3786
▁Gess	-12.3793
▁Frem	-12.3794
▁bomber	-12.3805
▁slipp	-12.3808
fo	-12.3816
ites	-12.3816
quar	-12.3817
▁hitch	-12.3817
nuptial	-12.3824
5,000	-12.3826
horv	-12.3831
▁po	-12.3842
▁Inca	-12.3843
▁camper	-12.3844
▁dow	-12.3844
▁Jani	-12.3845
mte	-12.3845
ebb	-12.3846
▁LA	-12.3854
▁5,000	-12.3862
▁dumb	-12.3865
zze	-12.3867
anger	-12.3868
▁800	-12.3871
▁Mud	-12.3872
▁Soli	-12.3874
fish	-12.3878
▁Pun	-12.3887
oh	-12.3888
▁champ	-12.3892
▁Auro	-12.3906
▁beard	-12.3907
Kli	-12.3909
▁Gay	-12.391
▁Var	-12.3913
▁hav	-12.3925
▁Vick	-12.3927
▁Overcom	-12.3939
under	-12.3943
▁stare	-12.3945
▁assimilate	-12.3945
▁cripple	-12.3946
▁authorize	-12.3946
▁tag	-12.3948
titious	-12.3948
▁boarder	-12.3954
pul	-12.3956
▁Corpora	-12.3968
▁ava	-12.3971
▁rec	-12.3995
ombs	-12.3996
▁stabili	-12.4002
ign	-12.4009
gam	-12.401
10	-12.4012
beth	-12.4021
nite	-12.4021
ihua	-12.4022
▁conspir	-12.4024
▁med	-12.403
teau	-12.4033
▁Ster	-12.4035
plie	-12.404
▁Brando	-12.4052
▁provok	-12.4053
▁Kia	-12.4055
▁reproduce	-12.4057
▁Boss	-12.4071
ubba	-12.4072
▁designat	-12.4072
▁31	-12.4075
rasc	-12.4086
alter	-12.409
litz	-12.4094
▁Amor	-12.4101
power	-12.4101
boga	-12.4103
ender	-12.4105
▁confin	-12.4108
lask	-12.4109
▁Too	-12.411
▁Bad	-12.411
aku	-12.4114
▁intern	-12.413
▁underst	-12.4131
▁pol	-12.4134
▁universal	-12.4135
▁user	-12.4136
▁excel	-12.4143
▁Try	-12.4144
▁Harri	-12.4146
▁Sevent	-12.4151
asper	-12.4153
▁wel	-12.4154
▁Doll	-12.4154
▁presid	-12.4155
got	-12.4159
tensi	-12.416
▁Bugg	-12.4163
eird	-12.4176
oti	-12.4195
rashi	-12.4197
▁Feo	-12.42
riel	-12.4207
▁Gradua	-12.4208
secret	-12.421
53	-12.4222
ugar	-12.4222
▁Putn	-12.4223
▁Barto	-12.4224
▁sadde	-12.4226
lmost	-12.4235
▁Huss	-12.4244
▁Drive	-12.4249
▁slot	-12.426
▁Moran	-12.4265
rologue	-12.4265
79	-12.4272
▁Bab	-12.4275
▁gamble	-12.4278
ugu	-12.4291
umber	-12.4306
ragge	-12.4306
ipe	-12.4329
▁Poul	-12.4339
securit	-12.4341
▁assassinat	-12.4343
lea	-12.4345
▁rous	-12.4353
ays	-12.4353
▁shine	-12.4354
▁AA	-12.4355
compensate	-12.4361
inful	-12.4361
dent	-12.4367
65	-12.4368
▁gaze	-12.4374
nage	-12.4374
▁stimul	-12.438
▁subside	-12.4399
▁caller	-12.4404
angel	-12.4407
▁assembl	-12.4411
ilo	-12.4416
▁Tur	-12.4419
▁Bid	-12.442
▁despairing	-12.4422
rano	-12.4425
mena	-12.4429
att	-12.444
tem	-12.4445
▁butter	-12.4457
▁Mene	-12.4469
ycro	-12.4471
▁politically	-12.4474
▁decree	-12.4475
▁coaxe	-12.4475
▁manipulat	-12.4477
xler	-12.4479
▁Castel	-12.4483
dies	-12.449
▁Heat	-12.4494
▁Mort	-12.4494
▁infuriate	-12.4501
bundan	-12.4501
▁distinguishe	-12.4504
▁overt	-12.4505
▁cultivat	-12.4506
▁48	-12.4522
▁cultur	-12.4531
▁rubb	-12.4547
ulli	-12.4549
▁RS	-12.4555
Lo	-12.4555
allian	-12.4557
rth	-12.4562
000	-12.4563
▁Adelin	-12.4566
iden	-12.4568
ride	-12.4573
crucia	-12.4575
▁Lian	-12.4575
rap	-12.4577
tner	-12.4577
serving	-12.4583
▁declin	-12.4584
46	-12.4585
▁Take	-12.4589
▁howl	-12.4592
▁Shaws	-12.4593
▁Gill	-12.4594
▁1.	-12.4597
▁Capt	-12.4604
▁Ami	-12.4619
unner	-12.4626
tuck	-12.4632
▁Seer	-12.4635
▁Monk	-12.4646
▁unrel	-12.4648
▁36	-12.4649
▁Brig	-12.4667
tically	-12.467
ographical	-12.4675
ST	-12.4682
▁hibernat	-12.4703
▁replicate	-12.4714
▁Mega	-12.4714
▁deserv	-12.4715
▁Tamm	-12.4717
▁legitima	-12.4726
▁Gut	-12.4727
▁habitat	-12.4728
▁Musta	-12.4738
suta	-12.4753
▁escalate	-12.4757
▁deprive	-12.4759
▁29	-12.4761
▁sir	-12.4774
▁abdicate	-12.4775
usel	-12.4785
cali	-12.479
▁prais	-12.4799
▁memorabl	-12.4805
print	-12.4829
ckhar	-12.483
▁Calli	-12.4842
parrow	-12.4844
occupie	-12.4853
vile	-12.4859
pression	-12.4862
Int	-12.4869
inker	-12.487
▁Gambi	-12.4872
▁Raine	-12.4879
cot	-12.4883
▁sights	-12.4884
assan	-12.4886
▁psychiatr	-12.4888
friend	-12.489
59	-12.4893
zee	-12.4894
▁Lisb	-12.4895
building	-12.4898
talk	-12.4907
acquaint	-12.4909
sufficient	-12.4919
mouse	-12.4919
wager	-12.492
▁Kun	-12.492
Isle	-12.4921
addict	-12.4922
▁Octav	-12.4923
18	-12.4923
turb	-12.4925
devil	-12.4928
brand	-12.493
impossibl	-12.4931
prior	-12.4931
▁Crown	-12.4931
▁Hack	-12.4933
connect	-12.4933
frame	-12.4934
week	-12.4934
chamber	-12.4934
ument	-12.4935
▁Scholar	-12.4935
reput	-12.4935
equip	-12.4936
decision	-12.4938
Connor	-12.4938
Four	-12.4938
respect	-12.4938
Ex	-12.4939
system	-12.494
home	-12.4941
spread	-12.4941
ultimate	-12.4943
Adam	-12.4943
Jones	-12.4945
56	-12.4945
child	-12.4946
employ	-12.4948
interest	-12.4949
▁besieg	-12.4949
ient	-12.4949
Cap	-12.495
good	-12.495
match	-12.4951
color	-12.4952
arrange	-12.4953
issue	-12.4953
four	-12.4954
safe	-12.4955
effect	-12.4955
attend	-12.4955
hunter	-12.4957
▁Books	-12.4958
pati	-12.4958
▁44	-12.496
▁colonial	-12.4961
floor	-12.4966
pocket	-12.4967
lop	-12.4971
irkin	-12.4972
▁AT	-12.4977
founder	-12.4978
imon	-12.4979
▁preferabl	-12.4991
tight	-12.4991
▁Mic	-12.4996
▁Betha	-12.5
▁char	-12.5
Your	-12.5
irate	-12.5002
check	-12.5005
round	-12.5008
hunt	-12.5014
script	-12.5017
▁incline	-12.5021
produc	-12.5023
mish	-12.5026
▁dim	-12.5029
▁Casi	-12.5032
▁outfit	-12.5036
▁Hammer	-12.5038
free	-12.5041
efeat	-12.5041
▁Spi	-12.5044
uza	-12.5046
Men	-12.5047
800	-12.5051
▁emptie	-12.5058
▁idealis	-12.5063
lik	-12.5064
brook	-12.5065
diction	-12.5066
▁awe	-12.5069
▁shellfi	-12.507
cage	-12.5081
ree	-12.5083
▁irritate	-12.5086
▁Midwest	-12.5087
ilk	-12.5089
▁Fay	-12.5092
▁Flem	-12.5093
loud	-12.5104
health	-12.5114
▁amputate	-12.5116
ara	-12.512
ntz	-12.5123
vation	-12.5132
▁charg	-12.5136
roth	-12.5137
oose	-12.5141
center	-12.5143
▁Days	-12.5148
▁pira	-12.5151
egal	-12.5152
▁Bit	-12.5157
▁ignoran	-12.5161
▁brin	-12.5165
▁Ski	-12.5171
uffi	-12.5172
caus	-12.5176
ocular	-12.5176
education	-12.5178
▁Deni	-12.5181
▁agenc	-12.5183
acit	-12.5186
▁margin	-12.5188
driver	-12.5199
ament	-12.52
stray	-12.5202
igger	-12.5203
▁Christi	-12.5204
rous	-12.5221
▁Sin	-12.5226
crew	-12.5227
▁Sov	-12.5228
elect	-12.5231
▁kn	-12.5231
▁Kil	-12.5236
▁confiscat	-12.5239
▁surre	-12.5239
ound	-12.5249
▁Stran	-12.525
▁Kali	-12.5252
▁spectr	-12.5253
beard	-12.5258
▁Encou	-12.5261
eyer	-12.5262
21	-12.5267
60	-12.5278
bble	-12.528
▁Alb	-12.528
189	-12.5281
▁Defe	-12.5286
▁violat	-12.5288
zo	-12.5291
rigi	-12.5292
▁Ban	-12.5294
oso	-12.5294
▁Bess	-12.5296
▁Kru	-12.5299
▁Lari	-12.53
▁mont	-12.5301
▁Chel	-12.5301
rien	-12.5303
▁tur	-12.5303
▁Liv	-12.5303
▁bore	-12.5306
seat	-12.5309
▁anarch	-12.5312
▁mytho	-12.5314
rand	-12.5316
ER	-12.5317
positor	-12.5321
ishop	-12.5327
hua	-12.5338
▁Tel	-12.5339
▁observa	-12.5342
ivy	-12.5344
▁fertili	-12.5347
▁excavat	-12.5349
fry	-12.5352
▁leve	-12.5352
▁suns	-12.5353
▁recurr	-12.5353
ification	-12.5357
oddard	-12.5361
mule	-12.5362
Mille	-12.5363
aki	-12.5366
▁guil	-12.5372
▁chok	-12.5373
ops	-12.5381
marry	-12.5391
▁179	-12.5393
▁pitche	-12.5393
▁insinuat	-12.5396
▁Amo	-12.5408
repo	-12.541
▁Rec	-12.5411
▁extinguish	-12.5412
argo	-12.5421
▁sti	-12.5422
ttorney	-12.5434
▁Clement	-12.5436
▁Beac	-12.5438
adder	-12.5441
digest	-12.5445
▁appreciat	-12.5447
jur	-12.5458
▁quo	-12.5469
relat	-12.5469
surance	-12.547
fensive	-12.5471
▁devi	-12.5473
▁engrav	-12.5477
arse	-12.5483
▁Sici	-12.5491
▁beac	-12.5492
udic	-12.5495
nick	-12.5501
tories	-12.5501
▁recuperat	-12.5511
tention	-12.5513
assen	-12.5514
▁Observ	-12.5515
▁prophes	-12.5522
▁notable	-12.5525
▁tribut	-12.5526
▁idolize	-12.5526
coherent	-12.5529
epf	-12.5529
animat	-12.553
taker	-12.553
▁Thumb	-12.5534
▁societ	-12.5543
east	-12.5545
dyll	-12.5547
▁brig	-12.5547
▁hipp	-12.5548
▁ensur	-12.5549
rebro	-12.555
▁Bum	-12.555
▁inadequa	-12.5552
▁terribl	-12.5553
agina	-12.5554
▁glob	-12.5554
ulator	-12.5556
▁mixe	-12.5558
▁Pierr	-12.556
▁Clair	-12.5561
▁boar	-12.5564
▁Feli	-12.5566
hre	-12.5568
oda	-12.5576
▁Fabi	-12.5579
▁recei	-12.5582
quart	-12.5583
entleman	-12.5587
▁skeptic	-12.5591
▁contend	-12.5596
araj	-12.5598
coff	-12.5599
▁philander	-12.5599
▁impatien	-12.5599
atisfie	-12.5599
▁constituen	-12.5601
▁Atlanti	-12.5601
▁reluctan	-12.5602
erbia	-12.5603
▁Iraq	-12.5607
agita	-12.5609
▁comb	-12.5609
roniu	-12.561
▁spectac	-12.561
▁infan	-12.5611
enberg	-12.5611
rangi	-12.5612
▁Cuthbert	-12.5614
▁Hind	-12.5614
cepti	-12.5615
▁Greenw	-12.5615
xplorer	-12.5615
favorabl	-12.5615
▁Guil	-12.5615
▁Bradle	-12.5617
avala	-12.5617
▁conservat	-12.5617
▁veterinar	-12.5617
▁misunderst	-12.5618
discriminat	-12.5618
acula	-12.5618
▁Step	-12.5618
▁archaeolog	-12.5618
ratio	-12.5619
schlag	-12.5619
▁authentic	-12.5619
▁doppelg	-12.5619
▁necromanc	-12.5619
▁sporadic	-12.5619
phrodi	-12.5619
▁Abiram	-12.5619
▁Continent	-12.5619
▁Druid	-12.5619
▁McCaffrey	-12.5619
▁Oblivio	-12.5619
▁Orthodox	-12.5619
▁Pevensie	-12.5619
▁Pteranodon	-12.5619
▁Rabina	-12.5619
▁Tahiti	-12.5619
▁Thermusa	-12.5619
▁Tolliver	-12.5619
▁Venezuela	-12.5619
▁Worthington	-12.5619
▁Xotalanc	-12.5619
▁alleviate	-12.5619
▁amplifie	-12.5619
▁bludgeon	-12.5619
▁cipher	-12.5619
▁dauphin	-12.5619
▁defuse	-12.5619
▁delinquent	-12.5619
▁dishonour	-12.5619
▁escapade	-12.5619
▁evaporat	-12.5619
▁exemplar	-12.5619
▁garrison	-12.5619
▁hypochondria	-12.5619
▁impediment	-12.5619
▁incompetenc	-12.5619
▁ingratiate	-12.5619
▁ingredient	-12.5619
▁interlude	-12.5619
▁kilogram	-12.5619
▁leopard	-12.5619
▁modification	-12.5619
▁oblivio	-12.5619
▁perfume	-12.5619
▁prototype	-12.5619
▁reaffirm	-12.5619
▁rectify	-12.5619
▁refrigerat	-12.5619
▁scenario	-12.5619
▁scrutin	-12.5619
▁shoplift	-12.5619
▁shriek	-12.5619
▁squander	-12.5619
▁synchroniz	-12.5619
▁turbulen	-12.5619
hipmunk	-12.5619
▁Kreutz	-12.5619
▁Newcastle	-12.5619
▁condescending	-12.5619
▁conspicuous	-12.5619
▁disseminat	-12.5619
▁exacerbat	-12.5619
▁fabulous	-12.5619
▁fortunate	-12.5619
▁merchandis	-12.5619
▁meticulous	-12.5619
▁segregat	-12.5619
▁surgical	-12.5619
▁Caprona	-12.5619
▁Corinth	-12.5619
▁Tusken	-12.5619
▁audiotape	-12.5619
▁contaminat	-12.5619
▁convalesce	-12.5619
▁disloyal	-12.5619
▁tumultuous	-12.5619
▁Accept	-12.5619
▁Moxey	-12.5619
▁relocate	-12.5619
▁unbeknown	-12.5619
▁Sylph	-12.5619
▁dismember	-12.5619
▁hitherto	-12.5619
▁superstitious	-12.5619
▁Askerton	-12.5619
▁Hathaway	-12.5619
▁album	-12.5619
▁cocoon	-12.5619
▁inaugura	-12.5619
▁incantation	-12.5619
▁mortgage	-12.5619
▁unveil	-12.5619
▁urinate	-12.5619
thirtie	-12.5619
▁Pharaoh	-12.5619
▁postulat	-12.5619
▁unwelcom	-12.5619
▁Abandon	-12.5619
▁Mohican	-12.5619
▁implement	-12.5619
▁Bhaer	-12.5619
▁Jorge	-12.5619
▁Viscount	-12.5619
▁Wahl	-12.5619
▁fetish	-12.5619
▁percentage	-12.5619
▁quantit	-12.5619
▁Affair	-12.5619
▁cryogenic	-12.5619
▁tumor	-12.5619
▁emphasize	-12.5619
ogre	-12.5619
▁Quadling	-12.5619
▁glean	-12.5619
▁parishioner	-12.5619
▁penitent	-12.5619
▁abstain	-12.5619
▁Entertain	-12.5619
▁dentist	-12.5619
▁bookseller	-12.5619
▁contrit	-12.5619
▁ingenious	-12.5619
▁Evangelical	-12.5619
▁expire	-12.5619
▁Nikola	-12.5619
▁Antoine	-12.5619
▁Division	-12.5619
▁efficient	-12.5619
▁scoop	-12.5619
▁haphazard	-12.5619
▁airstrike	-12.5619
▁narcotic	-12.5619
▁drastic	-12.5619
▁christen	-12.5619
▁Panama	-12.5619
▁implacabl	-12.5619
▁impec	-12.5619
▁predominant	-12.5619
▁euthanize	-12.5619
bunga	-12.5619
▁overheat	-12.5619
▁emissar	-12.5619
▁tatter	-12.5619
▁gazelle	-12.5619
▁Afrika	-12.5619
▁malicious	-12.5619
cracker	-12.562
▁contemptuous	-12.562
hanghai	-12.562
▁tentative	-12.562
▁vibra	-12.562
anguish	-12.562
▁commentator	-12.562
▁parasail	-12.562
▁resurface	-12.562
▁civiliz	-12.562
▁regenerat	-12.562
▁Transylvania	-12.562
▁1870	-12.562
▁firearm	-12.562
▁Garrett	-12.562
▁charade	-12.562
▁precise	-12.562
▁nymph	-12.562
▁persuasi	-12.562
▁revoke	-12.562
▁Phoenicia	-12.562
▁Familiar	-12.562
▁Hamburg	-12.562
▁analog	-12.562
▁spook	-12.562
▁dilut	-12.562
▁draught	-12.562
▁disband	-12.562
▁dispel	-12.562
▁Hercule	-12.562
otchki	-12.562
▁grind	-12.562
▁pragmatic	-12.562
▁quinte	-12.562
▁perjur	-12.562
▁unforesee	-12.562
tterbo	-12.562
▁stomp	-12.562
▁pomp	-12.562
▁utilize	-12.562
▁Nottingham	-12.562
▁clause	-12.562
▁invariabl	-12.562
▁Stafford	-12.562
▁unbearabl	-12.562
▁Bosnia	-12.562
▁rambling	-12.562
▁lava	-12.562
▁Shangri	-12.562
▁1840	-12.562
▁1830	-12.562
▁discern	-12.562
▁forlorn	-12.562
▁derail	-12.562
▁Anglican	-12.5621
▁Gandolf	-12.5621
▁transgression	-12.5621
▁Melvy	-12.5621
croco	-12.5621
▁decomposi	-12.5621
▁apologise	-12.5621
▁assort	-12.5621
▁hamper	-12.5621
▁apprehensive	-12.5621
▁fortnight	-12.5621
▁pique	-12.5621
igilant	-12.5621
▁picturesque	-12.5621
▁reboot	-12.5621
woop	-12.5621
▁Program	-12.5621
▁Laugh	-12.5621
▁manipulative	-12.5621
▁humiliating	-12.5621
uperficial	-12.5621
▁promiscuous	-12.5621
cendi	-12.5621
▁chew	-12.5621
scope	-12.5621
▁partisan	-12.5621
▁cleric	-12.5621
▁McDo	-12.5622
▁differ	-12.5622
▁NAS	-12.5622
▁exposition	-12.5622
▁Panick	-12.5622
▁psychotic	-12.5622
▁Cesar	-12.5622
▁Tube	-12.5622
▁pow	-12.5622
▁unethical	-12.5622
▁vegeta	-12.5622
▁fantasize	-12.5622
▁humour	-12.5622
▁coy	-12.5622
▁Dulc	-12.5622
▁mutter	-12.5622
▁1920	-12.5622
▁merit	-12.5623
▁micro	-12.5623
▁Blind	-12.5623
▁triangle	-12.5623
ongressm	-12.5623
▁snoop	-12.5623
oxica	-12.5623
▁poach	-12.5623
▁disabilit	-12.5623
tute	-12.5623
▁72	-12.5623
▁lounge	-12.5624
▁Aege	-12.5624
▁dynamic	-12.5624
▁lamb	-12.5624
▁deco	-12.5624
▁Cuthbertson	-12.5625
▁del	-12.5625
▁Kendal	-12.5625
▁pension	-12.5625
consistenc	-12.5625
▁unearth	-12.5625
igma	-12.5625
pucci	-12.5625
▁204	-12.5625
▁Rodger	-12.5625
▁Fifteen	-12.5625
▁aimless	-12.5625
bub	-12.5625
▁circuit	-12.5626
▁keepsake	-12.5626
▁manufacturer	-12.5626
▁Jolie	-12.5626
omrade	-12.5626
▁Shop	-12.5626
▁bonus	-12.5626
▁Thorpe	-12.5626
▁unreliab	-12.5626
▁falter	-12.5627
▁Raja	-12.5627
efer	-12.5627
juven	-12.5627
▁Volt	-12.5627
▁violation	-12.5627
▁feroci	-12.5627
▁Opar	-12.5628
▁realisation	-12.5628
▁muscle	-12.5628
▁Malatest	-12.5628
▁Influence	-12.5628
▁unload	-12.5629
▁exterminat	-12.5629
▁unsuit	-12.5629
▁attest	-12.5629
▁scandalous	-12.563
▁Royalist	-12.563
▁stowaway	-12.563
pear	-12.563
indeer	-12.563
▁compact	-12.563
▁copper	-12.563
▁mannerism	-12.563
▁slacker	-12.563
▁Sword	-12.5631
▁Turan	-12.5632
▁Reese	-12.5632
▁impoten	-12.5632
ottage	-12.5633
▁armour	-12.5633
hetto	-12.5633
▁Cumber	-12.5633
▁Urga	-12.5633
▁Somers	-12.5634
▁Calig	-12.5634
▁Sodom	-12.5634
cco	-12.5634
▁Slaughter	-12.5634
84	-12.5634
▁flop	-12.5635
▁sculpture	-12.5635
▁Vander	-12.5635
▁magnetic	-12.5635
ssential	-12.5636
karoo	-12.5636
▁blacksmith	-12.5636
▁Stallion	-12.5636
▁consultant	-12.5636
▁accomplishment	-12.5636
▁cuff	-12.5636
▁subtitle	-12.5637
▁Somm	-12.5637
▁regretful	-12.5637
▁predator	-12.5637
▁Speck	-12.5637
▁Camel	-12.5637
▁mugg	-12.5638
▁Usher	-12.5638
▁infinite	-12.5638
▁astronomer	-12.5638
▁Cycl	-12.5638
▁belated	-12.5639
▁philanderer	-12.5639
▁graphic	-12.5639
▁errand	-12.5641
▁obstruct	-12.5641
▁Dalma	-12.5641
▁feudal	-12.5643
▁pink	-12.5644
▁moderate	-12.5644
▁daze	-12.5644
▁discourse	-12.5644
▁dominion	-12.5645
uppen	-12.5645
▁washe	-12.5645
Corp	-12.5646
glider	-12.5647
▁Cult	-12.5648
▁abnormal	-12.5648
▁contender	-12.5648
amy	-12.5648
▁Atkins	-12.565
▁chant	-12.565
▁Clover	-12.565
▁appea	-12.5651
▁undermine	-12.5652
▁carpet	-12.5652
▁LV	-12.5653
▁worthless	-12.5653
▁Koba	-12.5654
ybrid	-12.5654
▁torche	-12.5654
▁salute	-12.5655
ader	-12.5656
▁Rh	-12.5656
252	-12.5656
▁Current	-12.5656
▁partake	-12.5656
▁Langley	-12.5656
▁astrolog	-12.5657
▁menace	-12.5657
▁muff	-12.5657
▁potter	-12.5657
▁Smart	-12.5657
▁Lug	-12.5658
▁Mongo	-12.5658
▁hick	-12.5658
▁Freek	-12.5659
▁cere	-12.5659
▁lighthouse	-12.5659
▁trafficker	-12.566
▁butterfly	-12.566
▁coral	-12.566
tifie	-12.5661
▁Fein	-12.5661
▁Hux	-12.5661
▁Enter	-12.5661
▁rattle	-12.5662
▁douse	-12.5662
▁Rap	-12.5662
▁conqueror	-12.5662
▁GP	-12.5663
▁minority	-12.5663
▁Moral	-12.5664
▁technological	-12.5664
▁Sicilian	-12.5664
▁Hami	-12.5665
▁Trix	-12.5665
▁Bova	-12.5666
▁sympathize	-12.5666
▁Dip	-12.5666
▁emerald	-12.5667
▁comprise	-12.5668
▁Tech	-12.5668
▁swerve	-12.5669
▁badger	-12.5669
▁scarce	-12.5669
▁Person	-12.5669
▁faux	-12.5669
▁bench	-12.5669
▁disar	-12.5669
▁Czar	-12.567
▁48-	-12.567
▁fender	-12.5671
ody	-12.5671
▁Damn	-12.5672
▁Toward	-12.5672
▁Disgu	-12.5673
rque	-12.5675
▁Grid	-12.5675
▁Grandet	-12.5675
odka	-12.5676
▁Hana	-12.5678
last	-12.5678
▁Twin	-12.5679
▁soci	-12.568
▁Duck	-12.568
▁sneer	-12.568
▁Munch	-12.5681
▁Chick	-12.5681
▁bab	-12.5681
▁plotline	-12.5681
▁Mink	-12.5681
ealous	-12.5682
hooting	-12.5682
▁Charge	-12.5682
▁Dutchman	-12.5683
▁Avon	-12.5684
▁leather	-12.5684
▁Piet	-12.5684
dler	-12.5686
▁Authorit	-12.5686
▁robin	-12.5687
▁fasten	-12.5688
▁outdoor	-12.5689
relli	-12.5689
erarch	-12.5689
buckle	-12.5689
▁hopeful	-12.569
rganization	-12.5691
▁bog	-12.5695
rigue	-12.5695
▁Board	-12.5695
hara	-12.5697
▁Helica	-12.5698
▁downward	-12.57
▁rite	-12.57
tente	-12.5701
▁ponder	-12.5701
▁Rouss	-12.5702
femin	-12.5703
lium	-12.5703
▁cement	-12.5703
▁Cro	-12.5706
▁parad	-12.5706
▁protrud	-12.5708
▁Fixe	-12.5709
▁assess	-12.5709
▁bang	-12.571
▁Hader	-12.5711
▁Whisk	-12.5713
▁Palm	-12.5715
▁suspense	-12.5715
▁Sock	-12.5716
pong	-12.5716
▁relapse	-12.5719
llust	-12.5719
▁sincere	-12.572
▁una	-12.5721
▁apathetic	-12.5722
▁harvester	-12.5722
▁consig	-12.5723
▁womanizing	-12.5724
▁Roeb	-12.5726
▁entertainer	-12.5729
▁liquidate	-12.5731
▁trustworth	-12.5731
ssuri	-12.5733
oine	-12.5735
▁recede	-12.5736
▁relive	-12.5737
▁Char	-12.5737
PR	-12.5737
▁update	-12.5739
nuck	-12.574
▁sensational	-12.5742
▁formulate	-12.5742
▁Mead	-12.5743
▁Swa	-12.5745
▁composer	-12.5746
▁proportion	-12.5748
▁ethnic	-12.5748
▁apocalyp	-12.5748
▁reptil	-12.5748
▁blink	-12.5748
▁Olin	-12.575
▁corn	-12.5751
▁withhold	-12.5754
eutic	-12.5754
▁Omni	-12.5754
Lobo	-12.5755
idor	-12.5755
▁anachronis	-12.5755
▁dire	-12.5759
▁purse	-12.576
▁Kip	-12.576
▁eeri	-12.5763
▁Crime	-12.5763
loos	-12.5765
▁13-	-12.5765
▁promoter	-12.5765
▁Offer	-12.5766
▁cower	-12.5766
▁Fell	-12.577
▁prow	-12.5771
▁chu	-12.5772
mino	-12.5775
▁Darn	-12.5776
▁consistent	-12.5777
▁Walk	-12.5778
voy	-12.5779
▁Compe	-12.5781
▁uneas	-12.5782
versa	-12.5783
▁laz	-12.5783
nab	-12.5784
▁Ogi	-12.5784
▁Mert	-12.5787
▁repetiti	-12.5788
▁heartless	-12.5789
eaves	-12.5789
▁perch	-12.5791
enne	-12.5793
▁Milan	-12.5794
▁cycle	-12.5795
▁rector	-12.5795
▁Lina	-12.5796
▁Argent	-12.5798
▁tick	-12.5799
▁Gott	-12.5799
▁fol	-12.5801
▁metall	-12.5802
▁Highland	-12.5803
▁Arle	-12.5803
▁revis	-12.5804
oto	-12.5806
▁synd	-12.5809
▁takeover	-12.5811
▁Fanni	-12.5812
phil	-12.5812
▁Happ	-12.5813
▁Rover	-12.5814
▁Depress	-12.5814
dwell	-12.5816
▁babysitt	-12.5816
buff	-12.5817
▁dodge	-12.5818
oces	-12.5821
▁Rica	-12.5823
▁Bread	-12.5824
▁Serv	-12.5825
▁paraly	-12.5825
upport	-12.5828
ligent	-12.583
▁molte	-12.5832
▁McA	-12.5835
▁attenti	-12.5836
▁fling	-12.5836
▁Ving	-12.5836
▁Gamb	-12.5838
▁hobb	-12.5839
▁insinuate	-12.5847
ading	-12.5847
▁ingot	-12.5847
seven	-12.5849
▁Bil	-12.585
▁overthr	-12.585
figure	-12.5852
orts	-12.5856
▁Gat	-12.5856
tanbu	-12.5856
▁hoc	-12.5859
cked	-12.5861
▁carous	-12.5863
▁penetrat	-12.5865
OK	-12.5866
▁Dav	-12.5874
▁depose	-12.5874
▁seaman	-12.5875
ndone	-12.588
▁saga	-12.5881
▁Dain	-12.5882
sign	-12.5882
align	-12.5884
Mott	-12.5886
▁Self	-12.5887
▁Fairl	-12.5888
utono	-12.5896
▁Flame	-12.5898
▁observer	-12.5899
▁pole	-12.59
▁4-	-12.5901
▁tit	-12.5903
▁athletic	-12.5904
tractor	-12.5904
pt	-12.5907
angelic	-12.5908
▁Kar	-12.5913
▁darken	-12.5916
▁Grad	-12.5916
▁loathe	-12.5917
▁unco	-12.5917
▁thumbs	-12.5921
▁pant	-12.5921
▁Rebels	-12.5923
▁traffick	-12.5926
▁Buch	-12.5934
▁hurried	-12.5935
▁Ai	-12.5935
Yaki	-12.5943
simmon	-12.5944
▁ret	-12.5949
▁shave	-12.5949
beck	-12.5951
▁samurai	-12.5952
▁jo	-12.5953
▁70	-12.5959
ewl	-12.5963
▁hypno	-12.5965
▁tame	-12.5968
▁dependenc	-12.5974
uscan	-12.5975
▁splatter	-12.5978
▁chronological	-12.598
▁magn	-12.5986
orous	-12.5988
▁Detect	-12.5989
▁Dunne	-12.5991
▁Ranch	-12.5995
▁Reman	-12.5998
▁Mell	-12.5998
▁emigrate	-12.6004
▁quicken	-12.6006
netic	-12.6019
▁Soph	-12.6021
▁repai	-12.6023
MP	-12.6024
ital	-12.6036
lips	-12.6038
▁liberate	-12.6042
sick	-12.6044
ogg	-12.6049
▁Whar	-12.6049
▁Blun	-12.605
aseball	-12.6054
▁bulldo	-12.6055
▁Briss	-12.6057
▁hay	-12.607
▁Wait	-12.6078
▁dip	-12.6078
tible	-12.6078
▁Hunting	-12.608
▁DE	-12.6082
▁Task	-12.6083
usine	-12.6091
▁Vida	-12.6091
▁Oth	-12.6095
eger	-12.6097
▁inhuman	-12.6102
▁Vermi	-12.6112
laus	-12.6112
ivor	-12.6113
▁Q	-12.6115
GO	-12.6125
▁Comb	-12.6125
▁Lot	-12.6127
▁intrigu	-12.6129
▁scaveng	-12.6131
▁prophets	-12.6134
▁Juliann	-12.6136
▁rein	-12.6142
▁Join	-12.6142
▁revers	-12.6144
asis	-12.6148
▁listener	-12.6149
▁trib	-12.6149
iker	-12.6152
vasive	-12.6156
tham	-12.6157
ception	-12.6163
vict	-12.6167
▁northe	-12.6171
▁Stil	-12.618
91	-12.6181
▁heavi	-12.6182
▁AB	-12.6185
▁slaying	-12.6187
▁Cant	-12.6201
▁Poor	-12.6208
▁ceremonial	-12.621
▁mytholog	-12.6221
MO	-12.6225
▁Holli	-12.6228
▁Mind	-12.6229
▁Mahome	-12.6233
▁sedate	-12.6233
▁Give	-12.6235
nell	-12.6236
▁idoliz	-12.6238
▁thermo	-12.6242
▁sour	-12.6242
ches	-12.6243
▁Rumo	-12.6254
▁cul	-12.6275
lingon	-12.6284
▁bounce	-12.629
▁onward	-12.6294
asino	-12.6298
tamper	-12.6302
▁web	-12.6308
▁Hammers	-12.631
▁lean	-12.6311
▁undertak	-12.6319
ppo	-12.6321
▁90	-12.6334
▁metha	-12.6337
lit	-12.6338
utant	-12.6341
lab	-12.6346
▁architectur	-12.6348
dweller	-12.6357
▁Dumb	-12.636
▁Bugi	-12.6364
ortense	-12.6364
stock	-12.6369
▁simulati	-12.6375
tage	-12.6379
▁Class	-12.6382
42	-12.6385
▁Manage	-12.6396
gé	-12.6397
▁Word	-12.6399
▁Haye	-12.6401
▁rider	-12.6404
fit	-12.6407
▁dictate	-12.6413
▁ration	-12.6413
bois	-12.6417
▁rekindl	-12.6419
fin	-12.642
BM	-12.6425
rim	-12.6432
sumption	-12.6435
iterate	-12.6437
perm	-12.6442
▁repossess	-12.6452
▁academ	-12.646
loom	-12.6463
▁refu	-12.6469
▁Machin	-12.6469
▁Lestra	-12.6472
▁Whe	-12.6474
▁Phillips	-12.6477
▁Bello	-12.6478
▁digesti	-12.6495
▁Trans	-12.6498
pier	-12.6499
▁sonic	-12.6501
▁fabricat	-12.6502
▁goth	-12.6511
isie	-12.6512
▁memorab	-12.6525
fuel	-12.6527
▁Friends	-12.6527
rdan	-12.6534
▁Sult	-12.6545
▁Change	-12.6558
▁Nord	-12.656
▁Live	-12.656
▁escalat	-12.6562
imes	-12.6564
▁Guan	-12.6565
▁vile	-12.657
▁unif	-12.6571
uster	-12.6578
▁fanci	-12.6583
▁pandem	-12.6584
▁washer	-12.6589
apron	-12.6589
▁taxe	-12.6596
lio	-12.6599
▁liberti	-12.66
▁envi	-12.6601
▁popula	-12.6611
▁hallucinate	-12.6617
▁besiege	-12.6618
▁mari	-12.6621
▁deter	-12.6622
gs	-12.663
▁Mia	-12.6635
sses	-12.6635
▁Hew	-12.6639
▁bru	-12.6645
▁signall	-12.6646
▁liner	-12.665
▁werewol	-12.6653
▁Shal	-12.6654
front	-12.666
eces	-12.6669
scha	-12.6671
uke	-12.668
[...]
